<unk>	0
<s>	0
</s>	0
▁de	-3.19267
.	-3.25849
▁	-3.36945
▁van	-3.54858
,	-3.67189
▁en	-3.94232
▁in	-3.94408
▁het	-4.08652
1	-4.08992
▁een	-4.12741
0	-4.24958
9	-4.59306
e	-4.63252
s	-4.66819
2	-4.68094
-	-4.72686
▁zijn	-4.91249
▁te	-4.96911
▁op	-4.97242
▁De	-5.07231
▁met	-5.08718
▁werd	-5.10087
▁is	-5.10688
▁voor	-5.12348
▁dat	-5.24875
▁was	-5.29174
▁die	-5.29756
▁door	-5.31311
▁(	-5.31582
8	-5.33444
▁hij	-5.34373
▁als	-5.37444
5	-5.41387
▁In	-5.43104
3	-5.46944
▁aan	-5.47689
7	-5.52053
6	-5.52288
▁om	-5.54949
4	-5.56953
en	-5.72022
▁Het	-5.79392
)	-5.82015
'	-5.8246
▁naar	-5.86132
▁"	-5.87252
▁tot	-5.91395
▁uit	-5.95594
▁of	-6.03056
▁ook	-6.07198
▁ze	-6.09934
▁niet	-6.11783
▁bij	-6.19885
:	-6.22031
▁Hij	-6.24998
▁over	-6.27434
▁worden	-6.27519
▁haar	-6.31859
▁maar	-6.32902
▁wordt	-6.38185
"	-6.41253
▁eerste	-6.42924
▁werden	-6.47038
▁deze	-6.48956
n	-6.51721
▁er	-6.52076
▁heeft	-6.56433
▁jaar	-6.57906
▁hun	-6.60006
▁zich	-6.60526
t	-6.63264
▁had	-6.64315
▁waren	-6.67203
de	-6.70699
▁andere	-6.73814
).	-6.74341
▁dan	-6.7529
▁twee	-6.78994
▁na	-6.80613
▁onder	-6.84431
▁meer	-6.85684
▁Op	-6.88914
▁Een	-6.9223
er	-6.96426
▁zou	-6.97241
a	-6.97641
▁dit	-7.01221
▁waar	-7.01519
▁tussen	-7.02102
▁The	-7.02428
▁hem	-7.05154
▁Na	-7.07189
▁nog	-7.07246
▁hebben	-7.07678
▁Ze	-7.11414
▁jaren	-7.17068
▁geen	-7.21441
▁zo	-7.22851
),	-7.23868
▁tegen	-7.2422
▁nieuwe	-7.24989
▁deel	-7.28008
▁later	-7.29565
▁kan	-7.30045
▁al	-7.30524
▁naam	-7.31558
▁zoals	-7.31741
d	-7.31931
o	-7.32206
dat	-7.32413
▁zij	-7.33535
▁Van	-7.33782
▁tijdens	-7.34312
▁'	-7.34505
ing	-7.38289
▁toen	-7.38754
▁A	-7.3918
▁bekend	-7.39225
;	-7.40349
▁Deze	-7.40595
▁kunnen	-7.40826
▁werk	-7.40974
▁alle	-7.41618
▁the	-7.42412
▁Dit	-7.4243
▁veel	-7.428
▁gebruikt	-7.42808
▁Zijn	-7.44275
".	-7.4586
▁drie	-7.46068
▁tijd	-7.46438
▁verschillende	-7.47596
▁terug	-7.48442
▁aantal	-7.506
▁wat	-7.5084
▁grote	-7.53385
▁Er	-7.55899
▁samen	-7.56517
▁plaats	-7.5744
y	-7.57922
▁echter	-7.59567
i	-7.59915
▁begon	-7.61575
▁stad	-7.62881
▁staat	-7.63978
le	-7.64199
▁eeuw	-7.67571
▁omdat	-7.6776
af	-7.68597
▁leven	-7.69999
r	-7.70299
al	-7.71211
/	-7.72051
▁ge	-7.73824
▁mensen	-7.73906
▁kwam	-7.74987
▁tweede	-7.75775
▁Verenigd	-7.76212
▁eigen	-7.7795
▁and	-7.78622
▁kreeg	-7.8015
in	-7.81039
wel	-7.81849
▁laatste	-7.81981
’	-7.82272
▁ging	-7.82528
▁hadden	-7.85783
▁O	-7.86835
▁af	-7.87345
▁film	-7.88857
▁maakte	-7.89444
▁S	-7.89823
▁wereld	-7.90541
."	-7.90731
%	-7.91881
▁enkele	-7.92793
▁Amerikaanse	-7.92939
rwijl	-7.93672
▁land	-7.94865
▁I	-7.95999
▁waarin	-7.96174
▁schreef	-7.96433
▁mei	-7.96823
▁werken	-7.96883
▁boek	-7.9759
▁één	-7.97659
▁genoemd	-7.98111
▁maken	-7.99062
▁nam	-7.99581
▁gebruik	-7.99668
▁kon	-7.99823
▁alleen	-8.00194
▁Als	-8.00451
▁groep	-8.00542
▁vaak	-8.00666
▁grootste	-8.00933
▁vier	-8.01008
us	-8.01154
▁New	-8.02115
▁wel	-8.024
▁nu	-8.02573
▁B	-8.02647
heid	-8.03088
▁toe	-8.03586
▁album	-8.03795
▁september	-8.03908
▁dood	-8.04579
▁maart	-8.05028
▁opgericht	-8.05252
▁ten	-8.05288
▁gebied	-8.05472
▁juni	-8.06411
▁oktober	-8.06668
▁november	-8.06806
▁C	-8.06896
▁zelf	-8.07374
▁januari	-8.08056
▁band	-8.08162
▁vader	-8.08288
▁Tijden	-8.09313
▁Staten	-8.09315
▁periode	-8.09616
▁leger	-8.09633
▁Europese	-8.09733
▁eerst	-8.09829
▁meest	-8.11006
▁binnen	-8.11038
▁ongeveer	-8.11158
▁weer	-8.11625
▁werkte	-8.12028
▁april	-8.12205
▁enige	-8.12765
on	-8.13218
▁juli	-8.14133
▁december	-8.14521
▁steeds	-8.15166
▁onderzoek	-8.1655
▁Ook	-8.17014
m	-8.17328
▁ik	-8.17396
A	-8.17524
▁dag	-8.18109
te	-8.18199
▁gaf	-8.18509
▁Franse	-8.18648
▁T	-8.18676
▁familie	-8.18914
",	-8.19104
▁rol	-8.19363
▁augustus	-8.19973
▁lid	-8.21036
re	-8.21125
▁zouden	-8.21278
▁hen	-8.21372
▁begin	-8.21994
▁vrouw	-8.22378
▁vooral	-8.22845
l	-8.2323
▁februari	-8.23475
▁D	-8.23588
▁vele	-8.23625
▁groot	-8.24137
▁waaronder	-8.24182
▁muziek	-8.24577
▁man	-8.24923
se	-8.24997
▁rond	-8.25087
▁waarbij	-8.25309
▁gaan	-8.25421
▁gemaakt	-8.25811
▁sinds	-8.25858
▁belangrijke	-8.26146
▁speelde	-8.26174
▁Toen	-8.26886
▁slechts	-8.26958
▁zal	-8.28225
▁mogelijk	-8.28515
▁Europa	-8.28654
▁regering	-8.28752
▁belangrijkste	-8.28794
▁zonder	-8.29102
S	-8.29369
▁zoon	-8.29478
▁Volgen	-8.29762
▁bleef	-8.30057
▁Nederlandse	-8.30109
▁gebouwd	-8.30223
▁Duitse	-8.30359
▁volgende	-8.30455
man	-8.30966
▁bedrijf	-8.31632
▁zien	-8.32264
▁geschreven	-8.32539
▁politieke	-8.3277
▁V	-8.33204
▁P	-8.3367
▁Om	-8.33928
▁G	-8.34625
▁meeste	-8.3468
el	-8.35207
▁vijf	-8.35245
▁miljoen	-8.35324
▁Nederland	-8.35373
▁oorlog	-8.35413
▁versie	-8.35419
▁M	-8.35774
ers	-8.36231
▁per	-8.36456
▁Zij	-8.36483
▁bracht	-8.36665
▁landen	-8.36881
▁Britse	-8.37177
▁kinderen	-8.37195
▁E	-8.37755
▁“	-8.37959
▁daar	-8.3811
wege	-8.38408
▁Al	-8.3862
▁komen	-8.38867
▁leden	-8.38884
▁elkaar	-8.3911
▁verder	-8.39782
ische	-8.40531
▁moment	-8.40759
▁einde	-8.40786
▁koning	-8.40912
▁derde	-8.40933
f	-8.41149
▁opnieuw	-8.41294
u	-8.41342
▁Hoewel	-8.41392
▁York	-8.41619
▁won	-8.41772
▁uiteindelijk	-8.42153
▁goed	-8.42527
▁vrouwen	-8.42744
ve	-8.42752
▁keer	-8.43358
▁ontwikkeling	-8.43411
▁on	-8.43443
▁internationale	-8.43598
▁via	-8.4386
▁mee	-8.43971
▁waarvan	-8.4468
▁Voor	-8.44832
es	-8.45389
▁moet	-8.45415
▁huis	-8.45603
▁–	-8.45624
ste	-8.46042
▁kleine	-8.46078
▁men	-8.46391
▁elk	-8.46408
▁zeer	-8.46446
▁dezelfde	-8.46658
▁basis	-8.46789
▁John	-8.46819
▁&	-8.47034
k	-8.47121
▁a	-8.47182
ed	-8.47229
▁Met	-8.47559
▁geschiedenis	-8.47675
▁nooit	-8.47914
▁Frankrijk	-8.48046
▁gebaseerd	-8.48089
▁dagen	-8.49187
▁zei	-8.49405
▁snel	-8.4996
▁ter	-8.5011
C	-8.50931
▁weg	-8.51287
▁komt	-8.51352
▁K	-8.51842
▁gezien	-8.51917
▁oude	-8.52192
h	-8.524
▁productie	-8.52572
▁L	-8.52945
▁moest	-8.52954
c	-8.52989
▁H	-8.53051
▁leidde	-8.5377
▁doen	-8.53876
▁nemen	-8.54077
▁hoofd	-8.54181
▁uitgebracht	-8.54463
▁Zo	-8.54509
▁gepubliceerd	-8.55093
▁serie	-8.55317
▁moeten	-8.55362
▁ver	-8.55445
▁II	-8.55972
▁beide	-8.5636
▁geven	-8.56755
▁for	-8.56789
▁vond	-8.57181
▁vorm	-8.57444
▁geweest	-8.57537
▁titel	-8.58621
an	-8.58797
▁La	-8.58874
▁Sinds	-8.59477
▁militaire	-8.5958
▁gaat	-8.59947
▁waarschijnlijk	-8.59966
▁F	-8.60848
▁nummer	-8.61242
▁nationale	-8.61386
▁maanden	-8.62089
▁hele	-8.62422
▁daarna	-8.6263
▁zelfs	-8.62668
▁bijna	-8.62761
den	-8.62787
▁president	-8.6292
▁geboren	-8.63003
▁genaamd	-8.63026
▁succes	-8.63078
▁v	-8.63533
▁nieuw	-8.63716
▁hoe	-8.63763
▁Zuid	-8.6391
▁moeder	-8.64787
▁Bij	-8.64802
▁stond	-8.65054
▁we	-8.65366
▁eind	-8.65383
▁bestaat	-8.65539
B	-8.66144
z	-8.66823
▁programma	-8.67306
na	-8.67582
b	-8.67625
▁wie	-8.67724
▁school	-8.67831
▁Duitsland	-8.68484
▁lokale	-8.6868
▁beschouwd	-8.69062
▁waardoor	-8.69091
verantwoordelijk	-8.69367
▁bestaan	-8.69497
▁Noord	-8.69561
▁hier	-8.6958
▁to	-8.69996
▁vervolgens	-8.70111
▁vrij	-8.70361
ten	-8.70501
▁Haar	-8.70555
▁minder	-8.70665
▁buiten	-8.70786
ge	-8.70824
▁regio	-8.70943
ar	-8.71824
▁hoewel	-8.71891
▁project	-8.72205
▁R	-8.723
▁Later	-8.72752
▁Wereldoorlog	-8.73477
▁Parijs	-8.73794
D	-8.74109
▁doel	-8.74328
▁vormen	-8.74536
▁laten	-8.74736
▁bevolking	-8.74746
▁onderdeel	-8.74795
▁verscheen	-8.74838
▁water	-8.7505
▁manier	-8.75133
▁je	-8.75403
R	-8.75424
▁eerder	-8.75437
▁Door	-8.75783
jarige	-8.75831
▁troepen	-8.75949
▁publiceerde	-8.76069
▁keerde	-8.76087
▁huidige	-8.76538
▁U	-8.76626
▁Russische	-8.76663
▁vinden	-8.76852
”	-8.76854
▁seizoen	-8.76967
▁vervangen	-8.76993
▁wanneer	-8.77029
ie	-8.77038
▁invloed	-8.77098
▁Tweede	-8.77106
▁der	-8.77163
▁leeftijd	-8.77234
ia	-8.77345
▁verkocht	-8.77564
durende	-8.77608
▁wil	-8.77716
▁organisatie	-8.77879
▁sommige	-8.7796
▁konden	-8.77971
is	-8.77982
▁kwamen	-8.78048
▁namen	-8.78118
▁kerk	-8.78186
▁delen	-8.7844
▁gevolg	-8.78785
▁volledig	-8.78964
P	-8.79159
▁dus	-8.79181
▁beste	-8.79755
▁bevat	-8.79785
▁zes	-8.79927
▁God	-8.79957
wetenschappelijk	-8.80563
▁zichzelf	-8.80677
▁lang	-8.80806
▁vanuit	-8.80819
▁boeken	-8.80836
of	-8.80946
▁mannen	-8.81098
▁West	-8.81301
▁opgenomen	-8.81376
▁maakt	-8.81377
▁spel	-8.81468
▁verhaal	-8.81544
▁algemeen	-8.81993
▁deed	-8.82051
um	-8.82202
▁gehouden	-8.82213
")	-8.82577
▁team	-8.8307
▁gevonden	-8.83116
▁dochter	-8.83256
▁vroege	-8.83474
een	-8.84335
▁eiland	-8.84384
▁economische	-8.84421
g	-8.84425
▁N	-8.84873
▁World	-8.85097
▁begonnen	-8.85121
▁net	-8.85464
I	-8.85713
▁Le	-8.85893
▁wilde	-8.86043
▁hetzelfde	-8.86094
!	-8.864
▁macht	-8.86502
▁Universiteit	-8.86518
▁achter	-8.86699
▁J	-8.86715
▁broer	-8.86755
▁stierf	-8.86798
▁dienst	-8.86914
De	-8.87201
▁ander	-8.87316
▁steden	-8.87458
T	-8.87501
?	-8.87582
▁korte	-8.8761
▁sociale	-8.87802
▁schepen	-8.87833
▁Londen	-8.88297
▁International	-8.88358
▁systeem	-8.88739
▁informatie	-8.89246
▁mijn	-8.89283
▁W	-8.89404
▁bijzonder	-8.89418
▁moderne	-8.8971
▁volgens	-8.89711
▁altijd	-8.90536
▁sterk	-8.9071
▁Aan	-8.9077
▁Amsterdam	-8.91102
▁studie	-8.91236
st	-8.91685
▁bijvoorbeeld	-8.91757
▁Rome	-8.92117
▁partij	-8.92198
▁Maar	-8.922
▁spelen	-8.92392
▁jonge	-8.92642
▁gebruiken	-8.92734
▁voordat	-8.9286
▁Japan	-8.93022
▁Te	-8.93551
▁ontwikkeld	-8.93651
p	-8.93825
▁lange	-8.93915
▁nodig	-8.93943
▁ervan	-8.9423
▁Koninkrijk	-8.94291
▁ligt	-8.94603
▁taal	-8.94714
▁minister	-8.94946
▁uur	-8.95014
▁prijs	-8.95549
▁stelde	-8.9563
▁paar	-8.95901
▁betrokken	-8.95928
▁samenwerking	-8.96135
▁houden	-8.96264
▁gebieden	-8.96334
F	-8.96351
▁gebouw	-8.96383
▁krijgen	-8.96526
▁bouw	-8.96623
▁geeft	-8.96816
▁groepen	-8.96935
▁problemen	-8.97532
G	-8.97615
▁("	-8.97892
▁National	-8.98119
K	-8.98299
▁‘	-8.98431
▁Records	-8.98689
M	-8.98738
▁onafhankelijk	-8.98962
uit	-8.98973
▁actief	-8.99123
▁Italiaanse	-8.99314
▁carrière	-8.99325
▁liet	-8.99455
▁auto	-8.99674
▁Engeland	-8.99868
▁leiding	-8.9995
▁officiële	-9.00121
▁meerdere	-9.00424
▁welke	-9.00606
▁geproduceerd	-9.00635
▁d	-9.00878
ta	-9.00949
▁meestal	-9.01088
▁diverse	-9.01129
▁kunst	-9.01197
et	-9.01354
▁verhuisde	-9.01361
▁geld	-9.01412
▁hulp	-9.01643
▁voorzitter	-9.01779
op	-9.01872
▁single	-9.01921
E	-9.01981
▁kort	-9.02145
▁staan	-9.022
▁Ik	-9.02366
▁brengen	-9.03305
je	-9.0337
▁enkel	-9.03493
▁blijven	-9.03494
land	-9.03619
▁Sovjet	-9.04055
▁relatie	-9.04491
▁be	-9.04589
▁heel	-9.04697
▁David	-9.0506
▁voornamelijk	-9.05126
▁politiek	-9.05156
▁bepaalde	-9.05237
▁volgde	-9.05691
▁weinig	-9.05834
▁uitgevoerd	-9.06059
Chr	-9.06205
▁Romeins	-9.06248
v	-9.06496
▁vroeg	-9.06584
–	-9.07039
▁zodat	-9.07512
▁ontving	-9.07615
ne	-9.07712
▁belangrijk	-9.07751
▁België	-9.08055
▁goede	-9.08201
▁gegeven	-9.0834
la	-9.08419
▁Italië	-9.08433
zelfde	-9.08605
▁positie	-9.08778
▁overheid	-9.08888
▁soms	-9.08892
▁bekende	-9.09002
▁anderen	-9.0906
▁term	-9.0914
▁besloot	-9.09219
aan	-9.09223
ra	-9.09323
het	-9.09777
▁benoemd	-9.09788
O	-9.09957
or	-9.09977
▁duidelijk	-9.10164
▁Tussen	-9.103
▁publiek	-9.10583
▁oorspronkelijk	-9.10631
▁Me	-9.10814
elke	-9.10838
▁strijd	-9.11026
▁zeven	-9.11051
▁trad	-9.11198
▁la	-9.11508
H	-9.1165
▁Jan	-9.11783
▁acht	-9.11808
▁pas	-9.11948
The	-9.1217
to	-9.12285
▁Veel	-9.12741
me	-9.12846
▁stijl	-9.1286
▁Rusland	-9.13108
th	-9.13189
▁soldaten	-9.13203
▁San	-9.13297
▁soort	-9.1332
▁rest	-9.13473
▁reeks	-9.13682
▁theorie	-9.13759
▁schip	-9.13908
▁uitgegeven	-9.1397
▁gebruikte	-9.13999
▁directeur	-9.14122
▁activiteiten	-9.14489
▁hoge	-9.14574
▁b	-9.15057
▁Paul	-9.15289
▁markt	-9.15602
▁economie	-9.15608
▁schrijven	-9.15827
L	-9.15881
▁Belgische	-9.15907
▁model	-9.15934
▁St	-9.16114
▁Japanse	-9.16139
▁En	-9.16147
▁plan	-9.16166
▁tien	-9.16351
▁totaal	-9.16683
programma	-9.16792
▁politie	-9.1691
▁richtte	-9.16929
▁probeerde	-9.17018
▁functie	-9.17121
▁iets	-9.17135
▁dorp	-9.17159
ch	-9.17284
▁belang	-9.17357
▁gekozen	-9.17501
▁beschreven	-9.17502
▁verlaten	-9.17502
▁verloren	-9.17547
▁oorspronkelijke	-9.17614
▁centrum	-9.17875
▁vriend	-9.1789
▁ontwerp	-9.18191
▁geval	-9.1821
▁erg	-9.18388
▁aanval	-9.18423
▁midden	-9.18466
▁oud	-9.18602
▁controle	-9.1871
▁Hier	-9.18711
▁kennis	-9.18824
▁slag	-9.18857
▁China	-9.19131
▁recht	-9.19231
▁Robert	-9.19317
▁stellen	-9.19339
▁gebracht	-9.19548
▁ooit	-9.19624
▁verliet	-9.19779
▁ontworpen	-9.19926
▁officieel	-9.19943
x	-9.19979
▁ruimte	-9.19996
▁gedaan	-9.20036
▁volledige	-9.20693
▁El	-9.20885
ma	-9.20963
▁reis	-9.21229
os	-9.2138
▁tevens	-9.21554
▁X	-9.21593
▁m	-9.21597
▁Onder	-9.21608
▁tekst	-9.21611
ton	-9.2162
▁overleed	-9.21793
N	-9.22247
▁bestond	-9.22449
ca	-9.22534
▁museum	-9.22582
▁Spanje	-9.22618
▁bestaande	-9.22624
é	-9.22664
ver	-9.22746
sen	-9.23002
▁vertegenwoordig	-9.23155
▁geleid	-9.23183
▁hield	-9.2319
▁zaken	-9.23198
▁III	-9.23222
▁zomer	-9.23251
▁originele	-9.23278
ook	-9.23487
▁George	-9.23552
▁studeerde	-9.23609
▁Alle	-9.23718
▁Spaanse	-9.23745
▁geworden	-9.23761
▁idee	-9.23762
▁daarvan	-9.23764
▁Daarnaast	-9.23765
▁Museum	-9.23837
at	-9.23895
▁name	-9.2394
▁zeggen	-9.2396
systeem	-9.24075
▁boven	-9.24187
▁geopend	-9.24316
▁bronnen	-9.24418
da	-9.2444
▁cultuur	-9.24562
▁bedrijven	-9.24605
▁Man	-9.24731
▁zullen	-9.2476
▁Park	-9.2488
▁hoofdstad	-9.2494
▁ontdekt	-9.25011
eel	-9.25023
▁Engelse	-9.25141
▁Dat	-9.2519
▁oudste	-9.25358
▁financiële	-9.25515
▁inwoners	-9.25649
▁Sommige	-9.25659
sche	-9.2566
groep	-9.25703
▁We	-9.25828
be	-9.25837
▁studenten	-9.25987
▁trouwde	-9.26154
W	-9.26219
tische	-9.26424
▁Society	-9.26533
ze	-9.26654
▁club	-9.26997
▁licht	-9.27028
▁video	-9.27064
▁Peter	-9.27512
j	-9.27911
len	-9.27914
▁Hun	-9.28109
as	-9.28268
co	-9.28317
▁helft	-9.28368
▁algemene	-9.28396
▁gespeeld	-9.28721
▁steun	-9.28979
▁Royal	-9.28999
▁huwelijk	-9.29209
▁betekent	-9.29382
▁Griekse	-9.29502
▁zegt	-9.2969
▁aandacht	-9.29778
▁historische	-9.29871
▁gingen	-9.29888
▁kregen	-9.29951
▁verklaarde	-9.30144
▁Zweeds	-9.30231
▁moesten	-9.30341
▁feit	-9.30391
▁waarmee	-9.3044
▁vraag	-9.30536
▁beschikbaar	-9.30872
▁Republiek	-9.30971
▁hand	-9.31122
▁Oost	-9.31247
▁vierde	-9.31291
▁foto	-9.31372
▁klein	-9.31514
▁lijkt	-9.3152
▁laat	-9.3201
▁daarom	-9.32063
▁genomen	-9.32157
▁Chinese	-9.32165
▁Elk	-9.32373
▁School	-9.32417
▁ouders	-9.32432
▁City	-9.32465
▁Award	-9.32478
son	-9.32553
ster	-9.3256
▁persoon	-9.3258
▁helpen	-9.32587
▁Tot	-9.32595
▁Tegen	-9.32865
▁bewijs	-9.32948
▁Twee	-9.33127
▁beweging	-9.33136
▁naast	-9.33296
ko	-9.33386
▁kind	-9.33593
▁James	-9.33649
▁Frans	-9.33716
▁Daar	-9.33783
▁Raad	-9.339
der	-9.33923
▁geheel	-9.33955
▁leider	-9.34072
▁woord	-9.34109
▁noemde	-9.34143
▁wet	-9.34178
▁religieuze	-9.34195
▁voorbeeld	-9.34271
ro	-9.34415
▁betrekking	-9.34458
▁zeker	-9.34478
▁verbonden	-9.34566
▁waarop	-9.34628
ndanks	-9.34648
▁soorten	-9.34892
ka	-9.34924
▁zag	-9.35387
▁films	-9.3542
▁Radio	-9.35455
▁zetten	-9.35629
▁traditionele	-9.35961
▁Eerste	-9.36385
▁beter	-9.36505
▁provincie	-9.36594
▁diende	-9.36611
▁gemeenschap	-9.36644
▁ontwikkelde	-9.36684
ter	-9.36736
▁website	-9.36921
▁ons	-9.37564
▁gesloten	-9.37607
▁Gedurend	-9.37729
▁gevestigd	-9.37834
▁Be	-9.37842
▁Ge	-9.37875
▁langer	-9.37925
▁Canada	-9.38069
▁rivier	-9.38148
▁onze	-9.3821
▁bezit	-9.38423
▁vloot	-9.38704
met	-9.38784
▁grond	-9.38812
▁artikel	-9.38945
▁rechten	-9.39059
▁Unie	-9.39135
▁waarde	-9.39324
▁plaatsen	-9.39425
▁latere	-9.39437
▁proces	-9.39666
▁voorkomen	-9.39703
▁top	-9.40058
gen	-9.40198
▁onderwijs	-9.40277
▁richting	-9.40338
▁Ver	-9.40353
do	-9.40437
no	-9.4045
▁werkt	-9.40541
▁Brussel	-9.4056
▁p	-9.40707
voormalige	-9.4088
▁me	-9.41027
▁Oorlog	-9.41113
ur	-9.41282
▁weken	-9.41295
▁bestuur	-9.41349
▁middel	-9.41593
▁beleid	-9.417
▁lichaam	-9.41835
▁televisie	-9.41879
V	-9.41886
▁vrienden	-9.42151
▁You	-9.42336
▁collectie	-9.42603
▁anti	-9.42676
▁Zweden	-9.42699
▁Groot	-9.42699
▁trok	-9.4286
als	-9.43014
▁bezocht	-9.43029
▁aanwezig	-9.4303
▁Dr	-9.43047
▁bouwen	-9.43384
▁Nederlands	-9.43502
▁resultaat	-9.43507
▁universiteit	-9.43608
▁leiden	-9.4373
▁American	-9.43734
▁gehele	-9.43766
▁regelmatig	-9.438
▁kasteel	-9.43832
▁handen	-9.43837
ige	-9.4388
▁campagne	-9.44144
▁gericht	-9.44153
▁oprichting	-9.44172
▁William	-9.44182
▁poging	-9.44239
▁speciale	-9.44256
▁Andere	-9.44277
▁gelijk	-9.44538
▁tegenstelling	-9.4468
▁noorden	-9.4475
▁Company	-9.44994
▁langs	-9.4501
▁opdracht	-9.45104
▁stelt	-9.45138
ly	-9.45228
▁thema	-9.45402
▁uitgebreid	-9.45403
▁No	-9.45467
▁gevolgd	-9.45488
▁Co	-9.45533
▁bleek	-9.4561
(	-9.45616
ale	-9.45653
▁culturele	-9.45787
▁grens	-9.45968
▁begint	-9.46066
▁genoeg	-9.4626
▁Richard	-9.46317
▁meter	-9.4644
▁Music	-9.46569
▁doden	-9.46571
▁open	-9.46589
ry	-9.46606
ig	-9.46621
▁media	-9.46672
▁Charles	-9.46884
▁University	-9.47196
▁lijn	-9.47267
▁verkiezingen	-9.47443
▁speelt	-9.47468
▁grotere	-9.47505
▁zuiden	-9.47528
▁personen	-9.47575
▁Air	-9.47611
▁aanzienlijk	-9.48143
w	-9.48203
▁Thomas	-9.48244
▁Jean	-9.48335
▁geïntroduceerd	-9.48449
▁Z	-9.48533
▁conflict	-9.48625
▁buurt	-9.48684
▁dollar	-9.48768
▁eveneens	-9.48791
▁toegevoegd	-9.48801
▁voormalig	-9.49336
▁India	-9.49589
▁Samen	-9.49602
▁Maria	-9.49651
ke	-9.49675
▁woorden	-9.49709
▁contract	-9.49926
▁energie	-9.49981
▁College	-9.50034
▁nabij	-9.50058
▁hiervan	-9.50364
▁nummers	-9.50389
▁gemeente	-9.50394
▁aangezien	-9.50404
▁sterke	-9.50616
eren	-9.50626
il	-9.50688
▁Michael	-9.50742
▁handel	-9.50897
▁georganiseerd	-9.51005
▁gevallen	-9.51135
▁Wanne	-9.51148
▁$	-9.51255
▁probleem	-9.51255
▁radio	-9.51416
▁Rijk	-9.5145
▁gebouwen	-9.51451
▁Ten	-9.51606
▁vrede	-9.51673
▁afkomstig	-9.51677
▁reden	-9.51681
▁ervoor	-9.51786
Amerika	-9.51828
▁daarop	-9.52315
▁Verder	-9.52342
▁verscheiden	-9.5262
Ik	-9.52696
▁Die	-9.52758
J	-9.52789
▁verband	-9.52851
generaal	-9.52885
▁volgt	-9.52987
▁tijdschrift	-9.53133
▁kracht	-9.53276
▁klassieke	-9.53286
▁gevormd	-9.53384
▁woonde	-9.53525
▁gedood	-9.53655
▁bedoeld	-9.53673
▁parlement	-9.53718
▁talen	-9.53783
▁publieke	-9.5381
▁bron	-9.5389
▁orde	-9.53995
▁getiteld	-9.54054
▁gedwongen	-9.54151
▁toch	-9.54223
▁park	-9.54305
▁ontwikkelen	-9.54355
▁lijst	-9.54423
▁contact	-9.54478
▁ontvangen	-9.54663
▁kondigde	-9.54663
▁omgeving	-9.54869
▁locatie	-9.55005
▁gebeurtenissen	-9.55007
Naast	-9.55021
▁grotendeels	-9.55044
▁vernoemd	-9.55079
▁punt	-9.55174
▁mens	-9.55187
▁eindigde	-9.55208
ion	-9.55299
▁verloor	-9.55342
▁show	-9.55468
▁weten	-9.55537
Afrika	-9.55566
van	-9.55656
▁opera	-9.55715
▁lied	-9.55793
▁persoonlijke	-9.56023
▁vallen	-9.56098
▁wist	-9.5617
▁generaal	-9.56189
▁buitenlandse	-9.56226
ken	-9.56231
▁groeide	-9.56316
▁standaard	-9.56339
Unie	-9.56427
▁waarna	-9.56488
▁burgers	-9.56495
werk	-9.56638
▁Net	-9.56826
▁keizer	-9.5691
▁hoog	-9.57063
▁iemand	-9.57181
▁voerde	-9.57275
▁km	-9.57314
▁inclusief	-9.5767
nen	-9.57768
atie	-9.57831
om	-9.5792
serie	-9.58158
▁Love	-9.58269
am	-9.58286
ri	-9.58292
em	-9.58317
▁vragen	-9.58504
▁speler	-9.58619
▁wedstrijd	-9.58627
▁nacht	-9.58671
▁status	-9.58792
▁bereikte	-9.58825
▁direct	-9.58956
▁schrijver	-9.59181
▁verzameling	-9.59298
▁extra	-9.59347
▁brief	-9.59353
▁menselijke	-9.59499
▁Men	-9.59522
▁centrale	-9.5976
▁vast	-9.59828
▁besloten	-9.59873
▁Group	-9.59907
▁Daarna	-9.5993
▁natuurlijke	-9.60122
▁Slag	-9.60232
▁Association	-9.60401
▁opvolger	-9.60425
li	-9.60593
▁Berlijn	-9.60723
ic	-9.60782
▁dieren	-9.60863
▁plannen	-9.6087
▁ideeën	-9.61024
▁Center	-9.61059
▁vrijheid	-9.61074
ist	-9.61192
▁Club	-9.61238
▁overwinning	-9.61269
▁mede	-9.61272
▁partijen	-9.61298
ni	-9.61492
▁My	-9.61497
▁Los	-9.61542
▁Grote	-9.61602
▁bleven	-9.61676
▁neemt	-9.61678
▁Alexander	-9.61717
▁voeren	-9.61718
ondanks	-9.61801
▁echte	-9.6184
▁reactie	-9.61851
▁Sint	-9.62075
▁Uiteindelijk	-9.624
▁gestuurd	-9.62445
▁station	-9.62479
▁situatie	-9.62497
▁optreden	-9.625
▁Engels	-9.62505
▁gevraagd	-9.62511
ul	-9.62567
▁Nationale	-9.62582
▁structuur	-9.6261
▁kant	-9.62679
▁oudere	-9.62732
ns	-9.62991
▁tegenwoordig	-9.63169
▁di	-9.63264
mi	-9.63296
▁roman	-9.63315
▁niveau	-9.63477
▁bewaard	-9.63485
▁ontstaan	-9.63507
▁reisde	-9.63541
▁bepaald	-9.63553
▁elementen	-9.6356
▁Don	-9.63639
▁hoogste	-9.63656
die	-9.63746
▁succesvol	-9.63803
▁tentoonstelling	-9.63869
▁beschreef	-9.63874
▁keren	-9.63888
▁raakte	-9.64001
▁organisaties	-9.64024
▁geloof	-9.64211
ga	-9.6423
▁vertelt	-9.64253
▁netwerk	-9.64259
▁auteur	-9.64292
▁bereiken	-9.64315
▁editie	-9.64342
▁startte	-9.6449
▁f	-9.64719
▁viel	-9.64744
▁verhalen	-9.64758
▁populair	-9.64831
▁haven	-9.64852
▁volk	-9.64898
▁kosten	-9.64948
▁karakter	-9.64953
▁Go	-9.65013
▁vindt	-9.65107
▁Egypte	-9.65197
▁Den	-9.65232
▁brand	-9.65424
Het	-9.65465
▁ziekte	-9.65576
▁denken	-9.6576
▁aangenomen	-9.65812
sch	-9.65905
▁zette	-9.65929
eerde	-9.66017
▁mij	-9.66018
▁Joodse	-9.66127
▁succesvolle	-9.6613
▁voort	-9.66135
▁terugkeer	-9.6625
▁zorgen	-9.66271
▁Beide	-9.66317
▁vermoord	-9.66344
▁BBC	-9.66574
▁geplaatst	-9.6658
▁k	-9.6677
▁eigenaar	-9.66827
▁maand	-9.66835
▁bevel	-9.66863
▁Black	-9.67192
▁Foundation	-9.6727
▁overgenomen	-9.673
▁alles	-9.67521
ja	-9.67646
▁Over	-9.678
▁voedsel	-9.6783
▁aflevering	-9.67845
▁Polen	-9.67878
ine	-9.67954
▁zaak	-9.68035
▁Partij	-9.6805
▁gelegen	-9.68076
▁concept	-9.68086
▁co	-9.68154
ad	-9.68282
▁vertrok	-9.68421
▁blijft	-9.68434
▁betekenis	-9.68486
▁ben	-9.68562
▁week	-9.68699
▁onmiddellijk	-9.68817
▁internationaal	-9.68817
▁United	-9.68995
▁Nieuw	-9.6906
up	-9.69169
▁bezig	-9.69203
▁post	-9.69229
▁gegevens	-9.69229
▁stuk	-9.69289
▁kilometer	-9.69433
▁late	-9.69453
▁ondersteuning	-9.69479
▁tv	-9.69485
▁onafhankelijke	-9.69531
▁hof	-9.69557
▁beschrijft	-9.69601
▁veranderde	-9.69609
▁type	-9.69642
▁maakten	-9.69705
▁All	-9.69801
▁VS	-9.69983
▁ontstond	-9.70065
▁zware	-9.70089
▁artikelen	-9.70395
▁evenals	-9.70396
▁On	-9.70411
▁allemaal	-9.70422
▁du	-9.70459
▁klasse	-9.70508
▁wijze	-9.70526
▁Europees	-9.70551
▁groter	-9.70618
▁erkend	-9.70679
▁bereikt	-9.70711
▁lucht	-9.70736
▁internet	-9.70789
▁aanvallen	-9.70859
▁zogenaamd	-9.70869
▁heb	-9.70938
▁verdrag	-9.70943
▁resultaten	-9.70943
men	-9.70983
▁bevatten	-9.70995
▁opstand	-9.70997
▁Rond	-9.71045
▁erop	-9.71092
ir	-9.71444
▁Afrika	-9.71488
▁bevindt	-9.71585
▁diens	-9.71682
▁mate	-9.71695
sa	-9.71811
▁vormde	-9.71821
▁kust	-9.71854
▁vrije	-9.71922
▁hoogte	-9.72068
voor	-9.72095
▁vrouwelijke	-9.72131
▁iedereen	-9.72278
Brittannië	-9.72389
▁theater	-9.72398
▁aanvankelijk	-9.72401
▁veranderd	-9.72712
▁wonen	-9.72794
▁gearresteerd	-9.72794
▁vandaag	-9.72902
▁tegenover	-9.72963
di	-9.73004
▁jeugd	-9.73069
▁Dan	-9.7309
▁beeld	-9.73091
style	-9.73197
▁oorsprong	-9.73251
▁Arabische	-9.73314
▁druk	-9.73342
▁weigerde	-9.73459
▁gevangenis	-9.73482
▁veroordeeld	-9.73521
▁Haag	-9.73601
isme	-9.73617
▁London	-9.7375
▁broers	-9.73955
huis	-9.7403
▁stem	-9.74147
▁onderwerp	-9.74176
▁materiaal	-9.74178
▁verdeeld	-9.74184
▁Smith	-9.74196
go	-9.74209
▁opleiding	-9.74233
▁negen	-9.74306
▁beschermen	-9.74463
▁moeilijk	-9.74524
▁Australië	-9.74619
ley	-9.74622
ard	-9.74702
▁ontmoette	-9.7471
▁stemmen	-9.74719
▁dergelijke	-9.74802
▁toegang	-9.75164
ce	-9.75305
▁functies	-9.75307
▁afstand	-9.75328
▁sloot	-9.75455
▁wetenschap	-9.75459
▁Poolse	-9.75473
▁liefde	-9.75636
▁onderwerpen	-9.757
▁Street	-9.75715
▁aarde	-9.75792
▁want	-9.7582
▁minuten	-9.75845
▁Re	-9.76087
Z	-9.76107
▁moord	-9.76352
▁zee	-9.7636
▁doet	-9.76539
▁lag	-9.76582
▁Art	-9.76598
▁scholen	-9.76681
ti	-9.76707
▁houdt	-9.76775
▁mogelijkheid	-9.76817
▁punten	-9.76856
▁filosofie	-9.76887
▁publicatie	-9.76954
▁Moskou	-9.77003
▁Festival	-9.77003
ren	-9.77063
▁kocht	-9.7731
▁bieden	-9.77359
▁begraven	-9.77361
▁reizen	-9.77385
▁staten	-9.77571
▁misschien	-9.77594
▁vermeld	-9.77635
▁anders	-9.77689
▁beginnen	-9.77778
display	-9.77785
▁Mark	-9.77785
ski	-9.77833
▁vonden	-9.78025
▁label	-9.78064
▁concert	-9.78118
reeds	-9.78185
mer	-9.78197
▁gezegd	-9.78212
▁Amerika	-9.78349
▁ex	-9.78403
▁producten	-9.78454
▁krant	-9.78622
▁Willem	-9.78636
▁Is	-9.78713
▁regionale	-9.78719
id	-9.78735
▁Hall	-9.78737
▁albums	-9.78774
▁liggen	-9.78779
▁her	-9.7878
▁{\	-9.78953
it	-9.79074
▁behandeling	-9.79076
▁uitgezonden	-9.79099
▁hoger	-9.79106
▁relatief	-9.79119
▁natuur	-9.79187
▁beïnvloed	-9.7921
ling	-9.79263
Amerikaanse	-9.79657
▁kleinere	-9.797
▁EU	-9.79703
▁diensten	-9.79824
▁Zee	-9.79924
▁wiskunde	-9.7994
▁computer	-9.7997
▁Martin	-9.80032
▁eigendom	-9.80127
▁kritiek	-9.80159
▁sport	-9.80161
▁populaire	-9.80205
▁getrouwd	-9.80377
▁Angeles	-9.80383
maatschappij	-9.80476
▁koninkrijk	-9.80606
▁groei	-9.80685
▁actie	-9.80709
▁teksten	-9.80833
▁landbouw	-9.80875
▁westen	-9.8104
▁huizen	-9.81088
▁studies	-9.81107
▁getallen	-9.81157
▁vertelde	-9.81166
▁autoriteiten	-9.81255
▁verschenen	-9.81256
▁veroorzaakt	-9.81315
▁Uit	-9.81366
theorie	-9.81613
▁stand	-9.81617
▁produceerde	-9.81636
▁Israël	-9.81654
▁studio	-9.8168
▁expeditie	-9.8169
▁verkozen	-9.81698
▁Washington	-9.81738
weg	-9.81766
▁live	-9.82024
▁thuis	-9.82098
geen	-9.82118
▁vlak	-9.82164
▁probeer	-9.82177
▁Li	-9.82184
▁House	-9.82265
▁gedrag	-9.8235
▁product	-9.8242
▁bevatte	-9.82497
▁vlag	-9.82527
▁Bovendien	-9.8259
▁wegens	-9.82648
com	-9.82675
▁interesse	-9.82981
versie	-9.83
▁von	-9.83057
▁Zaken	-9.83063
▁verdere	-9.83075
▁eenheid	-9.8319
▁winnen	-9.8328
▁baan	-9.83391
▁specifieke	-9.83391
▁Red	-9.83403
▁projecten	-9.83493
▁religie	-9.83584
X	-9.83614
▁sterren	-9.83637
▁Henry	-9.83653
▁g	-9.83739
▁Times	-9.83844
▁Ben	-9.83944
▁gesteld	-9.83978
bij	-9.84043
▁Mexico	-9.84061
▁geweld	-9.84179
▁voorzien	-9.84317
ki	-9.84352
▁veiligheid	-9.84417
▁willen	-9.84463
ck	-9.84823
▁Rock	-9.8486
ius	-9.84946
▁et	-9.85004
▁Sam	-9.85049
▁verkoop	-9.85062
▁besluit	-9.85253
▁dragen	-9.85271
▁behalve	-9.85371
▁Green	-9.85397
▁British	-9.854
▁horen	-9.85546
▁interview	-9.85605
▁stuurde	-9.85644
▁literatuur	-9.85759
▁gehad	-9.85781
▁mogelijke	-9.85808
▁even	-9.85844
▁Frank	-9.85866
▁u	-9.85934
▁toekomst	-9.8594
▁samenleving	-9.86083
▁gezin	-9.86214
▁krijgt	-9.86234
▁behulp	-9.86235
ik	-9.86263
▁Kerk	-9.86288
▁verslagen	-9.86334
▁invasie	-9.86354
▁goud	-9.86485
▁Super	-9.86553
▁beperkt	-9.86621
▁dingen	-9.86647
▁luchthaven	-9.8669
over	-9.86718
▁traditie	-9.86757
▁koninklijke	-9.86779
▁IV	-9.86806
U	-9.8682
za	-9.86829
▁Mo	-9.87007
▁gedeelte	-9.87072
▁daarmee	-9.87171
▁bijdragen	-9.8737
▁namelijk	-9.87373
▁volgen	-9.87459
▁Kort	-9.87527
▁mening	-9.87545
▁openbare	-9.87646
▁vorige	-9.87675
▁start	-9.88163
▁onderzoeken	-9.88233
▁hielp	-9.88298
▁Lee	-9.88457
▁Vervolgens	-9.88582
▁missie	-9.88671
▁Tom	-9.88729
▁behouden	-9.88777
▁kunstenaars	-9.88778
▁leiders	-9.88834
▁Nieuwe	-9.88869
▁ont	-9.88902
▁kamp	-9.88995
▁verbeteren	-9.89058
▁procent	-9.89059
▁online	-9.89072
▁aangekondigd	-9.89084
▁An	-9.89115
▁voorgesteld	-9.89148
▁Commissie	-9.89168
▁vereniging	-9.89264
▁ontdekte	-9.89326
▁wapen	-9.8933
▁Institute	-9.89338
▁beweerde	-9.89569
▁wiskundige	-9.89699
ber	-9.89733
berg	-9.89746
▁opende	-9.89818
▁rijk	-9.89849
vo	-9.89909
▁software	-9.8995
▁pagina	-9.89952
▁spelers	-9.8996
▁To	-9.89963
▁wapens	-9.9
▁wereldwijd	-9.90004
▁biedt	-9.90017
▁commerciële	-9.90017
eeuwse	-9.90057
▁raad	-9.90115
▁versies	-9.90164
▁milieu	-9.90209
▁Zwitserland	-9.90214
ner	-9.903
▁—	-9.90436
▁Turkse	-9.90519
▁Eind	-9.90619
▁christelijke	-9.90671
▁voltooid	-9.90823
wa	-9.90904
im	-9.91093
▁relaties	-9.91135
▁veranderingen	-9.91138
▁systemen	-9.91176
rs	-9.91223
que	-9.91289
▁Star	-9.91326
▁gouverneur	-9.91341
▁ondersteunen	-9.91473
▁Echter	-9.91474
▁meerderheid	-9.91485
ler	-9.91492
▁uitbreiding	-9.91526
▁vijfde	-9.91577
▁olie	-9.91582
▁onderscheiden	-9.91881
▁modellen	-9.91883
▁Wat	-9.91919
zen	-9.91922
▁overlijden	-9.91968
▁bezoek	-9.91974
▁nieuws	-9.9219
▁spreken	-9.92244
▁documentaire	-9.92261
▁overleden	-9.92274
▁c	-9.92382
▁district	-9.92475
▁aanwezigheid	-9.92536
▁afhankelijk	-9.92674
▁kaart	-9.92705
▁categorie	-9.92742
í	-9.92909
▁loop	-9.9295
▁presenteerde	-9.92997
▁communicatie	-9.93023
▁verboden	-9.93066
▁ervaring	-9.93095
ham	-9.93134
▁droeg	-9.93223
▁non	-9.93312
net	-9.93328
▁echt	-9.93407
▁pro	-9.93413
▁niets	-9.93666
▁onderzocht	-9.93674
▁erin	-9.93736
▁verandering	-9.93908
▁Bank	-9.93959
ut	-9.93981
▁ziet	-9.93994
▁vergelijkbaar	-9.94029
▁zwarte	-9.94045
ven	-9.94195
prijs	-9.94243
▁minste	-9.94248
lo	-9.94251
▁assistent	-9.94353
▁berg	-9.94429
▁Midden	-9.94456
▁aangeduid	-9.94478
▁gebrek	-9.94567
▁verdediging	-9.94584
▁Centraal	-9.94585
▁Joseph	-9.94598
▁Griekenland	-9.94681
▁gaven	-9.94755
▁beroemde	-9.94871
▁One	-9.94923
▁verwijst	-9.94957
▁noch	-9.94969
▁King	-9.94996
▁Land	-9.95079
▁orkest	-9.95095
▁Canadese	-9.95127
▁slachtoffers	-9.9515
▁Jack	-9.95212
▁zoek	-9.95212
▁So	-9.95232
by	-9.95261
▁introduceerde	-9.95311
ende	-9.9535
▁stonden	-9.95355
▁War	-9.95362
▁race	-9.95414
▁plaatselijke	-9.95587
▁Antwerpen	-9.95597
▁gesticht	-9.95598
lin	-9.95672
▁debuut	-9.95794
▁zoeken	-9.95904
▁Research	-9.95974
▁creëren	-9.95974
ha	-9.96108
▁sprak	-9.96213
▁medische	-9.96237
ek	-9.9632
▁motor	-9.96372
▁Do	-9.964
▁klooster	-9.96448
ina	-9.96457
▁omvat	-9.96539
▁Life	-9.96579
▁veld	-9.96602
ba	-9.96605
▁collega	-9.96606
ingen	-9.96607
▁trekken	-9.9664
▁Internationale	-9.96644
▁wedstrijden	-9.967
▁tonen	-9.96798
▁Bo	-9.96892
ering	-9.96902
loze	-9.96953
▁Denemarken	-9.97049
▁weet	-9.97052
▁behaalde	-9.97057
▁verklaring	-9.97071
▁vuur	-9.97095
▁toont	-9.97134
▁Congres	-9.97145
▁methode	-9.97161
▁permanent	-9.97177
▁noordelijke	-9.97178
▁North	-9.97184
▁White	-9.97368
▁technologie	-9.97374
▁brieven	-9.97376
▁Grand	-9.97483
▁schilderijen	-9.97522
▁blijkt	-9.97534
▁Ma	-9.9755
▁eigenlijk	-9.97614
▁individuele	-9.97686
▁Huis	-9.977
&	-9.97746
jes	-9.97752
end	-9.97921
▁sluiten	-9.97978
▁vol	-9.9798
io	-9.98061
ert	-9.98085
▁industrie	-9.98088
bedrijf	-9.98199
▁eigenschappen	-9.9824
▁jaarlijks	-9.98304
▁Oostenrijk	-9.98343
▁jaarlijkse	-9.98496
▁regels	-9.98526
▁miljard	-9.98562
▁dagelijks	-9.98565
▁gewoon	-9.98565
▁toestemming	-9.98567
▁festival	-9.98601
▁=	-9.98602
▁geleden	-9.9861
▁vroegere	-9.98625
▁hedendaags	-9.98628
▁gedefinieerd	-9.98668
▁effect	-9.98691
▁Noorwegen	-9.98705
▁voetbal	-9.9873
▁uitzondering	-9.98765
nu	-9.98772
ci	-9.98809
▁Meer	-9.98971
▁leggen	-9.99044
▁Di	-9.99081
mo	-9.99195
▁combinatie	-9.99428
ger	-9.99456
bare	-9.99457
▁It	-9.99461
▁legde	-9.99488
▁bouwde	-9.99545
▁kans	-9.99557
▁secretaris	-9.99575
▁vliegtuig	-9.99579
▁goederen	-9.99581
▁taak	-9.99623
▁State	-9.99663
▁Pro	-9.99687
▁verschillen	-9.99781
▁twintig	-9.99809
▁analyse	-9.99833
▁South	-9.99837
▁Open	-9.99838
▁wij	-10.0005
▁koningin	-10.0008
▁islam	-10.0014
▁gebleven	-10.0015
▁bepalen	-10.0022
▁betalen	-10.0029
▁Time	-10.003
▁l	-10.0036
▁Brazilië	-10.0037
▁marine	-10.0041
▁richten	-10.0041
▁Drie	-10.0048
the	-10.0057
▁gewonnen	-10.0069
▁Saint	-10.0074
▁Enkele	-10.0076
▁Naties	-10.0077
▁Island	-10.0083
▁Mac	-10.0089
▁zuidelijke	-10.0093
istische	-10.0101
▁slaagde	-10.0108
▁veranderen	-10.011
▁generatie	-10.0112
▁toegekend	-10.0122
▁zin	-10.0133
pa	-10.0135
ya	-10.014
isch	-10.0143
▁Wereld	-10.0143
▁hogere	-10.0143
▁publicaties	-10.0148
dra	-10.0152
▁toekomstig	-10.0158
▁prijzen	-10.0174
▁euro	-10.0179
▁wilden	-10.018
▁documenten	-10.0181
▁ieder	-10.0183
▁aanleiding	-10.0188
▁duurde	-10.019
▁Comité	-10.0191
▁League	-10.0195
▁industriële	-10.0195
▁Rode	-10.0197
▁bescherming	-10.0207
▁geest	-10.0208
▁dienen	-10.0211
▁Bar	-10.0212
▁twaalf	-10.0219
▁re	-10.0221
▁schade	-10.0229
▁redenen	-10.023
▁brachten	-10.0236
▁professionele	-10.0242
▁bibliotheek	-10.0244
▁Duits	-10.0251
▁kwaliteit	-10.0253
zo	-10.0258
ant	-10.0259
▁paus	-10.0265
door	-10.0265
▁ministerie	-10.0266
▁ontdekking	-10.0271
▁zorgde	-10.0278
▁liep	-10.0283
▁Begin	-10.0286
▁ofwel	-10.0287
dag	-10.0287
▁Athene	-10.029
▁architect	-10.0295
▁Media	-10.0305
dien	-10.0306
▁bekendste	-10.0325
che	-10.033
▁Hill	-10.0331
▁onbekend	-10.0333
gebied	-10.0338
▁uitgebreide	-10.0339
▁verjaardag	-10.034
schap	-10.0349
▁tempel	-10.0351
▁SS	-10.0354
▁Instituut	-10.0355
▁eilanden	-10.0359
gelegen	-10.0362
}	-10.0369
per	-10.0379
▁identiteit	-10.0381
”.	-10.0382
ji	-10.0385
▁gevangenen	-10.0388
▁omstandigheden	-10.0413
pe	-10.0417
▁Sir	-10.0425
▁He	-10.0432
▁luchtvaart	-10.0451
▁technische	-10.0451
▁Christus	-10.0452
▁noemt	-10.0453
▁respectievelijk	-10.0458
▁daaropvolgend	-10.0459
▁Johannes	-10.0464
▁nationaal	-10.0472
▁winter	-10.0479
▁rijke	-10.0481
▁vliegtuigen	-10.0482
▁plek	-10.0483
muzikale	-10.0484
▁divisie	-10.0494
▁avond	-10.0498
▁overeenkomst	-10.05
heden	-10.0505
▁verleden	-10.0509
ak	-10.0509
▁Sa	-10.0511
▁wetten	-10.0512
▁kleur	-10.0512
▁lijken	-10.0517
▁Turkije	-10.0518
▁gedeeltelijk	-10.0521
▁gezondheid	-10.0523
▁grondwet	-10.0524
▁gevangen	-10.0541
▁For	-10.0542
hoewel	-10.056
▁Apple	-10.0564
▁gewijd	-10.0568
▁bisschop	-10.0574
▁Tour	-10.0577
▁Show	-10.0578
▁geïnspireerd	-10.0578
▁heen	-10.0584
▁fabriek	-10.0585
▁data	-10.0594
mon	-10.061
▁vluchten	-10.0611
pi	-10.0611
ot	-10.0613
les	-10.0615
▁Utrecht	-10.062
▁gekregen	-10.062
▁hoeveelheid	-10.0621
ring	-10.0628
▁slaven	-10.0639
In	-10.0641
ian	-10.0644
▁dicht	-10.065
▁antwoord	-10.065
▁commissie	-10.0652
ation	-10.0657
▁brug	-10.0665
▁eenheden	-10.0666
▁Ierland	-10.0673
▁massa	-10.0675
▁zus	-10.0676
▁kennen	-10.0677
tje	-10.0682
▁neer	-10.0683
▁toegepast	-10.0683
!"	-10.0693
▁middelen	-10.0694
▁produceren	-10.07
jo	-10.0705
▁woont	-10.0706
▁premier	-10.0708
▁leren	-10.0708
▁kunstenaar	-10.0717
▁gesproken	-10.072
▁finale	-10.0722
▁katholieke	-10.0724
▁gebruikers	-10.0733
leden	-10.0734
▁grondgebied	-10.0736
▁leerde	-10.0737
▁oosten	-10.0739
▁architectuur	-10.0753
▁uitvoering	-10.0754
▁eerdere	-10.0755
▁Parlement	-10.076
▁Oostenrijkse	-10.0766
▁zong	-10.0778
▁enorme	-10.0781
▁lage	-10.0792
▁Verdrag	-10.0799
▁piano	-10.0816
▁families	-10.0817
▁Ko	-10.0831
▁revolutie	-10.0833
▁stichting	-10.0835
▁islamitische	-10.0839
aal	-10.0839
▁Albert	-10.085
▁Wenen	-10.0855
▁Cup	-10.0856
▁beiden	-10.086
Y	-10.0861
tijd	-10.0864
▁Con	-10.088
▁les	-10.0884
▁leverde	-10.0887
▁aard	-10.0887
▁Film	-10.0888
▁Louis	-10.0896
▁ogen	-10.0909
▁Brown	-10.0909
▁dans	-10.0912
▁evenement	-10.0913
▁componist	-10.0915
▁stelling	-10.0919
▁Trump	-10.0921
▁Rotterdam	-10.0926
▁Holland	-10.0931
▁Mary	-10.0931
▁Joden	-10.0937
▁termen	-10.094
▁vraagt	-10.0941
▁best	-10.0942
▁toepassing	-10.0943
▁hoop	-10.0946
▁no	-10.0948
▁vernietigd	-10.0951
▁praktijk	-10.0959
industrie	-10.0962
▁proberen	-10.0966
▁Nu	-10.0967
▁Britten	-10.0972
▁vóór	-10.0975
model	-10.0976
▁zat	-10.0978
▁tekende	-10.0978
▁Du	-10.0979
▁Blue	-10.0984
▁voorbeelden	-10.0991
▁Australische	-10.0992
▁bewoners	-10.0994
pen	-10.0995
▁resulteerde	-10.0996
▁pogingen	-10.0996
tal	-10.0997
middels	-10.0999
▁mag	-10.1
▁geboorte	-10.1012
▁privé	-10.1022
▁echtgenoot	-10.1025
▁passagiers	-10.1026
▁ontwerpen	-10.1037
▁waarom	-10.104
▁bijdrage	-10.1057
▁dichter	-10.106
anse	-10.1061
▁draagt	-10.1065
▁sub	-10.1078
▁verzet	-10.1079
▁kern	-10.1081
klasse	-10.1081
▁Romeinen	-10.1085
▁artiesten	-10.1085
▁daarvoor	-10.1087
▁restaurant	-10.1088
▁European	-10.1093
▁Chicago	-10.1093
▁total	-10.1108
▁Day	-10.1116
▁Daniel	-10.1118
▁pre	-10.1118
▁slecht	-10.1125
periode	-10.1132
▁oplossing	-10.1136
▁planten	-10.1141
▁federale	-10.1144
▁rapport	-10.1149
▁Act	-10.1154
ies	-10.1164
▁Californië	-10.1165
▁tour	-10.1168
groepen	-10.1204
bo	-10.1204
▁gevecht	-10.1205
▁mensenrechten	-10.1206
▁gekomen	-10.1219
▁jongere	-10.1222
▁maatschappij	-10.1227
tra	-10.1233
fi	-10.1236
▁Karel	-10.1238
▁gezet	-10.1239
▁straat	-10.1244
▁nauw	-10.1244
▁bedacht	-10.1263
▁vormt	-10.1265
organisatie	-10.1266
▁Bill	-10.127
▁leidt	-10.1272
▁operatie	-10.1274
▁buitenland	-10.1275
isten	-10.1276
▁schrijvers	-10.1281
Europa	-10.1285
ker	-10.1314
▁beelden	-10.1321
▁objecten	-10.1323
▁Formule	-10.1324
▁Ondertussen	-10.1325
▁Am	-10.1328
▁voldoende	-10.1333
▁techniek	-10.1335
▁recente	-10.1339
▁verliezen	-10.1342
▁verzoek	-10.1346
▁vlucht	-10.1347
▁ruim	-10.1348
project	-10.1349
▁bloed	-10.1351
▁mocht	-10.1353
▁directe	-10.137
▁ronde	-10.1371
▁rang	-10.1377
▁Can	-10.1377
si	-10.1377
▁minsten	-10.1381
▁US	-10.1381
▁route	-10.1383
▁exemplaren	-10.1385
▁Hu	-10.1392
ol	-10.1393
▁Great	-10.1399
▁ziekenhuis	-10.1401
vi	-10.1403
▁Anna	-10.1406
▁VN	-10.1413
▁werknemers	-10.1419
▁grootte	-10.1426
▁Car	-10.1428
ast	-10.1429
▁Band	-10.1443
▁aangepast	-10.1446
▁geïnteresseerd	-10.1446
▁bewijzen	-10.1446
▁Wilson	-10.1447
chi	-10.1449
▁actieve	-10.1456
▁zestig	-10.1459
▁verkopen	-10.1465
ey	-10.1474
aanse	-10.1488
▁Y	-10.1489
ij	-10.1491
▁dertig	-10.1508
▁opgevolgd	-10.1508
▁beschrijven	-10.1508
▁Portugal	-10.152
▁bezoekers	-10.1522
▁Carl	-10.1526
▁gedichten	-10.1538
▁achtergrond	-10.1544
▁transport	-10.1547
▁bank	-10.1548
productie	-10.1551
▁afgeleid	-10.1558
▁Ka	-10.1566
ele	-10.1569
▁daarbij	-10.1573
ium	-10.1575
▁verwoest	-10.158
▁High	-10.158
▁begrip	-10.158
▁Johnson	-10.1584
band	-10.159
sk	-10.1612
▁geloven	-10.1633
▁helemaal	-10.1634
▁Ni	-10.1636
▁noemen	-10.1638
beweging	-10.1642
▁duizenden	-10.1647
toenmalige	-10.1648
▁...	-10.1652
▁Jones	-10.1662
ty	-10.1663
baar	-10.1669
tussen	-10.1669
▁historicus	-10.1672
▁regisseur	-10.1674
age	-10.1677
▁As	-10.1678
▁Ierse	-10.1682
▁verlies	-10.1692
▁Ministerie	-10.1697
▁Daarom	-10.1697
▁wetenschappers	-10.1706
▁uitgave	-10.1707
▁literaire	-10.1713
▁gewerkt	-10.1717
▁organiseerde	-10.1717
stad	-10.1719
▁kleuren	-10.1719
▁Pas	-10.1725
▁akkoord	-10.1735
po	-10.1737
ai	-10.1738
▁stukken	-10.1738
▁instellingen	-10.1743
lijn	-10.1743
▁toernooi	-10.1756
▁Max	-10.1756
):	-10.1757
▁verslag	-10.1757
▁afdeling	-10.1757
▁decennia	-10.1759
▁wereldwijde	-10.176
▁paleis	-10.1769
▁oprichter	-10.1771
▁Irak	-10.1772
est	-10.1774
▁Windows	-10.1775
komende	-10.1775
ov	-10.1783
lang	-10.1792
▁Amerikaans	-10.1814
▁digital	-10.1822
▁Jackson	-10.1823
onderhandelingen	-10.1825
bi	-10.1825
▁with	-10.1828
▁Fort	-10.1829
▁speciaal	-10.183
▁Duitsers	-10.184
▁westerse	-10.1845
kzij	-10.1851
▁vermogen	-10.1854
ung	-10.1856
▁klimaat	-10.1858
ho	-10.186
▁personage	-10.1881
▁burgemeester	-10.1881
▁ontsnappen	-10.1887
▁verkrijgen	-10.1887
▁Presley	-10.1887
▁Egyptische	-10.1916
ment	-10.1921
▁ster	-10.1931
▁paarden	-10.1935
▁kiezen	-10.1951
▁gelegenheid	-10.1955
▁Afrikaanse	-10.1959
▁breed	-10.1959
▁Su	-10.1963
▁bezoeken	-10.1964
▁General	-10.1974
▁vluchtelingen	-10.1977
▁jazz	-10.1982
systemen	-10.1982
▁voegde	-10.1989
▁TV	-10.1996
▁ton	-10.1999
▁iedere	-10.1999
zoals	-10.2
licht	-10.2003
▁munten	-10.201
▁ondersteund	-10.2015
▁bevorderen	-10.2017
▁lopen	-10.2019
we	-10.2031
ana	-10.2033
▁vijftig	-10.2034
▁competitie	-10.2048
?"	-10.2064
ier	-10.2067
▁at	-10.207
▁deelnemers	-10.2072
▁gepresenteerd	-10.2082
▁Road	-10.2082
▁sindsdien	-10.2085
▁reed	-10.2088
▁Ter	-10.2097
ville	-10.2104
▁America	-10.2109
▁val	-10.2115
▁Book	-10.2115
▁kapitein	-10.2118
▁Bay	-10.2118
▁speelden	-10.2121
▁verwijderd	-10.2124
▁concerten	-10.2126
▁code	-10.2128
▁solo	-10.2136
▁hart	-10.2138
▁Fransen	-10.214
▁eisen	-10.2143
▁County	-10.2148
▁koos	-10.2148
▁advocaat	-10.2156
▁zond	-10.2158
▁platen	-10.2159
▁vijand	-10.2165
▁gegaan	-10.2165
▁professor	-10.2169
▁Post	-10.2176
▁instrument	-10.2188
▁Of	-10.2189
▁grenzen	-10.2191
▁zonen	-10.2196
▁Simon	-10.2196
▁openbaar	-10.2211
▁Francisco	-10.2214
▁cavalerie	-10.2217
▁ertoe	-10.2225
▁commandant	-10.2226
▁Christian	-10.2233
▁Pan	-10.2237
▁effecten	-10.2238
▁rollen	-10.224
▁risico	-10.2244
ini	-10.2251
un	-10.2253
▁gemiddelde	-10.2263
▁Il	-10.2268
▁noodzakelijk	-10.2271
.”	-10.2271
▁Hitler	-10.228
▁stoppen	-10.228
▁conferentie	-10.2289
▁onderzoeks	-10.2292
ën	-10.2294
eert	-10.2294
▁verklaard	-10.2295
▁erkenning	-10.2296
▁vechten	-10.2298
Wat	-10.23
▁hit	-10.2306
▁klaar	-10.2307
▁Ha	-10.2307
▁kamer	-10.2309
▁Euro	-10.2314
▁ontslag	-10.2315
▁hotel	-10.2316
tel	-10.2318
▁verspreid	-10.2324
▁bezetting	-10.2325
?)	-10.2325
▁zwaar	-10.2331
▁geheim	-10.2332
▁beschrijving	-10.234
▁bood	-10.2346
▁complexe	-10.2346
▁Championship	-10.2347
▁betreft	-10.2347
▁redden	-10.235
eerd	-10.2351
▁aangesteld	-10.2356
▁datum	-10.2357
▁destijds	-10.2374
du	-10.2376
▁werkzaam	-10.2377
▁meisje	-10.238
▁vormden	-10.2382
▁nazi	-10.2382
▁sturen	-10.2395
▁Tu	-10.2399
▁Adam	-10.2409
▁vertaling	-10.2412
▁organiseren	-10.2415
▁verkreeg	-10.2415
▁vrijgelaten	-10.2415
▁voornaamste	-10.2415
▁geassocieerd	-10.2416
▁verdedigen	-10.2417
á	-10.2423
▁advies	-10.2425
▁betekende	-10.2426
val	-10.2426
▁rechter	-10.243
▁acteur	-10.2432
▁discussie	-10.2433
▁schrijft	-10.2437
▁cd	-10.2439
min	-10.2444
▁acties	-10.2445
▁Marine	-10.2455
au	-10.2459
▁Vier	-10.246
▁beslissing	-10.2468
▁persoonlijk	-10.2471
▁Hans	-10.2471
▁Binnen	-10.2483
▁Hendrik	-10.2483
▁vergelijking	-10.2495
▁waarvoor	-10.2498
▁context	-10.2498
team	-10.2498
▁verschil	-10.2504
▁provincies	-10.2505
▁Sun	-10.2505
▁werkten	-10.2507
▁Project	-10.2511
▁vaste	-10.2521
▁krachten	-10.255
▁verbleef	-10.2551
▁Koning	-10.2553
▁Niet	-10.2556
▁uitgenodigd	-10.2557
▁leefde	-10.2558
▁half	-10.2558
▁gevolgen	-10.2559
▁tal	-10.2569
▁feite	-10.2571
▁slechte	-10.2576
ts	-10.2604
▁voorstel	-10.2607
▁ingezet	-10.2617
▁zanger	-10.2618
▁mogen	-10.2622
▁kerken	-10.2624
▁bereid	-10.2627
mar	-10.2629
onder	-10.2641
▁Azië	-10.2652
▁voortdurend	-10.2656
▁prins	-10.266
▁site	-10.2666
▁toren	-10.2667
out	-10.268
▁trein	-10.268
▁gouden	-10.2682
▁tournee	-10.2685
▁Oceaan	-10.269
▁geleverd	-10.269
▁getoond	-10.269
▁gekocht	-10.269
▁Hierdoor	-10.2691
▁Mar	-10.2693
▁waarden	-10.2695
▁complex	-10.271
▁onderneming	-10.2717
ac	-10.2717
▁crisis	-10.2722
▁positieve	-10.2725
▁Joe	-10.2725
▁lengte	-10.2735
▁termijn	-10.274
centrum	-10.2744
▁handels	-10.2757
▁Opera	-10.276
▁toenemend	-10.2763
▁Corporation	-10.2763
▁zeventig	-10.2768
▁belasting	-10.2769
▁Force	-10.2775
▁Chris	-10.2784
▁dacht	-10.2798
▁Science	-10.2813
▁vestigde	-10.2815
▁eten	-10.2816
aat	-10.2829
▁zingen	-10.2832
▁zelfmoord	-10.2833
ap	-10.2842
▁afleveringen	-10.2842
angezien	-10.2851
▁/	-10.2853
hi	-10.2859
school	-10.2861
▁monument	-10.2866
▁boeren	-10.2869
▁Hongaarse	-10.2874
▁locaties	-10.2877
▁Edward	-10.2878
▁oostelijke	-10.2878
▁activiteit	-10.288
▁Hongarije	-10.2899
▁ontwierp	-10.2901
▁Leger	-10.2902
▁twintigste	-10.2904
▁Big	-10.2906
▁Barcelona	-10.2907
▁Per	-10.2908
▁Schotland	-10.2912
▁zagen	-10.2913
▁Hamburg	-10.2915
+	-10.2916
▁gevechten	-10.2922
▁dorpen	-10.2929
ach	-10.2932
▁Awards	-10.2933
▁normale	-10.2938
▁terrein	-10.295
▁song	-10.2951
niet	-10.2952
▁Or	-10.2962
▁toonde	-10.2962
▁Verschillen	-10.2972
aire	-10.2974
▁Jo	-10.2975
▁stopte	-10.2978
▁Women	-10.2979
▁bevestigd	-10.2983
▁fusie	-10.2992
▁Space	-10.3004
▁vertaald	-10.3015
▁schilder	-10.3022
▁behandeld	-10.3027
▁brengt	-10.3027
▁verdwenen	-10.3044
▁Revolutie	-10.3044
▁seksuele	-10.3045
▁geheime	-10.3045
▁Noorse	-10.3045
▁deden	-10.3048
▁Deens	-10.3051
▁Toch	-10.3058
▁fase	-10.306
▁keuze	-10.3063
▁getekend	-10.3064
va	-10.3066
▁kandidaat	-10.3069
ex	-10.3069
▁werking	-10.3072
▁States	-10.3075
▁commando	-10.3079
▁symbool	-10.3079
▁Ra	-10.3094
▁instantie	-10.3102
ese	-10.312
elektrische	-10.3121
▁record	-10.3122
▁oog	-10.3131
▁Academie	-10.3131
▁militair	-10.3133
▁god	-10.3135
▁instrumenten	-10.3138
straat	-10.3139
maal	-10.3149
▁test	-10.3149
▁Latijnse	-10.3152
▁Q	-10.3173
ica	-10.3178
▁onmogelijk	-10.3182
film	-10.3182
water	-10.3187
▁Tegenwoordig	-10.319
▁gelanceerd	-10.319
raad	-10.3193
▁rondom	-10.3195
▁voet	-10.3196
▁Venetië	-10.3199
▁Orde	-10.3202
▁middeleeuws	-10.3204
tre	-10.3213
▁Zwitserse	-10.3214
▁East	-10.3215
▁ontmoet	-10.322
▁klassen	-10.3222
ense	-10.3225
▁Line	-10.3225
▁Si	-10.3246
ah	-10.3251
▁snelle	-10.3255
▁Victoria	-10.3257
waar	-10.3258
zie	-10.3259
▁Arthur	-10.3263
▁eeuwen	-10.3266
▁Theatre	-10.327
▁specifiek	-10.3271
▁toegeschreven	-10.3273
▁Nationaal	-10.3275
▁kantoor	-10.3283
▁Scott	-10.3286
sel	-10.3287
▁constructie	-10.3298
▁artistieke	-10.3303
ö	-10.3312
▁halen	-10.3325
▁Bob	-10.3327
▁uitvoeren	-10.3327
aar	-10.3334
ong	-10.3335
▁getal	-10.3337
▁bevinden	-10.3337
▁gespecialiseerd	-10.3337
▁verschijnt	-10.3337
▁studeren	-10.3337
▁bondgenoten	-10.3337
▁Aarde	-10.3338
▁Indonesië	-10.3341
▁Pierre	-10.3344
▁leveren	-10.3345
▁Sky	-10.3345
▁zulk	-10.3352
▁Buitenlands	-10.3353
▁verplaatst	-10.3354
bel	-10.3359
▁Iran	-10.3364
▁stammen	-10.3368
▁personages	-10.3372
▁student	-10.3372
lu	-10.3373
▁Port	-10.3374
▁stenen	-10.339
▁inhoud	-10.3392
▁Hotel	-10.3407
▁valt	-10.3408
▁beweert	-10.3412
▁exact	-10.3412
▁samengesteld	-10.3413
▁geschikt	-10.3414
▁producent	-10.3415
tor	-10.3427
▁richt	-10.3428
▁veiligheids	-10.3434
▁trouwen	-10.3435
▁boord	-10.3437
muziek	-10.344
spel	-10.3445
▁bedoeling	-10.3455
▁schilderij	-10.3455
sh	-10.3463
▁gepland	-10.3465
▁volgden	-10.3466
▁goden	-10.3466
▁kader	-10.3469
▁gitaar	-10.3471
con	-10.3473
▁Mars	-10.3476
ara	-10.3485
▁niemand	-10.3487
▁tegelijkertijd	-10.3487
▁lijnen	-10.349
▁initiatief	-10.3491
▁ernstige	-10.3492
▁universiteiten	-10.3493
▁sociaal	-10.3493
▁duur	-10.3498
▁nederlaag	-10.3499
▁May	-10.3501
▁voordeel	-10.3501
▁moslims	-10.3506
▁vermoedelijk	-10.3511
▁democratie	-10.3513
▁juridische	-10.3528
▁micro	-10.3531
▁onderzoekers	-10.3541
▁pers	-10.3542
▁Service	-10.3557
▁republiek	-10.3561
▁verkregen	-10.3563
▁Leiden	-10.3564
▁centraal	-10.3565
▁del	-10.3567
▁nadruk	-10.3569
ari	-10.3569
mede	-10.3573
▁historici	-10.3577
▁beschuldigd	-10.358
▁lezen	-10.3583
▁Finland	-10.3584
▁Young	-10.3584
▁Good	-10.3587
punt	-10.3597
▁Jim	-10.3603
nes	-10.3619
▁opzichte	-10.3625
▁heet	-10.3635
▁alliantie	-10.3637
▁Magazine	-10.3639
▁kenmerken	-10.3642
▁Ro	-10.3654
▁gas	-10.366
▁Press	-10.3662
ll	-10.3667
ab	-10.367
taal	-10.367
▁winkel	-10.3674
qu	-10.3676
▁Prins	-10.3681
Azië	-10.3681
▁voorkeur	-10.3683
▁geslacht	-10.3685
▁Lo	-10.37
▁belangen	-10.3708
▁omvatten	-10.371
▁document	-10.3711
▁westelijke	-10.3711
▁tachtig	-10.3716
▁zichtbaar	-10.3719
dienst	-10.3721
▁figuur	-10.3733
▁heerschappij	-10.3734
nummer	-10.3734
▁Top	-10.3744
aw	-10.3747
▁Long	-10.3756
lijk	-10.3757
▁meester	-10.3775
▁première	-10.3779
▁verbinding	-10.38
▁geschat	-10.3803
Atlantische	-10.3804
▁strategisch	-10.381
▁waarheid	-10.381
▁opgesteld	-10.3811
▁honderden	-10.3821
▁kende	-10.3826
▁opening	-10.3827
▁Vlaamse	-10.3834
▁beroep	-10.3844
gi	-10.385
▁kanaal	-10.3856
▁precies	-10.3872
▁gevangengenomen	-10.3872
▁vastgesteld	-10.3872
▁hiervoor	-10.3875
▁Brits	-10.3878
▁personeel	-10.3881
▁Centre	-10.3883
▁aangevallen	-10.3885
▁stap	-10.389
▁pensioen	-10.389
▁Florida	-10.3893
▁bijnaam	-10.3894
▁Alleen	-10.39
▁promotie	-10.3901
▁zon	-10.3902
handel	-10.3906
▁aandeel	-10.391
▁maan	-10.3916
▁adviseur	-10.392
president	-10.3925
▁teams	-10.3932
▁haalde	-10.3936
iteit	-10.3936
ani	-10.3939
▁gebeurde	-10.3944
ud	-10.3944
▁regel	-10.3947
▁gevaar	-10.395
▁Council	-10.3951
▁Lodewijk	-10.3951
▁behoort	-10.3951
▁hiermee	-10.3951
▁troon	-10.3951
▁gewoonlijk	-10.3952
▁definitie	-10.3961
▁Sea	-10.3965
▁loopt	-10.3972
▁geschriften	-10.3975
▁treden	-10.3989
▁Little	-10.3991
▁Ba	-10.4006
▁Sch	-10.4012
ay	-10.4015
he	-10.4018
▁River	-10.4019
▁vielen	-10.402
line	-10.403
▁Academy	-10.403
▁reputatie	-10.403
▁Google	-10.403
▁toegestaan	-10.403
▁herstellen	-10.4031
▁redacteur	-10.4031
▁conflicten	-10.4031
ding	-10.4036
air	-10.4046
▁hoofdkwartier	-10.4049
ino	-10.4049
▁partner	-10.4052
rat	-10.4054
markt	-10.4057
%)	-10.4063
▁trokken	-10.4064
▁Les	-10.4066
▁aspecten	-10.4068
▁bands	-10.4074
▁journalist	-10.409
▁kent	-10.4098
ngeveer	-10.4103
▁brak	-10.4104
▁verschijnen	-10.411
▁verslaan	-10.411
▁Ki	-10.411
▁afgelopen	-10.411
▁verving	-10.4111
▁formele	-10.412
▁Live	-10.4122
▁kaarten	-10.4124
▁vergadering	-10.4132
▁Bond	-10.4135
▁ziek	-10.4135
▁betere	-10.4136
▁Ford	-10.4137
▁Union	-10.4139
▁opname	-10.4146
▁opnamen	-10.4159
▁Mu	-10.4161
La	-10.4161
and	-10.4163
▁genomineerd	-10.4164
▁element	-10.4164
▁vocht	-10.4167
▁Latijns	-10.4168
cultuur	-10.4173
▁stichtte	-10.4176
Man	-10.4177
▁boot	-10.4183
▁Anne	-10.4185
▁patiënten	-10.4185
▁heden	-10.4187
▁Bijbel	-10.4189
▁toegewezen	-10.4191
▁Elizabeth	-10.4191
▁introductie	-10.4191
▁Roland	-10.4193
▁daardoor	-10.4194
▁Sicilië	-10.4209
▁negatieve	-10.4209
▁titels	-10.4213
▁rock	-10.4214
▁Nick	-10.4219
▁toezicht	-10.4222
▁eenvoudig	-10.4227
▁inspanningen	-10.423
▁hertog	-10.4234
▁Matt	-10.4242
▁graaf	-10.4248
▁capaciteit	-10.4249
▁interne	-10.4249
▁unieke	-10.4254
▁voorwaarden	-10.4258
▁zender	-10.4271
▁overeenstemming	-10.4272
ru	-10.4274
▁historisch	-10.4281
▁Microsoft	-10.4285
ep	-10.4291
▁ochtend	-10.4292
boek	-10.4298
▁verzameld	-10.4306
▁primaire	-10.4307
▁bewust	-10.4313
▁laag	-10.4314
stra	-10.4314
▁kabinet	-10.432
▁academische	-10.4327
▁Night	-10.4333
▁technieken	-10.4333
▁News	-10.4339
▁behoorde	-10.4341
▁schaal	-10.4345
▁alternatieve	-10.4349
▁principe	-10.435
▁object	-10.4351
▁Suriname	-10.4353
▁promoten	-10.4354
lid	-10.4354
▁gestart	-10.4355
▁overeen	-10.4357
show	-10.4357
▁rode	-10.4361
▁gescheiden	-10.4364
▁Special	-10.4369
achtige	-10.4371
▁verblijf	-10.4371
vin	-10.4375
▁Hoe	-10.4376
▁complete	-10.4381
▁inheemse	-10.4386
ang	-10.4391
▁Bell	-10.4401
▁ruil	-10.4402
▁prominente	-10.4403
▁maatregelen	-10.4404
▁veilig	-10.4405
▁Orchestra	-10.4424
tu	-10.4424
▁tijdelijk	-10.4424
ny	-10.4431
stijl	-10.4431
▁los	-10.4434
▁doorgaan	-10.4436
▁Philippus	-10.4437
▁belangstelling	-10.4437
▁zijde	-10.4439
▁President	-10.4445
▁Ar	-10.4447
▁tijden	-10.4452
▁bijeenkomst	-10.4453
▁Santa	-10.446
▁auteurs	-10.4464
▁onderdelen	-10.4464
▁beurt	-10.4468
▁ontslagen	-10.4477
▁hoogleraar	-10.4479
▁dient	-10.4486
kampioenschap	-10.4488
▁Vlaanderen	-10.4488
▁Lord	-10.4491
▁bergen	-10.4493
album	-10.45
▁zesde	-10.4505
▁voertuigen	-10.4505
▁Seleucus	-10.452
▁aangeboden	-10.452
▁leek	-10.452
▁riep	-10.4521
▁Eén	-10.4521
tro	-10.4523
▁Ho	-10.4523
▁officieren	-10.4525
▁singles	-10.4526
▁neef	-10.453
▁Nederlanden	-10.4531
▁bed	-10.4545
▁betreffen	-10.4548
▁vrijwilligers	-10.4551
▁opgezet	-10.4553
zi	-10.4566
▁testen	-10.4567
▁operaties	-10.4568
▁Ca	-10.4569
staat	-10.4578
▁an	-10.4578
▁fort	-10.4579
▁economisch	-10.4581
▁benadering	-10.4582
▁tijdperk	-10.4584
▁Heilige	-10.459
▁vijftien	-10.4592
Ma	-10.4595
▁geallieerde	-10.4595
▁geleidelijk	-10.4595
kerk	-10.4597
▁allen	-10.4598
▁mogelijkheden	-10.4601
anvankelijk	-10.4601
▁eer	-10.4604
▁vertrouwen	-10.4604
▁commentaar	-10.4604
▁sterven	-10.4605
▁Taylor	-10.4608
▁aangewezen	-10.4611
cha	-10.4612
▁hervormingen	-10.4622
▁Best	-10.4622
▁Team	-10.463
bouw	-10.4639
▁Pa	-10.4641
▁gewond	-10.4652
▁theorieën	-10.4656
deel	-10.4666
▁verbeterde	-10.4667
▁maal	-10.4668
▁gewone	-10.4674
▁platform	-10.4677
▁winnaar	-10.468
wereld	-10.4686
▁oorzaak	-10.4689
▁vertellen	-10.4689
▁Senaat	-10.4689
▁gecreëerd	-10.4689
▁begrijpen	-10.469
▁doelen	-10.4694
ish	-10.4695
kin	-10.4697
▁banden	-10.4698
▁voorbij	-10.4699
▁gratis	-10.4702
▁Harry	-10.4703
▁merkte	-10.4704
▁indruk	-10.4712
▁kwestie	-10.4718
▁Water	-10.4719
schepen	-10.4719
MS	-10.4735
vertegenwoordigd	-10.4738
▁#	-10.4742
▁voorheen	-10.4743
▁oorlogen	-10.4745
▁jongen	-10.4751
▁congres	-10.4755
▁leer	-10.4756
▁kopen	-10.4756
▁echtgenote	-10.4759
▁passen	-10.4759
familie	-10.4765
q	-10.4768
ng	-10.4769
▁Oorspronkelijk	-10.4774
▁gekenmerkt	-10.4774
▁vooruitgang	-10.4774
▁bewind	-10.4775
▁Morgan	-10.4775
▁zuster	-10.4776
▁verzamelen	-10.4778
▁debat	-10.4779
▁France	-10.4782
▁inbegrip	-10.4782
ici	-10.4784
▁poëzie	-10.4788
▁gemeenschappen	-10.4791
▁zitten	-10.4794
▁oppervlakte	-10.4797
▁gast	-10.4799
elijke	-10.4806
▁wegen	-10.4823
▁regime	-10.4827
▁groeiende	-10.4829
▁ambassadeur	-10.4829
▁Gu	-10.483
▁rekening	-10.4836
▁gemakkelijk	-10.4836
▁Da	-10.484
naam	-10.4847
▁heette	-10.4848
▁wijk	-10.4849
▁ernstig	-10.485
▁verwijzen	-10.4854
lla	-10.4855
off	-10.4856
▁Lewis	-10.486
ahá	-10.4867
▁omvang	-10.4868
meer	-10.4873
▁jongens	-10.4873
▁Cuba	-10.4875
▁manieren	-10.4881
▁geloofde	-10.4885
▁seks	-10.4886
leven	-10.4892
▁lot	-10.4892
▁luitenant	-10.4899
▁vijanden	-10.4903
▁verteld	-10.4905
▁keizerlijke	-10.4907
▁vriendin	-10.4907
▁tuin	-10.492
▁vervoer	-10.4921
▁voldoen	-10.4926
▁Marie	-10.4932
▁Jacob	-10.4936
▁Up	-10.494
eg	-10.4945
▁geregisseerd	-10.4948
ou	-10.4949
▁Russisch	-10.4954
Duitsland	-10.4955
▁Afghanistan	-10.4958
▁Prix	-10.4959
▁hernoemd	-10.4964
▁leidden	-10.4965
▁Europe	-10.4969
▁ware	-10.4977
▁Schotse	-10.4977
recht	-10.4985
▁Han	-10.4988
▁instituut	-10.4988
ary	-10.4992
▁vereist	-10.4992
▁optredens	-10.4994
▁etnische	-10.4995
▁leerlingen	-10.5
▁verovering	-10.5002
▁versloeg	-10.5003
▁gedicht	-10.5004
▁do	-10.5012
▁vertrek	-10.5019
▁Game	-10.502
ff	-10.5022
▁Po	-10.5022
▁con	-10.5023
vrouw	-10.5025
▁lanceerde	-10.5025
▁hemel	-10.5026
▁Caesar	-10.5026
▁deels	-10.5027
▁overtuigd	-10.5031
▁History	-10.504
▁opnames	-10.5041
▁hersteld	-10.5042
veld	-10.5045
▁stadion	-10.5047
▁beheer	-10.5049
▁Pe	-10.505
▁Walter	-10.5051
▁variant	-10.5051
▁oom	-10.5053
▁Williams	-10.5054
▁graf	-10.5056
▁gevoel	-10.5056
▁Mor	-10.5057
▁hout	-10.5059
▁ingevoerd	-10.5072
▁juist	-10.5076
▁Heer	-10.5076
▁Tibetaans	-10.5076
tic	-10.5083
erde	-10.5085
eenheid	-10.5087
▁bevond	-10.5091
▁Mi	-10.5096
▁leraar	-10.5096
▁Her	-10.5099
▁Un	-10.5109
▁processen	-10.5122
▁populariteit	-10.5123
▁versterken	-10.5123
▁Party	-10.5125
▁bestuderen	-10.5126
▁koningen	-10.5127
communistische	-10.5127
▁hoogtepunt	-10.5131
▁bevestigde	-10.5134
▁enig	-10.5137
▁Bernard	-10.5138
iaanse	-10.5139
plaats	-10.5142
▁wees	-10.5142
▁Bush	-10.5143
▁Jezus	-10.5144
▁beperkte	-10.515
▁clubs	-10.5156
▁Inter	-10.5158
▁aandelen	-10.5161
▁Fu	-10.5162
▁fysieke	-10.5169
▁ijs	-10.517
▁Se	-10.518
▁producer	-10.5182
▁ring	-10.5187
▁gebruikten	-10.519
▁dateert	-10.5191
diensten	-10.5198
▁creëerde	-10.5202
koloniale	-10.5213
▁zit	-10.5217
▁Oxford	-10.5227
▁Marokko	-10.523
▁Ali	-10.5232
▁evenementen	-10.5235
▁ouder	-10.5237
park	-10.5238
▁medewerkers	-10.5244
▁manager	-10.5244
ruimte	-10.5245
modellen	-10.5253
▁gemeenten	-10.5254
▁malen	-10.5257
▁heilige	-10.5261
▁witte	-10.5265
▁steen	-10.5266
▁Back	-10.5269
▁magazine	-10.5285
▁goedgekeurd	-10.5292
▁Frederik	-10.5303
▁uitgereikt	-10.5303
▁vergelijkbare	-10.5303
▁ervaringen	-10.5305
▁zoveel	-10.5307
▁Je	-10.5309
▁gebeurtenis	-10.531
▁interpretatie	-10.531
▁Jeruzalem	-10.5314
▁Office	-10.5315
▁mannelijke	-10.5318
▁Light	-10.5319
▁Kunst	-10.5319
▁Vele	-10.533
ura	-10.5333
kant	-10.5336
mann	-10.5339
▁Kamer	-10.5342
▁Lu	-10.5356
▁ingesteld	-10.5359
▁slotte	-10.5361
fabriek	-10.5366
▁visie	-10.537
▁und	-10.5372
▁kleding	-10.5379
▁gezicht	-10.5381
ku	-10.5384
rechten	-10.5385
▁sector	-10.5386
wi	-10.5387
▁Karl	-10.5389
▁fout	-10.5389
▁Israëlisch	-10.5389
▁snelheid	-10.5393
▁vernietigen	-10.5394
▁Out	-10.5394
▁voorstander	-10.5395
▁verzamelde	-10.5398
▁Grieken	-10.54
▁System	-10.5406
▁Lake	-10.5408
▁wijzen	-10.541
▁arbeiders	-10.5415
rom	-10.5418
▁private	-10.5418
▁kijken	-10.5422
▁Nederlanders	-10.5429
▁End	-10.543
▁kinder	-10.5432
▁verkiezing	-10.5434
▁komst	-10.5445
We	-10.5445
▁onderhouden	-10.5446
▁Zelfs	-10.5449
▁benoeming	-10.5452
▁zetel	-10.5454
▁terugkeren	-10.5461
▁meldde	-10.547
▁beheerd	-10.5471
▁rechts	-10.5472
▁arts	-10.5474
▁training	-10.5475
▁Arts	-10.548
▁rechtstreeks	-10.5486
▁Naar	-10.5487
▁jongste	-10.5487
▁weinige	-10.5488
▁or	-10.5491
ijn	-10.55
▁protest	-10.5501
▁democratische	-10.5502
▁aanpak	-10.5504
ef	-10.5504
▁normaal	-10.5507
▁Finse	-10.5508
▁tijdschriften	-10.5515
▁erkende	-10.5515
code	-10.5522
▁Boy	-10.5523
▁spreekt	-10.5524
▁woonden	-10.5527
▁Leopold	-10.5534
▁uitgever	-10.5534
res	-10.5536
▁chemische	-10.5536
▁selectie	-10.5541
▁scenario	-10.5546
▁Ta	-10.5549
▁behoren	-10.5551
▁infanterie	-10.5552
▁legers	-10.5553
▁muur	-10.5554
▁menselijk	-10.5558
▁principes	-10.5564
▁zorg	-10.5565
▁liedjes	-10.557
▁uitsluitend	-10.5581
▁spoorweg	-10.5582
▁veroorzaakte	-10.5582
▁Argentinië	-10.5586
▁toerde	-10.5587
▁Minister	-10.5589
▁camera	-10.5592
▁mislukte	-10.5593
▁gedeeld	-10.5594
▁Ottomaanse	-10.5594
▁ca	-10.5595
▁figuren	-10.5597
toe	-10.5601
▁teken	-10.5603
▁zwart	-10.5607
▁Witte	-10.5608
▁Power	-10.561
Afrikaanse	-10.561
ting	-10.5624
▁details	-10.5624
▁oppositie	-10.5626
▁beschermd	-10.564
▁kranten	-10.5643
partij	-10.5665
▁lagere	-10.5665
▁honderd	-10.5669
▁verbannen	-10.5672
▁Atheners	-10.5672
▁getroffen	-10.5673
▁Army	-10.5673
▁werkelijkheid	-10.5673
▁Otto	-10.5673
▁vertrokken	-10.5673
▁bijgedragen	-10.5674
▁Hierna	-10.5679
▁Veiligheidsraad	-10.5683
▁genetisch	-10.5684
▁burger	-10.5685
▁zorgt	-10.5685
▁Journal	-10.5688
▁Juan	-10.5695
▁hielden	-10.5701
▁Vol	-10.5702
▁bewustzijn	-10.5703
▁gitarist	-10.571
▁Val	-10.5715
▁elf	-10.5719
▁Bur	-10.5719
▁moslim	-10.5721
yn	-10.5727
▁experimenten	-10.5738
▁veroverde	-10.5745
▁verklaren	-10.5766
▁aangetoond	-10.5766
▁reële	-10.5766
▁langzaam	-10.5766
▁Wood	-10.5768
▁kampioenschap	-10.5771
▁Portugese	-10.5778
▁licentie	-10.5781
▁aankomst	-10.5784
▁Internationaal	-10.5784
▁vliegen	-10.5788
▁straf	-10.579
bal	-10.5791
▁beval	-10.5792
ford	-10.5801
wood	-10.5803
Europese	-10.5805
nt	-10.5815
▁Ban	-10.5815
▁benoemde	-10.5816
▁Home	-10.5818
▁stappen	-10.5822
▁meteen	-10.5827
▁ep	-10.5834
ron	-10.5837
▁levens	-10.5839
▁overige	-10.584
▁toestand	-10.5845
▁bemanning	-10.5846
▁Will	-10.5847
▁Tri	-10.586
▁Ku	-10.586
oorlog	-10.5861
▁beschouwen	-10.5861
▁commercieel	-10.5861
▁graag	-10.5861
▁geluid	-10.5861
▁Bijvoorbeeld	-10.5862
▁ervaren	-10.5864
▁taken	-10.5866
▁uitgerust	-10.5866
iële	-10.5866
▁getuigen	-10.5874
▁onbekende	-10.5874
▁Miller	-10.5875
▁Series	-10.588
▁klanten	-10.5885
▁geregistreerd	-10.5887
▁Indonesisch	-10.5887
▁Stichting	-10.5887
▁talrijke	-10.5888
▁wezen	-10.5896
▁verplicht	-10.59
▁Your	-10.59
▁Vereniging	-10.59
han	-10.5904
▁vervolg	-10.5909
burg	-10.591
▁strijdkrachten	-10.591
▁ontmoeting	-10.5911
▁rijden	-10.5911
▁Ken	-10.5917
▁machine	-10.5917
▁geraakt	-10.5924
▁sprake	-10.5933
▁zangeres	-10.5938
▁juiste	-10.5938
▁sporen	-10.5939
▁toegankelijk	-10.5953
uur	-10.5953
▁Napoleon	-10.5956
▁veroveren	-10.5957
▁duo	-10.5958
▁Boston	-10.5958
▁immigranten	-10.5961
▁antwoordde	-10.5962
ity	-10.5964
▁Syrië	-10.5969
▁binnenlandse	-10.5971
▁geïdentificeerd	-10.5976
▁Ross	-10.5977
▁monarchie	-10.5983
▁hard	-10.5984
▁vermeldt	-10.5987
▁steunen	-10.5988
▁release	-10.5994
▁vriendschap	-10.5998
▁cover	-10.6001
▁bos	-10.6002
▁Gent	-10.6009
Oosten	-10.6012
▁toestel	-10.6014
aparte	-10.6016
▁angst	-10.6022
▁Wij	-10.603
▁spoor	-10.6032
▁composities	-10.6037
▁middelbare	-10.6046
▁Human	-10.6047
▁schilderde	-10.6051
▁leerling	-10.6052
▁Madrid	-10.6054
▁Middellandse	-10.6054
▁geëxecuteerd	-10.6054
▁fundamentele	-10.6055
nam	-10.6055
▁burgeroorlog	-10.6055
▁gekend	-10.6064
▁Arabisch	-10.6065
▁qua	-10.6067
▁invloedrijke	-10.6081
bedrijven	-10.6105
▁staats	-10.6117
ator	-10.612
cy	-10.6121
▁prestaties	-10.6121
▁songs	-10.6123
dy	-10.6129
▁formeel	-10.6143
▁vervanging	-10.6152
▁waargenomen	-10.6156
▁eindigt	-10.6158
rd	-10.6171
▁apart	-10.6179
ran	-10.6182
▁steunde	-10.6184
▁kathedraal	-10.6189
▁Vrij	-10.6191
ub	-10.6196
▁portretten	-10.6201
universiteit	-10.6207
▁verwacht	-10.6208
▁FC	-10.6213
ada	-10.6217
vorm	-10.6223
▁bedrag	-10.6234
▁arriveerde	-10.6236
▁ontwikkelingen	-10.6242
▁methoden	-10.6247
▁opgeheven	-10.6251
▁traditioneel	-10.6251
▁afgebeeld	-10.6251
▁gefinancierd	-10.6252
▁Fiat	-10.6252
evens	-10.6253
▁leed	-10.6253
organisaties	-10.6254
▁wijn	-10.6254
▁Tony	-10.6256
▁bekendgemaakt	-10.6257
▁Tibet	-10.626
▁herstel	-10.626
▁Law	-10.626
▁Theater	-10.626
▁slachtoffer	-10.6266
▁Braziliaanse	-10.6272
▁VI	-10.6275
▁Texas	-10.6282
▁incident	-10.6282
schip	-10.6282
▁opkomst	-10.6283
▁Miss	-10.6285
▁gewicht	-10.6285
▁planeet	-10.6289
▁muren	-10.6289
▁Latijn	-10.6294
tie	-10.6302
▁Oude	-10.6303
▁winst	-10.6304
els	-10.6311
▁Amerikanen	-10.6319
▁versterkt	-10.632
▁vliegveld	-10.6331
▁bekendheid	-10.6334
▁gang	-10.6335
▁à	-10.6337
grote	-10.6337
▁Ga	-10.6339
▁Gold	-10.6342
gel	-10.6343
▁instelling	-10.6344
bu	-10.6344
▁volle	-10.635
▁effectief	-10.6352
mp	-10.6352
▁Airport	-10.6352
▁administratieve	-10.6353
▁Davis	-10.6355
▁Station	-10.6355
▁Sol	-10.6362
▁Hof	-10.6363
▁Corps	-10.6368
▁Studio	-10.6379
▁drugs	-10.6381
▁uitspraak	-10.6382
leger	-10.6383
▁toepassingen	-10.6387
▁circa	-10.6407
▁Sparta	-10.6414
▁tak	-10.6417
▁geldt	-10.6418
▁Who	-10.6421
▁management	-10.6421
▁onderscheid	-10.6423
werken	-10.6434
zij	-10.6435
▁Ti	-10.6436
lijke	-10.6447
▁Cha	-10.6452
▁christendom	-10.6453
▁overtuigen	-10.6454
▁bewegingen	-10.6456
▁hierop	-10.6461
▁München	-10.6461
▁negentig	-10.6462
▁opvattingen	-10.6467
▁Har	-10.647
▁contacten	-10.6471
▁lokaal	-10.6472
kamp	-10.6475
one	-10.6484
▁heerser	-10.6487
▁Koninklijk	-10.6488
▁Lady	-10.6489
▁DNA	-10.6492
ph	-10.6498
▁sleutel	-10.6499
▁lossen	-10.6499
▁Eric	-10.6502
▁classificatie	-10.6509
▁inter	-10.6518
▁behield	-10.6522
▁Groep	-10.6523
▁Wales	-10.6528
▁domein	-10.6541
▁Alfred	-10.6548
▁evolutie	-10.6554
▁logica	-10.6555
▁bevriend	-10.6555
▁Bowie	-10.6555
▁publiceren	-10.6555
▁Navy	-10.6556
▁uitgeroepen	-10.6557
▁ontbonden	-10.6558
gemeenschap	-10.6559
▁Spelen	-10.656
▁Grant	-10.6565
▁compleet	-10.6568
▁gezamenlijk	-10.6568
▁meisjes	-10.6571
▁baby	-10.6571
maatschappelijke	-10.6575
▁elektronische	-10.6577
▁you	-10.6577
▁Communistisch	-10.658
▁gerelateerd	-10.658
▁beschadigd	-10.6581
▁front	-10.6581
▁Real	-10.6584
▁legende	-10.6584
▁bevonden	-10.6592
▁indien	-10.6595
era	-10.66
let	-10.6602
loop	-10.6606
▁Song	-10.6607
▁afzonderlijke	-10.6607
▁heer	-10.6614
▁oorlogs	-10.6614
ive	-10.6615
▁bezet	-10.6617
campagne	-10.6621
▁plaatsvond	-10.6625
proces	-10.6631
▁plaatste	-10.6633
▁lagen	-10.6636
▁uiteindelijke	-10.6646
ging	-10.6651
▁gezamenlijke	-10.6653
▁Grieks	-10.6654
▁beslag	-10.6656
▁inkomsten	-10.6656
▁verwierf	-10.6658
▁morele	-10.6658
▁grootvader	-10.6659
commissie	-10.666
ys	-10.6662
▁Parker	-10.6671
▁wetgeving	-10.6671
▁Milaan	-10.6671
▁gezag	-10.6676
▁geneeskunde	-10.6678
▁storm	-10.6678
sverkiezingen	-10.668
▁kapel	-10.6685
tan	-10.6685
Korea	-10.6688
mans	-10.6688
▁Steve	-10.6691
▁planning	-10.6692
▁voorwaarde	-10.6693
▁Ne	-10.6697
Olympische	-10.67
▁Chi	-10.6701
▁kampioen	-10.6702
▁Sport	-10.6703
▁belastingen	-10.6706
troepen	-10.6709
bar	-10.671
▁kleiner	-10.6719
Indië	-10.6727
lon	-10.673
▁veroverd	-10.6736
don	-10.6745
▁voelde	-10.6747
▁Democratisch	-10.6749
nik	-10.6758
lan	-10.6759
field	-10.6762
▁gewijzigd	-10.6762
▁scoorde	-10.6762
▁Genève	-10.6762
▁ondersteunt	-10.6762
▁Court	-10.6762
▁vergeleken	-10.6762
▁nood	-10.6762
▁Antonio	-10.6763
▁overgebracht	-10.6766
▁Russen	-10.6768
▁diplomatiek	-10.677
▁winkels	-10.6771
▁Macedonië	-10.6774
▁concurrentie	-10.6776
▁vroeger	-10.6778
ita	-10.6779
wet	-10.678
▁Cambridge	-10.6785
▁vers	-10.6786
▁Bad	-10.6786
if	-10.679
▁Ju	-10.6799
▁toneel	-10.6813
▁componisten	-10.682
▁tekenen	-10.6821
▁geheugen	-10.6821
▁dochters	-10.6828
▁bedreiging	-10.6834
voering	-10.6835
aak	-10.6836
▁zocht	-10.6836
Zeeland	-10.6839
▁as	-10.684
fer	-10.6841
▁+	-10.6843
▁stelden	-10.6846
ich	-10.6855
▁i	-10.686
▁ballingschap	-10.6867
▁zodanig	-10.6867
▁debuutalbum	-10.6868
▁Beach	-10.6868
▁bovendien	-10.6869
ero	-10.6869
▁ha	-10.6872
▁Stone	-10.6873
museum	-10.6875
▁Mr	-10.6875
▁Mall	-10.6876
▁PlayStation	-10.6876
▁Spaans	-10.6881
▁beëindigd	-10.6888
▁brede	-10.6888
▁Dark	-10.6896
▁priester	-10.6902
▁Trans	-10.6904
meenschappelijke	-10.6913
▁ontmoeten	-10.6914
later	-10.6915
kamer	-10.6916
▁Boek	-10.692
art	-10.6931
▁Philip	-10.6932
▁gered	-10.6945
▁hits	-10.6947
▁tegenstanders	-10.6955
▁Via	-10.6958
▁Der	-10.6959
og	-10.6966
▁sommigen	-10.6968
▁District	-10.6973
▁geregeld	-10.6973
▁praten	-10.6973
station	-10.6974
▁Forum	-10.6977
▁Clark	-10.6983
▁Abraham	-10.6983
▁vertrekken	-10.6986
▁Filips	-10.6986
▁Gi	-10.6987
▁Roger	-10.6987
▁keerden	-10.6987
▁romans	-10.6987
▁Modern	-10.6987
cu	-10.6989
▁Hollywood	-10.6991
▁betrokkenheid	-10.6992
▁terugkeerde	-10.6993
▁inkomen	-10.6996
bit	-10.6997
▁behoefte	-10.7005
▁Nog	-10.701
car	-10.7015
▁aanbod	-10.7036
▁betaalde	-10.7049
▁Ab	-10.705
▁college	-10.7054
tjes	-10.7055
▁Hart	-10.7057
▁tijde	-10.7058
▁protesten	-10.7059
▁dubbel	-10.7061
▁Inc	-10.7067
hal	-10.7078
▁Wit	-10.708
▁Committee	-10.7081
▁gesteund	-10.7081
▁Wolfgang	-10.7081
▁rechtszaak	-10.7081
▁Coast	-10.7084
▁Central	-10.7084
▁natuurlijk	-10.7085
▁Ball	-10.7085
▁consul	-10.7085
▁Vrede	-10.7088
▁geselecteerd	-10.7089
▁bezittingen	-10.7094
▁automatisch	-10.7099
▁NAVO	-10.7102
▁soundtrack	-10.711
dom	-10.711
▁vroegste	-10.7113
▁scheiding	-10.7114
▁armen	-10.7117
▁investeringen	-10.7117
▁Leo	-10.7119
▁hoofdrol	-10.7119
▁vis	-10.7123
▁Mega	-10.7124
▁Class	-10.7125
▁lezingen	-10.7131
ata	-10.7135
▁Mike	-10.714
fa	-10.7155
zer	-10.7157
▁belast	-10.7158
ä	-10.7159
▁deelnemen	-10.7159
▁What	-10.7161
▁kolonie	-10.7162
eur	-10.7164
▁podium	-10.7166
maatschappijen	-10.7167
▁agenten	-10.7173
bijvoorbeeld	-10.7175
▁pop	-10.7177
dia	-10.7181
plan	-10.7183
▁by	-10.7183
▁luchtmacht	-10.7187
▁rijkdom	-10.7189
▁geïnstalleerd	-10.719
▁overgebleven	-10.719
▁Entertainment	-10.719
▁locomotieven	-10.719
▁Story	-10.7191
▁IJsland	-10.7192
▁markten	-10.7195
▁multi	-10.7198
▁strategie	-10.7199
pt	-10.7199
▁Bahá	-10.7203
▁Paus	-10.7203
▁tweemaal	-10.7207
▁algebraïsche	-10.7209
▁schuld	-10.7213
▁wind	-10.7218
geschiedenis	-10.7219
▁verlieten	-10.7228
▁Design	-10.7228
fe	-10.7233
▁christenen	-10.7235
▁Sports	-10.7235
▁concludeerde	-10.7236
▁culturen	-10.7238
▁gelegd	-10.7239
▁voltooide	-10.7244
▁erfgoed	-10.7246
wille	-10.7247
▁stedelijke	-10.7254
way	-10.7255
ette	-10.726
▁lieten	-10.7262
▁manuscript	-10.7267
▁diep	-10.7271
stein	-10.7278
▁Old	-10.728
▁factor	-10.7281
▁lidstaten	-10.7294
ros	-10.7295
▁aangetroffen	-10.7299
▁hoofdzakelijk	-10.7299
▁uitgeverij	-10.7302
vol	-10.7302
▁veertig	-10.7304
▁familieleden	-10.7305
▁bureau	-10.7309
beleid	-10.731
▁Indiase	-10.7312
▁FM	-10.7312
▁Earth	-10.7314
▁Pi	-10.7315
▁Aziatische	-10.7321
▁hoofdstuk	-10.7322
bureau	-10.7326
ets	-10.7338
▁kandidaten	-10.7341
▁prototype	-10.7342
▁Tim	-10.7344
▁integratie	-10.7357
▁Ray	-10.737
▁boom	-10.7371
onderzoek	-10.7371
▁halve	-10.7372
ges	-10.7372
bra	-10.7378
▁appartement	-10.7378
"-	-10.7378
▁twijfel	-10.7384
▁terecht	-10.7386
▁verwijzing	-10.7392
án	-10.7399
uk	-10.74
▁Johan	-10.7403
ola	-10.7407
▁Alan	-10.7408
▁overzicht	-10.7409
▁plotseling	-10.7411
▁breiden	-10.7411
▁José	-10.7411
▁seconden	-10.7415
▁aartsbisschop	-10.7416
▁geaccepteerd	-10.7417
▁artillerie	-10.7421
▁verspreiding	-10.7421
▁eiste	-10.7424
▁muzikanten	-10.7426
▁aanslag	-10.7429
Al	-10.743
▁moskee	-10.7432
▁individuen	-10.7437
▁Renault	-10.7441
▁Andrew	-10.7442
▁innovatie	-10.7445
▁Anton	-10.7446
▁Ru	-10.745
▁munt	-10.7454
ram	-10.7458
▁At	-10.746
▁ongeluk	-10.7462
maar	-10.7463
▁bier	-10.7464
▁game	-10.7466
▁bijeen	-10.747
▁pad	-10.7473
▁bekritiseerd	-10.7473
ez	-10.7474
ii	-10.7476
▁toename	-10.7484
▁Columbia	-10.7492
▁brigade	-10.7498
erd	-10.7502
ris	-10.7503
wat	-10.7506
▁begraafplaats	-10.7508
▁Constantinopel	-10.7523
▁organiseert	-10.7523
▁huwde	-10.7523
▁kolonisten	-10.7523
▁merendeel	-10.7523
▁Sub	-10.7526
▁lager	-10.7528
▁Las	-10.7529
▁droom	-10.7533
▁Jazz	-10.7533
▁Mexicaans	-10.7537
▁gebruikelijk	-10.7539
▁Network	-10.7541
▁conclusie	-10.7542
▁Butterfly	-10.7545
▁manuscripten	-10.7556
bank	-10.7558
▁volwassenen	-10.7559
cho	-10.7559
▁voorstellen	-10.756
▁verhouding	-10.7564
▁abdij	-10.7565
▁verkeer	-10.7572
ux	-10.7572
▁mochten	-10.7583
▁noemden	-10.7585
▁vorming	-10.759
▁Th	-10.7593
▁ingang	-10.7596
▁factoren	-10.7607
▁focus	-10.7612
acht	-10.7617
red	-10.7618
uw	-10.7618
▁vermoorden	-10.762
▁starten	-10.762
▁hoorde	-10.7624
▁behoud	-10.7625
ow	-10.7625
▁Studios	-10.7629
▁beweren	-10.7637
▁componeerde	-10.7637
▁ontdekken	-10.7637
▁reageerde	-10.7637
▁lancering	-10.7637
▁verborgen	-10.7637
▁helpt	-10.7637
▁onduidelijk	-10.7637
▁gebeurt	-10.7637
▁schatting	-10.7638
tentoonstelling	-10.7639
▁vestigen	-10.7639
▁definitief	-10.764
▁legt	-10.7641
▁omschreven	-10.7643
tte	-10.7652
{	-10.7656
▁set	-10.7662
▁trans	-10.7666
▁critici	-10.7667
▁gedachten	-10.7669
Duitse	-10.7671
▁Stockholm	-10.7671
yl	-10.7671
▁telde	-10.7676
▁Operatie	-10.7677
▁jongeren	-10.7679
▁soortgelijke	-10.7681
tri	-10.7681
▁Zwarte	-10.7683
hr	-10.7685
▁rood	-10.7687
▁denkt	-10.7691
▁bang	-10.7697
hit	-10.7698
▁televisieserie	-10.771
▁kritisch	-10.7713
▁deelname	-10.7714
▁eenvoudige	-10.7717
▁Gil	-10.7724
dan	-10.7728
▁betaald	-10.773
▁fans	-10.7738
head	-10.774
▁beweerd	-10.7744
▁afkomst	-10.7749
▁ondertekend	-10.7751
▁Eduard	-10.7752
▁Syracuse	-10.7752
▁identiek	-10.7752
▁Bureau	-10.7752
▁Ltd	-10.7752
▁Codex	-10.7752
▁Fa	-10.7752
▁compositie	-10.7753
▁negentiende	-10.7755
▁Fox	-10.7757
▁feest	-10.7758
▁verbetering	-10.7758
▁stapte	-10.776
gar	-10.7761
▁First	-10.7762
▁conservatieve	-10.7763
▁Billy	-10.7763
▁YouTube	-10.7766
▁volwassen	-10.7766
▁Global	-10.7766
▁autoriteit	-10.7767
kampioenschappen	-10.7768
▁particuliere	-10.7769
▁werkzaamheden	-10.777
▁Paris	-10.7771
▁Lucas	-10.7771
▁spoorlijn	-10.7778
▁voorgaande	-10.778
▁Nigeria	-10.7783
▁betrekkingen	-10.7785
▁ras	-10.7787
kracht	-10.7796
▁Heart	-10.7798
tz	-10.7801
lus	-10.781
regio	-10.7817
▁dubbele	-10.7823
▁houding	-10.7824
gebouw	-10.7826
▁Rose	-10.7826
▁talent	-10.7827
▁stam	-10.783
▁uw	-10.7831
▁actrice	-10.7835
rt	-10.7835
▁kalender	-10.7838
▁paard	-10.7838
sie	-10.7839
▁Luxemburg	-10.7841
▁trouw	-10.7845
▁verwant	-10.7853
▁vluchtte	-10.7858
▁wisten	-10.7862
▁koor	-10.7866
cal	-10.7867
rlei	-10.7868
▁nauwelijks	-10.7868
▁suggereert	-10.7868
▁Jersey	-10.7868
▁langdurig	-10.7868
▁zelden	-10.7868
▁Wall	-10.7868
▁bewezen	-10.7868
▁degenen	-10.7868
▁lente	-10.7868
▁verliefd	-10.7869
▁Praag	-10.7869
▁Winter	-10.787
▁Noordelijke	-10.7874
▁aangelegd	-10.7874
▁bloemen	-10.7879
▁filosofische	-10.7879
▁positief	-10.788
▁Bor	-10.7887
▁voorganger	-10.7891
▁stof	-10.7894
▁tegenstander	-10.7895
ü	-10.7895
▁biologische	-10.7896
▁universum	-10.7899
▁drama	-10.7901
▁aanhangers	-10.7911
▁Ri	-10.7912
▁natie	-10.7913
▁Alex	-10.7913
▁bar	-10.7915
SS	-10.7931
ano	-10.7933
▁Pre	-10.7936
▁Jacques	-10.7937
▁resolutie	-10.7946
mm	-10.795
▁bezat	-10.7953
ís	-10.7953
▁rechtbank	-10.7954
▁Pop	-10.7956
Koninklijke	-10.7959
▁gemiddeld	-10.796
▁Bos	-10.7963
▁ontwikkelaars	-10.7964
▁Samuel	-10.7976
▁liberale	-10.7979
▁da	-10.7983
▁Library	-10.7985
▁financieel	-10.7985
▁geïsoleerd	-10.7985
▁plaatsvinden	-10.7985
▁verluidt	-10.7985
▁gevierd	-10.7985
▁afgewezen	-10.7985
▁geconfronteerd	-10.7986
▁Spider	-10.7986
Arabië	-10.7986
▁Valley	-10.7987
▁hond	-10.7987
leider	-10.7988
▁budget	-10.7992
mont	-10.7996
▁rebellen	-10.7999
nog	-10.8001
▁nr	-10.8001
festival	-10.8002
▁voorloper	-10.8002
▁behoeften	-10.8002
ec	-10.8002
▁voorwerpen	-10.8004
▁Centrum	-10.8005
tes	-10.8007
▁Thailand	-10.8009
▁Australia	-10.8012
▁verdeling	-10.8013
▁Facebook	-10.8016
▁Byzantijns	-10.8019
▁Dance	-10.8021
▁wachten	-10.8027
▁gelooft	-10.8028
▁SA	-10.8031
▁kapitaal	-10.8034
▁officier	-10.8034
▁lichamen	-10.8037
▁afbeeldingen	-10.8038
▁staf	-10.8042
ug	-10.8053
cher	-10.8053
ath	-10.8053
▁ramp	-10.8056
▁Ph	-10.8059
▁Geen	-10.8062
▁koper	-10.8063
Een	-10.8068
ical	-10.807
▁fouten	-10.8076
▁ceremonie	-10.808
ix	-10.8081
kel	-10.8088
▁uitdrukking	-10.809
▁Wa	-10.8091
▁eindige	-10.8092
▁bestudeerd	-10.8093
▁maxima	-10.8098
▁praktische	-10.8099
▁Development	-10.8104
▁middeleeuwen	-10.8104
▁Airlines	-10.8105
▁herfst	-10.8105
▁hoeveelheden	-10.8105
ala	-10.8107
▁letters	-10.811
▁Department	-10.8111
▁Groningen	-10.8111
har	-10.8113
▁alcohol	-10.8118
▁Pacific	-10.8119
▁Amsterdams	-10.8122
plein	-10.8123
▁links	-10.8126
▁ergens	-10.8128
▁Business	-10.8128
▁enorm	-10.8128
▁successen	-10.8131
▁ISO	-10.8131
No	-10.8131
▁defensie	-10.8132
ban	-10.8136
▁coalitie	-10.814
enberg	-10.8148
daar	-10.8152
▁rand	-10.8155
▁wijst	-10.8157
▁Garden	-10.8157
▁geleerden	-10.816
▁vermoeden	-10.8164
▁logo	-10.8172
ane	-10.8175
▁structuren	-10.8175
▁dertien	-10.8175
▁dirigent	-10.8179
▁heuvel	-10.8179
▁gehaald	-10.8181
▁scène	-10.8184
od	-10.8186
▁bestudeerde	-10.8187
▁kamers	-10.8192
▁Jane	-10.8193
▁Vijf	-10.8195
▁loopbaan	-10.8196
producten	-10.8199
▁o	-10.8206
▁onthuld	-10.8208
ben	-10.8209
▁respect	-10.821
onderneming	-10.8214
▁biografie	-10.8225
▁verdween	-10.8225
▁verzocht	-10.8225
▁tradities	-10.8228
Er	-10.8229
▁zondag	-10.8232
jarig	-10.8233
▁algebra	-10.8235
▁Family	-10.8236
▁opgelegd	-10.8236
▁Dublin	-10.8238
▁opnemen	-10.8238
▁Howard	-10.8241
▁Not	-10.8245
▁plaat	-10.8245
▁Sony	-10.8247
▁Mountain	-10.8252
rum	-10.826
▁beleg	-10.8272
projecten	-10.8274
▁comité	-10.8275
▁Nor	-10.8282
side	-10.8284
▁ma	-10.8286
zake	-10.8289
gang	-10.8298
▁populatie	-10.8301
▁sp	-10.8318
▁ambtenaren	-10.8318
▁versterkte	-10.8329
▁sectie	-10.8332
reeks	-10.8337
sport	-10.8338
▁super	-10.8342
▁computers	-10.8345
▁jury	-10.8347
halve	-10.8347
▁Algemene	-10.8347
▁Perikles	-10.8347
▁alternatief	-10.8347
▁archeologisch	-10.8347
▁gecombineerd	-10.8347
▁geholpen	-10.8347
▁voren	-10.8348
lie	-10.8348
▁favoriete	-10.835
▁Onderzoek	-10.8355
▁Charlie	-10.8358
ward	-10.8359
▁merk	-10.8362
stelling	-10.8367
▁denk	-10.8368
▁machines	-10.8368
▁experiment	-10.837
▁Armeens	-10.8371
▁Cyprus	-10.838
▁Lie	-10.8381
▁joodse	-10.8386
▁Henri	-10.8388
post	-10.8388
▁Ja	-10.839
▁daarin	-10.8395
▁onderhoud	-10.8399
▁Anti	-10.84
▁overheids	-10.8403
loos	-10.8403
tas	-10.8403
▁Italiaans	-10.8404
▁oprichters	-10.8408
▁Master	-10.8408
▁schreven	-10.8409
▁mode	-10.8411
iel	-10.8426
kunst	-10.8428
▁Oud	-10.8429
▁besluiten	-10.8434
▁ingenomen	-10.8446
▁formule	-10.8465
▁Stephen	-10.8469
▁Antigonos	-10.847
▁tentoongesteld	-10.847
▁debuteerde	-10.847
▁Burgeroorlog	-10.847
▁samengevoegd	-10.847
▁Division	-10.8471
▁Miami	-10.8471
▁Johnny	-10.8474
netwerk	-10.8474
▁hierbij	-10.8475
▁Fair	-10.8476
▁Federatie	-10.8477
heim	-10.8478
▁Disney	-10.8479
▁bekendstaat	-10.848
kan	-10.848
▁seizoenen	-10.848
▁aanzien	-10.8482
▁mensheid	-10.8483
▁Florence	-10.8486
▁versterkingen	-10.8486
▁aangesloten	-10.8486
▁Paulus	-10.8489
▁Estland	-10.849
▁consumenten	-10.8491
gebieden	-10.8494
functie	-10.8498
streeks	-10.8499
▁Year	-10.8502
▁drummer	-10.8504
waarde	-10.8512
▁dvd	-10.8513
▁schiereiland	-10.8513
▁zwakke	-10.8515
vis	-10.8523
▁Dam	-10.8526
▁graven	-10.8527
▁gehoord	-10.8527
▁papier	-10.8528
▁afval	-10.8537
▁bodem	-10.8539
▁groeien	-10.8544
vers	-10.8546
▁kabel	-10.8552
▁Lange	-10.8556
▁distributie	-10.8557
ins	-10.8558
ick	-10.8561
▁Wel	-10.8565
▁Kim	-10.8566
▁Queen	-10.8567
▁Westen	-10.8571
▁onderzoeker	-10.8574
ā	-10.8578
▁oplossingen	-10.8585
▁abstracte	-10.8587
▁MS	-10.8588
▁visue	-10.8591
▁Commission	-10.8593
▁werkloosheid	-10.8594
▁armoede	-10.8595
▁Nietzsche	-10.8595
▁verandert	-10.8595
▁Mohammed	-10.8595
▁breidde	-10.8595
▁slaaf	-10.8595
▁Donald	-10.8596
▁NASA	-10.8596
▁Perzische	-10.8596
▁Gordon	-10.8596
▁nederzetting	-10.8597
▁afwezigheid	-10.8597
▁Desondanks	-10.8597
directeur	-10.8601
▁Warschau	-10.8602
▁Dag	-10.8603
time	-10.8603
▁semi	-10.8604
š	-10.8604
▁Mad	-10.8604
town	-10.8606
▁kleinste	-10.8606
▁Oliver	-10.8607
▁kwesties	-10.8608
▁voegen	-10.8611
▁concepten	-10.8613
technologie	-10.8615
▁Palestijns	-10.8618
▁Anderson	-10.862
▁politici	-10.8621
▁uitgesproken	-10.8623
▁joden	-10.8624
▁blad	-10.8625
▁uniek	-10.8625
▁bereikten	-10.8626
▁tijdelijke	-10.8627
▁kop	-10.8627
ct	-10.863
▁schuldig	-10.863
▁weerstand	-10.8632
▁Vi	-10.8635
▁Belgisch	-10.8636
her	-10.8638
▁Generaal	-10.8642
bus	-10.8642
▁Ex	-10.8644
▁Chinees	-10.8647
▁shows	-10.8648
▁godsdienst	-10.8658
▁bedrijfs	-10.8665
all	-10.8668
▁schilderen	-10.8668
▁scènes	-10.8668
ju	-10.8669
ria	-10.8676
▁Gar	-10.8676
ble	-10.8677
nd	-10.8678
▁posities	-10.8685
auto	-10.8685
▁dier	-10.8689
▁gedrukt	-10.869
▁Bridge	-10.8702
▁Free	-10.8711
▁standpunt	-10.8715
▁x	-10.8716
isatie	-10.8719
▁dynastie	-10.8721
egelijkertijd	-10.8722
▁daadwerkelijk	-10.8722
▁maritiem	-10.8722
▁opgelost	-10.8722
▁TMF	-10.8722
▁Studies	-10.8723
▁arrestatie	-10.8725
hl	-10.8727
▁omgedoopt	-10.8729
▁script	-10.8729
▁opgeroepen	-10.873
▁ziel	-10.873
▁aansluiting	-10.8733
▁Khan	-10.8735
▁overleven	-10.8735
▁moorden	-10.8736
▁Za	-10.8737
▁gelijke	-10.8738
▁hoofdkantoor	-10.8739
▁Adolf	-10.8742
▁Moore	-10.8745
rie	-10.8753
▁database	-10.8756
hof	-10.8758
▁evenwicht	-10.8758
▁herbouwd	-10.8762
kanaal	-10.8763
▁overheden	-10.8765
▁duidelijke	-10.8768
▁houten	-10.877
▁stroom	-10.8773
▁kostte	-10.8774
▁Shi	-10.8779
▁oppervlak	-10.8779
▁ondernemingen	-10.8783
sson	-10.8787
▁militairen	-10.8796
▁Ch	-10.8797
▁fro	-10.8799
▁Marc	-10.8811
▁overname	-10.8813
▁blauwe	-10.8815
▁tekeningen	-10.8815
oc	-10.8815
▁Par	-10.8817
ō	-10.8819
▁Ya	-10.8826
▁Fe	-10.8827
▁veertien	-10.8838
▁letter	-10.8838
▁Waar	-10.8843
▁continent	-10.8843
▁Nobelprijs	-10.8844
▁Testament	-10.885
▁beperken	-10.885
▁decennium	-10.885
▁renovatie	-10.885
▁veroorzaken	-10.885
▁vastgelegd	-10.885
▁Jimmy	-10.885
▁Gerard	-10.8851
▁toeristen	-10.8852
▁accepteerde	-10.8853
▁overgedragen	-10.8854
▁vuurwerk	-10.8854
▁eindelijk	-10.8855
▁Volks	-10.8856
▁Berg	-10.8857
▁opgemerkt	-10.8858
mes	-10.8859
▁Iraakse	-10.8862
orde	-10.8865
▁nucleair	-10.8865
▁begrafenis	-10.887
▁verschillend	-10.8881
ologie	-10.8885
stukken	-10.8887
▁vakantie	-10.8889
▁bestonden	-10.8891
tin	-10.8893
▁toespraak	-10.8896
▁regeringen	-10.8897
sta	-10.8899
jaar	-10.89
▁Klein	-10.8909
▁ad	-10.8915
leidende	-10.8918
▁raakten	-10.8934
▁Tan	-10.8937
▁levende	-10.8942
▁financiering	-10.8942
king	-10.8943
huizen	-10.8945
▁jacht	-10.8946
▁series	-10.8952
▁verhoogd	-10.8955
▁bericht	-10.8956
▁omvatte	-10.8965
▁kolonel	-10.8968
▁afbeelding	-10.8969
▁inzet	-10.897
▁misdaad	-10.8973
▁Zie	-10.8976
▁verwarring	-10.898
▁verwijderen	-10.898
profit	-10.898
▁stierven	-10.898
▁realiseerde	-10.898
▁alvorens	-10.898
▁vicepresident	-10.898
▁Mount	-10.898
▁voortgezet	-10.8981
landelijke	-10.8981
▁raakt	-10.8981
▁zetels	-10.8983
▁getest	-10.8984
▁telefoon	-10.8985
▁behandelen	-10.8987
▁beschikking	-10.8992
▁Broadway	-10.8992
▁bestuurd	-10.8994
▁Games	-10.8996
▁Electric	-10.8996
▁afgerond	-10.8997
▁Ber	-10.9
▁Compagnie	-10.9001
▁Prijs	-10.9001
▁residentie	-10.9003
▁beroemd	-10.9003
▁Hot	-10.9004
gaat	-10.901
▁boerderij	-10.9014
▁treinen	-10.9016
ato	-10.9016
▁telt	-10.9024
▁Bern	-10.9028
▁arm	-10.9034
▁wettelijke	-10.9035
structuur	-10.9036
▁Bu	-10.9038
▁vaardigheden	-10.9039
▁voorjaar	-10.904
▁categorieën	-10.9044
▁controverse	-10.905
▁modern	-10.9053
uren	-10.9053
▁deeltjes	-10.9055
dam	-10.9059
▁handelen	-10.9059
▁gebruiker	-10.9059
nie	-10.9068
sur	-10.9072
▁vlieg	-10.9075
▁componenten	-10.9075
▁generaties	-10.9078
ië	-10.9082
▁bezorgd	-10.9082
carrière	-10.9083
▁aanvaard	-10.9083
▁golf	-10.9085
ack	-10.9086
rang	-10.9088
speler	-10.9091
bre	-10.9095
▁doeleinden	-10.9095
ona	-10.9095
ev	-10.9095
▁hoopte	-10.9098
▁Defensie	-10.9103
▁medaille	-10.9103
▁held	-10.9107
▁Philadelphia	-10.9112
▁definiëren	-10.9112
▁treedt	-10.9112
▁gulden	-10.9112
▁goedkeuring	-10.9112
▁slavernij	-10.9112
▁politicus	-10.9112
▁duurzame	-10.9112
blad	-10.9115
▁kruis	-10.9117
▁Indische	-10.9117
▁Kopenhagen	-10.9119
▁cm	-10.912
hu	-10.9121
▁uiteen	-10.9122
experimentele	-10.9126
▁Square	-10.9128
▁Georgië	-10.9134
▁wens	-10.9134
▁Erik	-10.9143
▁waterstof	-10.9144
▁banken	-10.9145
ons	-10.9146
▁Fred	-10.9146
ret	-10.9154
Als	-10.9155
▁dansen	-10.9156
▁Soms	-10.9157
set	-10.9159
▁soldaat	-10.9166
▁jong	-10.9166
▁breken	-10.9167
▁Vietnam	-10.9167
dynastie	-10.9168
conferentie	-10.9168
ander	-10.9169
▁materialen	-10.9171
▁deelde	-10.9174
Madame	-10.9178
meester	-10.9182
▁Ivan	-10.9185
▁aantallen	-10.9192
▁vice	-10.9193
▁poort	-10.9197
▁Bre	-10.9197
▁harde	-10.92
▁diepte	-10.9206
▁toestellen	-10.9207
▁Sound	-10.9209
▁pseudoniem	-10.9219
▁groene	-10.9221
▁priesters	-10.923
▁Va	-10.923
▁Manhattan	-10.9232
▁Ur	-10.9232
▁voorbereiding	-10.9235
▁Para	-10.9243
▁Memorial	-10.9245
▁beschouwt	-10.9245
▁wederom	-10.9245
▁Three	-10.9245
▁elite	-10.9245
▁Wright	-10.9246
▁Grondwet	-10.9246
▁w	-10.9248
▁vermijden	-10.9248
▁Boys	-10.9248
▁ministers	-10.9249
▁Brothers	-10.925
▁Herman	-10.9251
▁invloeden	-10.9255
sten	-10.9257
rin	-10.9259
▁recent	-10.926
▁radicale	-10.9261
▁absolut	-10.9261
▁opgeslagen	-10.9266
▁cultureel	-10.9267
▁cel	-10.9268
▁leefden	-10.9275
▁Pruisisch	-10.9276
▁How	-10.9276
▁verbeterd	-10.9279
▁Four	-10.9282
▁samenstelling	-10.9283
▁studioalbum	-10.9284
fo	-10.9285
hand	-10.9285
boeken	-10.9289
▁landschap	-10.9291
▁sneller	-10.9294
▁my	-10.9298
ó	-10.9298
▁Mer	-10.9303
geboren	-10.9303
namen	-10.9308
able	-10.9308
▁mooi	-10.9312
▁doelstellingen	-10.9314
beeld	-10.9316
▁zuidelijk	-10.932
▁uren	-10.9324
tus	-10.9327
▁Ad	-10.9335
▁verdedigde	-10.9337
▁infrastructuur	-10.9343
▁More	-10.9355
▁match	-10.9358
▁server	-10.9362
▁onderging	-10.9375
▁zevende	-10.9378
▁Apollo	-10.938
▁trots	-10.938
▁concentreren	-10.938
▁begrepen	-10.9381
▁medewerker	-10.9381
▁origineel	-10.9381
▁uitnodiging	-10.9381
▁levert	-10.9383
▁samenwerken	-10.9387
▁Channel	-10.9388
▁tegelijk	-10.9392
▁enigszins	-10.9392
▁People	-10.9392
▁departement	-10.9393
▁portret	-10.9397
▁She	-10.9397
▁stabiliteit	-10.9397
ire	-10.9398
▁manga	-10.9398
▁Che	-10.9399
▁Marcus	-10.9399
mijn	-10.94
▁Internet	-10.9401
▁stads	-10.9402
▁Stan	-10.9403
Mo	-10.9403
pro	-10.9403
▁Derde	-10.9403
▁min	-10.9404
▁Pat	-10.9406
ure	-10.9407
▁proefschrift	-10.9407
▁Tower	-10.9408
▁gevoelens	-10.9414
rol	-10.9414
▁genre	-10.9418
ip	-10.9419
▁Ke	-10.9435
▁restauratie	-10.9436
▁Monte	-10.9436
▁Africa	-10.9437
▁onderscheiding	-10.9445
ders	-10.9448
ag	-10.9448
▁bas	-10.9448
elen	-10.9451
afdeling	-10.9452
▁edities	-10.9452
▁Hoge	-10.9454
▁opgeleid	-10.9456
▁Mind	-10.9457
velen	-10.9458
▁Mon	-10.946
▁ambt	-10.9471
▁krachtige	-10.9471
Q	-10.9481
mus	-10.9487
▁Staats	-10.9488
club	-10.9495
▁Mill	-10.9504
dig	-10.9506
▁reserve	-10.9508
druk	-10.9515
▁Hongkong	-10.9517
▁Management	-10.9517
▁Vergadering	-10.9517
▁geprobeerd	-10.9517
▁verminderen	-10.9517
▁gefilmd	-10.9517
▁gezongen	-10.9517
▁bespreken	-10.9517
▁noodzaak	-10.9517
▁Binnenlands	-10.9517
▁verlaat	-10.9518
Ge	-10.9518
▁mobiele	-10.9522
▁gedomineerd	-10.9525
▁Organisatie	-10.9525
▁Model	-10.9532
▁Transport	-10.9534
▁beloofde	-10.9537
niveau	-10.9539
▁symbolen	-10.954
▁besproken	-10.9544
▁geallieerden	-10.9545
▁ondergronds	-10.9545
▁graan	-10.9548
▁Oekraïne	-10.9549
mor	-10.955
▁Jon	-10.9553
▁offensief	-10.9554
▁geografische	-10.9558
gan	-10.9559
▁bal	-10.956
▁Peru	-10.9563
▁illegale	-10.9565
▁valse	-10.9566
films	-10.9569
▁cijfers	-10.957
▁openen	-10.9571
▁kampen	-10.9573
sky	-10.9574
▁feiten	-10.9577
los	-10.9584
▁USS	-10.9585
▁glas	-10.9589
▁Von	-10.959
▁artiest	-10.9591
▁Dar	-10.9592
▁trio	-10.9594
▁voordelen	-10.9599
oni	-10.9599
mu	-10.96
▁collecties	-10.96
wetenschappen	-10.9601
▁individu	-10.9602
▁referentie	-10.9612
▁Dus	-10.9614
▁rug	-10.9617
▁argument	-10.962
▁opgebouwd	-10.9622
▁mis	-10.9623
▁drukken	-10.9624
nis	-10.9631
▁hel	-10.9634
▁Kan	-10.9636
▁agent	-10.9637
▁Congress	-10.964
▁vestiging	-10.9641
▁gewelddadige	-10.9642
functies	-10.9646
▁beurs	-10.9649
▁prestatie	-10.965
▁zilver	-10.9651
▁Francis	-10.9652
▁Last	-10.9653
▁Slecht	-10.9656
▁gestopt	-10.9656
▁uitzonderlijk	-10.9656
▁professioneel	-10.9656
▁Prize	-10.9656
▁Forest	-10.9657
▁Plan	-10.9658
▁getuige	-10.9658
▁Georgia	-10.9659
▁toneelstuk	-10.966
▁Hugo	-10.966
▁Ferdinand	-10.9664
▁Koningin	-10.9664
▁geleerd	-10.9666
▁verhuisd	-10.9667
▁beschuldigingen	-10.967
▁Litouwen	-10.9672
▁Atheens	-10.9674
▁perspectief	-10.9679
▁André	-10.9679
▁pond	-10.968
▁Front	-10.9681
▁stemde	-10.9683
▁tiende	-10.9683
▁Summer	-10.9683
▁Vandaag	-10.9683
▁leiderschap	-10.9685
activiteiten	-10.9685
ska	-10.9686
▁liederen	-10.9687
▁gesprek	-10.9688
gemaakt	-10.9689
▁Way	-10.9689
▁nederzettingen	-10.9692
▁Dick	-10.9697
▁inzicht	-10.9705
▁Are	-10.9707
▁Natural	-10.971
▁overleefde	-10.9712
▁geprezen	-10.9713
▁ijzer	-10.972
▁Cat	-10.972
▁jarenlang	-10.9722
▁Java	-10.9722
▁beslissingen	-10.9723
▁firma	-10.9724
pre	-10.9725
Petersburg	-10.973
aars	-10.9732
▁verspreiden	-10.9737
slag	-10.9738
▁campagnes	-10.9738
mond	-10.9742
én	-10.9746
▁verschijning	-10.9749
▁netwerken	-10.9752
ans	-10.9756
eilanden	-10.9763
▁cirkel	-10.9767
▁duizend	-10.9775
▁Dave	-10.9784
▁Type	-10.9789
einde	-10.9796
wedstrijd	-10.9796
▁Maastricht	-10.9797
▁accepteren	-10.9797
▁garnizoen	-10.9797
▁verbindt	-10.9797
▁Onderwijs	-10.9797
▁Oranje	-10.9797
▁spoedig	-10.9797
▁Iraanse	-10.9798
▁ermee	-10.9798
▁Alice	-10.98
▁definitieve	-10.9801
▁geluk	-10.9801
ok	-10.9806
▁omschreef	-10.9806
▁beëindigen	-10.9809
▁vogels	-10.9809
▁sterker	-10.981
▁Racing	-10.9811
▁regisseerde	-10.9811
▁verbod	-10.9816
▁extreem	-10.9817
pel	-10.9818
▁Kruis	-10.9819
▁Roemenië	-10.982
▁psychologisch	-10.9824
▁Kara	-10.9824
vertegenwoordigt	-10.9832
▁am	-10.9833
▁Five	-10.9834
tot	-10.9839
▁Sto	-10.9843
▁Mijn	-10.9845
▁Brian	-10.9846
▁uitmaken	-10.985
▁Dutch	-10.985
var	-10.9855
▁Point	-10.986
▁ABC	-10.9863
tion	-10.987
▁Col	-10.987
nia	-10.9871
motor	-10.9875
pl	-10.9876
▁elektriciteit	-10.9878
▁technisch	-10.988
▁kantoren	-10.9881
▁reacties	-10.9882
materiaal	-10.9883
El	-10.9894
Re	-10.9901
▁rij	-10.9901
▁wetenschapper	-10.9902
▁voorbereid	-10.9905
oli	-10.9905
▁Kor	-10.9906
▁beschaving	-10.9907
▁bevrijd	-10.9907
▁toevoeging	-10.9908
▁verbond	-10.9909
type	-10.9914
lied	-10.9915
▁vernietiging	-10.9917
regering	-10.9921
▁volks	-10.9928
▁overgave	-10.9929
▁com	-10.993
▁verhuisden	-10.9937
▁gestationeerd	-10.994
▁Dewey	-10.994
▁toegelaten	-10.994
▁nauwe	-10.9941
▁Town	-10.9941
▁draait	-10.9942
▁ontvoerd	-10.9943
▁Chili	-10.9943
▁Web	-10.9943
cel	-10.9943
▁dwong	-10.9948
▁opeenvolgend	-10.9948
▁waardevolle	-10.9948
▁Tra	-10.9948
▁gebeurd	-10.9951
▁benaming	-10.9953
▁musical	-10.9955
▁architecten	-10.9957
▁gewapende	-10.9958
▁Skeptics	-10.9962
▁gevestigde	-10.9963
▁Castle	-10.9964
▁theoretische	-10.9964
▁externe	-10.9964
▁ballet	-10.9967
▁Never	-10.9968
▁vestigden	-10.997
▁Congo	-10.9975
▁vooraanstaande	-10.9976
▁verleend	-10.998
▁Railway	-10.9988
▁he	-10.9992
iz	-10.9992
▁weigerden	-10.9992
cus	-10.9995
▁With	-10.9999
▁executie	-11.0002
▁werelds	-11.0007
▁zelfstandig	-11.0008
▁getrokken	-11.0018
▁Nations	-11.0018
Generaal	-11.0031
lock	-11.0032
haven	-11.0034
▁verzamelingen	-11.0035
▁Gro	-11.0035
▁verondersteld	-11.004
▁Costa	-11.0041
zone	-11.0045
▁\	-11.0046
▁bewering	-11.0052
▁opvallend	-11.0055
▁Yu	-11.0058
▁ontstonden	-11.0058
▁overgang	-11.0066
▁stellingen	-11.007
▁Bri	-11.0071
▁ruimten	-11.0076
ø	-11.0078
gerelateerde	-11.0079
▁dialoog	-11.0085
▁streven	-11.0085
▁Oscar	-11.0085
▁Church	-11.0085
▁platenlabel	-11.0085
▁verdreven	-11.0085
▁opmerkelijk	-11.0085
▁vrijgegeven	-11.0085
▁thuisbasis	-11.0085
▁afgesloten	-11.0086
▁MTV	-11.0087
▁Augustus	-11.0087
▁prinses	-11.009
▁Franz	-11.009
▁overblijfselen	-11.0092
▁Fire	-11.0094
dimensionale	-11.0094
▁Western	-11.0094
▁arbeid	-11.01
▁heersers	-11.011
▁zijden	-11.0112
▁tanks	-11.0113
▁monniken	-11.0114
▁Gouden	-11.0115
▁This	-11.0119
▁Tar	-11.012
▁serieus	-11.0124
well	-11.0125
▁reclame	-11.0132
▁Lang	-11.0132
▁Cor	-11.0133
▁laboratorium	-11.0139
rit	-11.0142
▁demo	-11.0147
▁overal	-11.0153
▁verre	-11.0153
▁Standard	-11.0154
gebruik	-11.0154
▁Ash	-11.0157
▁slaan	-11.0159
▁Death	-11.0161
ft	-11.0163
lf	-11.017
▁para	-11.0175
▁Allen	-11.0176
▁Trade	-11.0178
▁werkelijke	-11.018
problemen	-11.0181
illa	-11.0183
▁graad	-11.0189
win	-11.0189
ema	-11.0191
▁Tien	-11.0191
▁wezens	-11.0193
▁veldslag	-11.0199
▁lineaire	-11.0204
▁Mont	-11.0211
▁tafel	-11.0215
▁brandstof	-11.0222
▁amateur	-11.0224
▁Friedrich	-11.023
▁Margaret	-11.0231
▁Hamilton	-11.0232
▁bewees	-11.0232
▁onderworpen	-11.0232
▁afgeschaft	-11.0232
▁vertonen	-11.0232
▁elders	-11.0232
▁behalen	-11.0232
▁raken	-11.0232
▁vloog	-11.0232
▁Koran	-11.0234
▁Moment	-11.0235
▁Golf	-11.0236
port	-11.0238
▁Canadian	-11.0245
▁inflatie	-11.0245
▁bezetten	-11.025
▁Ci	-11.025
▁jullie	-11.025
▁rivieren	-11.0252
▁aanleg	-11.0255
▁Ohio	-11.0256
▁wortels	-11.0258
san	-11.0258
▁Six	-11.0266
▁fotograaf	-11.0271
▁ontwerper	-11.0272
▁EP	-11.0273
▁Two	-11.0273
▁Mat	-11.0274
▁zeiden	-11.0277
▁Express	-11.0279
▁Call	-11.0279
▁Gods	-11.0281
▁compilatie	-11.0285
spelen	-11.0296
▁vroegen	-11.0297
▁Rob	-11.0297
▁Saoedi	-11.03
▁geplande	-11.03
▁rust	-11.03
▁forten	-11.031
▁gedachte	-11.031
sector	-11.0311
▁revolutionaire	-11.0314
▁lidmaatschap	-11.0317
▁uitgaven	-11.0319
ous	-11.032
methode	-11.0323
analyse	-11.0337
New	-11.0338
ontwikkeling	-11.0342
▁streek	-11.0346
▁chef	-11.0354
▁ontwikkelings	-11.0354
dorp	-11.0358
low	-11.0359
▁vee	-11.036
dagen	-11.0362
▁Ser	-11.0363
▁overwinningen	-11.0366
▁Phil	-11.0374
▁vreemde	-11.0374
▁admiraal	-11.0377
▁ontvangst	-11.0379
▁{	-11.038
▁Lincoln	-11.0381
▁Captain	-11.0381
▁geschonken	-11.0381
▁inderdaad	-11.0381
▁vergroten	-11.0381
▁prestigieuze	-11.0381
▁Austin	-11.0381
▁gezondheidszorg	-11.0381
▁onderhandelen	-11.0381
potentiële	-11.0381
▁Flagler	-11.0381
▁vrijlating	-11.0381
▁natuurkunde	-11.0381
▁Stalin	-11.0381
▁tientallen	-11.0381
▁Robinson	-11.0382
▁Ernst	-11.0382
▁durende	-11.0382
▁toegenomen	-11.0383
▁afspelen	-11.0385
▁Lyon	-11.0385
▁Ham	-11.0386
▁Guide	-11.0387
▁Hand	-11.0387
▁Giovanni	-11.0389
▁protestantse	-11.0394
▁zet	-11.0396
▁beschikt	-11.0399
▁miljoenen	-11.0402
▁Rio	-11.0402
▁lessen	-11.0406
▁zang	-11.0415
▁zilveren	-11.0416
▁Bal	-11.0417
▁kritische	-11.042
▁magische	-11.042
▁vijandelijk	-11.0421
▁Atlantic	-11.0421
II	-11.0423
▁Cal	-11.0423
▁Ann	-11.0425
▁Golden	-11.043
▁Virginia	-11.0432
▁geïntegreerd	-11.0433
▁hersenen	-11.0434
geacht	-11.0442
▁Guy	-11.0444
▁zwak	-11.0447
▁gedragen	-11.0447
▁verhogen	-11.045
mark	-11.0455
▁zekerheid	-11.0455
lijst	-11.0459
platform	-11.0459
ë	-11.046
del	-11.0464
▁Victor	-11.0473
▁velden	-11.0474
▁Girl	-11.0484
▁gevangenisstraf	-11.0486
▁expliciet	-11.0486
▁mooie	-11.0487
▁Nova	-11.0489
▁un	-11.0493
▁gevoerd	-11.0494
▁African	-11.0496
▁aspect	-11.05
▁bevelhebber	-11.0501
▁dimensie	-11.0505
hy	-11.0505
economische	-11.0516
eu	-11.0518
▁kopie	-11.0522
▁Hospital	-11.0528
▁Get	-11.0529
▁bewegen	-11.053
gu	-11.0531
▁Avenue	-11.0532
▁gepleegd	-11.0532
▁gestolen	-11.0532
▁ontvangt	-11.0532
▁suggereerde	-11.0532
▁Nintendo	-11.0532
▁bekroond	-11.0532
▁daarentegen	-11.0533
▁schoonheid	-11.0534
▁Julianus	-11.0534
▁Board	-11.0534
▁vasteland	-11.0535
▁opgevoed	-11.0535
▁ondergebracht	-11.0536
▁hoofdstukken	-11.0536
▁kerst	-11.0539
▁Dream	-11.0539
▁vaker	-11.054
▁Frankfurt	-11.0541
▁Zürich	-11.0541
▁Cu	-11.0543
tak	-11.0545
▁Wilhelm	-11.0546
▁Clinton	-11.0546
▁platteland	-11.0549
uff	-11.0549
▁spanningen	-11.0551
▁Syrische	-11.0552
▁letterlijk	-11.0554
▁zakelijke	-11.0555
vaart	-11.0555
gal	-11.0558
▁Health	-11.0562
su	-11.0565
elle	-11.0566
▁Robin	-11.0567
▁Bulgarije	-11.0568
▁eenmaal	-11.0568
▁kanonnen	-11.0568
top	-11.0569
▁constante	-11.0569
▁Baby	-11.0572
▁overlevenden	-11.0575
▁propaganda	-11.0579
▁dreiging	-11.0581
▁export	-11.0583
▁gestorven	-11.0584
▁variëren	-11.0586
▁interactie	-11.0587
ell	-11.0588
ray	-11.0589
▁Now	-11.059
▁slot	-11.059
▁Deel	-11.0591
▁ontmoetten	-11.0591
▁grootschalige	-11.0597
▁tunnel	-11.0597
▁Bart	-11.06
▁web	-11.0607
▁docent	-11.0617
▁socialistisch	-11.0618
▁patroon	-11.0623
▁Adams	-11.0629
▁schulden	-11.0632
opleiding	-11.0637
▁leeft	-11.0639
▁liedje	-11.0639
Or	-11.064
comité	-11.0646
zijn	-11.0647
inus	-11.0649
▁percentage	-11.0651
▁Viking	-11.0654
▁invloedrijk	-11.0656
▁design	-11.0658
▁herzien	-11.0658
▁Johann	-11.0672
veel	-11.0673
▁ontbreken	-11.0674
technieken	-11.0678
ique	-11.0683
▁Hudson	-11.0686
▁Justitie	-11.0686
▁bekeken	-11.0686
▁weigert	-11.0686
▁Cultuur	-11.0686
▁verlangen	-11.0686
▁nogmaals	-11.0686
▁vermeend	-11.0687
▁achtergelaten	-11.0687
▁doodstraf	-11.0687
▁Price	-11.0687
▁voltooien	-11.0688
▁RAF	-11.0688
▁vereiste	-11.0689
▁zoektocht	-11.0689
▁Leon	-11.0691
▁Staat	-11.0692
trent	-11.0693
▁boos	-11.0694
▁cyclus	-11.0694
▁agrarisch	-11.0695
macht	-11.0696
tter	-11.0698
kt	-11.0702
▁Deutsche	-11.0705
▁keuken	-11.0706
▁Tokio	-11.0707
▁adellijk	-11.0708
sis	-11.0709
▁Pruisen	-11.0711
▁producties	-11.0715
▁pleitte	-11.0715
basis	-11.0716
▁Wie	-11.0717
▁Kroatisch	-11.0717
▁deelnam	-11.0717
▁beweringen	-11.0721
▁boodschap	-11.0728
▁merkt	-11.0728
▁Jr	-11.0729
dis	-11.073
▁ontwikkelden	-11.0731
▁lichte	-11.0734
▁po	-11.0738
▁huid	-11.0739
yan	-11.0742
bert	-11.0748
▁marketing	-11.0749
▁vlees	-11.0749
▁psychologie	-11.0752
▁weergave	-11.0753
tta	-11.0761
kken	-11.0763
▁Af	-11.077
ball	-11.0773
▁Kon	-11.0774
kaart	-11.0777
▁satelliet	-11.0778
▁gedacht	-11.0779
▁Villa	-11.0779
▁zonne	-11.0783
▁gevaarlijke	-11.0785
▁plant	-11.0786
▁vergezeld	-11.0786
▁richtten	-11.079
▁hervorming	-11.0793
▁beperkingen	-11.0797
▁GT	-11.0801
▁representatie	-11.0808
▁bomen	-11.0809
▁geslagen	-11.0812
house	-11.0815
▁academie	-11.0816
▁geschilderd	-11.0816
act	-11.082
▁noord	-11.0821
▁Wet	-11.0825
bach	-11.0825
anti	-11.0832
▁vermelding	-11.0833
▁im	-11.0835
mis	-11.0836
▁herinnering	-11.0836
▁Sk	-11.0841
▁straten	-11.0842
▁Carthago	-11.0843
▁Kroatië	-11.0843
▁identificeren	-11.0843
▁verdwijnen	-11.0843
▁immigratie	-11.0843
▁England	-11.0843
▁publiceert	-11.0843
▁Nelson	-11.0843
▁Darwin	-11.0843
▁gelukkig	-11.0843
▁zwanger	-11.0843
▁Oekraïense	-11.0843
▁correspondentie	-11.0844
▁Julius	-11.0844
▁meegenomen	-11.0844
zaken	-11.0844
▁hoort	-11.0846
▁Systems	-11.0847
TA	-11.0848
ïsche	-11.0849
▁Zeven	-11.0858
▁weduwe	-11.0858
▁reguliere	-11.0858
▁opgedragen	-11.0859
▁verkeerd	-11.086
▁volgelingen	-11.0861
▁wit	-11.0862
▁bezette	-11.0863
▁Was	-11.0866
▁lijden	-11.0867
▁so	-11.0868
▁impact	-11.0874
▁stil	-11.0874
▁Battle	-11.0874
▁sloten	-11.0876
ill	-11.088
▁Mel	-11.0883
rock	-11.0883
▁Bel	-11.0885
▁strip	-11.0888
▁Mag	-11.0889
▁corruptie	-11.089
▁z	-11.0891
▁voertuig	-11.0892
▁fragmenten	-11.0894
onwaarschijnlijk	-11.0896
▁kroon	-11.0896
▁stemming	-11.0898
▁geacht	-11.0898
ism	-11.0906
▁gasten	-11.0906
▁Win	-11.0907
▁Kar	-11.0914
▁Gal	-11.0917
▁havens	-11.0917
▁welk	-11.0918
▁gebroken	-11.0929
▁Play	-11.0931
▁Ger	-11.0933
▁Sen	-11.0938
▁trachtte	-11.0943
din	-11.095
▁beschouwde	-11.0953
my	-11.0957
▁Soul	-11.0964
mb	-11.0968
▁korps	-11.0969
▁Wil	-11.0969
▁kanker	-11.0969
run	-11.0972
leiders	-11.0973
▁Michel	-11.0976
landen	-11.0977
▁Min	-11.0977
resterende	-11.098
▁spin	-11.098
▁apparaat	-11.0981
▁moeite	-11.0983
▁CO	-11.0987
▁veldtocht	-11.0989
ico	-11.099
▁Centrale	-11.0997
▁gezonden	-11.0999
▁produceert	-11.1001
▁Alliance	-11.1001
▁Twitter	-11.1001
▁beetje	-11.1001
▁blijkbaar	-11.1001
▁provinciale	-11.1001
▁minst	-11.1002
▁topologische	-11.1002
▁CEO	-11.1002
▁zingt	-11.1002
▁duiden	-11.1002
▁Malta	-11.1004
▁Boeing	-11.1004
▁Im	-11.1004
▁uiterlijk	-11.1006
▁theologie	-11.1009
▁publiekelijk	-11.1009
▁Bus	-11.101
▁boeddhistisch	-11.101
▁Azerbeidzjan	-11.101
▁Professor	-11.101
▁Filipijnen	-11.101
▁opmerkelijke	-11.1011
▁wonnen	-11.1012
▁AG	-11.1013
ship	-11.1014
▁Jordan	-11.1016
▁Nijmegen	-11.1016
▁ro	-11.1016
▁achtste	-11.1017
Men	-11.1018
▁expedities	-11.1022
▁spirituele	-11.1027
▁Macedonisch	-11.1027
▁Area	-11.1029
heen	-11.1029
▁trekt	-11.1031
▁Child	-11.1031
▁voorkomt	-11.1034
▁controleren	-11.1035
MA	-11.1039
▁argumenten	-11.1039
eke	-11.104
▁slaap	-11.1041
▁zie	-11.1042
missie	-11.1042
naar	-11.1043
laag	-11.1043
▁verenigd	-11.1044
▁Au	-11.1045
▁Fi	-11.1052
▁regiment	-11.1052
gon	-11.1054
▁benaderd	-11.1058
our	-11.1059
▁gelezen	-11.1062
▁typisch	-11.1064
▁vieren	-11.1064
▁Prince	-11.1065
▁ambassade	-11.1066
▁consumptie	-11.1067
contract	-11.1067
lig	-11.1068
▁Woman	-11.1069
▁Rights	-11.1071
▁danken	-11.1071
ori	-11.1073
▁bedreigd	-11.1076
▁par	-11.1076
ula	-11.1077
▁openlijk	-11.1077
▁daden	-11.108
▁catalogus	-11.1084
▁Dis	-11.1086
▁Vooral	-11.1092
▁adel	-11.1095
vereniging	-11.1102
fen	-11.1108
▁voert	-11.1108
standaard	-11.1111
▁voorafgaand	-11.1111
▁races	-11.1118
▁journalisten	-11.112
iv	-11.1121
▁gevaarlijk	-11.1122
▁Bou	-11.1124
▁berichten	-11.1125
▁monnik	-11.113
▁varen	-11.1131
▁mijl	-11.1136
▁snelweg	-11.1137
ls	-11.1142
arch	-11.1145
Ha	-11.1146
Le	-11.1148
Me	-11.1151
▁orgel	-11.1152
▁zestien	-11.1152
▁duren	-11.1155
fficiële	-11.1155
ante	-11.1158
▁onzeker	-11.1162
▁scala	-11.1162
▁Anthony	-11.1163
▁autobiografie	-11.1163
▁gekoppeld	-11.1163
▁verbood	-11.1163
▁volgorde	-11.1163
▁musea	-11.1163
▁schonk	-11.1163
▁vergeten	-11.1163
▁Symphony	-11.1163
▁graafschap	-11.1163
▁realiteit	-11.1163
▁Stanley	-11.1163
▁weergegeven	-11.1164
pan	-11.1164
▁Head	-11.1164
▁Sarah	-11.1165
▁Rijn	-11.1166
▁aldus	-11.1167
▁hierover	-11.1168
▁degene	-11.117
▁Mann	-11.1171
▁willekeurig	-11.1174
▁inspiratie	-11.1174
mos	-11.1174
▁Voorbeelden	-11.1175
▁aangegeven	-11.1176
enburg	-11.1177
▁overleg	-11.1178
▁moeilijkheden	-11.1179
▁Roemeense	-11.1183
▁omgebouwd	-11.1183
tur	-11.1185
zy	-11.1185
▁merken	-11.1185
▁eindigen	-11.1186
▁Barry	-11.1188
▁niveaus	-11.1191
hoofd	-11.1193
mail	-11.1196
▁Zuidelijke	-11.1197
▁zand	-11.1198
▁Blood	-11.1201
▁territorial	-11.1202
▁Wild	-11.1203
▁Pakistan	-11.1206
ama	-11.121
oe	-11.1212
▁Brand	-11.1215
tis	-11.1216
Bo	-11.1221
▁bouwden	-11.1224
▁uitzending	-11.1226
▁geavanceerde	-11.1226
wit	-11.123
lingen	-11.1231
▁Kent	-11.1233
▁hoek	-11.1234
nummers	-11.1239
▁wetenschappen	-11.1242
▁voorkomende	-11.1244
maker	-11.1253
▁Motor	-11.1256
gt	-11.126
=	-11.1263
▁motoren	-11.1264
▁Girls	-11.1264
▁hoogst	-11.1265
ade	-11.1265
▁Garde	-11.1269
▁Camp	-11.127
▁Bon	-11.1275
▁discipline	-11.1275
▁divisies	-11.1276
▁partners	-11.1276
▁dagboek	-11.1279
▁se	-11.128
SA	-11.1293
▁Dal	-11.1293
▁Colombia	-11.1298
▁Moon	-11.1301
org	-11.1301
▁plein	-11.1302
▁aardbeving	-11.1302
▁vaders	-11.1306
▁stichter	-11.1306
▁Neu	-11.1308
▁gebruikelijke	-11.1312
▁Roman	-11.1312
▁stoffen	-11.1315
tenzij	-11.1315
▁implementatie	-11.1318
rivier	-11.1319
▁dak	-11.132
ito	-11.132
▁bijeenkomsten	-11.1323
▁zeldzame	-11.1324
▁beneden	-11.1326
▁Harvard	-11.1326
▁Lloyd	-11.1326
▁Toronto	-11.1326
▁beschikbare	-11.1326
▁geclassificeerd	-11.1326
▁verdienen	-11.1326
voorzitter	-11.1327
▁Douglas	-11.1327
▁mentale	-11.1327
▁Harold	-11.1327
▁Manchester	-11.1327
▁macro	-11.1328
▁Keulen	-11.1329
▁Constantijn	-11.1337
▁opvoeding	-11.1338
▁audio	-11.1339
▁handelingen	-11.1347
▁Muziek	-11.1347
▁Russell	-11.1347
▁regeerde	-11.1348
▁Economische	-11.1349
▁Houston	-11.1353
gue	-11.1356
star	-11.1361
▁diepe	-11.1363
▁Public	-11.1364
▁keten	-11.1364
▁waarnemingen	-11.1365
▁Control	-11.1366
▁wensen	-11.1367
▁onderling	-11.1368
▁indirect	-11.137
▁geloofden	-11.137
parlementaire	-11.137
▁sa	-11.1372
roep	-11.1373
▁orders	-11.1375
Georgische	-11.1376
▁unie	-11.138
riële	-11.1381
▁Pla	-11.1384
▁Hope	-11.1393
mat	-11.1398
▁equivalent	-11.1402
▁Esperanto	-11.1406
▁Sta	-11.141
▁steeg	-11.1413
▁temperatuur	-11.1418
▁Sim	-11.1419
▁Ren	-11.1425
▁Bla	-11.1428
▁laatst	-11.1432
▁bondgenoot	-11.1439
▁onge	-11.1441
▁Dead	-11.1442
▁acteurs	-11.1451
▁inscriptie	-11.1453
▁Mal	-11.1453
▁Friese	-11.1455
▁Dor	-11.1459
▁patent	-11.146
▁belegering	-11.1465
▁sloeg	-11.1466
▁car	-11.147
pol	-11.147
stroom	-11.1471
rot	-11.1476
hoek	-11.1481
▁Wind	-11.1481
ite	-11.1489
▁wraak	-11.149
▁Rudolf	-11.1493
▁Stirner	-11.1493
▁Technology	-11.1493
▁confrontatie	-11.1493
▁gecomponeerd	-11.1493
▁medium	-11.1493
▁precieze	-11.1493
▁senior	-11.1493
▁misdaden	-11.1493
▁paranormale	-11.1493
▁gedateerd	-11.1493
▁renaissance	-11.1493
▁Sierra	-11.1493
▁aangemoedigd	-11.1493
▁Orania	-11.1494
▁Patrick	-11.1494
▁Cohen	-11.1494
▁manschappen	-11.1494
▁educatieve	-11.1494
▁Letland	-11.1494
▁gevangenschap	-11.1494
▁bossen	-11.1495
▁Wolf	-11.1495
▁Trust	-11.1496
▁welvaart	-11.1497
▁herhaaldelijk	-11.1497
▁gevechts	-11.1497
▁verbindingen	-11.1498
▁Hardy	-11.1499
▁aldaar	-11.1503
▁gedetailleerde	-11.1504
▁drinken	-11.1504
▁Michigan	-11.1508
▁symptomen	-11.1508
▁Argentijns	-11.1514
▁erkennen	-11.1514
vanaf	-11.1515
▁humanitaire	-11.1516
▁strand	-11.1517
▁wijzigingen	-11.1517
pers	-11.152
▁partnerschap	-11.1522
▁Plato	-11.1524
▁Anders	-11.1526
▁Servië	-11.1532
▁Gor	-11.1534
▁zone	-11.1536
▁moeilijke	-11.154
▁opinie	-11.1542
▁negende	-11.1544
▁auditie	-11.1544
▁Eu	-11.1545
▁mechanische	-11.1547
▁lezing	-11.1548
hoeft	-11.155
▁Bra	-11.1557
▁tuinen	-11.1557
▁Say	-11.1558
ate	-11.1559
ice	-11.1561
toeristische	-11.1561
rij	-11.1562
▁religieus	-11.1563
▁Lost	-11.1564
▁werkelijk	-11.1566
▁essay	-11.1566
▁Pu	-11.1567
▁Carlos	-11.1576
▁bedekt	-11.1578
▁Stra	-11.1582
▁dr	-11.1583
▁Kal	-11.1591
▁archief	-11.1592
▁Sommigen	-11.1593
▁Sar	-11.1595
▁typische	-11.1597
▁mond	-11.16
▁raketten	-11.16
▁bestuurlijk	-11.1609
▁koppel	-11.1609
reis	-11.1612
▁zwaard	-11.1629
auw	-11.1629
▁nationaliteit	-11.1629
iden	-11.1635
▁ingenieur	-11.1642
▁Far	-11.1644
less	-11.1645
fonds	-11.1645
▁ondernam	-11.1648
▁Take	-11.1649
hun	-11.1651
nda	-11.1652
▁Challenge	-11.1654
inter	-11.1656
▁opgerichte	-11.1659
genootschap	-11.1659
log	-11.1661
▁last	-11.1662
race	-11.1662
▁Pinkerton	-11.1663
▁Puerto	-11.1663
▁teruggekeerd	-11.1663
▁Armenië	-11.1663
▁Murray	-11.1663
▁Joan	-11.1663
▁Bueno	-11.1663
▁investeerders	-11.1663
▁normen	-11.1664
▁sch	-11.1664
centra	-11.1664
▁Bobby	-11.1664
▁Danny	-11.1665
▁landgoed	-11.1665
▁continu	-11.1666
▁stations	-11.1666
feest	-11.1668
▁Wi	-11.1669
▁bevrijding	-11.167
▁Glasgow	-11.1672
▁Lawrence	-11.1672
▁Tsjetsjeens	-11.1672
▁gezelschap	-11.1672
▁doorbraak	-11.1672
▁koninklijk	-11.1673
▁Ludwig	-11.1678
▁Vladimir	-11.1678
zaak	-11.1678
▁tri	-11.1679
▁Aires	-11.1679
▁districten	-11.168
▁Final	-11.1682
▁regen	-11.1684
▁Cook	-11.1686
▁Mensen	-11.1687
▁Silver	-11.1688
lijnen	-11.1688
▁routes	-11.169
jaren	-11.1693
▁behoorden	-11.1695
▁Jaar	-11.1696
bron	-11.1697
baan	-11.1698
▁cellen	-11.1701
▁herstelde	-11.1713
▁Joegoslavië	-11.1715
▁geroepen	-11.1715
▁machtige	-11.1719
▁strikt	-11.172
▁Freedom	-11.1721
sprekende	-11.1722
▁bent	-11.1725
▁prominent	-11.1731
▁vochten	-11.1732
▁gewonden	-11.1733
▁François	-11.1734
more	-11.1734
▁Rijks	-11.1736
lia	-11.1737
▁dokter	-11.1738
▁godin	-11.1748
▁pianist	-11.1749
form	-11.1751
▁dienden	-11.1755
tocht	-11.1759
▁piloot	-11.1764
▁DC	-11.177
itz	-11.1771
naast	-11.1774
▁droegen	-11.1775
tegen	-11.1777
dit	-11.1796
▁woningen	-11.1797
SO	-11.1799
▁nut	-11.1805
kov	-11.1805
complex	-11.1806
RO	-11.1807
▁raket	-11.1808
▁Kings	-11.1812
▁gemeenteraad	-11.1812
prijzen	-11.1813
▁kanalen	-11.1813
isering	-11.1814
▁Morris	-11.183
▁vredes	-11.1834
▁coach	-11.1835
▁betekenen	-11.1835
▁failliet	-11.1835
▁für	-11.1835
▁verkrijgbaar	-11.1835
▁demonstranten	-11.1835
▁Carolina	-11.1835
▁zorgvuldig	-11.1835
▁exemplaar	-11.1835
▁verwerkt	-11.1836
studio	-11.1836
▁Barbara	-11.1837
▁terugtrekking	-11.1837
▁Napels	-11.1837
test	-11.1839
▁functioneren	-11.184
ide	-11.1843
eenheden	-11.1845
▁producenten	-11.1845
▁regelmatige	-11.1847
▁geestelijke	-11.1848
soorten	-11.1849
▁Iron	-11.1851
wan	-11.1852
▁bekleedde	-11.1852
▁medicijnen	-11.1853
▁Westerse	-11.1853
▁dergelijk	-11.1853
▁Down	-11.1854
▁Hard	-11.1855
▁From	-11.1857
▁Marokkaans	-11.1857
▁Newton	-11.1859
brand	-11.186
stone	-11.1864
▁pakken	-11.1864
achtig	-11.1867
▁Liga	-11.1868
▁verhoogde	-11.1868
▁Pennsylvania	-11.1869
▁fenomeen	-11.1869
▁Run	-11.187
▁filosoof	-11.1876
▁Soedan	-11.1877
▁Mario	-11.1879
▁sterkte	-11.1881
▁bereik	-11.1881
ping	-11.1885
▁pijn	-11.1887
oloog	-11.1888
▁aanduiding	-11.1888
▁Mol	-11.1897
▁Claude	-11.19
▁Blues	-11.1903
ora	-11.1903
▁contracten	-11.1907
▁oneindig	-11.1907
▁ondersteunde	-11.1908
goed	-11.1909
▁gesprekken	-11.1909
▁Age	-11.1909
even	-11.1911
▁resten	-11.1913
ere	-11.1914
▁Reg	-11.1915
keert	-11.1917
arm	-11.1919
▁Rooms	-11.1925
▁Federal	-11.1925
▁persoonlijkheid	-11.1928
▁fan	-11.1929
▁sluiting	-11.193
▁Ye	-11.1931
pri	-11.1931
▁Stars	-11.1932
▁Tor	-11.1935
▁variatie	-11.1935
▁mm	-11.1942
▁schat	-11.1945
ima	-11.1951
ï	-11.1954
zin	-11.1957
▁nul	-11.1957
▁tempels	-11.1959
▁Sel	-11.1967
▁presentatie	-11.1973
▁varianten	-11.1974
▁Ana	-11.1976
▁optrad	-11.1977
▁bedroeg	-11.1977
▁honden	-11.1979
▁generaals	-11.198
kaarten	-11.198
gie	-11.1984
▁neo	-11.199
▁beschuldigde	-11.199
oi	-11.199
▁verklaringen	-11.199
och	-11.1994
▁pleegde	-11.1997
▁wint	-11.1998
ske	-11.1999
▁vallei	-11.1999
vier	-11.2001
▁Gemeenschap	-11.2003
▁Fish	-11.2005
▁intelligentie	-11.2008
zijde	-11.2008
und	-11.2008
▁Pokémon	-11.201
▁aanvulling	-11.201
▁Roosevelt	-11.201
▁dwingen	-11.201
Guinea	-11.201
▁Alexandrië	-11.2011
▁Carthagers	-11.2011
▁Renaissance	-11.2011
▁Stewart	-11.2011
▁gelijktijdig	-11.2011
▁Campbell	-11.2011
▁wakker	-11.2011
▁insecten	-11.2011
▁Metropolitan	-11.2011
▁Daily	-11.2011
▁dierentuin	-11.2011
▁kleinzoon	-11.2011
▁Japanners	-11.2011
▁jij	-11.2011
▁See	-11.2011
▁Angola	-11.2012
▁stuurt	-11.2014
▁noordoosten	-11.2015
▁Edinburgh	-11.202
▁woestijn	-11.2022
Ierland	-11.2022
▁Regional	-11.2024
vliegtuigen	-11.2024
▁Onafhankelijk	-11.2027
▁Sal	-11.2028
▁omliggend	-11.2029
▁And	-11.203
ova	-11.203
▁ecologische	-11.2031
▁opgravingen	-11.2031
sz	-11.2031
▁bewoond	-11.2032
▁bescheiden	-11.2033
▁hoofdredacteur	-11.2034
▁blog	-11.2034
▁Vegas	-11.2037
▁illustraties	-11.2037
▁gewaardeerd	-11.2039
▁meetkunde	-11.2042
ob	-11.2043
▁volume	-11.2045
▁opgesloten	-11.2048
▁vecht	-11.2052
▁atelier	-11.2052
▁Word	-11.2052
dal	-11.2052
▁Pieter	-11.2055
▁master	-11.2057
▁Nord	-11.2062
▁Hermann	-11.2066
▁Yo	-11.2067
aert	-11.2069
▁Germaans	-11.2075
▁opstellen	-11.2076
ence	-11.2081
ars	-11.2085
▁Ryan	-11.2088
▁wacht	-11.2088
▁voerden	-11.2088
▁track	-11.209
▁sterft	-11.209
▁spellen	-11.2092
▁monumenten	-11.2092
▁aanslagen	-11.2096
▁procedure	-11.2096
▁Ed	-11.2096
cle	-11.2101
▁matrix	-11.2103
▁hierna	-11.2106
Ho	-11.2107
▁essays	-11.2109
▁Amber	-11.2121
punten	-11.2132
seizoen	-11.2133
▁formatie	-11.2136
▁som	-11.2138
▁UK	-11.2139
sti	-11.214
▁continue	-11.2141
▁Page	-11.2144
rische	-11.2144
▁woning	-11.2146
olo	-11.2146
▁Var	-11.2148
tt	-11.2149
▁christen	-11.2157
▁kwart	-11.2165
bescherming	-11.2168
▁beïnvloeden	-11.2169
▁ensemble	-11.2172
av	-11.2175
▁leeg	-11.2178
▁faculteit	-11.2179
▁Wh	-11.218
▁Ak	-11.2182
light	-11.2183
staande	-11.2184
▁interieur	-11.2185
▁Babylon	-11.2187
▁that	-11.2187
▁kwaad	-11.2187
▁Beweging	-11.2189
▁verklaart	-11.2189
▁diversiteit	-11.2189
▁memoires	-11.2189
▁Del	-11.2189
▁Airways	-11.2189
▁plaatsgevonden	-11.2189
▁onderverdeeld	-11.219
shi	-11.219
▁behandelt	-11.219
▁verwezen	-11.219
zelf	-11.2191
▁overgeplaatst	-11.2191
▁Euler	-11.2193
az	-11.2194
▁dateren	-11.2194
▁brood	-11.2195
▁California	-11.2195
behoeve	-11.2199
▁Empire	-11.2199
▁Auto	-11.2199
majoor	-11.2201
ssen	-11.2202
▁Alpen	-11.2204
▁Kane	-11.2204
▁najaar	-11.2205
▁Landbouw	-11.2205
theater	-11.2205
▁Computer	-11.2205
▁Peace	-11.2205
▁extreme	-11.2205
▁vooruit	-11.2205
▁Security	-11.2205
▁kunstwerken	-11.2206
verkeer	-11.2206
▁roepen	-11.2207
▁Glen	-11.2207
wen	-11.2208
▁opslag	-11.2208
▁vervolging	-11.2211
▁uitbrengen	-11.2212
▁folk	-11.2212
▁Groenland	-11.2213
mit	-11.2215
▁opgevoerd	-11.2217
▁Brigade	-11.2218
▁Leden	-11.2221
▁verkeerde	-11.2222
▁Collins	-11.2223
▁zakenman	-11.2224
▁klok	-11.2232
▁deuren	-11.2233
▁verraad	-11.2234
lm	-11.2234
Indische	-11.2236
levisieprogramma	-11.2237
▁gelijkwaardig	-11.2238
▁meende	-11.2239
▁creatie	-11.224
AM	-11.2241
Ro	-11.2243
leg	-11.2245
▁Philips	-11.2246
toren	-11.2248
rok	-11.225
▁Ever	-11.225
sha	-11.225
▁administratie	-11.2252
boot	-11.2254
▁Ring	-11.2255
▁chemie	-11.2256
yo	-11.2257
▁overdracht	-11.2257
stellen	-11.2257
▁vergaderingen	-11.2263
merk	-11.2267
▁Nation	-11.2273
▁juridisch	-11.2273
▁artistiek	-11.2273
▁Secret	-11.2274
vallen	-11.2275
SL	-11.2287
▁uitvoerend	-11.229
▁Terug	-11.2291
West	-11.2291
poort	-11.2297
rus	-11.2297
▁vervaardigd	-11.2298
▁trouwden	-11.2298
▁verlengd	-11.2303
▁moed	-11.2308
▁Hell	-11.2311
tius	-11.2313
▁Char	-11.2314
▁pp	-11.2318
elli	-11.2323
TV	-11.2332
erende	-11.2334
ensis	-11.2337
▁verdacht	-11.2337
▁dialect	-11.2344
▁Cooper	-11.2346
▁Werk	-11.2348
▁beëindigde	-11.235
▁overigen	-11.2352
▁opstanden	-11.2354
—	-11.2364
sprogramma	-11.2365
▁Webb	-11.2368
▁uitdaging	-11.2368
▁Ocean	-11.2371
▁Ptolemaeus	-11.2371
▁bepaalt	-11.2371
▁koffie	-11.2371
▁veroordeling	-11.2371
▁voorlopig	-11.2371
▁vreedzame	-11.2371
▁Lissabon	-11.2371
▁Felix	-11.2371
▁Federation	-11.2371
▁Beatles	-11.2371
▁Review	-11.2371
▁Caroline	-11.2371
▁Arnold	-11.2371
▁Volvo	-11.2372
▁Jerry	-11.2372
▁afgebroken	-11.2372
▁fictieve	-11.2372
▁Blake	-11.2372
▁voelt	-11.2373
▁Christopher	-11.2373
▁allereerst	-11.2373
▁Watson	-11.2374
idi	-11.2375
▁zussen	-11.2375
▁interviews	-11.2378
▁Spanjaarden	-11.2378
▁inspireerde	-11.2379
▁levenslang	-11.2379
▁industrieel	-11.238
▁ringen	-11.2381
jan	-11.2386
▁aankoop	-11.2386
▁Thompson	-11.2387
▁IBM	-11.2392
▁Palestina	-11.2394
▁Linux	-11.2394
effect	-11.2394
▁Bruce	-11.2394
pagina	-11.2394
▁Education	-11.2395
software	-11.2396
▁legioenen	-11.2397
waaronder	-11.2398
▁café	-11.24
gy	-11.2401
ving	-11.2404
▁lezers	-11.2405
gemeentelijke	-11.2406
▁burgerlijke	-11.2407
▁verricht	-11.241
▁volkeren	-11.2411
▁toonden	-11.2411
▁maandelijks	-11.2413
▁astronomie	-11.2414
▁potentieel	-11.2414
▁senator	-11.2417
▁Sc	-11.2418
▁seksueel	-11.242
▁constant	-11.2422
▁verbeteringen	-11.2423
▁homo	-11.2423
▁score	-11.2424
▁benadrukt	-11.2424
▁j	-11.2426
▁verwachtingen	-11.2428
▁Os	-11.243
ett	-11.243
▁Servische	-11.2435
▁discussies	-11.2441
▁laagst	-11.2444
à	-11.2447
anda	-11.2447
lis	-11.2448
sorganisatie	-11.2452
▁uitmaakte	-11.2453
▁democratisch	-11.2454
▁metaal	-11.2456
▁Mun	-11.2457
pad	-11.2462
▁tank	-11.2463
▁That	-11.2465
▁zonden	-11.2466
▁zaten	-11.2474
leiding	-11.2476
▁VII	-11.2478
▁hypothese	-11.2482
grafische	-11.2484
▁bom	-11.2484
▁oordeel	-11.2488
wagen	-11.2491
▁nachts	-11.2495
}}	-11.2497
ink	-11.2497
▁duurt	-11.25
▁Abu	-11.25
▁Sp	-11.2505
label	-11.2509
▁vermelden	-11.2511
▁linkse	-11.2521
▁Luc	-11.2522
▁verdragen	-11.2523
▁patiënt	-11.2524
CS	-11.2525
▁explosie	-11.253
spraak	-11.2535
▁achttien	-11.2544
▁ingenieurs	-11.2549
▁it	-11.2552
▁Beethoven	-11.2556
▁Jupiter	-11.2556
▁Liverpool	-11.2556
▁Sydney	-11.2556
▁Wrestling	-11.2556
▁benadrukken	-11.2556
▁reageren	-11.2556
▁stimuleren	-11.2556
▁botanisch	-11.2556
▁controversiële	-11.2556
▁uitvinder	-11.2556
nationalistische	-11.2556
▁naburig	-11.2556
▁staatsgreep	-11.2556
▁Arrow	-11.2556
▁Aristoteles	-11.2557
▁Zuidoost	-11.2557
▁concentreerde	-11.2558
▁teruggetrokken	-11.2558
▁Potter	-11.2559
▁Tiger	-11.256
▁onderliggend	-11.2561
▁uitbreken	-11.2562
St	-11.2562
▁Pont	-11.2562
▁koers	-11.2565
ili	-11.2566
▁oplossen	-11.2572
ien	-11.2573
▁Singapore	-11.2573
▁verscheidenheid	-11.2575
▁nabijheid	-11.2575
economie	-11.2576
▁Race	-11.2577
▁piraten	-11.258
▁Evans	-11.2582
gewone	-11.2586
▁verbinden	-11.2587
▁musici	-11.2589
▁Goede	-11.2589
▁omgezet	-11.2592
▁kansen	-11.2594
▁Hierme	-11.2597
▁Non	-11.2598
▁gediend	-11.26
▁Ty	-11.2602
▁festivals	-11.2603
▁territorium	-11.2606
▁slaagden	-11.2608
▁zorgden	-11.2611
AF	-11.2611
▁wateren	-11.2612
gem	-11.2613
▁Unit	-11.2618
▁erover	-11.2618
▁CD	-11.2618
▁kijk	-11.2624
▁richtlijnen	-11.2626
▁mix	-11.2628
▁Shaw	-11.2636
▁bevrijden	-11.2639
rich	-11.264
▁benadrukte	-11.2641
ère	-11.2642
▁dachten	-11.2643
ks	-11.2643
▁Mas	-11.2644
▁vertalingen	-11.2646
ont	-11.2646
▁redelijk	-11.2647
▁langste	-11.2652
▁klassiek	-11.2658
bl	-11.2663
gas	-11.2663
cat	-11.2672
▁dimensies	-11.2673
▁apparaten	-11.2673
eten	-11.2676
ox	-11.2681
▁noordelijk	-11.2681
▁sluit	-11.2682
▁liter	-11.2686
winkel	-11.2689
ney	-11.2692
jar	-11.2699
▁vervolgd	-11.2711
▁Ac	-11.2712
▁toon	-11.2712
▁overtuiging	-11.2715
▁missies	-11.2728
SD	-11.2728
ika	-11.2729
▁hectare	-11.2729
▁centra	-11.2732
▁Es	-11.2735
tank	-11.2738
▁Cross	-11.2739
FM	-11.2739
▁Marshall	-11.2739
▁detail	-11.2741
ance	-11.2742
▁visserij	-11.2742
▁Hugh	-11.2744
▁Wonder	-11.2744
▁gereed	-11.2744
▁Niettemin	-11.2745
▁UNESCO	-11.2745
▁civiele	-11.2745
▁vullen	-11.2745
▁gemeld	-11.2745
▁obesitas	-11.2745
▁Tokyo	-11.2745
▁Batavia	-11.2745
▁presenteert	-11.2745
▁stopgezet	-11.2745
▁Obama	-11.2745
▁Country	-11.2745
▁Graham	-11.2745
▁ruzie	-11.2745
▁hangt	-11.2745
▁kopieën	-11.2745
▁Southern	-11.2745
orum	-11.2746
▁Afro	-11.2746
▁ontstaat	-11.2746
brug	-11.2746
▁verdelen	-11.2746
▁allebei	-11.2748
▁Vincent	-11.2748
▁vlaggen	-11.2748
▁bestrijden	-11.2749
ción	-11.275
▁typen	-11.2753
gra	-11.2753
▁maximal	-11.2753
▁verklaarden	-11.2754
▁Manuel	-11.2754
▁economen	-11.2755
▁Future	-11.2756
▁Nero	-11.2756
▁kerkelijke	-11.2757
▁Dresden	-11.2762
▁Istanboel	-11.2762
▁Curaçao	-11.2762
▁Oslo	-11.2762
hen	-11.2765
▁opzetten	-11.2768
▁Fun	-11.277
▁morgen	-11.2773
▁negatief	-11.2775
list	-11.2776
▁Handel	-11.2779
▁religies	-11.2781
▁frequentie	-11.2789
▁voorbereidingen	-11.2792
▁Bull	-11.2792
editie	-11.2795
▁Shu	-11.2797
An	-11.2798
▁groen	-11.2801
▁betrouwbare	-11.2803
▁Data	-11.2804
▁terugkerend	-11.2805
dijk	-11.281
positie	-11.2811
▁conventione	-11.2814
bol	-11.2819
rio	-11.2821
▁Ian	-11.2822
▁schilders	-11.2825
▁veiling	-11.2827
pak	-11.2827
▁bekritiseerde	-11.283
▁gelijkheid	-11.283
woord	-11.2832
▁Rats	-11.2833
fase	-11.2834
▁Coll	-11.2837
▁afzonderlijk	-11.2839
▁fysiek	-11.2839
▁Atheist	-11.2839
▁notie	-11.2843
▁Fall	-11.2847
▁aanstelling	-11.2848
▁doodde	-11.285
ehalve	-11.2851
▁fotografie	-11.2853
▁overeenkomsten	-11.2857
▁Maarten	-11.2858
▁korter	-11.2859
▁formaat	-11.2859
▁signaal	-11.2862
stand	-11.2868
aux	-11.2869
▁feitelijk	-11.287
▁gecontroleerd	-11.2875
feld	-11.2881
idae	-11.2883
▁onrust	-11.2886
▁betrof	-11.2887
▁Vlaams	-11.2889
▁August	-11.289
▁tevreden	-11.2901
▁verhandeling	-11.2904
▁standbeeld	-11.2905
▁pionier	-11.2905
▁nuttig	-11.291
▁gek	-11.2911
DS	-11.2912
▁medisch	-11.2914
▁Ram	-11.2915
▁Vel	-11.2917
▁Kou	-11.2919
dt	-11.2923
ington	-11.2925
▁blind	-11.2927
▁Susan	-11.2927
katholieke	-11.2931
▁intellectuele	-11.2931
▁Hem	-11.2932
▁mysterieu	-11.2934
▁zoekt	-11.2935
rad	-11.2935
▁Buiten	-11.2935
▁hoeveel	-11.2936
▁Major	-11.2936
▁toonaangevend	-11.2937
▁FIFA	-11.2937
▁Mercedes	-11.2937
▁Tsjetsjenië	-11.2937
▁Bosnië	-11.2937
▁motto	-11.2937
▁simpelweg	-11.2937
▁bewaren	-11.2938
▁FBI	-11.2938
▁rooms	-11.2938
▁Jason	-11.2938
▁Elvis	-11.2939
▁herinnert	-11.2939
▁realiseren	-11.2939
▁essentieel	-11.2939
▁leken	-11.2939
lli	-11.294
▁Sahara	-11.294
▁kruisvaarders	-11.294
▁verward	-11.294
▁Terry	-11.2941
▁Lisa	-11.2942
minister	-11.2945
▁statistisch	-11.2947
▁wederzijds	-11.2948
▁gelden	-11.2949
▁Lin	-11.2955
gaan	-11.2955
ua	-11.2957
▁wijdde	-11.2958
▁makkelijk	-11.2958
ial	-11.2959
voudig	-11.2959
sma	-11.2963
▁vluchtten	-11.2967
mannen	-11.2977
▁Koreaans	-11.2979
AR	-11.298
video	-11.2983
regels	-11.2983
▁draaide	-11.2984
probleem	-11.2985
$	-11.2985
Rusland	-11.2985
regime	-11.2986
beheer	-11.2988
En	-11.2994
▁activist	-11.2994
▁Let	-11.2997
ida	-11.2998
PA	-11.2999
▁Pools	-11.3
▁hebt	-11.3002
▁gezocht	-11.3003
▁archieven	-11.3003
elementen	-11.3005
▁Action	-11.3009
▁soevereiniteit	-11.301
▁toerisme	-11.301
▁É	-11.3012
▁hevige	-11.3012
▁haat	-11.3014
▁gele	-11.3018
ianus	-11.3022
aarmee	-11.3022
EA	-11.3023
▁woon	-11.3025
▁Social	-11.3026
▁Qu	-11.3029
▁Sur	-11.303
▁Theo	-11.3034
▁steken	-11.3035
▁videoclip	-11.3036
▁organismen	-11.3038
▁service	-11.3038
▁meet	-11.3039
▁inscripties	-11.3048
▁bevestigen	-11.3053
Russische	-11.3053
eau	-11.3054
▁Olympisch	-11.3055
▁Ste	-11.3065
▁kardinaal	-11.3065
elijk	-11.3067
langs	-11.3069
▁speel	-11.307
vat	-11.3072
▁eraan	-11.3075
\	-11.3078
▁dominante	-11.3079
▁verzorgde	-11.3085
til	-11.3089
▁vogel	-11.3089
▁heuvels	-11.309
▁blauw	-11.3092
▁delegatie	-11.3096
▁maatschappelijk	-11.3096
▁betwist	-11.3099
icus	-11.3103
geld	-11.3104
NA	-11.3106
eiland	-11.3109
▁ka	-11.311
▁Spe	-11.3113
aria	-11.3119
waarschijnlijk	-11.312
▁daalde	-11.312
▁Roy	-11.3122
▁Middeleeuwen	-11.3133
▁Perzië	-11.3133
▁communiceren	-11.3133
▁diagnose	-11.3133
▁gerealiseerd	-11.3133
▁illegaal	-11.3133
▁monetair	-11.3133
▁sciencefiction	-11.3133
lláh	-11.3133
▁Cartman	-11.3133
▁heropend	-11.3133
▁oceaan	-11.3133
▁Community	-11.3133
▁tsaar	-11.3133
▁oorzaken	-11.3133
▁geslaagd	-11.3133
▁Aruba	-11.3133
▁gastheer	-11.3133
▁Elisabeth	-11.3134
▁teruggevonden	-11.3134
iek	-11.3134
▁Tsjechische	-11.3134
▁Children	-11.3134
▁Irish	-11.3134
▁Historic	-11.3134
▁planeten	-11.3134
▁bisschoppen	-11.3135
hard	-11.3136
▁uitgevonden	-11.3136
▁omringd	-11.3136
▁Daardoor	-11.3136
▁Diego	-11.3137
▁klas	-11.3137
▁Ghost	-11.3137
gezet	-11.3138
▁luidt	-11.314
werkingsverband	-11.3141
sher	-11.3142
▁Britannia	-11.3144
▁rivaliteit	-11.3144
▁Lex	-11.3151
▁Riemann	-11.3151
▁gevolge	-11.3154
▁metalen	-11.3157
▁Hebreeuws	-11.3158
▁kenmerk	-11.3158
▁Fo	-11.3158
▁USA	-11.3159
▁Shin	-11.316
▁trainings	-11.316
▁onthulde	-11.3161
week	-11.3162
graaf	-11.3168
▁Tin	-11.3178
▁Sz	-11.3184
Ze	-11.3186
snelheid	-11.3186
adi	-11.3189
▁doorheen	-11.3195
▁zuurstof	-11.3199
▁overleefd	-11.3202
▁bi	-11.3204
▁arme	-11.3206
eigenaar	-11.3206
▁back	-11.3207
▁Kr	-11.3208
▁linie	-11.3209
All	-11.3211
ois	-11.3213
▁affaire	-11.3215
rijk	-11.3216
▁voorraden	-11.3217
samen	-11.3221
ello	-11.3228
▁Storm	-11.3229
▁vergelijkingen	-11.3231
lim	-11.3234
▁afdelingen	-11.3237
▁Ol	-11.3238
▁opzet	-11.3242
▁Tre	-11.3242
▁Carlo	-11.3243
▁terugtrekken	-11.3244
uni	-11.3248
gh	-11.3248
Ver	-11.325
▁virus	-11.325
▁Seven	-11.3252
romantische	-11.3253
▁arbeids	-11.3253
▁effectieve	-11.3254
volle	-11.3257
▁criteria	-11.3258
techniek	-11.3259
▁begeleid	-11.326
▁viool	-11.3261
ern	-11.3269
▁uiterst	-11.327
link	-11.3272
▁Fat	-11.3278
▁lading	-11.3279
row	-11.3286
▁radiostation	-11.3286
▁Pen	-11.3287
EC	-11.3288
▁spelling	-11.3289
▁Jamaica	-11.3293
▁Ei	-11.3298
kers	-11.3301
▁grot	-11.3301
▁poly	-11.3303
▁aanvaardde	-11.3304
▁import	-11.3311
▁machten	-11.3312
▁wier	-11.332
ning	-11.332
▁belangrijker	-11.3321
ras	-11.3323
▁Miles	-11.3324
▁Wang	-11.3324
▁monster	-11.3325
▁kat	-11.3326
▁Julie	-11.3326
▁crucia	-11.3329
▁zeldzaam	-11.333
▁Taiwan	-11.3333
▁Genootschap	-11.3333
▁Premier	-11.3333
▁geweigerd	-11.3333
▁vertoont	-11.3333
▁Ahmad	-11.3333
▁mandaat	-11.3333
▁Pedro	-11.3333
▁Software	-11.3333
veronderstelling	-11.3333
▁Straatsburg	-11.3333
▁Melbourne	-11.3333
▁Television	-11.3333
▁ideaal	-11.3333
▁reconstructie	-11.3333
▁Expo	-11.3334
▁Creek	-11.3334
▁voltooiing	-11.3334
▁WWE	-11.3334
▁Larry	-11.3334
▁Mobile	-11.3334
▁hierboven	-11.3334
▁Cubaanse	-11.3334
▁grootmoeder	-11.3335
▁Noordzee	-11.3335
▁Ernest	-11.3335
▁Marvel	-11.3336
▁René	-11.3336
▁geïllustreerd	-11.3337
▁sceptisch	-11.3339
▁Medal	-11.334
▁zinken	-11.3343
▁Mc	-11.3343
▁las	-11.3343
▁Koerdisch	-11.3345
▁advocaten	-11.3346
▁Kai	-11.3346
▁aanwijzingen	-11.3347
è	-11.3348
▁Baker	-11.3349
▁Rechten	-11.3349
▁sfeer	-11.3349
▁Steel	-11.3351
▁echtpaar	-11.3351
▁Ice	-11.3355
aren	-11.3357
blok	-11.336
▁salaris	-11.3365
▁Angel	-11.3366
bestuur	-11.3366
▁filosofen	-11.3367
▁Productions	-11.3369
▁Mission	-11.3372
▁Kid	-11.3373
▁reizigers	-11.3374
▁Cre	-11.3377
dor	-11.338
▁Fer	-11.3388
▁Want	-11.339
▁Ts	-11.3397
stuk	-11.3397
auteur	-11.34
▁modulair	-11.3404
▁Stein	-11.3404
▁vervoeren	-11.341
▁migratie	-11.3416
▁baai	-11.3419
▁wiskundigen	-11.3421
▁historie	-11.3423
▁Mid	-11.3425
▁aangedreven	-11.3426
▁besturen	-11.3428
▁beschrijvingen	-11.3432
▁mo	-11.3433
for	-11.3434
kosten	-11.3436
ado	-11.3438
tiek	-11.344
▁ontvingen	-11.3441
AS	-11.3441
ré	-11.3443
▁Hal	-11.3444
▁Teatr	-11.3445
▁onderzoekt	-11.3447
▁bus	-11.3451
▁claimde	-11.3451
gingen	-11.3459
▁Bert	-11.346
▁tekort	-11.3469
▁spreker	-11.3469
▁Julia	-11.3469
▁Wim	-11.3474
▁passie	-11.3475
▁Ras	-11.3479
ther	-11.348
▁Litouws	-11.3483
▁vergroot	-11.3485
roll	-11.3487
▁Hat	-11.3488
sterren	-11.3491
▁Baden	-11.3494
▁vergelijken	-11.3496
▁strikte	-11.3497
▁voorstelling	-11.35
Do	-11.3502
pop	-11.3503
lands	-11.3505
hij	-11.3505
qui	-11.3507
ky	-11.3509
▁Acht	-11.3517
▁mark	-11.3525
brengen	-11.3528
▁Medic	-11.3531
iya	-11.3534
▁waard	-11.3535
▁uitleg	-11.3537
▁autonom	-11.3537
▁bevindingen	-11.3537
▁gebeuren	-11.3537
▁gedocumenteerd	-11.3537
▁gereduceerd	-11.3537
▁oeuvre	-11.3537
▁Ajax	-11.3537
▁Suzuki	-11.3537
▁afschaffing	-11.3537
▁Ridge	-11.3537
▁Alaska	-11.3537
▁valuta	-11.3537
▁huurlingen	-11.3537
▁vastgehouden	-11.3537
▁Raymond	-11.3538
▁expressie	-11.3538
▁Kiev	-11.3538
▁beheren	-11.3538
▁Turken	-11.3538
▁Pascal	-11.3538
▁handhaven	-11.3538
▁aankwam	-11.3539
▁secundair	-11.3539
▁autonomie	-11.3539
▁republikeinse	-11.3539
▁Warner	-11.3539
▁Bat	-11.354
▁Kyle	-11.354
▁Like	-11.3541
▁Georges	-11.3544
hor	-11.3546
abel	-11.3548
▁Walker	-11.355
▁Francesco	-11.3551
▁pan	-11.3555
▁piloten	-11.3555
▁Geschiedenis	-11.3556
▁afkorting	-11.3556
▁Video	-11.3556
▁Kevin	-11.3556
▁overwegen	-11.3556
▁afgezet	-11.3556
▁legendarische	-11.3557
vrije	-11.3557
RA	-11.3557
▁verspreidde	-11.356
▁stamt	-11.3561
▁Oil	-11.3562
▁besliste	-11.3563
▁aanpassingen	-11.3566
▁arriveerden	-11.3568
lkens	-11.3568
▁redactie	-11.3571
▁petitie	-11.3571
▁blues	-11.3575
dar	-11.3577
▁verschilt	-11.3578
shows	-11.3579
▁herinneringen	-11.358
▁Tro	-11.3581
debuut	-11.3583
▁voorzag	-11.3587
▁pseudo	-11.3588
▁Gustav	-11.3589
▁boerderijen	-11.3589
▁scheeps	-11.3591
exclusief	-11.3591
slanden	-11.3593
▁communisme	-11.3593
▁significante	-11.3594
gebaseerde	-11.3595
lay	-11.3596
cke	-11.3596
maat	-11.3599
fu	-11.36
▁Com	-11.36
term	-11.3604
▁dansers	-11.3604
▁schijnba	-11.3608
Romeins	-11.361
▁vertoond	-11.3612
ijs	-11.3614
▁schrijfster	-11.3615
▁discriminatie	-11.3615
▁eigenschap	-11.3615
▁Kong	-11.3618
hin	-11.3619
▁betaling	-11.3619
▁rapporteerde	-11.3621
▁uitmaakt	-11.3622
▁rede	-11.3623
NS	-11.3623
▁depressie	-11.3627
▁variëteit	-11.3627
▁vracht	-11.3628
▁meesten	-11.3629
▁Oosten	-11.3636
▁Rico	-11.364
▁Sociale	-11.3642
▁plus	-11.3644
tv	-11.3645
▁Classic	-11.3646
▁Magic	-11.3647
ringen	-11.3649
▁Anderen	-11.365
▁gemengd	-11.3652
▁correct	-11.3652
rea	-11.3654
▁proef	-11.3655
▁Shell	-11.3662
▁Katholieke	-11.3664
▁Hoofd	-11.3664
▁voorspellen	-11.3672
▁verbrand	-11.3678
▁manifest	-11.3681
lov	-11.3687
pp	-11.3688
▁Zu	-11.3691
vrij	-11.3694
▁rots	-11.3695
▁bio	-11.3695
boom	-11.3696
▁Masters	-11.3697
▁artsen	-11.3699
ssysteem	-11.3709
wo	-11.3709
Ar	-11.3711
▁verdieping	-11.3713
▁zout	-11.3718
nk	-11.3719
▁Universal	-11.3719
▁Keizer	-11.372
▁systematische	-11.3722
▁Jong	-11.3724
▁Mur	-11.3726
collectie	-11.3727
▁belofte	-11.373
▁Rod	-11.3731
▁verval	-11.3735
▁Tal	-11.3738
▁blij	-11.374
IS	-11.3742
▁erfenis	-11.3744
▁Benjamin	-11.3746
▁Gallery	-11.3746
▁Memphis	-11.3746
▁combineren	-11.3746
▁gerenoveerd	-11.3746
▁gesloopt	-11.3746
▁geëxporteerd	-11.3746
▁meningsuiting	-11.3746
▁verworven	-11.3746
▁waarschuwde	-11.3746
▁Divisie	-11.3746
▁voortzetting	-11.3746
▁organen	-11.3746
lyn	-11.3746
▁astma	-11.3746
▁BMW	-11.3746
▁warmte	-11.3747
▁Franklin	-11.3748
▁gebruikmaken	-11.3749
▁verhuizen	-11.3749
▁defensieve	-11.3749
▁zaal	-11.375
▁welzijn	-11.375
▁Lenin	-11.3751
▁uitstekend	-11.3751
rick	-11.3753
▁roept	-11.3754
nny	-11.3756
bronnen	-11.3757
▁Leipzig	-11.3757
▁Gallië	-11.3759
▁consensus	-11.376
▁regerings	-11.376
▁schriftelijk	-11.3762
▁dode	-11.3762
▁uitgesteld	-11.3763
iseren	-11.3763
▁Vrouwen	-11.3764
structurele	-11.3764
▁Chinezen	-11.3765
Duits	-11.3765
▁Sara	-11.3767
▁torens	-11.3769
dd	-11.3773
zame	-11.3776
▁vertrekt	-11.3778
▁consistent	-11.3779
▁munitie	-11.3779
▁CBS	-11.3781
▁expert	-11.3782
▁Got	-11.3782
▁leraren	-11.3783
▁Our	-11.3786
▁kwalificatie	-11.3787
▁nadien	-11.3789
ES	-11.3795
verandering	-11.3796
▁Under	-11.3799
▁universele	-11.38
▁zitting	-11.3803
▁eisten	-11.3803
▁staking	-11.3807
▁ru	-11.3811
▁directie	-11.3818
machine	-11.3818
▁sponsor	-11.382
protocol	-11.3823
▁aller	-11.3824
concert	-11.3824
▁Chan	-11.3824
▁Ontwikkeling	-11.3824
▁katholieken	-11.3825
▁beschermde	-11.3825
▁Jay	-11.3825
oprichter	-11.3826
inclusief	-11.3828
▁bezitten	-11.3829
▁Mari	-11.3833
▁stuks	-11.3833
▁Beste	-11.3833
ess	-11.3835
nom	-11.3836
▁faciliteiten	-11.3842
ali	-11.3844
▁bereiden	-11.3845
ati	-11.3846
▁constitutione	-11.3852
▁act	-11.3853
▁beslissende	-11.3859
pas	-11.3859
▁variaties	-11.3859
▁mono	-11.386
▁vissen	-11.3861
▁Machine	-11.3861
▁middag	-11.3864
▁antiek	-11.3864
▁Just	-11.3866
nieuw	-11.3866
▁situaties	-11.3866
▁Franco	-11.3867
▁antwoorden	-11.3867
PC	-11.3868
verbindingen	-11.3868
zu	-11.387
▁Steven	-11.387
▁pand	-11.3871
lt	-11.3873
▁Dog	-11.3876
▁opvolgers	-11.3876
▁Zelf	-11.3877
▁Code	-11.3877
▁Ant	-11.388
kar	-11.3882
▁Rich	-11.3883
bin	-11.3885
▁PC	-11.3891
komst	-11.3891
▁bestemming	-11.3895
▁vertaalde	-11.3895
▁Ker	-11.3898
▁karakteristieke	-11.3902
▁Fighter	-11.3906
▁experts	-11.3907
▁Casa	-11.3908
▁toestanden	-11.3916
ors	-11.3917
Be	-11.3919
▁nodigde	-11.3919
▁attractie	-11.3922
▁Son	-11.3922
oth	-11.3922
▁villa	-11.3925
▁Wing	-11.3929
▁Rogers	-11.3933
▁activisten	-11.3934
▁Gr	-11.3936
▁Palm	-11.3937
tag	-11.3941
day	-11.3942
▁natuurkundige	-11.3944
Arabisch	-11.3949
▁Brugge	-11.3953
▁IJslands	-11.3956
▁Báb	-11.3958
▁Arabieren	-11.3958
▁Cantillon	-11.3958
▁Carthaags	-11.3958
▁Conference	-11.3958
▁ingehuurd	-11.3958
▁mythologie	-11.3958
▁verzoening	-11.3958
▁wijzigen	-11.3958
▁profeet	-11.3958
▁geconcentreerd	-11.3958
▁Mitchell	-11.3958
▁Heinrich	-11.3958
▁Justice	-11.3958
▁Clara	-11.3959
▁Doctor	-11.3959
▁progressieve	-11.3959
▁WWF	-11.3959
▁Junior	-11.3959
▁luxe	-11.3959
▁promoveerde	-11.3959
▁verplaatsen	-11.396
▁Liberty	-11.396
▁Nepal	-11.3961
▁zuidoosten	-11.3961
▁Warren	-11.3961
▁buren	-11.3961
▁Cape	-11.3961
verhaal	-11.3963
▁onderhield	-11.3965
▁lege	-11.3966
▁Fund	-11.3968
▁idealen	-11.3968
▁Cornelis	-11.3968
▁expansie	-11.397
▁Cinelerra	-11.397
▁tante	-11.3971
▁pelgrims	-11.3972
▁achttiende	-11.3973
▁Gary	-11.3975
▁uitgesloten	-11.3976
▁Dun	-11.3977
▁podcast	-11.3978
▁perfecte	-11.3978
▁afgevaardigden	-11.3979
▁Westelijke	-11.398
▁Isaac	-11.3981
▁Fisher	-11.3983
▁Watch	-11.3984
▁vorsten	-11.3984
▁omzet	-11.3985
PS	-11.3987
▁Nathan	-11.3989
▁Londens	-11.3993
▁logische	-11.3993
▁ruïnes	-11.3994
▁landschappen	-11.3995
▁overtuigingen	-11.3995
▁Bach	-11.3996
▁overtuigde	-11.3997
comp	-11.3997
▁gelijkenis	-11.3998
▁ADE	-11.4
▁Em	-11.4002
▁besteld	-11.4006
▁intern	-11.4011
▁onderweg	-11.4011
▁Rail	-11.4011
wind	-11.4012
▁Joods	-11.4014
tour	-11.4016
▁gevochten	-11.4016
▁parken	-11.4018
▁schatten	-11.4025
▁mentor	-11.4031
▁apparatuur	-11.4031
▁Dominic	-11.4034
ić	-11.4036
▁gewassen	-11.404
▁Ward	-11.4041
▁gevuld	-11.4042
formaat	-11.4048
▁plekken	-11.4051
oku	-11.4054
▁fondsen	-11.4058
▁veroverden	-11.406
▁instructies	-11.4064
Dit	-11.4067
▁all	-11.407
tch	-11.407
Na	-11.4071
▁Spartaans	-11.4071
kai	-11.4074
concentratiekamp	-11.4076
▁Guard	-11.4077
▁piek	-11.4081
▁Right	-11.4081
DE	-11.4083
▁Dragon	-11.4084
▁verenigingen	-11.4085
▁alfabet	-11.4088
ela	-11.4089
▁Zero	-11.4089
onische	-11.4092
ise	-11.4092
▁herhaalde	-11.4093
To	-11.4094
ira	-11.4094
bond	-11.4095
▁eigenaren	-11.4098
▁Gran	-11.4103
▁Days	-11.4105
▁stabiele	-11.411
▁tennis	-11.4113
app	-11.4117
▁levend	-11.412
middel	-11.4123
aga	-11.4127
▁geweten	-11.4129
sberg	-11.4131
▁Side	-11.4136
▁Wal	-11.4137
ón	-11.4137
▁naties	-11.4139
▁verwierp	-11.4142
▁standaarden	-11.4143
▁genen	-11.4145
▁beslist	-11.4149
lio	-11.4154
▁Japans	-11.4156
▁banen	-11.4163
▁Mass	-11.4164
▁Bali	-11.4166
▁publiceerden	-11.4169
genen	-11.4171
▁gezondheids	-11.4174
Engels	-11.4175
▁Canterbury	-11.4176
▁Ferrari	-11.4176
▁aangekocht	-11.4176
▁afstammeling	-11.4176
▁gesuggereerd	-11.4176
▁refereert	-11.4176
▁weigeren	-11.4176
▁exploitatie	-11.4176
▁gehuwd	-11.4176
▁komeet	-11.4176
▁Salvador	-11.4176
▁verlenen	-11.4176
▁regelgeving	-11.4176
▁Palace	-11.4176
▁toetreding	-11.4176
▁Middel	-11.4176
▁plaatsvindt	-11.4177
▁(...)	-11.4177
▁Keltische	-11.4177
graf	-11.4177
▁medeoprichter	-11.4178
▁Chief	-11.4178
▁pour	-11.4178
▁Guardian	-11.4178
▁Mess	-11.4179
▁achternaam	-11.418
▁staal	-11.418
▁Scandinavië	-11.418
▁schapen	-11.418
▁Theory	-11.4181
▁Paulo	-11.4182
▁Gabriel	-11.4183
▁Carter	-11.4183
▁Edgar	-11.4184
▁fluit	-11.4184
▁onverwacht	-11.4186
▁transformatie	-11.4186
▁Dur	-11.4188
▁Caïro	-11.4188
▁Gibraltar	-11.4188
▁Shakespeare	-11.4188
▁decreet	-11.4188
EN	-11.4189
▁Reed	-11.419
▁aangetrokken	-11.419
▁geannuleerd	-11.419
kunde	-11.419
▁verwees	-11.419
▁liepen	-11.4192
▁geweldig	-11.4193
oro	-11.4193
orthodoxe	-11.4195
▁Damascus	-11.4195
▁ingedeeld	-11.4196
▁helikopter	-11.4197
▁Cho	-11.4199
gegroeid	-11.42
▁Donau	-11.42
▁getraind	-11.4203
▁ingediend	-11.4205
▁opgetreden	-11.4205
richting	-11.4209
ld	-11.421
▁Libanon	-11.4211
gli	-11.4215
▁Christelijk	-11.4217
▁correspondent	-11.4218
▁definities	-11.4218
▁geladen	-11.4219
▁schaduw	-11.4219
▁onderbroken	-11.4221
heer	-11.4227
▁Limburg	-11.4227
▁hotels	-11.4228
▁Services	-11.4229
▁zusters	-11.423
ontwerp	-11.423
▁Hi	-11.4232
▁uitwisseling	-11.4243
slagen	-11.4245
▁aanvaarden	-11.4245
▁claims	-11.4248
Je	-11.4248
▁schild	-11.4248
▁veroordeelde	-11.4249
iërs	-11.4249
▁verplichtingen	-11.425
▁zeventien	-11.4251
▁koste	-11.4251
▁snelste	-11.4253
▁spoorwegen	-11.4253
EG	-11.4254
ters	-11.4256
centrale	-11.4258
▁Zon	-11.4259
▁Row	-11.426
▁vergezelde	-11.4262
zien	-11.4265
▁wenste	-11.4269
nar	-11.4275
▁Marcel	-11.4276
transport	-11.4276
▁orgaan	-11.4278
broeders	-11.4278
▁stijlen	-11.4279
zorg	-11.4283
▁His	-11.4287
▁Bio	-11.429
teken	-11.4291
▁nader	-11.4291
▁donker	-11.4293
▁Scho	-11.4294
▁overgeleverd	-11.4295
IM	-11.4296
▁ongebruikelijk	-11.4298
▁Amy	-11.4301
▁Parijse	-11.4305
▁Korea	-11.4306
▁Neil	-11.4306
▁Afrikaans	-11.4307
▁elektriciteits	-11.4308
mut	-11.4308
▁Tele	-11.431
uro	-11.4311
CO	-11.4318
▁Engelstalige	-11.4318
▁periodes	-11.4322
komen	-11.4324
▁samenzwering	-11.4326
iet	-11.4328
▁Deep	-11.4328
titel	-11.4329
oog	-11.4332
▁tegenstrijdig	-11.4332
ieke	-11.4332
▁viering	-11.4333
▁huwelijks	-11.4335
▁straling	-11.4343
lle	-11.4345
▁verkiezings	-11.4346
ido	-11.4355
▁Islam	-11.4359
▁huurde	-11.4359
delen	-11.4362
▁handschrift	-11.4366
▁geregistreerde	-11.4366
▁Berlin	-11.4371
vormen	-11.4372
zee	-11.4372
▁By	-11.4373
num	-11.4375
som	-11.438
▁blanke	-11.4384
▁rapporten	-11.4387
hem	-11.4389
▁harmonie	-11.4395
uch	-11.4396
▁woede	-11.4397
▁volkslied	-11.4397
▁sultan	-11.4398
▁Armstrong	-11.4398
▁Erasmus	-11.4398
▁GmbH	-11.4398
▁Limited	-11.4398
▁Madagaskar	-11.4398
▁Orleans	-11.4398
▁Rockefeller	-11.4398
▁Vancouver	-11.4398
▁Venezuela	-11.4398
▁grondlegger	-11.4398
▁toewijding	-11.4398
▁Bagdad	-11.4398
▁April	-11.4398
▁Civil	-11.4398
▁ogenblik	-11.4398
▁Wetenschappen	-11.4398
▁doelwit	-11.4398
▁hertogdom	-11.4399
▁Sophie	-11.4399
▁naoorlogs	-11.4399
kwijl	-11.4399
▁Chester	-11.44
▁vervanger	-11.44
▁bevordering	-11.44
▁moedigde	-11.4401
▁Graaf	-11.4401
Don	-11.4401
▁bruggen	-11.4402
▁Ethiopië	-11.4402
▁Hour	-11.4403
iswaar	-11.4403
▁erachter	-11.4403
▁duet	-11.4404
gericht	-11.4406
▁voelen	-11.4409
▁ethische	-11.4409
▁deelstaat	-11.4411
cc	-11.4412
vert	-11.4413
▁Market	-11.4415
▁link	-11.4415
ose	-11.4418
▁falen	-11.4418
▁Missouri	-11.4418
▁trainen	-11.442
▁Helen	-11.4421
▁torpedo	-11.4426
oy	-11.4426
▁vermoed	-11.4427
▁topologie	-11.4428
▁Gen	-11.4428
▁oudheid	-11.4429
▁bevorderd	-11.443
▁Hong	-11.443
▁eeuwig	-11.4431
▁Politiek	-11.4432
koning	-11.4433
▁dance	-11.4434
▁essentiële	-11.4434
▁Pier	-11.444
▁staken	-11.4444
▁Massachusetts	-11.445
▁trainer	-11.4451
▁Islamitische	-11.4453
▁Jin	-11.4454
▁vierkante	-11.4456
▁oproep	-11.4456
▁zuid	-11.4457
▁voorouders	-11.446
▁legden	-11.4463
▁detective	-11.4465
▁meningitis	-11.4466
eld	-11.4466
▁Gas	-11.4469
▁ontsnapte	-11.4469
ER	-11.447
▁serieuze	-11.447
officier	-11.4472
’’	-11.4472
hout	-11.4472
DP	-11.4473
▁ploeg	-11.4474
IA	-11.4474
▁Sha	-11.448
▁client	-11.4481
▁biologie	-11.4482
won	-11.4482
▁Bergen	-11.4486
▁bredere	-11.4488
▁vreemd	-11.4491
wijten	-11.4493
oor	-11.4494
▁vampier	-11.4494
▁conferenties	-11.4495
stre	-11.4497
▁minderheid	-11.4497
▁Most	-11.4502
▁mini	-11.4505
▁Command	-11.4507
▁herkend	-11.4508
▁handelaren	-11.4509
▁Bonn	-11.451
▁pest	-11.4511
ctor	-11.4511
▁Ly	-11.4512
▁bibliotheken	-11.4515
lucht	-11.4516
▁scheepvaart	-11.4516
▁Georg	-11.4518
but	-11.452
steen	-11.4521
▁criticus	-11.4523
▁registratie	-11.4525
int	-11.4526
▁restaurants	-11.4531
▁nogal	-11.4532
▁Nam	-11.4533
ami	-11.4537
ile	-11.4541
▁geleerde	-11.4542
verbinding	-11.4544
wijk	-11.4549
▁scherm	-11.4556
scommissie	-11.4562
▁vak	-11.4564
ever	-11.4565
▁toenmalig	-11.4569
vermogen	-11.4569
▁heren	-11.457
▁real	-11.4571
▁Farm	-11.4573
ille	-11.4574
▁ondertekende	-11.4576
▁animatie	-11.4577
▁voorstellingen	-11.4582
ort	-11.4582
rek	-11.4583
▁concurrent	-11.4591
wedstrijden	-11.4594
▁Mil	-11.4597
▁misbruik	-11.4598
Te	-11.46
▁Cer	-11.4604
▁verwachting	-11.4608
▁Hil	-11.4613
▁Fra	-11.4614
▁Lou	-11.4615
route	-11.4616
ax	-11.4616
beelden	-11.4616
▁momenten	-11.462
▁opvatting	-11.4622
rechtvaardigheid	-11.4624
▁stadje	-11.4624
▁minimum	-11.4625
▁Lijst	-11.4625
▁Surinaams	-11.4625
▁aanbevolen	-11.4625
▁onthult	-11.4625
▁onvoldoende	-11.4625
▁rivaal	-11.4625
▁suggereren	-11.4625
▁varieert	-11.4625
▁Macintosh	-11.4625
▁regionaal	-11.4625
▁toentertijd	-11.4625
▁Bangkok	-11.4625
▁staakt	-11.4625
▁verlenging	-11.4625
▁Billboard	-11.4625
▁verbouwd	-11.4625
▁plegen	-11.4626
▁Aviation	-11.4626
▁menigte	-11.4626
▁Herbert	-11.4626
▁RTL	-11.4626
▁emigratie	-11.4626
▁samengewerkt	-11.4626
▁bleken	-11.4626
▁immers	-11.4627
▁neus	-11.4627
▁Spartanen	-11.4627
▁werkgelegenheid	-11.4627
▁impliceert	-11.4627
▁Kruistocht	-11.4628
▁Zonder	-11.463
▁legioen	-11.463
▁doelstelling	-11.463
▁axioma	-11.4631
reactie	-11.4631
▁Lucy	-11.4632
▁Tell	-11.4633
▁presidentschap	-11.4633
▁Daarop	-11.4633
▁Rita	-11.4635
▁praktisch	-11.4636
▁overlevende	-11.4637
▁Algerije	-11.4638
▁Scandinavische	-11.4638
▁Wagner	-11.4638
▁Environment	-11.4638
lach	-11.4638
▁lof	-11.464
▁verzekeren	-11.464
▁terminal	-11.4641
▁verzetten	-11.4642
▁uitbracht	-11.4642
▁wereldrecord	-11.4644
▁campus	-11.4646
▁Digital	-11.4646
▁Colorado	-11.4646
▁globale	-11.4648
▁Phillips	-11.465
▁zwaarder	-11.4652
▁diploma	-11.4652
▁suiker	-11.4653
▁analytische	-11.4654
▁gewoond	-11.4654
▁coördinatie	-11.4654
▁geliefde	-11.4655
▁Fonds	-11.4658
mensen	-11.4659
▁Christ	-11.466
▁radicaal	-11.4662
▁Regiment	-11.4662
▁Gun	-11.4664
point	-11.4665
▁senatoren	-11.4666
▁Norman	-11.4666
▁begeleidde	-11.4667
▁Mis	-11.4668
ologische	-11.4669
sar	-11.4669
▁locomotief	-11.467
chu	-11.467
▁Ros	-11.4674
▁Comics	-11.4675
cia	-11.4676
▁Charlotte	-11.4678
▁operatione	-11.4679
▁Planet	-11.4683
▁klachten	-11.4685
▁begeleiding	-11.4686
▁maat	-11.4688
▁AM	-11.4691
oord	-11.4692
▁Hollandse	-11.4693
ffer	-11.4693
tropische	-11.4704
▁repertoire	-11.4704
Nederlands	-11.4704
▁wijziging	-11.4706
▁award	-11.4707
▁cent	-11.4708
producent	-11.4708
toernooi	-11.4709
vlucht	-11.471
▁bekendstond	-11.4718
▁spectrum	-11.4719
▁overstap	-11.472
formeerde	-11.4721
bat	-11.4726
▁verblijven	-11.4728
iti	-11.4731
ongeluk	-11.4734
▁boten	-11.4736
voorziening	-11.4743
▁bundel	-11.4744
gespeeld	-11.4745
▁Militaire	-11.4745
Australië	-11.4747
crisis	-11.4747
Br	-11.4749
▁greep	-11.4753
oo	-11.4755
graven	-11.4756
▁verwerking	-11.4757
▁wettelijk	-11.4759
schema	-11.4759
▁passage	-11.4762
instituut	-11.4763
▁ontdekten	-11.4764
▁inwoner	-11.4764
ronde	-11.4766
sin	-11.4767
▁verminderde	-11.4769
▁gat	-11.4769
▁dichters	-11.4771
▁waarschuwing	-11.478
▁Concert	-11.4781
AL	-11.4786
hart	-11.4787
▁duivel	-11.479
▁bewerkt	-11.4791
▁medailles	-11.4792
tiv	-11.4798
▁Hen	-11.4802
cent	-11.4802
▁Main	-11.4805
▁Mountains	-11.4805
▁Groene	-11.4806
▁spraken	-11.4808
▁paspoort	-11.4813
▁infectie	-11.4815
Ra	-11.482
▁minimal	-11.4823
▁Indo	-11.4823
ppen	-11.4824
ella	-11.4827
stro	-11.4828
▁ontwikkelt	-11.4829
▁uitvinding	-11.483
tisch	-11.4831
▁Place	-11.4833
studies	-11.4835
rill	-11.4835
▁prioriteit	-11.4838
▁aanpassing	-11.4838
▁fel	-11.4839
▁deur	-11.4842
▁emigreerde	-11.4843
▁beleids	-11.4848
▁groeps	-11.4849
▁oprichtte	-11.485
ries	-11.4857
▁benodigd	-11.4857
▁Energy	-11.4858
▁Kasteel	-11.4858
▁Picasso	-11.4858
▁Pyrrhus	-11.4858
▁behoorlijk	-11.4858
▁berekenen	-11.4858
▁bijbehorend	-11.4858
▁garanderen	-11.4858
▁logistiek	-11.4858
▁verenigen	-11.4858
▁klinisch	-11.4858
▁regeerperiode	-11.4858
▁Justinianus	-11.4858
▁senaat	-11.4858
▁doctoraat	-11.4858
▁Opaia	-11.4858
▁Agency	-11.4858
▁bekijken	-11.4858
▁verkennen	-11.4858
▁intact	-11.4858
▁vredesverdrag	-11.4858
▁Peking	-11.4858
▁moskeeën	-11.4859
▁Paleis	-11.4859
▁Tommy	-11.4859
▁hoofdpersoon	-11.4859
▁straffen	-11.4859
▁regie	-11.486
▁Smart	-11.486
heidsoorlog	-11.486
▁Mé	-11.486
▁Vlak	-11.486
▁ondernemen	-11.4862
▁beroemdste	-11.4862
▁verzonden	-11.4862
▁Finn	-11.4862
▁gedistribueerd	-11.4862
▁Kerry	-11.4863
▁georganiseerde	-11.4863
▁tegenaanval	-11.4863
▁opbrengst	-11.4863
divisie	-11.4863
▁uitgewerkt	-11.4864
▁minderheden	-11.4865
▁Gay	-11.4865
DF	-11.4866
chen	-11.4866
cker	-11.4866
kon	-11.4869
▁Tel	-11.487
▁vulkaan	-11.4871
▁indrukwekkend	-11.4871
▁Venetiaanse	-11.4871
▁astronomische	-11.4871
▁variabelen	-11.4873
▁kijkt	-11.4875
▁Harrison	-11.4875
▁verliep	-11.4877
▁financieren	-11.4878
MO	-11.488
▁component	-11.488
▁Haarlem	-11.4881
▁Kill	-11.4882
vuren	-11.4882
▁relatieve	-11.4884
▁Buck	-11.4884
▁Fin	-11.4884
rog	-11.4887
▁fysische	-11.4887
▁types	-11.4888
▁Ve	-11.4888
▁vervoerd	-11.489
▁Rain	-11.489
ziekte	-11.4892
beek	-11.4892
▁Letse	-11.4894
▁Had	-11.4896
CC	-11.4897
▁zicht	-11.4897
▁Wo	-11.4897
single	-11.4899
ction	-11.49
stel	-11.4901
▁econoom	-11.4904
▁verdachte	-11.4906
▁kijkers	-11.4909
▁Cro	-11.491
▁}	-11.4912
▁Sak	-11.4912
▁creatieve	-11.4913
▁interventie	-11.4913
ei	-11.4913
▁afgevaardigde	-11.4914
▁Ober	-11.4914
▁technologische	-11.4915
▁praktijken	-11.4917
▁WK	-11.4917
▁gezinnen	-11.4918
▁standpunten	-11.4919
▁gelijkaardige	-11.492
▁helden	-11.492
▁hardware	-11.4921
▁bestemd	-11.4922
▁Caribisch	-11.4922
vliegtuig	-11.4923
▁hierin	-11.4925
ële	-11.4926
lot	-11.4927
▁limiet	-11.4929
pu	-11.493
▁fabrieken	-11.493
▁plaatsvonden	-11.4932
▁Kam	-11.4934
▁melk	-11.4934
wij	-11.4936
rica	-11.4937
▁traject	-11.4938
▁gemeten	-11.4938
▁openings	-11.4939
▁protesteerde	-11.4942
▁uitgevers	-11.4946
▁moleculair	-11.4946
▁kanten	-11.4947
Co	-11.4948
▁technologieën	-11.4948
▁kg	-11.495
▁eis	-11.495
par	-11.4951
▁vleugels	-11.4951
hop	-11.4952
stop	-11.4956
▁ontsnapping	-11.4958
▁Emma	-11.4961
▁wagen	-11.4961
▁besteedde	-11.4961
▁Iedereen	-11.4968
BC	-11.4975
)"	-11.4977
via	-11.4981
led	-11.4983
maken	-11.4983
▁variëteiten	-11.4984
▁Ton	-11.4984
▁Bol	-11.4985
▁metingen	-11.4985
▁rangen	-11.4987
aliteit	-11.4988
▁Europeanen	-11.4988
kantoor	-11.4988
manager	-11.4996
Hij	-11.4996
ib	-11.4998
stelsel	-11.4998
strijd	-11.5003
meenschappelijk	-11.5004
▁Sem	-11.5006
ief	-11.5007
IP	-11.5007
staten	-11.5008
Ja	-11.501
ongeveer	-11.5012
studenten	-11.5014
▁SP	-11.5016
OS	-11.502
bro	-11.5021
▁Qua	-11.5032
▁Merk	-11.5033
▁Baltisch	-11.5034
▁streng	-11.5034
▁sprekers	-11.5037
tia	-11.5038
▁jonger	-11.5042
▁remix	-11.5044
fin	-11.5052
▁mijnen	-11.5054
▁methodes	-11.5059
gaande	-11.5062
▁bruiloft	-11.5062
▁melding	-11.5062
▁Dean	-11.5064
▁voorwoord	-11.5066
▁Pol	-11.5067
▁Indian	-11.5072
zon	-11.5077
iana	-11.5078
▁Artikel	-11.5084
▁muzikant	-11.5085
tica	-11.509
orn	-11.5092
▁Sant	-11.5094
▁soeverein	-11.5096
▁Capital	-11.5096
▁Cicero	-11.5096
▁Helsinki	-11.5096
▁Jonathan	-11.5096
▁controversieel	-11.5096
▁gerestaureerd	-11.5096
▁gesitueerd	-11.5096
▁gekroond	-11.5096
▁numeriek	-11.5096
▁Camillus	-11.5096
▁Edition	-11.5096
▁Tunesië	-11.5096
▁organische	-11.5096
▁glazen	-11.5096
▁verwerven	-11.5096
▁Butler	-11.5096
▁scheepswerf	-11.5096
▁fundamenteel	-11.5096
▁Gilbert	-11.5097
▁oorlogsschepen	-11.5097
▁Eddie	-11.5097
▁Grammy	-11.5097
▁overheersing	-11.5097
▁schijnt	-11.5098
▁ongelijkheid	-11.5098
lui	-11.5098
▁operationeel	-11.5098
▁subsidie	-11.5099
broek	-11.5099
▁nodige	-11.5099
▁Financiën	-11.5099
▁Convention	-11.5101
▁herinneren	-11.5101
▁Diana	-11.5101
▁voortaan	-11.5104
▁hoeven	-11.5105
▁Youth	-11.5105
▁Italianen	-11.5109
Am	-11.5109
▁his	-11.5109
Bulgaarse	-11.5111
▁blijken	-11.5111
▁Slim	-11.5112
▁aanbevelingen	-11.5114
▁bezochten	-11.5114
▁Spa	-11.5116
▁verrassing	-11.5124
genomen	-11.5124
view	-11.513
▁duurzaamheid	-11.5131
▁beheert	-11.5133
▁ideologie	-11.5134
▁verdiende	-11.5135
▁konvooi	-11.5135
▁dialecten	-11.5139
ology	-11.5139
▁abt	-11.514
▁robot	-11.5142
▁vleugel	-11.5142
▁Information	-11.5143
▁strenge	-11.5145
uma	-11.5146
jev	-11.5149
▁heelal	-11.5149
▁brouwerij	-11.515
▁genoot	-11.5152
llen	-11.5153
uka	-11.5158
▁Roll	-11.5159
▁uitrusting	-11.5161
▁bombardement	-11.5161
▁Greg	-11.5165
▁verwijzingen	-11.5167
uf	-11.517
igheid	-11.5174
▁tanden	-11.5175
aba	-11.5175
▁ST	-11.5175
▁Sciences	-11.5177
▁verdedigd	-11.5182
▁Have	-11.5182
ds	-11.5183
lat	-11.5183
▁uitvoerde	-11.5189
▁uitbrak	-11.519
CP	-11.5192
spellen	-11.5194
product	-11.5195
▁mes	-11.5196
Brien	-11.5197
▁can	-11.5199
wapen	-11.5203
▁moeilijker	-11.5205
▁stabiel	-11.5207
▁behaald	-11.5209
ave	-11.5209
houden	-11.5209
▁optie	-11.521
▁mars	-11.5212
▁concentratie	-11.5214
fr	-11.5214
▁Lane	-11.5215
una	-11.5216
uc	-11.5217
gin	-11.5219
toen	-11.5222
▁Stad	-11.5223
▁Sab	-11.5224
▁Jade	-11.5224
tionele	-11.5227
▁karakters	-11.5232
▁oneindige	-11.5232
▁seculiere	-11.5233
▁Friends	-11.5235
sol	-11.5241
▁geesten	-11.5242
Li	-11.5242
competitie	-11.5243
▁Field	-11.5243
gg	-11.5244
scholen	-11.5245
▁vervulde	-11.5246
▁gebed	-11.5246
▁Books	-11.5252
▁websites	-11.5252
faciliteiten	-11.5253
▁bestand	-11.5254
▁gunste	-11.5266
▁Kate	-11.5268
▁Bi	-11.5273
tijdschrift	-11.5275
▁exclusie	-11.5278
▁lukte	-11.528
kwam	-11.5282
▁mijnbouw	-11.5285
▁concurreren	-11.5289
ör	-11.5289
bil	-11.5296
▁conclusies	-11.5299
▁norm	-11.5299
yu	-11.5304
▁Uruguay	-11.5305
put	-11.5307
▁Banks	-11.5309
▁Stille	-11.5311
▁lobby	-11.5313
..."	-11.5314
▁past	-11.5316
rop	-11.5317
▁been	-11.532
Pro	-11.532
nas	-11.5326
▁Cap	-11.5326
▁slapen	-11.5327
▁Marco	-11.5331
▁uitkwam	-11.5332
▁voorstelde	-11.5332
▁Mus	-11.5332
▁Sh	-11.5332
▁Ronald	-11.5333
▁vervolgde	-11.5339
▁ondergaan	-11.5339
▁Birmingham	-11.534
▁Nacional	-11.534
▁Verklaring	-11.534
▁Waarschijnlijk	-11.534
▁benoemen	-11.534
▁middernacht	-11.534
▁skeptisch	-11.534
▁diameter	-11.534
▁ondernomen	-11.534
▁Trophy	-11.534
▁Volksrepubliek	-11.534
▁aanmerking	-11.534
▁Tiberius	-11.534
▁uiteenlopend	-11.534
▁Engineering	-11.534
▁Small	-11.534
▁English	-11.534
▁Constantius	-11.534
▁Morning	-11.534
▁geciteerd	-11.534
▁grondstoffen	-11.534
▁atheïsme	-11.534
▁Gogh	-11.5341
▁halfbroer	-11.5341
▁Cantor	-11.5341
▁graden	-11.5341
▁Jules	-11.5341
▁gevaren	-11.5342
▁teruggebracht	-11.5342
▁gelegenheden	-11.5343
▁Know	-11.5343
lem	-11.5343
▁heerste	-11.5345
▁aangeklaagd	-11.5346
So	-11.5346
▁Arena	-11.5346
▁zuidwesten	-11.5347
▁Grey	-11.5347
▁Vader	-11.5347
dale	-11.5347
▁Welsh	-11.5348
▁AP	-11.5348
eer	-11.535
▁edelen	-11.535
▁Turner	-11.5351
▁Ang	-11.5352
iviteit	-11.5352
▁Language	-11.5353
▁populairste	-11.5354
▁atheïsten	-11.5357
▁oprichten	-11.5359
▁Rom	-11.536
▁Holocaust	-11.5362
▁referendum	-11.5362
▁contrast	-11.5363
▁entiteit	-11.5365
▁doorgevoerd	-11.5367
▁privileges	-11.5367
virtuele	-11.5367
nos	-11.5368
▁sterkste	-11.537
▁Venus	-11.5371
▁uitbarsting	-11.5372
media	-11.5375
hat	-11.5377
▁Nadien	-11.5379
▁École	-11.538
▁veilige	-11.538
▁Tur	-11.5381
▁leert	-11.5381
▁veranderden	-11.5384
▁Bran	-11.5386
▁omringen	-11.5392
▁Vin	-11.5394
▁naakt	-11.5395
▁Hol	-11.5396
▁Train	-11.5397
▁koorts	-11.5399
▁vergoeding	-11.5401
politiek	-11.5401
daagse	-11.5402
▁identificatie	-11.5407
▁bezoekt	-11.5407
▁Brusselse	-11.5409
▁zover	-11.5414
▁stijging	-11.5414
▁Maatschappij	-11.5415
▁zochten	-11.5416
▁ongeval	-11.5417
tar	-11.5418
inger	-11.542
ée	-11.542
▁consortium	-11.5424
▁initiatieven	-11.5424
book	-11.5429
▁uitge	-11.543
▁Fame	-11.5432
▁schoenen	-11.5432
erend	-11.5435
▁voorzieningen	-11.5439
pper	-11.5439
▁behandelde	-11.5441
verhalen	-11.5447
vader	-11.5449
▁donkere	-11.545
iets	-11.5452
▁dorpje	-11.5454
▁huwelijken	-11.5456
▁smaak	-11.5457
▁Hero	-11.5458
ake	-11.5459
For	-11.5461
▁oever	-11.5462
▁openden	-11.5462
XX	-11.5464
▁Hunt	-11.5465
▁Pra	-11.5467
bri	-11.5468
▁interessant	-11.5471
Frans	-11.5472
box	-11.5473
▁beroeps	-11.5474
▁Xi	-11.5475
rand	-11.5475
▁Zoo	-11.5476
▁Rh	-11.5477
▁gelaten	-11.5478
tech	-11.5478
▁verzamelden	-11.548
▁blik	-11.5482
▁Eerst	-11.5483
▁betoogde	-11.5486
▁dieper	-11.5486
▁h	-11.5487
▁Ji	-11.5488
▁wekelijks	-11.5491
energie	-11.5491
▁Brabant	-11.5492
▁protocol	-11.5495
pakket	-11.5496
Californië	-11.5497
eën	-11.5503
▁verdeelde	-11.5504
RI	-11.5506
stam	-11.5507
training	-11.5511
▁applicaties	-11.5511
ress	-11.5514
▁parochie	-11.5515
▁stak	-11.5516
verbod	-11.5517
erij	-11.5517
▁Roma	-11.5521
loo	-11.5522
zag	-11.5522
opstand	-11.5523
▁Fine	-11.5527
▁Ul	-11.5531
boten	-11.5531
▁songwriter	-11.5534
▁draaien	-11.5536
▁not	-11.554
ques	-11.5541
tos	-11.5543
▁Kleine	-11.5544
▁Kra	-11.5547
bot	-11.5548
▁kloosters	-11.5548
chan	-11.5553
▁Tijd	-11.5555
▁mislukking	-11.5557
▁instructie	-11.5562
▁Krim	-11.5565
▁sneeuw	-11.5567
▁BB	-11.5568
genoten	-11.557
▁Nash	-11.557
▁expositie	-11.5571
teams	-11.5571
▁tests	-11.5572
▁paste	-11.5574
Ta	-11.5574
▁marcheerde	-11.5575
▁Maan	-11.5576
edel	-11.5577
▁mechanisme	-11.5577
')	-11.5578
▁voorgangers	-11.5579
▁Turks	-11.5579
▁eindig	-11.5582
mas	-11.5582
▁resulterend	-11.5586
▁koolstof	-11.5586
▁erna	-11.5588
▁helder	-11.5588
absoluut	-11.559
▁Novgorod	-11.559
▁Rutherford	-11.559
▁Versailles	-11.559
▁combineerde	-11.559
▁genocide	-11.559
▁integriteit	-11.559
▁kiezers	-11.559
▁psychiatrisch	-11.559
▁voldoet	-11.559
▁Voorafgaand	-11.559
▁beloond	-11.559
▁bemanningsleden	-11.559
▁slaagt	-11.559
▁wapenstilstand	-11.559
▁bijgewoond	-11.559
▁Kennedy	-11.559
▁financiën	-11.559
▁Dergelijke	-11.559
▁Football	-11.559
▁Reserve	-11.559
▁Diamond	-11.559
▁Westminster	-11.559
▁speelgoed	-11.559
▁zwangerschap	-11.559
▁vicevoorzitter	-11.559
▁voorziet	-11.559
▁minimaal	-11.559
▁Joint	-11.559
▁genade	-11.559
▁Wilhelmina	-11.5591
▁Keith	-11.5591
▁woedend	-11.5591
▁opleverde	-11.5591
▁Bremen	-11.5591
▁Kelly	-11.5591
▁Broadcasting	-11.5591
▁Petrus	-11.5591
▁toneelstukken	-11.5591
▁vertalen	-11.5591
▁veelvuldig	-11.5592
▁Annie	-11.5593
▁aangrenzend	-11.5595
▁erfde	-11.5596
▁dam	-11.5597
▁verwondingen	-11.5597
▁deelgenomen	-11.5597
▁drank	-11.5597
▁onderwezen	-11.5599
▁uitgedrukt	-11.56
▁uitgeven	-11.5601
▁aangevuld	-11.5602
▁ingewijd	-11.5603
▁Shanghai	-11.5604
▁gegenereerd	-11.5604
▁games	-11.5604
▁elektrisch	-11.5608
OM	-11.5609
▁meren	-11.561
▁halver	-11.5612
▁ziekenhuizen	-11.5613
▁Delft	-11.5613
▁After	-11.5614
▁genieten	-11.5614
▁Delta	-11.5615
uil	-11.5616
▁dodelijk	-11.5617
Con	-11.5617
burger	-11.5617
armate	-11.5617
cross	-11.5618
lé	-11.562
▁geologische	-11.5621
▁Tennessee	-11.5622
▁Technisch	-11.5622
cca	-11.5623
▁deelt	-11.5624
▁adviseerde	-11.5624
col	-11.5625
▁Vic	-11.5628
Wetenschappelijk	-11.5628
▁aangekomen	-11.5629
▁rijkste	-11.563
▁schema	-11.5631
▁voer	-11.5631
▁merknaam	-11.5631
▁begrippen	-11.5632
▁herziening	-11.5636
▁vaderland	-11.5638
eri	-11.5639
▁Onze	-11.564
▁woordvoerder	-11.564
▁akte	-11.564
pra	-11.5642
▁Hunter	-11.5644
▁Hood	-11.5644
lam	-11.5647
▁westelijk	-11.5648
uz	-11.565
▁binnenland	-11.5659
▁bassist	-11.566
GA	-11.5661
gens	-11.5663
▁Metal	-11.5664
plaatsen	-11.5664
▁verzorgd	-11.5665
mand	-11.5665
studie	-11.5667
▁kantons	-11.5668
▁Libië	-11.5668
back	-11.567
ket	-11.5671
▁vesting	-11.5671
▁incidenten	-11.5673
▁talenten	-11.5674
tron	-11.5676
controle	-11.5676
▁Friesland	-11.5677
▁Republic	-11.5678
▁pakket	-11.5679
garde	-11.5682
▁demonstraties	-11.5684
▁Roberts	-11.569
▁Fil	-11.569
mmer	-11.5693
tha	-11.5696
▁ambtenaar	-11.5704
▁kra	-11.5704
▁Tai	-11.5708
▁OS	-11.571
▁rook	-11.571
aris	-11.5713
▁ontsnapt	-11.5714
▁Engelsen	-11.5714
▁west	-11.5714
▁plicht	-11.5718
▁textiel	-11.5721
▁tracks	-11.5727
▁Mason	-11.5727
rk	-11.5729
▁Dexter	-11.573
aflevering	-11.573
NI	-11.5733
▁drong	-11.5735
apparatuur	-11.5737
▁Beat	-11.574
▁ontdekkingen	-11.5742
lopen	-11.5743
▁tabel	-11.5744
▁telescoop	-11.5747
schrijver	-11.5748
▁app	-11.5748
▁soortgelijk	-11.5748
▁DB	-11.5749
▁kunsten	-11.5753
▁sessie	-11.5755
trein	-11.5755
▁Sovjets	-11.5757
alle	-11.5759
architectuur	-11.5761
▁Thor	-11.5761
Italië	-11.5761
▁bad	-11.5762
Marie	-11.5762
geschreven	-11.5764
International	-11.5764
zanger	-11.5771
▁blok	-11.5771
▁christelijk	-11.5772
▁omgeven	-11.5772
▁Bass	-11.5775
▁aanhanger	-11.5777
▁vloer	-11.5777
ware	-11.5779
▁special	-11.5781
▁fiets	-11.5781
▁kindertijd	-11.5784
▁Dol	-11.5787
Van	-11.5789
▁opge	-11.5791
sproject	-11.5793
▁belegerd	-11.58
gevallen	-11.5801
▁Kn	-11.5803
▁jou	-11.5814
▁Kur	-11.5815
radio	-11.5817
▁regent	-11.5818
betoon	-11.5818
▁dagblad	-11.5818
▁trend	-11.5818
▁moordenaar	-11.5818
▁Cam	-11.5821
▁pension	-11.5822
▁Dou	-11.5825
▁Program	-11.5825
down	-11.5826
▁Walk	-11.5827
▁versterking	-11.5828
bor	-11.5829
▁clan	-11.5829
▁bataljon	-11.5829
omstandigheden	-11.5829
▁Marx	-11.5829
play	-11.583
▁Card	-11.5836
▁verzen	-11.5836
▁Mala	-11.5838
▁Harris	-11.5842
▁demonstratie	-11.5845
▁Diodorus	-11.5846
▁Maleisië	-11.5846
▁Reynolds	-11.5846
▁Stirling	-11.5846
▁Tsjetsjenen	-11.5846
▁Veronica	-11.5846
▁aanvullend	-11.5846
▁gepromoveerd	-11.5846
▁uitgekozen	-11.5846
▁verdenking	-11.5846
▁Barbauld	-11.5846
▁herkennen	-11.5846
▁Domitianus	-11.5846
▁Kansas	-11.5846
▁Spencer	-11.5846
▁Belfast	-11.5846
▁drastisch	-11.5846
▁scheiden	-11.5846
▁neoklassieke	-11.5846
▁Snow	-11.5846
▁beschikken	-11.5846
▁chaos	-11.5846
▁Hannover	-11.5846
▁publiciteit	-11.5846
▁Reagan	-11.5846
▁rijdt	-11.5846
▁orkaan	-11.5846
▁Eindhoven	-11.5847
▁Isabella	-11.5847
▁gevangengezet	-11.5847
▁nakomelingen	-11.5847
▁Anglo	-11.5847
▁Conventie	-11.5847
▁presenteren	-11.5847
▁takken	-11.5848
▁documentatie	-11.5848
▁maandag	-11.5849
▁VIII	-11.585
▁onderdak	-11.5851
▁machtigste	-11.5851
▁bezorgdheid	-11.5853
▁Plus	-11.5855
▁abstract	-11.5855
▁uitbreiden	-11.5856
▁Sho	-11.5856
goddelijke	-11.5857
On	-11.5857
▁ontkende	-11.5858
▁weekend	-11.5858
zeer	-11.5859
▁beton	-11.5859
▁tiener	-11.5859
▁stadsbestuur	-11.586
▁Kaukasus	-11.586
▁Priestley	-11.5861
▁zeventiende	-11.5861
▁Here	-11.5865
▁gewoonte	-11.5865
▁omhoog	-11.5865
▁opgepakt	-11.5866
▁Operation	-11.587
▁geruchten	-11.587
▁neutraal	-11.587
jet	-11.5872
▁slagveld	-11.5874
▁opmars	-11.5878
▁Rue	-11.5878
▁fenomenen	-11.5879
▁gesponsord	-11.5879
▁Second	-11.5881
▁Horse	-11.5881
▁Urban	-11.5881
▁Glass	-11.5882
▁unit	-11.5882
mate	-11.5885
lichtingendienst	-11.5887
pon	-11.5887
▁patrouille	-11.5887
▁veteranen	-11.5888
▁Kapitein	-11.5888
gre	-11.5889
▁NBC	-11.589
char	-11.5892
▁geldig	-11.5893
▁Pink	-11.5894
▁Come	-11.59
▁Hy	-11.5901
▁installatie	-11.5906
▁GP	-11.5907
▁rassen	-11.5907
ijnse	-11.591
▁verlichting	-11.5911
▁journalistiek	-11.5912
▁verplaatste	-11.5914
▁koel	-11.5915
rollen	-11.5917
▁instituten	-11.5919
▁conventie	-11.5923
war	-11.5924
▁instanties	-11.5924
▁eed	-11.5925
▁afgekort	-11.5926
CA	-11.5927
▁bovenste	-11.593
▁Veld	-11.5932
▁gerekend	-11.5934
its	-11.5935
▁terroristisch	-11.5935
▁Forces	-11.5937
▁regeling	-11.5941
▁noodzakelijke	-11.5941
▁Wei	-11.5942
▁Av	-11.5945
kop	-11.5945
▁landelijk	-11.5945
game	-11.5946
▁Kaap	-11.5947
▁vernield	-11.5952
▁dertiende	-11.5954
hond	-11.5958
▁Jar	-11.5958
meter	-11.596
schi	-11.596
▁variabele	-11.5962
▁Crow	-11.5967
▁vijandige	-11.5968
aine	-11.5969
lak	-11.5969
ön	-11.5971
WA	-11.5975
▁Plant	-11.5977
vervoer	-11.5979
▁irrigatie	-11.598
▁Pete	-11.5985
delige	-11.5986
▁Tr	-11.5988
▁Eva	-11.5989
sung	-11.5991
▁circuit	-11.5993
▁gegroeid	-11.5995
▁uitvoeringen	-11.5996
▁mist	-11.6
iseerde	-11.6001
▁Socialistisch	-11.6003
aanvallen	-11.6011
▁adres	-11.6011
▁Legend	-11.6013
▁Kurt	-11.6014
steden	-11.6018
▁Kids	-11.602
▁breder	-11.6022
▁volken	-11.6024
verzameling	-11.6025
▁Zone	-11.6026
▁Eli	-11.6027
▁Cy	-11.6028
front	-11.6031
American	-11.6031
Frankrijk	-11.6032
▁Landen	-11.6032
▁radioactie	-11.6036
old	-11.6037
osa	-11.6039
▁Off	-11.6041
Mijn	-11.6042
▁Ny	-11.6042
lap	-11.6043
▁Report	-11.6044
▁doodt	-11.6045
gaf	-11.6046
EL	-11.6046
▁commissaris	-11.6049
clan	-11.605
▁Mens	-11.6052
▁verwante	-11.6052
▁overeenkomstig	-11.6055
▁tram	-11.6058
▁baas	-11.6061
bul	-11.6062
▁Vo	-11.6063
ruimten	-11.6065
▁Lab	-11.6068
Mi	-11.6068
▁ci	-11.607
▁facto	-11.6072
▁dj	-11.6076
▁IX	-11.6076
▁Stefan	-11.6076
▁Gott	-11.6077
aki	-11.6077
▁Pet	-11.608
gegevens	-11.6081
drama	-11.6081
He	-11.6083
iers	-11.6084
moto	-11.6085
reg	-11.6087
▁Mou	-11.6088
▁relevant	-11.6094
▁scheidde	-11.6094
▁breuk	-11.6094
tuin	-11.6097
▁dreigde	-11.6097
▁verloop	-11.6101
▁filmen	-11.6101
actie	-11.6105
▁Leuven	-11.6106
gegaan	-11.6106
▁contra	-11.6107
▁host	-11.6107
▁essentie	-11.6107
▁tijdstip	-11.6109
▁Edison	-11.6109
▁IWL	-11.6109
▁Israel	-11.6109
▁Jessica	-11.6109
▁Lhasa	-11.6109
▁Monument	-11.6109
▁Pearl	-11.6109
▁Survey	-11.6109
▁faillissement	-11.6109
▁gedeporteerd	-11.6109
▁verworpen	-11.6109
▁Stuart	-11.6109
▁beoordeeld	-11.6109
▁fruit	-11.6109
▁hongersnood	-11.6109
▁neergeschoten	-11.6109
▁Administration	-11.6109
▁geschapen	-11.6109
▁Organization	-11.6109
▁muzikaal	-11.6109
▁gestegen	-11.6109
▁erfgenaam	-11.6109
▁Cleveland	-11.6109
▁Guerrero	-11.611
▁organist	-11.611
▁ontbinding	-11.611
▁onregelmatig	-11.611
▁overeengekomen	-11.611
▁buitengewoon	-11.611
▁noordwesten	-11.611
▁onjuist	-11.611
▁steek	-11.611
▁ongewoon	-11.611
▁enkelvoudige	-11.611
dus	-11.611
▁dominantie	-11.611
▁Coors	-11.611
▁Magnus	-11.6111
▁geregeerd	-11.6111
▁hulpbronnen	-11.6111
▁verbergen	-11.6111
▁Nixon	-11.6111
ool	-11.6111
▁Vision	-11.6111
▁jegens	-11.6111
▁Blair	-11.6112
▁Lilly	-11.6112
▁Sunday	-11.6112
▁Week	-11.6112
▁eigendommen	-11.6113
▁Sherman	-11.6113
making	-11.6113
▁If	-11.6114
▁Mensenrechten	-11.6114
▁verstrekken	-11.6114
▁Owen	-11.6115
▁omgevormd	-11.6115
▁Bruno	-11.6115
staatssecretaris	-11.6116
▁uitgeschakeld	-11.6116
▁theologische	-11.6117
▁Turijn	-11.6117
▁radioprogramma	-11.6118
▁Qui	-11.6119
zuur	-11.6122
▁Yale	-11.6123
▁gijzelaars	-11.6123
▁uitspraken	-11.6124
▁Duizend	-11.6124
▁Jeugd	-11.6124
▁Luigi	-11.6124
▁Fantasy	-11.6124
▁bevoegdheden	-11.6124
▁verkrachting	-11.6124
▁opdrachten	-11.6125
schrift	-11.6125
sproblemen	-11.6126
bord	-11.6127
▁linker	-11.6129
▁Johanna	-11.613
▁DJ	-11.6131
formatie	-11.6132
▁testament	-11.6133
▁(#	-11.6134
▁luisteren	-11.6134
etti	-11.6135
▁instrumental	-11.6139
▁schieten	-11.6141
▁Catherine	-11.6143
▁heks	-11.6144
▁landing	-11.6146
▁toeschouwers	-11.6149
▁Tha	-11.6149
▁schrift	-11.6152
▁impuls	-11.6152
▁Wu	-11.6153
▁compacte	-11.6155
▁specimen	-11.6156
▁Horn	-11.6163
she	-11.6164
▁vandaan	-11.6164
rina	-11.6165
▁Philippe	-11.6166
▁fasen	-11.6167
aten	-11.6168
anus	-11.6169
▁raam	-11.6173
▁Doel	-11.6173
▁Direct	-11.6173
▁Adventures	-11.6174
▁Iedere	-11.6177
onderdelen	-11.6177
series	-11.618
▁verdedigers	-11.618
bos	-11.6183
▁Work	-11.6184
▁symbolische	-11.6184
zel	-11.6185
rian	-11.6187
▁collectieve	-11.6189
▁trof	-11.6189
uld	-11.6191
▁bedreigingen	-11.6192
▁bommen	-11.6194
▁wiskundig	-11.6195
▁werkplaats	-11.6197
opname	-11.6197
▁zuiver	-11.6199
jin	-11.6199
alis	-11.6199
volk	-11.6201
▁herhaald	-11.6205
wick	-11.6207
hang	-11.621
gekomen	-11.6212
▁leverden	-11.6212
hill	-11.6215
▁buitenlands	-11.6216
▁grondig	-11.6216
oom	-11.6217
▁afge	-11.6217
▁regelen	-11.6221
▁appartementen	-11.6221
▁Sex	-11.6228
▁Soe	-11.623
ees	-11.6231
▁stadium	-11.6231
▁interessante	-11.6236
▁Bro	-11.6238
▁intentie	-11.624
BA	-11.6241
kapel	-11.6242
VA	-11.6243
ston	-11.6243
▁volumes	-11.6253
tten	-11.6257
▁Smit	-11.626
▁Lei	-11.6262
▁Volk	-11.6263
▁beschikte	-11.6269
San	-11.6278
kol	-11.6286
overeenkomst	-11.6287
kie	-11.6294
▁Baron	-11.6298
▁agressieve	-11.6299
kr	-11.63
▁Spring	-11.6302
ew	-11.6303
You	-11.6306
oso	-11.6306
voorheen	-11.6309
wang	-11.6321
▁gezond	-11.6321
gor	-11.6322
vuur	-11.6325
udi	-11.6329
▁su	-11.633
▁Cop	-11.6333
▁stijgen	-11.6335
umi	-11.6335
▁Hey	-11.6339
oon	-11.6341
▁schiet	-11.6344
▁kolonies	-11.6345
mal	-11.6346
▁tegemoet	-11.6347
▁fonds	-11.6347
▁doctrine	-11.6347
▁neiging	-11.6348
Vi	-11.6351
volg	-11.6351
▁hersen	-11.6352
moslims	-11.6353
vooral	-11.6356
instellingen	-11.6356
▁opbouw	-11.6358
▁Bl	-11.6359
oud	-11.636
▁criminele	-11.6364
▁vertraging	-11.637
Sch	-11.6371
sey	-11.6373
▁Leonard	-11.6374
▁betrouwbaar	-11.6376
▁observatie	-11.6378
▁herenigd	-11.6378
▁emotione	-11.6378
▁materie	-11.6379
▁maximum	-11.6379
▁Bibliotheek	-11.638
▁Conferentie	-11.638
▁Independent	-11.638
▁Matthew	-11.638
▁citadel	-11.638
▁genegeerd	-11.638
▁herhaling	-11.638
▁Wallace	-11.638
▁Railroad	-11.638
▁aanbood	-11.638
▁onderdrukking	-11.638
▁ontleend	-11.638
▁beloning	-11.638
▁melden	-11.638
▁moraal	-11.638
▁kozen	-11.638
▁gecoördineerd	-11.638
▁Antillen	-11.638
▁Churchill	-11.638
▁genezen	-11.638
▁schaak	-11.638
▁leuk	-11.638
▁rechtszaken	-11.638
▁Eerder	-11.638
▁Oostzee	-11.638
genovergestelde	-11.638
▁Kanaal	-11.638
▁keizerrijk	-11.6381
▁levensstijl	-11.6381
▁acteren	-11.6381
▁moreel	-11.6381
gracht	-11.6381
▁liever	-11.6381
▁zogenoemde	-11.6381
▁Luke	-11.6382
▁Negen	-11.6382
▁Factory	-11.6383
▁Food	-11.6383
▁Ry	-11.6384
ader	-11.6385
▁Perry	-11.6385
▁Hooggerechtshof	-11.6385
▁Cow	-11.6385
▁Herald	-11.6385
▁grammatica	-11.6385
▁onderwijzen	-11.6386
nor	-11.6387
▁roken	-11.6387
igo	-11.6389
▁markeerde	-11.6389
▁daling	-11.6389
▁Friedman	-11.639
RC	-11.6391
▁Bijbelse	-11.6392
▁communisten	-11.6392
▁Ellen	-11.6394
▁makkelijker	-11.6394
▁relevante	-11.6394
▁meetkundige	-11.6394
▁akoestisch	-11.6396
▁elektronen	-11.6397
▁gunstig	-11.6398
▁fabrikant	-11.6399
▁informele	-11.64
▁vorst	-11.6401
▁missen	-11.6401
▁Kenia	-11.6403
bibliotheek	-11.6404
relatie	-11.6404
▁Century	-11.6404
▁compensatie	-11.6404
▁Luik	-11.6406
▁Honor	-11.6408
▁Rem	-11.6409
werking	-11.641
▁country	-11.6414
▁Voetbal	-11.6414
▁atmosfeer	-11.6414
▁altaar	-11.6417
▁gebeden	-11.6417
▁omgekomen	-11.6419
▁Christie	-11.6422
▁molen	-11.6423
▁Illinois	-11.6424
▁koop	-11.6427
rey	-11.6428
▁parallel	-11.6428
▁uitdagingen	-11.6429
▁diner	-11.6429
Thaise	-11.643
▁gerecht	-11.6432
▁Lola	-11.6433
▁Nazi	-11.6434
▁Einstein	-11.6434
▁werven	-11.6434
▁Officer	-11.6434
▁vrijdag	-11.6435
rac	-11.6435
▁port	-11.6436
▁Divers	-11.6437
▁labels	-11.644
▁vervoegde	-11.644
▁twaalfde	-11.6441
▁Works	-11.6441
AD	-11.6442
▁beïnvloedde	-11.6443
▁haalt	-11.6444
ged	-11.6444
▁Helena	-11.6446
▁leef	-11.6449
nacht	-11.645
▁hangen	-11.6453
▁Form	-11.6453
▁Sand	-11.6456
▁ga	-11.6466
eva	-11.6468
▁Us	-11.6469
▁krediet	-11.647
▁observaties	-11.6475
▁Mini	-11.6477
▁klaagde	-11.6479
stuurden	-11.6481
open	-11.6483
▁aantrekkelijk	-11.6484
▁optimal	-11.6486
▁wekelijkse	-11.6488
▁fraude	-11.6493
▁API	-11.6493
▁ziekten	-11.6496
▁geschikte	-11.6497
gemengde	-11.6503
ichi	-11.6507
ult	-11.6509
▁coördinaten	-11.6512
▁Sei	-11.6513
viel	-11.6515
▁simpele	-11.6521
oria	-11.6522
▁schandaal	-11.6523
▁Box	-11.6525
▁bedreigde	-11.6528
gate	-11.6528
gno	-11.6529
fan	-11.6533
▁AB	-11.6534
alisme	-11.6534
▁resulteer	-11.6534
▁Kom	-11.6535
sraad	-11.6535
▁Gre	-11.6536
IC	-11.6537
▁Gezi	-11.654
▁synthese	-11.6541
▁source	-11.6542
▁stop	-11.6542
mil	-11.6543
▁Cur	-11.6543
▁Bas	-11.6544
▁Az	-11.6544
“	-11.6547
horn	-11.6548
chin	-11.6551
dorf	-11.6551
▁poorten	-11.6552
elt	-11.6553
▁Amerikaan	-11.6554
erwijs	-11.6554
vragen	-11.6555
▁algoritme	-11.6556
▁wisselen	-11.6557
▁Voice	-11.656
▁winnaars	-11.6562
▁operator	-11.6562
▁hielpen	-11.657
▁Hay	-11.6572
verdeling	-11.6578
middelen	-11.6581
genoot	-11.6582
ML	-11.6582
gedeelte	-11.6585
▁koninkrijken	-11.6585
aanval	-11.6587
▁uitvoer	-11.6592
▁kochten	-11.6592
▁Knight	-11.6595
Zuid	-11.6595
▁varkens	-11.6595
▁forum	-11.6596
figuur	-11.6596
gevolg	-11.6597
PM	-11.6598
Wij	-11.6598
▁Louise	-11.6599
▁Fan	-11.6599
ava	-11.66
▁Nature	-11.6601
▁spanning	-11.6606
▁Opper	-11.6607
▁rechters	-11.661
▁machts	-11.6615
borg	-11.6616
▁gouvernement	-11.6618
key	-11.6619
▁perfect	-11.6622
▁stoom	-11.6624
▁aanklacht	-11.6625
▁Stones	-11.6629
▁Ari	-11.663
▁Barr	-11.6632
yon	-11.6632
▁efficiënt	-11.6636
▁offer	-11.6637
uri	-11.6638
vallende	-11.6638
▁gedetailleerd	-11.664
gro	-11.6641
▁homoseksuele	-11.6642
▁IRA	-11.6642
▁grap	-11.6644
ase	-11.6644
wer	-11.6646
zicht	-11.665
▁basketbal	-11.6651
▁Spirit	-11.6653
▁neuro	-11.6654
▁replica	-11.6654
▁krijgsgevangen	-11.6655
▁geproduceerde	-11.6655
▁voorspelde	-11.6655
▁tegenstand	-11.6656
▁compromis	-11.6656
ndi	-11.6656
▁Carr	-11.6656
▁Normandië	-11.6657
▁high	-11.6657
▁spiegel	-11.6657
▁Departement	-11.6657
▁Belgrado	-11.6657
▁Chávez	-11.6657
▁Giuseppe	-11.6657
▁Rwanda	-11.6657
▁avonturen	-11.6657
▁geëvacueerd	-11.6657
▁synoniem	-11.6657
▁verbieden	-11.6657
▁verbleven	-11.6657
▁voeden	-11.6657
▁bevolen	-11.6657
▁joint	-11.6657
▁eskader	-11.6657
▁Bishop	-11.6657
▁hoedanig	-11.6658
▁Keizerrijk	-11.6658
erman	-11.6658
▁berucht	-11.6658
▁Talpa	-11.6658
▁volkomen	-11.6658
▁feministische	-11.6658
▁herkomst	-11.6658
▁Building	-11.6658
▁Sy	-11.6658
▁Bologna	-11.6658
▁vaststellen	-11.6658
▁Holmes	-11.6659
▁realisme	-11.6659
▁anime	-11.6659
▁rector	-11.6659
▁Dennis	-11.6659
▁rapper	-11.666
Op	-11.666
▁gepaard	-11.666
▁puur	-11.666
▁eventuele	-11.666
▁Flight	-11.666
▁Burton	-11.6661
Rocky	-11.6661
▁kunt	-11.6663
▁Boris	-11.6664
▁hieronder	-11.6664
baarheid	-11.6665
▁magie	-11.6665
▁geboorteplaats	-11.6666
▁Andy	-11.6667
▁Offa	-11.6669
fanteriedivisie	-11.6669
isschien	-11.667
▁Linda	-11.667
▁vervullen	-11.6673
keten	-11.6673
▁rivaliserend	-11.6673
ound	-11.6674
▁aannemen	-11.6676
partijen	-11.6676
▁woonplaats	-11.6677
▁bel	-11.6677
▁slagen	-11.6679
▁prostitutie	-11.6683
por	-11.6684
▁aanvang	-11.6685
▁Hyman	-11.6686
verdrag	-11.6687
▁inspectie	-11.6687
▁gezanten	-11.6687
cellen	-11.6691
▁Balkan	-11.6693
▁Jung	-11.6694
▁Jaren	-11.6695
▁doorbracht	-11.6696
▁Natuur	-11.67
▁documentaires	-11.6701
gl	-11.6701
▁dynamische	-11.6701
▁kostuums	-11.6704
▁Bazel	-11.6704
▁vertraagd	-11.6705
▁ID	-11.6705
▁Republikeinse	-11.6707
▁luidde	-11.6708
▁Jonge	-11.6708
▁Part	-11.6711
▁onderdrukt	-11.6711
▁monarch	-11.6712
▁matrices	-11.6713
▁procedures	-11.6716
▁bereikbaar	-11.6716
▁aanwezige	-11.6716
▁Route	-11.6718
▁verslaggever	-11.6718
▁Laat	-11.6718
▁olifanten	-11.6718
▁steunden	-11.672
any	-11.6723
▁integraal	-11.6723
▁Mali	-11.6723
▁verrassend	-11.6724
▁opvolging	-11.6724
▁papieren	-11.6732
TU	-11.6733
▁fellow	-11.6734
▁overleefden	-11.6734
▁Movie	-11.6736
▁Heine	-11.6736
gat	-11.6737
ruimtelijke	-11.6737
▁atoom	-11.6737
▁herinnerd	-11.6738
▁verhoudingen	-11.6739
komt	-11.6743
stheorie	-11.6745
▁vraagstukken	-11.6746
▁behielden	-11.6748
▁Rex	-11.6748
▁debatten	-11.6748
▁vergunning	-11.6749
can	-11.675
▁Cab	-11.6754
▁beschouwden	-11.6754
▁flora	-11.6754
▁realistische	-11.6755
▁verwachten	-11.6764
▁Kh	-11.6765
analoge	-11.6766
▁gedreven	-11.6766
stations	-11.6772
ín	-11.6773
▁omroep	-11.6775
▁tocht	-11.6776
▁au	-11.6778
▁Jake	-11.6784
▁voeten	-11.6785
kundig	-11.6785
Si	-11.6787
▁Hills	-11.6788
Russisch	-11.6789
talen	-11.6792
▁efficiëntie	-11.6796
▁ruwe	-11.6798
▁Gauss	-11.68
▁verminderd	-11.6801
▁loon	-11.6803
▁praat	-11.6803
stof	-11.6809
▁But	-11.6809
▁wonder	-11.6809
logie	-11.6815
▁eerlijke	-11.6816
isse	-11.6818
▁gronden	-11.6819
cd	-11.682
▁index	-11.683
belasting	-11.683
▁art	-11.6832
▁vereerd	-11.6834
▁Salt	-11.6835
eerden	-11.6839
▁Micro	-11.6841
▁gerespecteerd	-11.6841
iën	-11.6845
▁rotatie	-11.6846
shirt	-11.6847
▁middels	-11.6848
▁deelnemer	-11.6849
fabrikant	-11.6852
domein	-11.6853
▁domeinen	-11.6854
▁Gy	-11.6856
tekst	-11.6858
orkest	-11.6858
erry	-11.6858
hm	-11.6859
▁uitvoerende	-11.686
scentrum	-11.6862
▁verleende	-11.6863
MP	-11.6864
vluchten	-11.6864
▁Pir	-11.6867
▁georiënteerd	-11.6867
nationale	-11.6867
▁Key	-11.687
▁are	-11.6871
nale	-11.6873
ssi	-11.6873
lever	-11.6875
▁wou	-11.6875
▁secties	-11.6879
▁Cole	-11.6879
▁eruit	-11.6882
maak	-11.6885
Holland	-11.6885
▁volgend	-11.6885
regisseur	-11.6885
▁Verdi	-11.6886
▁Tree	-11.6886
Stad	-11.6887
Aziatische	-11.6888
soldaten	-11.6889
personeel	-11.689
dek	-11.6892
bou	-11.6895
thema	-11.6895
▁Lib	-11.6896
▁beslissen	-11.6899
▁decoratie	-11.69
ité	-11.6901
versies	-11.6902
figuren	-11.6904
▁Wars	-11.6905
▁tr	-11.6906
▁grafisch	-11.6908
▁Rau	-11.6908
är	-11.6909
▁Hilbert	-11.6909
ash	-11.6911
▁Care	-11.6911
▁toeval	-11.6912
▁VK	-11.6913
▁panel	-11.6917
mina	-11.6918
▁strijden	-11.6918
▁Mede	-11.692
ness	-11.6923
▁Imperial	-11.6925
gemeenschappen	-11.693
▁Stern	-11.693
▁herhalen	-11.693
▁danseres	-11.6932
phi	-11.6933
▁Fl	-11.6934
▁Rama	-11.6934
cijfers	-11.6935
machines	-11.6936
▁beoordeling	-11.6936
▁Parti	-11.6936
▁droge	-11.6936
▁verschijnsel	-11.6937
agh	-11.6939
▁ontevreden	-11.694
▁Hel	-11.694
▁Short	-11.6942
▁Ahmed	-11.6943
homoseksualiteit	-11.6943
▁Ammianus	-11.6943
▁Amnesty	-11.6943
▁Carnegie	-11.6943
▁Exchange	-11.6943
▁Mercury	-11.6943
▁Mohamed	-11.6943
▁Montreal	-11.6943
▁Peloponnesisch	-11.6943
▁Santiago	-11.6943
▁Toulouse	-11.6943
▁aankondiging	-11.6943
▁componeren	-11.6943
▁gebleken	-11.6943
▁heroveren	-11.6943
▁onenigheid	-11.6943
▁streeft	-11.6943
▁illustrator	-11.6943
▁baanbrekend	-11.6943
▁Brooklyn	-11.6943
▁Wikipedia	-11.6943
▁ambitieuze	-11.6943
▁Laboratory	-11.6943
▁Sharpless	-11.6943
▁Movement	-11.6943
▁Genua	-11.6943
▁katoen	-11.6943
▁tamelijk	-11.6943
▁samenhang	-11.6943
▁voorzichtig	-11.6943
▁Nashville	-11.6944
▁Paolo	-11.6944
▁Curtis	-11.6944
liefhebber	-11.6944
▁persconferentie	-11.6944
▁flink	-11.6944
▁Leeds	-11.6944
▁Mambo	-11.6944
▁NBA	-11.6945
▁Mogelijk	-11.6945
pat	-11.6945
▁strijdmacht	-11.6945
▁coup	-11.6946
▁Vries	-11.6946
▁monumentale	-11.6947
▁nasleep	-11.6947
▁codex	-11.6948
▁gevlucht	-11.6949
▁verwerken	-11.6949
▁hyper	-11.695
▁justitie	-11.695
▁Ap	-11.6951
▁bijgestaan	-11.6952
not	-11.6952
▁vrouwenrechten	-11.6953
▁recentelijk	-11.6955
▁Meyer	-11.6956
▁Augusta	-11.6958
▁bandleden	-11.6959
LA	-11.6959
▁Ballet	-11.696
▁overstromingen	-11.6963
▁Oh	-11.6964
▁politieagenten	-11.6966
▁zenden	-11.6966
▁register	-11.6967
haus	-11.6969
lum	-11.6969
▁Capitol	-11.6969
▁gebonden	-11.6971
▁bepalingen	-11.6971
▁beginnend	-11.6973
cor	-11.6974
▁items	-11.6975
▁rituelen	-11.6976
▁Wayne	-11.6976
▁Naval	-11.6978
▁universitaire	-11.6979
▁chocolade	-11.698
▁terrorisme	-11.6981
court	-11.6982
▁HD	-11.6983
▁PS	-11.6986
▁cap	-11.6987
▁gebruikmaakt	-11.6989
▁Atlas	-11.699
▁galerie	-11.699
▁engine	-11.6992
▁Mod	-11.6996
▁venture	-11.7
▁Bab	-11.7002
▁Vikingen	-11.7004
▁uitkomst	-11.7005
▁toernooien	-11.7006
▁Harbor	-11.7008
amba	-11.7013
▁opnam	-11.7017
▁transcendent	-11.7017
▁Indiana	-11.7017
▁materieel	-11.7018
▁Lar	-11.7019
▁Industries	-11.702
▁ritueel	-11.7022
nus	-11.7026
▁claim	-11.7031
▁huur	-11.7032
▁workshops	-11.7035
▁Pers	-11.7037
nan	-11.7037
▁piramide	-11.7038
▁oostelijk	-11.7039
burgh	-11.704
soort	-11.7044
▁vooraf	-11.7047
IT	-11.705
▁sites	-11.7053
▁trends	-11.7053
onderwijs	-11.7059
▁inspanning	-11.7065
▁opereren	-11.7067
lag	-11.7072
▁Pl	-11.7072
grad	-11.7076
xt	-11.7078
rust	-11.7079
tewel	-11.7084
lik	-11.7086
▁mysterie	-11.7089
▁Hoog	-11.7091
sproces	-11.7097
lor	-11.7098
Best	-11.7101
▁gaten	-11.7107
▁kom	-11.7107
▁machtig	-11.7112
▁staatsburger	-11.7112
▁Mos	-11.7112
▁Reich	-11.7116
▁Kri	-11.7118
Nederland	-11.712
bury	-11.7122
RT	-11.7123
toestand	-11.7124
kern	-11.7124
eens	-11.7124
▁nauwkeurig	-11.7124
▁tenor	-11.7132
gestuurd	-11.7134
verlies	-11.7134
▁doe	-11.7138
start	-11.7139
▁Economic	-11.7142
▁Zwitsers	-11.7146
▁vrouwelijk	-11.715
path	-11.7152
▁levering	-11.7153
producer	-11.7153
evolutionaire	-11.7154
terrein	-11.7156
ric	-11.7156
▁business	-11.7157
▁Ran	-11.7157
akkoord	-11.7158
▁herinnerde	-11.716
activiteit	-11.7161
▁fabrikanten	-11.7162
▁presentator	-11.7165
▁ingeschreven	-11.7167
volging	-11.7169
▁Grande	-11.717
istisch	-11.717
wezen	-11.7172
▁Order	-11.7174
bara	-11.7175
▁gids	-11.7175
▁Metro	-11.7177
kes	-11.7178
Bu	-11.7179
geheten	-11.7187
Benz	-11.7188
▁herdenking	-11.7188
communicatie	-11.7189
licentie	-11.719
werkzaamheden	-11.7191
tijdperk	-11.7191
camera	-11.7191
paleis	-11.7192
dh	-11.7192
sinds	-11.7193
omedy	-11.7194
traditie	-11.7194
last	-11.72
Over	-11.7204
▁consument	-11.7205
▁dodelijke	-11.7206
▁koude	-11.721
ions	-11.721
CV	-11.7211
oude	-11.7213
▁Clarke	-11.7214
gever	-11.7218
▁Electronic	-11.7218
nevel	-11.7222
Franse	-11.7223
cio	-11.7224
geest	-11.7224
AC	-11.7225
▁Pin	-11.7225
lek	-11.7226
wisseling	-11.7226
▁Alfons	-11.723
▁one	-11.723
▁Stock	-11.7231
▁Scientifi	-11.7232
▁nieuwste	-11.7232
▁Bird	-11.7233
zetting	-11.7234
master	-11.7234
▁Boven	-11.7235
▁erkent	-11.7236
▁Knox	-11.7237
lich	-11.7237
▁Alliantie	-11.7237
▁Baltimore	-11.7237
▁Belisarius	-11.7237
▁Joachim	-11.7237
▁Montenegro	-11.7237
▁arriveert	-11.7237
▁coördineren	-11.7237
▁detecteren	-11.7237
▁gedoopt	-11.7237
▁gerapporteerd	-11.7237
▁loyaliteit	-11.7237
▁predikant	-11.7237
▁synode	-11.7237
▁vervangt	-11.7237
▁voegt	-11.7237
▁Ralph	-11.7237
▁Atlanta	-11.7237
▁Rachel	-11.7237
▁ligging	-11.7237
▁Severus	-11.7237
▁aanbieden	-11.7237
▁teleurgesteld	-11.7237
▁fulltime	-11.7237
▁karate	-11.7237
▁krijgsmacht	-11.7237
▁marmer	-11.7237
▁Gerrit	-11.7238
▁schepping	-11.7238
▁Mechelen	-11.7238
▁Today	-11.7238
▁bedraagt	-11.7238
▁Galliërs	-11.7238
▁missionarissen	-11.7238
▁Frederick	-11.7238
▁About	-11.7238
▁Against	-11.7239
▁Takeda	-11.7239
▁humanistische	-11.7239
▁Breda	-11.7239
▁rellen	-11.7239
▁Technic	-11.724
▁Grace	-11.7241
▁Stefanus	-11.7241
▁Jamie	-11.7241
▁geografie	-11.7241
▁muziekvideo	-11.7241
▁gender	-11.7242
▁functione	-11.7242
▁Village	-11.7242
▁Folk	-11.7242
kind	-11.7242
▁afgenomen	-11.7242
▁taalkundige	-11.7242
▁geadopteerd	-11.7243
▁langzamer	-11.7244
▁uitgestorven	-11.7245
bridge	-11.7245
NC	-11.7245
▁Chess	-11.7246
▁Denver	-11.7246
▁Res	-11.7247
▁Gray	-11.7248
chem	-11.7252
▁commentaren	-11.7254
▁dronken	-11.7256
pur	-11.7258
▁bekeren	-11.726
kom	-11.726
had	-11.7261
▁tekens	-11.7262
▁aangehouden	-11.7262
▁wezenlijk	-11.7263
▁ondergang	-11.7263
▁handeling	-11.7264
▁Justin	-11.7264
▁aangevoerd	-11.7265
▁like	-11.7266
▁Skeptical	-11.7267
▁katholiek	-11.7268
▁Daleks	-11.727
▁Harper	-11.727
▁Gru	-11.7272
god	-11.7272
▁onrechte	-11.7272
▁stadhuis	-11.7273
▁Protocol	-11.7275
▁Poly	-11.7276
▁Look	-11.7276
▁Low	-11.7278
▁Has	-11.728
▁stemden	-11.7282
▁content	-11.7285
stijgende	-11.7286
▁kanon	-11.7293
▁Ontario	-11.7296
▁bidden	-11.7297
▁Herm	-11.73
▁Store	-11.7301
▁verliest	-11.7301
▁Das	-11.7302
▁toeren	-11.7302
▁belegerde	-11.7303
▁Kin	-11.7303
lopend	-11.7305
▁Scha	-11.7306
▁balans	-11.7308
▁True	-11.7313
▁Even	-11.7314
▁Antoine	-11.7317
▁consultant	-11.7318
▁radar	-11.7318
ted	-11.7318
zet	-11.732
!)	-11.7321
olie	-11.7322
▁Sat	-11.7322
Jo	-11.7323
▁schattingen	-11.7324
schappelijke	-11.7326
vaak	-11.7327
▁ridders	-11.7327
▁records	-11.7329
▁neutrale	-11.7329
▁Mul	-11.7329
▁Santo	-11.7331
▁nauwkeurige	-11.7333
cept	-11.7336
zar	-11.7336
▁proto	-11.7337
▁bestuurders	-11.7338
▁afscheid	-11.7338
▁free	-11.7339
stem	-11.7339
ech	-11.734
▁Jeff	-11.7341
▁Franc	-11.7346
▁RT	-11.7347
▁breedte	-11.7347
▁Pur	-11.735
▁Andreas	-11.7355
▁atlas	-11.7356
hon	-11.7361
▁Rosa	-11.7361
▁daad	-11.7363
▁bord	-11.7364
bronzen	-11.7366
etta	-11.7373
▁lijsten	-11.7374
▁functionarissen	-11.7378
▁Ost	-11.738
▁reisden	-11.7382
▁Gra	-11.7383
▁sin	-11.7388
lessen	-11.7389
zijnde	-11.7391
▁Wii	-11.7397
▁Avi	-11.7399
▁bond	-11.74
▁Sin	-11.74
zonder	-11.7401
▁ja	-11.7401
▁agentschap	-11.7402
twee	-11.7405
▁mislukt	-11.7409
▁overeenkom	-11.7409
▁opent	-11.741
▁Sue	-11.741
▁Asia	-11.7412
▁Late	-11.7412
ith	-11.7416
iff	-11.7416
▁vierkant	-11.7419
▁meesters	-11.7421
▁Penn	-11.7421
▁Dom	-11.7423
ps	-11.7424
▁welvarende	-11.7425
nte	-11.7427
wetgeving	-11.7434
▁geïntegreerde	-11.7434
▁Record	-11.744
Ga	-11.7442
mel	-11.7442
Filipijnse	-11.7443
▁factie	-11.7446
▁tegenhanger	-11.7447
▁binding	-11.7448
▁samenlevingen	-11.745
MC	-11.7451
ui	-11.7451
▁simpel	-11.7455
▁Stand	-11.7455
gesteld	-11.7459
▁Ron	-11.7464
kh	-11.7467
▁episode	-11.7469
▁Nassau	-11.747
▁plot	-11.7473
▁Lam	-11.7474
script	-11.748
▁Aero	-11.7481
wetenschap	-11.7483
Star	-11.7486
▁fictie	-11.7486
▁gevoelig	-11.7487
▁Gui	-11.7488
▁Sultan	-11.7493
half	-11.7493
▁long	-11.7494
▁bende	-11.7496
capaciteit	-11.7499
▁Hawaï	-11.7501
vallei	-11.7502
Spaans	-11.7503
expeditie	-11.7507
▁Rot	-11.7507
▁gezant	-11.7508
behalve	-11.7509
▁paren	-11.751
muzikant	-11.7511
vorming	-11.7512
▁kring	-11.7512
▁Claus	-11.7512
rell	-11.7513
▁verhaallijn	-11.7514
▁Wester	-11.7514
▁Pot	-11.7515
▁Chen	-11.7515
▁Pr	-11.7517
▁Keynes	-11.7519
▁verrast	-11.752
emb	-11.7521
▁kristal	-11.7521
dans	-11.7522
▁plastic	-11.7522
lar	-11.7523
▁patriarch	-11.7528
▁parallelle	-11.753
alai	-11.7531
▁vreesde	-11.7532
rekening	-11.7535
bis	-11.7536
▁Anno	-11.7537
▁skelet	-11.7538
stream	-11.7539
▁humor	-11.754
▁zaterdag	-11.754
▁Experience	-11.754
▁García	-11.754
▁Korinthe	-11.754
▁Kosovo	-11.754
▁Krakau	-11.754
▁Panorama	-11.754
▁Source	-11.754
▁UEFA	-11.754
▁definieert	-11.754
▁fresco	-11.754
▁geconstrueerd	-11.754
▁geplunderd	-11.754
▁gerenommeerd	-11.754
▁privacy	-11.754
▁seksualiteit	-11.754
▁suggestie	-11.754
▁waarschuwt	-11.754
▁DFDS	-11.754
▁Observatory	-11.754
▁Tsjechië	-11.754
▁lanceren	-11.754
▁Ottomanen	-11.754
▁ondertekenen	-11.754
▁Dawn	-11.754
▁Christmas	-11.754
▁Dylan	-11.754
▁Website	-11.754
▁uitgeput	-11.754
▁Nevada	-11.754
▁Kreta	-11.754
▁Cornell	-11.754
▁Stories	-11.7541
▁Luther	-11.7541
▁Neumann	-11.7541
▁leermeester	-11.7541
▁Porsche	-11.7541
▁jagen	-11.7541
▁diplomaat	-11.7542
▁interim	-11.7542
▁genoteerd	-11.7542
▁oosters	-11.7542
▁verzekerings	-11.7542
▁individueel	-11.7542
bay	-11.7543
▁kunstschilder	-11.7543
▁Temple	-11.7543
▁Drake	-11.7543
▁Again	-11.7544
▁Sally	-11.7544
fried	-11.7544
▁overwinnen	-11.7545
▁winstgevend	-11.7546
▁CEN	-11.7546
MI	-11.7546
▁geïnterpreteerd	-11.7546
gedachtenis	-11.7549
▁waarborgen	-11.7551
▁hertrouwde	-11.7551
▁protestanten	-11.7552
▁afloop	-11.7552
▁Lau	-11.7553
▁Zomer	-11.7554
welke	-11.7555
▁duurzaam	-11.7555
▁etc	-11.7555
anta	-11.7556
▁Carmen	-11.7556
▁prees	-11.7557
bio	-11.7557
▁koloniën	-11.7557
▁bewaakt	-11.7557
▁aandoening	-11.7559
▁vakbonden	-11.756
oma	-11.7561
▁bevoegdheid	-11.7562
▁bestuurder	-11.7562
▁resulteren	-11.7563
▁Sven	-11.7565
▁rapporteren	-11.7567
▁fossielen	-11.7567
koda	-11.7567
▁hoofdplaats	-11.7568
▁Jozef	-11.7568
▁Jehova	-11.7568
▁duistere	-11.7569
▁verschijnselen	-11.7575
▁AC	-11.7577
▁vermeldde	-11.7578
▁Northern	-11.758
dos	-11.758
▁wijd	-11.7581
▁Sancho	-11.7582
▁bombardementen	-11.7582
▁Yama	-11.7583
▁baseerde	-11.7584
hoff	-11.7585
lic	-11.7585
▁system	-11.7585
Com	-11.7586
▁Cou	-11.7588
▁tussentijd	-11.7588
▁Madison	-11.759
leen	-11.7591
▁stichten	-11.7594
▁Burke	-11.7594
▁lijk	-11.7595
▁go	-11.7596
▁keurde	-11.7596
oren	-11.7597
twijfeld	-11.7598
▁Por	-11.7598
▁rijst	-11.76
▁kenden	-11.7601
▁coördinator	-11.7602
Da	-11.7603
▁vissers	-11.7604
▁onderzeeër	-11.7604
▁bloeiend	-11.7605
groei	-11.7607
▁kunstmatige	-11.7607
kok	-11.7607
▁gold	-11.761
ergens	-11.7611
▁fauna	-11.7611
nl	-11.7611
▁Nederlandsche	-11.7613
▁Canal	-11.7614
▁codenaam	-11.7614
▁Weg	-11.7614
gesch	-11.7614
▁waarneming	-11.7614
eve	-11.7615
▁aandeelhouders	-11.7615
wijn	-11.7616
▁class	-11.7619
lings	-11.7619
▁Name	-11.762
▁waarnemers	-11.7621
▁Lokal	-11.7624
▁programmering	-11.7624
▁Sig	-11.7625
▁handschriften	-11.7625
▁Tang	-11.7628
▁ontwikkelaar	-11.7629
▁nationalisme	-11.7629
▁besturings	-11.763
voet	-11.7631
▁ingetrokken	-11.7635
▁elektronica	-11.7635
▁kringen	-11.7635
▁ambities	-11.7636
▁keuzes	-11.7636
tum	-11.7636
▁oppervlakken	-11.7636
norm	-11.7637
Nederlandse	-11.764
TE	-11.764
▁Porter	-11.764
verzekering	-11.7643
▁geluiden	-11.7646
▁Liu	-11.7646
▁Dans	-11.7647
▁processor	-11.7648
▁Ege	-11.765
▁staart	-11.7657
osi	-11.7661
▁zangers	-11.7662
tekens	-11.7665
▁There	-11.7666
▁blokken	-11.7668
weleens	-11.767
makers	-11.7675
▁bewerking	-11.7677
▁fractie	-11.7681
▁ei	-11.7682
▁terreinen	-11.7683
TO	-11.7684
▁werpen	-11.7684
laan	-11.7686
▁gedraaid	-11.7688
▁Bil	-11.7688
▁radiostations	-11.7688
▁Adel	-11.7691
▁Where	-11.7692
▁gij	-11.7692
▁cast	-11.7696
▁zelfstandige	-11.7697
▁investerings	-11.7698
tegenwoordig	-11.7698
▁steunt	-11.7699
▁Isa	-11.7701
▁Waarom	-11.7704
▁inval	-11.7706
ties	-11.771
rup	-11.7719
▁vermist	-11.7719
▁CIA	-11.7719
ezen	-11.7728
assi	-11.7729
▁Liber	-11.7729
▁federatie	-11.7731
▁gebouwde	-11.7732
was	-11.7734
▁inspecteur	-11.7735
▁Tho	-11.7735
agent	-11.7737
▁godsdienstig	-11.7737
▁Lion	-11.7738
ière	-11.7742
▁variërend	-11.7743
▁Lan	-11.7745
▁krachtig	-11.7745
▁psycho	-11.7745
▁Yoshi	-11.7746
▁Base	-11.7746
kata	-11.7747
zender	-11.7748
▁Vera	-11.775
▁Murder	-11.7756
US	-11.7758
avond	-11.7763
▁geo	-11.7763
▁drijvend	-11.7764
▁regeren	-11.7765
leer	-11.7768
▁CR	-11.7769
▁installaties	-11.7771
▁Jak	-11.7774
illi	-11.7786
▁Sing	-11.7787
MB	-11.7787
SC	-11.7789
ones	-11.779
▁Bir	-11.7791
artikel	-11.7792
iger	-11.7792
▁uitte	-11.7797
▁Pri	-11.7798
▁Kat	-11.7799
▁USB	-11.7801
▁Humanist	-11.7802
▁Institut	-11.7805
duizend	-11.7806
▁gepubliceerde	-11.7807
HA	-11.7807
▁column	-11.7808
▁bevelen	-11.7809
▁Wan	-11.781
▁sur	-11.7811
kwaliteit	-11.7812
▁Leeuw	-11.7814
▁Comp	-11.7816
ía	-11.7817
▁felle	-11.7818
▁Mira	-11.7819
▁perioden	-11.782
▁medicijn	-11.782
schoon	-11.782
gebonden	-11.7822
▁beschuldiging	-11.7822
”)	-11.7824
gezelschap	-11.7825
Pierre	-11.7826
algebra	-11.7827
sfeer	-11.7828
één	-11.783
Bahá	-11.7832
titels	-11.7836
▁verwachte	-11.7836
▁periodiek	-11.7836
element	-11.784
▁buit	-11.784
▁verstrekt	-11.7845
platen	-11.7847
▁Fellow	-11.7853
▁Auschwitz	-11.7853
▁Commissaris	-11.7853
▁Dionysius	-11.7853
▁Ecuador	-11.7853
▁Gemenebest	-11.7853
▁Phoenix	-11.7853
▁Verscheiden	-11.7853
▁Vóór	-11.7853
▁cocaïne	-11.7853
▁concrete	-11.7853
▁folklore	-11.7853
▁gehuisvest	-11.7853
▁gepromoot	-11.7853
▁investeren	-11.7853
▁loyaal	-11.7853
▁registreren	-11.7853
▁research	-11.7853
▁satraap	-11.7853
▁tevergeefs	-11.7853
▁verheven	-11.7853
▁Conservatorium	-11.7853
▁Noether	-11.7853
▁blazen	-11.7853
▁Teresa	-11.7853
▁rechterflank	-11.7853
▁rationele	-11.7853
▁etappe	-11.7853
▁ondervraagd	-11.7853
▁Badawi	-11.7853
Meestal	-11.7853
▁gespeld	-11.7853
▁Formula	-11.7853
▁tezamen	-11.7853
▁schedel	-11.7853
▁dichtstbij	-11.7853
▁kelder	-11.7853
▁hartaanval	-11.7853
▁Yamaha	-11.7853
▁Stanford	-11.7853
▁Police	-11.7853
▁wetgevende	-11.7853
▁Titan	-11.7853
opperbevelhebber	-11.7854
▁Extra	-11.7854
▁CSI	-11.7854
▁toepassen	-11.7854
▁Guido	-11.7854
▁syndroom	-11.7854
▁Castro	-11.7854
▁Claire	-11.7854
▁Kirk	-11.7854
▁Study	-11.7854
▁finishte	-11.7854
▁Hannah	-11.7854
▁ruimtevaart	-11.7855
▁Piano	-11.7856
▁projectieve	-11.7856
▁Dood	-11.7856
▁toevlucht	-11.7857
▁getuigenis	-11.7857
▁Early	-11.7858
▁Maryland	-11.7859
▁televisiezender	-11.786
▁kost	-11.7861
▁Rolling	-11.7861
▁thuisland	-11.7861
▁Sebastian	-11.7861
▁baron	-11.7862
▁vrijheden	-11.7862
Go	-11.7864
informatie	-11.7864
Jan	-11.7866
cognitieve	-11.7866
▁Falcon	-11.7868
▁afwijkend	-11.7868
strategie	-11.7868
▁Bray	-11.787
▁Desalniettemin	-11.787
▁Bangladesh	-11.787
▁opgetekend	-11.787
reizen	-11.7871
ines	-11.7875
foto	-11.7876
▁specialiseerde	-11.7879
▁Bauer	-11.7879
▁Markt	-11.788
▁uitzicht	-11.7881
▁toespraken	-11.7881
▁omstreden	-11.7882
▁plafond	-11.7882
▁waardering	-11.7884
▁Keizerlijk	-11.7885
▁verkochten	-11.7886
▁arena	-11.7887
pool	-11.7889
hoven	-11.7892
ful	-11.7892
BI	-11.7893
▁gletsjers	-11.7894
▁voorkwam	-11.7895
▁entiteiten	-11.7895
▁Kampioenschap	-11.7896
▁keizers	-11.7897
▁springen	-11.7899
▁vijftiende	-11.79
▁droog	-11.79
▁ridder	-11.7902
▁systematisch	-11.7906
▁Online	-11.7907
Zo	-11.791
rah	-11.7911
▁degelijk	-11.7915
▁uitzendingen	-11.7915
My	-11.7915
▁participatie	-11.7916
bas	-11.7917
▁Rie	-11.7918
▁Cut	-11.7919
sburg	-11.792
▁Sas	-11.7921
▁woordenboek	-11.7923
▁Happy	-11.7928
▁prefectuur	-11.7928
gest	-11.7931
▁verdiepingen	-11.7931
tim	-11.7933
lust	-11.7935
▁dames	-11.7937
▁kanton	-11.7939
ated	-11.7941
▁bezaten	-11.7941
▁Inuit	-11.7943
▁anonieme	-11.7944
▁Sav	-11.7944
▁level	-11.7944
nier	-11.7945
▁Portugees	-11.795
bla	-11.7956
are	-11.7961
One	-11.7963
bru	-11.7963
▁cabine	-11.7964
▁Ai	-11.7964
▁onderdrukken	-11.7967
▁Chin	-11.7968
▁genoten	-11.7973
tti	-11.7973
woorden	-11.7974
▁Str	-11.7983
▁schoot	-11.7984
enstein	-11.7985
▁Rad	-11.7986
spelers	-11.7996
▁Sanders	-11.8003
▁Emil	-11.8005
▁hol	-11.8006
▁lastig	-11.8006
bell	-11.8007
▁Oostenrijks	-11.8007
▁SE	-11.8008
▁zeilde	-11.801
▁omvangrijke	-11.801
camp	-11.801
▁bewaarde	-11.8016
gesloten	-11.8021
NG	-11.8024
cla	-11.8024
core	-11.8026
nin	-11.8036
▁Federale	-11.8037
hed	-11.8037
BL	-11.804
eign	-11.8045
▁Bru	-11.8046
▁verloofde	-11.8047
oka	-11.8048
houdende	-11.8051
etten	-11.8052
▁rockband	-11.8052
bur	-11.8053
▁heilig	-11.8053
▁Andrea	-11.8056
WS	-11.8062
▁Make	-11.8063
▁besteed	-11.8064
computer	-11.8065
▁rechtse	-11.8067
▁uitbreidingen	-11.8067
geleid	-11.8067
lij	-11.8068
▁beveiliging	-11.8068
SP	-11.807
Her	-11.8073
pin	-11.8074
▁Ted	-11.8075
duc	-11.8075
regel	-11.8075
▁afwacht	-11.8077
▁Voort	-11.8082
▁gevel	-11.8083
eurs	-11.8085
escu	-11.8085
▁drijven	-11.8086
▁onderhandelde	-11.8089
ijnen	-11.809
zoon	-11.8092
somstandigheden	-11.8095
▁Years	-11.8097
order	-11.8099
▁Ay	-11.8101
▁Cas	-11.8101
▁Dia	-11.8102
▁wereldkampioen	-11.8102
▁warme	-11.8102
▁Mack	-11.8102
▁versierd	-11.8102
▁overnam	-11.8104
▁Bour	-11.8112
▁ernaar	-11.8118
ID	-11.8118
▁warm	-11.8122
nard	-11.8123
▁Ellis	-11.8124
▁Too	-11.8124
▁werkende	-11.8138
anten	-11.8142
▁grondslag	-11.8144
ios	-11.8147
▁Songs	-11.8148
▁Rica	-11.8149
▁Gate	-11.8149
▁Sor	-11.815
▁Bin	-11.8151
▁Valencia	-11.8151
hus	-11.8157
▁dollars	-11.8157
cyclus	-11.8157
▁intuïtie	-11.8158
▁acteer	-11.8158
sloeg	-11.8159
▁ideale	-11.816
▁nest	-11.8161
Rock	-11.8161
▁connectie	-11.8165
▁pen	-11.8166
▁Nij	-11.8167
▁goedkope	-11.8168
akker	-11.8169
▁bod	-11.8171
▁Et	-11.8172
▁geschil	-11.8174
▁Agricola	-11.8175
▁Bristol	-11.8175
▁Columbus	-11.8175
▁Havana	-11.8175
▁Neurenberg	-11.8175
▁Paradise	-11.8175
▁Portugezen	-11.8175
▁annexatie	-11.8175
▁astronoom	-11.8175
▁atletiek	-11.8175
▁gefascineerd	-11.8175
▁opgeleverd	-11.8175
▁overlijdt	-11.8175
▁statuten	-11.8175
▁Essex	-11.8175
▁Sejanus	-11.8175
▁linkerflank	-11.8175
▁Collection	-11.8175
▁Norfolk	-11.8175
▁Wachttoren	-11.8175
gewisseld	-11.8175
▁DVD	-11.8175
▁Faith	-11.8175
▁Fleet	-11.8175
▁Historia	-11.8175
▁VOC	-11.8175
▁duisternis	-11.8175
▁semantisch	-11.8175
▁vaardigheid	-11.8175
▁geëerd	-11.8175
▁accent	-11.8175
▁Edmund	-11.8175
▁Duncan	-11.8175
▁authenticiteit	-11.8175
▁Circle	-11.8175
▁Labour	-11.8175
▁Maurice	-11.8176
▁bloedbad	-11.8176
▁Nicolaas	-11.8176
▁Libane	-11.8176
▁geïnformeerd	-11.8176
▁Craig	-11.8176
▁Case	-11.8176
▁eigentijds	-11.8176
▁verticale	-11.8176
▁Panama	-11.8176
▁Plaza	-11.8176
▁Serviërs	-11.8176
▁Maagd	-11.8176
▁neergang	-11.8176
▁Emmy	-11.8176
▁eiwitten	-11.8177
▁vereisen	-11.8177
▁aftreden	-11.8177
▁Airbus	-11.8177
▁geboortestad	-11.8177
bahn	-11.8178
▁grotten	-11.8178
▁Haïti	-11.8178
▁troepenmacht	-11.8179
▁Zeegebied	-11.8179
▁Wolff	-11.818
▁uitzenden	-11.818
fil	-11.818
▁Color	-11.8181
▁pure	-11.8181
action	-11.8181
ming	-11.8182
▁Riga	-11.8183
wei	-11.8183
▁tijdgenoten	-11.8183
▁Antwerpse	-11.8183
▁Laura	-11.8183
▁Hit	-11.8184
▁schetsen	-11.8186
▁sho	-11.8186
▁opgedeeld	-11.8186
▁Director	-11.819
▁nachtclub	-11.819
▁Mother	-11.8191
▁Techno	-11.8192
▁Ensemble	-11.8193
▁arrondissement	-11.8193
▁Milieu	-11.8193
▁Cold	-11.8195
▁filter	-11.8196
onne	-11.8197
▁doelpunten	-11.8199
ieten	-11.8199
ouwen	-11.82
▁Maas	-11.82
▁(‘	-11.82
▁cruise	-11.8201
▁Bib	-11.8202
▁Pisa	-11.8202
▁groeperingen	-11.8202
nova	-11.8202
kens	-11.8202
▁Lijn	-11.8202
osaurus	-11.8202
▁opsluiting	-11.8202
▁avant	-11.8203
▁aangebracht	-11.8203
▁stortte	-11.8204
▁hiërarchie	-11.8205
▁Zagreb	-11.8205
▁slogan	-11.8205
▁begrensd	-11.8205
▁Ou	-11.8206
▁CA	-11.8209
eng	-11.821
aro	-11.821
▁lo	-11.8211
hoorn	-11.8211
▁boden	-11.8211
right	-11.8212
▁Jud	-11.8214
▁violist	-11.8217
cut	-11.8218
▁aanklachten	-11.822
▁Nicolas	-11.8221
▁compagnie	-11.8224
▁plezier	-11.8226
▁uitbraak	-11.8227
▁prefect	-11.8228
▁Herzegovina	-11.8229
▁racisme	-11.8229
▁hekel	-11.8229
▁motieven	-11.8229
▁verhandelingen	-11.8231
▁colleges	-11.8235
▁Allah	-11.8237
▁make	-11.8238
▁Achter	-11.8239
troffen	-11.824
klassen	-11.824
schot	-11.8242
▁strategieën	-11.8243
▁Quest	-11.8245
▁overwogen	-11.8245
▁beginselen	-11.8245
▁recensies	-11.8246
bergen	-11.8246
▁tellen	-11.8247
▁invoer	-11.8247
▁Jam	-11.8247
▁Uni	-11.8248
ïn	-11.825
▁Bod	-11.8252
▁berekeningen	-11.8252
▁gewenste	-11.8253
▁ding	-11.8253
▁fortuin	-11.8253
eken	-11.8254
▁Born	-11.8254
sbeweging	-11.8254
ugh	-11.8255
▁oordeelde	-11.8255
▁Licht	-11.8255
▁Marina	-11.8256
▁Chart	-11.8258
▁continenten	-11.8259
▁hernieuwde	-11.8264
concept	-11.8265
itt	-11.8266
▁opzichten	-11.8266
▁symmetrie	-11.8268
▁rijtuigen	-11.8271
▁App	-11.8272
legging	-11.8276
▁groeit	-11.8276
▁ontvanger	-11.8279
▁gelovigen	-11.828
▁veranderende	-11.8281
▁dank	-11.8283
▁Edwards	-11.8284
uti	-11.8285
▁Groen	-11.8286
unie	-11.8286
Koreaans	-11.829
oh	-11.8294
▁dramatische	-11.8295
▁boer	-11.8296
sam	-11.83
▁Institution	-11.8302
▁Lor	-11.8303
▁enthousiast	-11.8305
nieuwe	-11.8305
▁deelnamen	-11.8305
▁Change	-11.8311
▁Kun	-11.8312
▁bergachtig	-11.8317
bet	-11.8318
tekenden	-11.8318
▁Josh	-11.8318
▁Moto	-11.832
▁notatie	-11.8322
yang	-11.8324
elo	-11.8325
▁Beth	-11.8329
▁Piet	-11.8329
therapie	-11.8331
▁Reis	-11.8333
▁bloei	-11.8334
▁observatorium	-11.8336
arbeiders	-11.8337
▁Mei	-11.8337
kka	-11.8338
▁Hor	-11.834
ald	-11.8344
▁Gij	-11.8344
▁ingericht	-11.8344
▁patronen	-11.8348
▁logisch	-11.8353
ografie	-11.8353
uze	-11.8354
▁kolom	-11.8356
▁scherp	-11.8358
▁nek	-11.8358
kte	-11.8363
held	-11.8366
▁AT	-11.8366
▁zoons	-11.837
owski	-11.8373
▁signalen	-11.8373
▁Kath	-11.8374
▁BV	-11.8377
▁hevig	-11.8379
▁interacties	-11.838
force	-11.8382
pla	-11.8383
▁Arch	-11.8384
rel	-11.8385
operaties	-11.8388
▁MP	-11.8388
▁Historisch	-11.839
Net	-11.8394
winnaar	-11.8394
▁sectoren	-11.8396
▁Toe	-11.8397
▁elftal	-11.8398
▁Brun	-11.8399
lix	-11.8399
▁world	-11.8403
eeuws	-11.8405
▁bol	-11.8406
procedure	-11.8407
sessie	-11.8407
ood	-11.8407
veen	-11.8409
▁geografisch	-11.841
drie	-11.8411
▁tombe	-11.8412
▁Simpson	-11.8413
▁krachtiger	-11.8414
▁regimenten	-11.842
att	-11.8421
aja	-11.8421
vrijheid	-11.8422
▁kwantum	-11.8422
▁ontwerpers	-11.8424
CH	-11.8425
vrouwen	-11.8427
▁Gau	-11.8429
▁mu	-11.8431
acteur	-11.8434
kort	-11.8437
▁streefde	-11.8438
▁kwetsbaar	-11.844
▁plat	-11.8445
pil	-11.8447
neemt	-11.8448
rim	-11.8448
▁schaars	-11.8448
▁Straat	-11.8451
pand	-11.8452
Ste	-11.8454
▁Manu	-11.8455
▁improvisatie	-11.8463
▁Cambodja	-11.8467
rapport	-11.8469
▁sessies	-11.8472
factor	-11.8473
▁oogst	-11.8474
▁kruistocht	-11.8475
▁uitgangspunt	-11.8475
▁klacht	-11.8476
▁Ned	-11.8481
velden	-11.8486
isi	-11.8486
wetten	-11.8487
▁origine	-11.849
▁avontuur	-11.849
redacteur	-11.8492
▁Fr	-11.8493
▁fungeerde	-11.8493
persoon	-11.8493
▁fragment	-11.8495
yne	-11.8496
TM	-11.8497
nning	-11.8498
liefde	-11.8502
oppervlak	-11.8503
▁NV	-11.8504
oorspronkelijk	-11.8505
World	-11.8505
meestal	-11.8507
Sa	-11.8508
▁Nicaragua	-11.8508
▁Cyber	-11.8508
▁Claudius	-11.8509
▁Gibson	-11.8509
▁Perdiccas	-11.8509
▁Publishing	-11.8509
▁Stuttgart	-11.8509
▁Tacitus	-11.8509
▁Vriendschap	-11.8509
▁bezwaren	-11.8509
▁creëert	-11.8509
▁donderdag	-11.8509
▁evacueren	-11.8509
▁kortstondig	-11.8509
▁lijdt	-11.8509
▁ogenschijnlijk	-11.8509
▁postuum	-11.8509
▁reëel	-11.8509
▁unaniem	-11.8509
▁verhuizing	-11.8509
▁weerspiegelt	-11.8509
▁Archimedes	-11.8509
▁Bretagne	-11.8509
▁Inquiry	-11.8509
▁Voormalig	-11.8509
▁inbegrepen	-11.8509
▁hiphop	-11.8509
▁blootgesteld	-11.8509
▁geboekt	-11.8509
▁DDR	-11.8509
▁complot	-11.8509
▁Arnhem	-11.8509
▁Michiel	-11.8509
▁paramilitaire	-11.8509
▁Bolivia	-11.8509
▁opgegraven	-11.8509
▁belooft	-11.8509
▁Vichy	-11.8509
▁gameplay	-11.8509
▁traag	-11.8509
▁modernisering	-11.8509
▁Jakarta	-11.8509
▁dromen	-11.8509
▁parlementslid	-11.8509
▁Norris	-11.8509
▁Socrates	-11.8509
▁medio	-11.8509
▁Olympic	-11.8509
▁Montana	-11.851
▁helium	-11.851
▁Flora	-11.851
▁Margaretha	-11.851
▁tienduizend	-11.851
▁Own	-11.851
gn	-11.851
▁complexiteit	-11.851
▁roem	-11.851
▁Lorenzo	-11.851
▁weekblad	-11.851
▁Riley	-11.851
aantal	-11.851
▁geschillen	-11.851
Art	-11.851
▁Antarctica	-11.851
▁gekleed	-11.8511
korps	-11.8511
▁Philippine	-11.8511
▁Alpha	-11.8511
▁Aaron	-11.8511
▁Foster	-11.8511
ces	-11.8511
▁getaltheorie	-11.8511
▁Versie	-11.8512
▁Globe	-11.8512
▁geschoten	-11.8512
mission	-11.8512
▁Lotus	-11.8512
▁ramen	-11.8512
▁betrouwbaarheid	-11.8513
▁Lind	-11.8513
▁marteling	-11.8513
▁Gwen	-11.8513
▁zitplaatsen	-11.8514
▁Cody	-11.8514
▁genootschap	-11.8515
▁middenklasse	-11.8515
▁aanspraken	-11.8515
▁jouw	-11.8515
▁Other	-11.8515
stromen	-11.8516
▁Only	-11.8516
▁noordoostelijk	-11.8516
▁Ibn	-11.8516
▁Angelsaksische	-11.8517
▁Training	-11.8517
bak	-11.8518
sub	-11.8519
▁overdreven	-11.8519
▁Chileen	-11.852
▁Jackie	-11.852
▁AS	-11.8521
▁samenwerkte	-11.8522
▁Nacht	-11.8522
▁verdiensten	-11.8523
▁afwezig	-11.8524
vergelijkingen	-11.8524
▁interpretaties	-11.8524
▁reorganisatie	-11.8524
▁Claris	-11.8524
▁hemzelf	-11.8525
▁Cox	-11.8526
▁Lindsay	-11.8527
▁Rembrandt	-11.8527
▁Solomon	-11.8528
bekend	-11.8529
▁dwergen	-11.8529
▁rekenen	-11.853
▁lama	-11.853
▁formulering	-11.853
▁Clare	-11.8531
▁beantwoorden	-11.8531
▁q	-11.8531
▁batterij	-11.8531
▁Tech	-11.8532
▁hybride	-11.8533
icht	-11.8533
▁train	-11.8533
▁Think	-11.8533
▁Superman	-11.8533
▁pk	-11.8535
▁oefenen	-11.8535
▁opmerkingen	-11.8535
hut	-11.8538
▁Bath	-11.8538
▁gerechtelijk	-11.8539
▁Arm	-11.854
▁Belle	-11.8543
▁overvallen	-11.8545
▁aandoeningen	-11.8545
▁Cry	-11.8546
▁Olaf	-11.8547
▁Informatie	-11.8549
▁advertentie	-11.8549
▁Pub	-11.8551
▁Catalaanse	-11.8551
▁criminaliteit	-11.8552
site	-11.8554
▁vrijwillig	-11.8555
▁concurrenten	-11.8557
hield	-11.8558
▁kromme	-11.8561
▁Pad	-11.8561
vormige	-11.8562
ain	-11.8562
▁bestempeld	-11.8562
▁geleefd	-11.8564
▁Heaven	-11.8564
▁paviljoen	-11.8564
▁Easy	-11.8564
▁hospitaal	-11.8564
▁bepaling	-11.8565
▁geheten	-11.8566
▁gen	-11.8567
▁applicatie	-11.8568
▁boeddhisme	-11.8575
zaal	-11.8576
Dat	-11.8576
▁Wisconsin	-11.8576
gun	-11.8578
▁prof	-11.858
▁Sean	-11.8581
▁initië	-11.8581
hak	-11.8582
▁vertrouwde	-11.8583
▁Martina	-11.8584
iri	-11.8587
▁output	-11.8588
▁curator	-11.8588
haar	-11.8589
▁grand	-11.8592
ondernemingen	-11.8595
▁haast	-11.8597
mechanisme	-11.8598
▁huishoudens	-11.8598
▁download	-11.8601
▁galerij	-11.8601
burn	-11.8603
▁Noch	-11.8604
▁Prime	-11.8607
▁verkoopt	-11.8608
▁connecties	-11.8609
▁gereedschap	-11.8613
▁worstel	-11.8614
schrijvers	-11.8615
▁stormen	-11.8617
▁voorafgaande	-11.8619
▁erbij	-11.8623
▁Woods	-11.8623
▁melodie	-11.8623
fri	-11.8624
▁produceerden	-11.8625
▁moleculen	-11.8625
liet	-11.8625
shan	-11.863
▁worstelen	-11.8631
▁zones	-11.8631
▁Bang	-11.8632
▁verkeers	-11.8632
▁adviseurs	-11.8633
kal	-11.8635
vloed	-11.8635
haal	-11.8635
▁Sweet	-11.8639
▁heldere	-11.8642
▁wijken	-11.8644
▁noten	-11.8644
▁waardigheid	-11.8645
▁lab	-11.8649
▁socialisme	-11.865
doen	-11.8655
▁vertoonde	-11.8656
▁Bed	-11.8657
kri	-11.8659
▁eerlijk	-11.8659
avi	-11.8662
▁Core	-11.8664
▁Cent	-11.8664
zzi	-11.8667
▁stelsel	-11.8668
▁tieners	-11.867
▁Rat	-11.8672
▁Hits	-11.8675
▁paradox	-11.8676
▁Motors	-11.8677
▁bot	-11.8682
banden	-11.8691
▁Ah	-11.8693
▁Gene	-11.8696
uli	-11.8697
eck	-11.8698
deling	-11.8699
mol	-11.8699
▁verenigde	-11.8704
shin	-11.8704
▁Chu	-11.8706
▁blijvende	-11.8709
▁Vir	-11.8709
gui	-11.8709
▁sprong	-11.871
houder	-11.8713
dische	-11.8713
▁bestrijding	-11.8714
kit	-11.8715
▁Culture	-11.8715
ès	-11.8719
▁Alma	-11.8721
▁uitzonderingen	-11.8721
▁particulier	-11.8722
▁Student	-11.8722
▁orthodoxe	-11.8726
▁crash	-11.8727
name	-11.8729
▁Gallisch	-11.8732
agi	-11.8733
alse	-11.8733
plant	-11.8736
▁rustig	-11.8737
bed	-11.8738
▁stopt	-11.874
hel	-11.8744
▁voornaam	-11.8747
grond	-11.8748
▁national	-11.8749
▁CE	-11.8749
▁Constant	-11.8751
▁Ieder	-11.8753
▁anoniem	-11.8754
▁Eagle	-11.8755
▁Flash	-11.8755
kundige	-11.8758
▁sporten	-11.8768
▁Lucia	-11.877
▁Milo	-11.8773
▁gematigde	-11.8776
hold	-11.8776
une	-11.8777
ded	-11.8778
▁landde	-11.8778
▁indeling	-11.8779
▁gedrukte	-11.878
non	-11.8785
?'	-11.8786
motoren	-11.8786
▁kroniek	-11.8786
▁CC	-11.8788
▁AD	-11.8789
▁IJ	-11.8793
▁Sri	-11.8797
▁mega	-11.8798
▁Ming	-11.8798
pal	-11.8802
oer	-11.8803
▁verlaagd	-11.8803
▁beloofd	-11.8804
▁Benedict	-11.8806
▁List	-11.8806
▁honger	-11.8807
▁Mead	-11.8808
heren	-11.881
uck	-11.8816
▁play	-11.8817
cin	-11.8819
▁Dienst	-11.8819
iva	-11.882
▁Ark	-11.8822
TP	-11.8824
VS	-11.8825
Ba	-11.8828
▁danser	-11.8829
▁Revolution	-11.8832
▁Gua	-11.8835
▁klei	-11.8835
geloof	-11.8838
▁wetenschaps	-11.8839
▁vocale	-11.8839
standers	-11.8846
SW	-11.8846
▁aardgas	-11.8848
iba	-11.8849
▁MC	-11.885
rai	-11.885
▁stel	-11.8851
▁stadhouder	-11.8851
record	-11.8852
▁XI	-11.8852
▁toelating	-11.8852
▁oriëntatie	-11.8853
▁millennium	-11.8853
CENELEC	-11.8853
▁Afhankelijk	-11.8853
▁Antiochus	-11.8853
▁Boedapest	-11.8853
▁Henderson	-11.8853
▁Himalaya	-11.8853
▁Leibniz	-11.8853
▁Miguel	-11.8853
▁Montgomery	-11.8853
▁November	-11.8853
▁Professional	-11.8853
▁Return	-11.8853
▁Venezolaans	-11.8853
▁bemachtigen	-11.8853
▁definieerde	-11.8853
▁differentiaal	-11.8853
▁geformuleerd	-11.8853
▁gerekruteerd	-11.8853
▁kooplieden	-11.8853
▁reünie	-11.8853
▁sporadisch	-11.8853
▁vergiftigd	-11.8853
▁verschaffen	-11.8853
▁waarschuwen	-11.8853
▁Anderzijds	-11.8853
▁Toledo	-11.8853
▁onthullen	-11.8853
▁Mathematica	-11.8853
▁holomorf	-11.8853
▁onsuccesvol	-11.8853
▁Beieren	-11.8853
▁tevoren	-11.8854
▁Epirus	-11.8854
▁Private	-11.8854
▁minuut	-11.8854
▁scheppen	-11.8854
▁Uniface	-11.8854
▁blokkade	-11.8854
▁Beatrice	-11.8854
literatuur	-11.8854
▁Albanië	-11.8854
▁kastelen	-11.8854
▁Interactive	-11.8854
▁toevallig	-11.8854
▁Siena	-11.8854
▁blootstelling	-11.8854
▁Miranda	-11.8854
▁stress	-11.8854
▁Granada	-11.8854
▁Kenneth	-11.8854
▁Choice	-11.8854
▁trajectdeel	-11.8854
▁slaapkamer	-11.8854
▁Stadium	-11.8854
▁conservatief	-11.8854
▁Vietnamoorlog	-11.8854
▁Monaco	-11.8854
▁archeologen	-11.8854
▁Philippos	-11.8854
▁Index	-11.8854
▁Regering	-11.8854
telecommunicatie	-11.8855
▁Shelley	-11.8855
▁evaluatie	-11.8855
▁goedkoop	-11.8855
▁onderbreking	-11.8855
▁Wereldbank	-11.8855
▁elementaire	-11.8855
▁Fantastic	-11.8855
▁XIV	-11.8855
▁Tyson	-11.8855
▁ESF	-11.8855
▁dwang	-11.8855
▁Crime	-11.8855
▁bovenstaande	-11.8855
▁Salzburg	-11.8855
▁aantonen	-11.8855
▁Nissan	-11.8856
▁begaan	-11.8856
▁Princeton	-11.8856
▁bewijsmateriaal	-11.8856
▁XII	-11.8856
▁Poetin	-11.8856
▁gyre	-11.8856
▁Schmidt	-11.8856
▁Need	-11.8856
▁gespannen	-11.8856
schadevergoeding	-11.8857
tl	-11.8857
▁Fernando	-11.8857
ionen	-11.8858
▁Flying	-11.8858
▁proza	-11.8859
▁beheersen	-11.8859
▁inleiding	-11.886
tunnel	-11.886
▁buitenwereld	-11.886
monument	-11.8861
▁ITV	-11.8861
about	-11.8861
▁doos	-11.8861
Hongarije	-11.8862
▁ideologisch	-11.8862
▁Afgevaardigden	-11.8862
▁meent	-11.8863
gehele	-11.8863
adviseur	-11.8863
▁bacteriën	-11.8864
▁Wave	-11.8865
▁instituties	-11.8865
▁Mix	-11.8865
kleding	-11.8868
▁Rick	-11.8869
▁your	-11.887
track	-11.8872
▁Spelers	-11.8873
▁Sloveens	-11.8873
▁Sullivan	-11.8873
▁Gouverneur	-11.8873
▁gemonteerd	-11.8873
▁opzettelijk	-11.8873
▁Half	-11.8875
▁Test	-11.8875
sprijs	-11.8877
▁zestiende	-11.8877
uitzendingen	-11.8878
▁Locke	-11.8878
▁vj	-11.8878
▁fortificaties	-11.8879
▁hoorn	-11.8879
▁psychische	-11.888
▁driehoek	-11.888
▁tolerantie	-11.888
▁intellectuelen	-11.8881
▁vondsten	-11.8881
boven	-11.8882
▁aantekeningen	-11.8882
Deze	-11.8883
▁Zulk	-11.8884
tier	-11.8884
rique	-11.8885
▁Göttingen	-11.8885
▁Sumatra	-11.8885
christelijke	-11.8886
yama	-11.8887
emann	-11.8889
▁Verre	-11.889
▁Tempel	-11.8891
▁daaraan	-11.8892
▁Maps	-11.8893
▁"...	-11.8893
rice	-11.8893
▁besteden	-11.8895
ieve	-11.8895
▁stelen	-11.8897
▁lichamelijke	-11.8897
▁agenda	-11.8898
▁sociologie	-11.8898
hua	-11.8898
▁Sisters	-11.8899
▁elfde	-11.89
AT	-11.8901
▁Pass	-11.8901
horizontale	-11.8901
▁vulkanische	-11.8903
▁Mainz	-11.8904
▁prachtige	-11.8905
sei	-11.8905
ore	-11.8908
matig	-11.891
▁coöperatie	-11.8911
▁parodie	-11.8911
▁miniserie	-11.8912
▁opbouwen	-11.8914
CE	-11.8916
CI	-11.8918
▁overschot	-11.8918
▁Track	-11.8918
▁Mongolië	-11.8923
genre	-11.8924
Di	-11.8925
rou	-11.8928
▁Tat	-11.8929
▁docenten	-11.8929
▁Oak	-11.8932
▁Minor	-11.8933
▁beschavingen	-11.8934
▁regelde	-11.8934
▁schijf	-11.8935
afstand	-11.8936
▁CP	-11.8936
▁temperaturen	-11.8936
▁zwemmen	-11.8936
▁Compa	-11.8937
▁oor	-11.8938
▁red	-11.8938
▁verdachten	-11.8939
▁Match	-11.8939
▁Stop	-11.8942
▁langst	-11.8943
▁Mozarts	-11.8943
▁Franken	-11.8944
▁hou	-11.8944
cas	-11.8949
▁komedie	-11.8949
▁Eyes	-11.8949
optredens	-11.8951
▁Rey	-11.8951
▁Rand	-11.8952
▁interface	-11.8954
▁Kiss	-11.8955
▁trap	-11.8956
▁batterijen	-11.8957
sum	-11.896
laat	-11.8961
▁expliciete	-11.8962
rem	-11.8963
▁Mak	-11.8969
cht	-11.8972
▁Fry	-11.8972
▁recreatie	-11.8974
organ	-11.8976
▁Springs	-11.8977
tig	-11.8977
▁Thebe	-11.8978
▁Vertegenwoordig	-11.8979
ON	-11.8984
rod	-11.8988
stadion	-11.8989
▁bussen	-11.899
▁riepen	-11.8992
▁Kunsten	-11.8994
▁Silva	-11.8995
▁check	-11.8996
▁bondgenootschap	-11.8999
▁fysica	-11.8999
▁Jet	-11.8999
▁Brain	-11.9001
▁plaatst	-11.9001
▁bloem	-11.9002
▁ban	-11.9002
▁vind	-11.9006
▁Medici	-11.9006
▁verwelkomd	-11.9007
▁omsingeld	-11.9009
▁Financi	-11.9011
▁Maya	-11.9014
▁Dai	-11.9018
▁prinsen	-11.902
▁Physic	-11.9025
▁tracht	-11.9027
▁stoel	-11.9027
▁tweeling	-11.9028
dem	-11.9029
mmel	-11.9031
It	-11.9035
▁Nga	-11.9036
▁plande	-11.9039
▁charter	-11.9041
own	-11.9042
▁Reichs	-11.9043
▁‘’	-11.9045
▁Bron	-11.9047
▁Swa	-11.9051
▁Kant	-11.9054
Ch	-11.9055
▁reist	-11.9056
AV	-11.9062
state	-11.9065
▁Leone	-11.9065
rail	-11.9071
▁toevoegen	-11.9074
nov	-11.9075
▁Ronde	-11.9075
▁empirische	-11.9075
▁vereisten	-11.9078
▁hydro	-11.9082
tions	-11.9083
sme	-11.9088
▁Gang	-11.9093
▁gehoor	-11.9096
▁Wig	-11.9097
hom	-11.9102
▁onvermijdelijk	-11.9108
tsj	-11.9111
▁significant	-11.9112
▁primair	-11.9113
▁radiozender	-11.9113
▁literair	-11.9113
▁goedkoper	-11.9115
▁Industrie	-11.9116
▁betoog	-11.9116
▁sc	-11.9116
▁Ace	-11.9117
▁Mik	-11.9117
▁huishouden	-11.9119
▁verrichtte	-11.9119
▁up	-11.9119
gebouwde	-11.9124
▁Talk	-11.9124
song	-11.9125
illo	-11.9125
AE	-11.9132
▁Eye	-11.9133
service	-11.9134
website	-11.9135
shu	-11.9135
▁AR	-11.9135
beurs	-11.9136
▁Nine	-11.9139
bracht	-11.914
principe	-11.9142
▁kusten	-11.9144
▁Jeanne	-11.9144
taire	-11.9146
▁sl	-11.9147
Hu	-11.9147
stadt	-11.9151
▁burgerrechten	-11.9152
▁roep	-11.9153
▁inlichtingen	-11.9155
▁Quartet	-11.9156
▁Mai	-11.9158
para	-11.9159
▁Arn	-11.916
▁order	-11.9164
▁raden	-11.9165
▁reg	-11.9165
▁intense	-11.917
▁heersend	-11.917
▁onbe	-11.9171
▁sets	-11.9171
dieren	-11.9173
▁massal	-11.9177
▁tand	-11.9177
▁olifant	-11.9178
TC	-11.9179
▁feestdag	-11.9179
▁gerucht	-11.9179
▁basisschool	-11.918
ride	-11.9183
▁Canon	-11.9184
▁verplichte	-11.9188
▁Jos	-11.9192
ça	-11.9193
▁Player	-11.9193
▁waardevol	-11.9194
ervaring	-11.9194
▁Loo	-11.9194
igen	-11.9195
▁woud	-11.92
lex	-11.9202
phy	-11.9202
grepen	-11.9204
▁oefende	-11.9205
▁Living	-11.9206
▁verwachtte	-11.9206
▁EC	-11.9208
▁Zwart	-11.9209
▁Familie	-11.9209
▁symfonie	-11.9209
▁Ridder	-11.921
▁Antiochië	-11.9211
▁Aragón	-11.9211
▁Ebony	-11.9211
▁Eumenes	-11.9211
▁Harvey	-11.9211
▁Ibrahim	-11.9211
▁Mississippi	-11.9211
▁Nicholas	-11.9211
▁Philosophy	-11.9211
▁Quebec	-11.9211
▁SmackDown	-11.9211
▁Timoleon	-11.9211
▁dictatuur	-11.9211
▁excuses	-11.9211
▁fungeert	-11.9211
▁geannexeerd	-11.9211
▁gezorgd	-11.9211
▁geïmporteerd	-11.9211
▁kapittel	-11.9211
▁marktaandeel	-11.9211
▁overwonnen	-11.9211
▁realiseert	-11.9211
▁uitoefenen	-11.9211
▁vulkanen	-11.9211
▁wijdverbreid	-11.9211
▁Xavier	-11.9211
▁exponent	-11.9211
▁openbaring	-11.9211
▁perceptie	-11.9211
▁Avengers	-11.9211
▁arresteren	-11.9211
▁kapitalisme	-11.9211
▁meldt	-11.9211
▁voldaan	-11.9211
▁Enschede	-11.9211
▁genereren	-11.9211
▁county	-11.9211
▁westkust	-11.9211
▁Hopkins	-11.9211
▁indertijd	-11.9211
▁Jarrah	-11.9211
▁Murphy	-11.9211
▁Putnam	-11.9211
▁Jakob	-11.9211
▁Policy	-11.9211
▁blokkeren	-11.9211
▁grondwettelijk	-11.9211
▁Andorra	-11.9211
▁Fermat	-11.9211
▁Eilanden	-11.9211
▁wolven	-11.9211
▁bezwaar	-11.9211
▁Byron	-11.9211
▁tumor	-11.9211
▁enerzijds	-11.9211
▁zaden	-11.9211
▁minnaar	-11.9211
▁Kaiser	-11.9211
▁exotisch	-11.9211
▁Bonaparte	-11.9211
▁María	-11.9211
▁Bosnisch	-11.9211
▁Hoorn	-11.9211
▁asiel	-11.9211
▁CNN	-11.9212
▁Kenny	-11.9212
▁Dirk	-11.9212
▁wijsheid	-11.9212
▁Dmitri	-11.9212
▁Logan	-11.9213
quet	-11.9213
▁Highway	-11.9213
hall	-11.9213
▁Habsburgse	-11.9213
handelaar	-11.9213
▁Princess	-11.9213
▁verantwoording	-11.9214
▁gemak	-11.9214
▁kubus	-11.9214
▁bevordert	-11.9214
▁IPF	-11.9214
▁dichtbij	-11.9214
▁Wasp	-11.9214
▁fles	-11.9215
▁Hayes	-11.9215
▁kerkhof	-11.9215
pac	-11.9215
▁volkstelling	-11.9215
▁PSP	-11.9215
▁verdediger	-11.9216
▁Tyler	-11.9216
ène	-11.9217
▁meneer	-11.9217
▁Bernhard	-11.9217
▁Geest	-11.9218
kwartier	-11.9218
▁cruciaal	-11.9219
▁thans	-11.9219
▁Twente	-11.922
leggen	-11.922
raket	-11.922
▁volwaardig	-11.9221
▁sloop	-11.9222
leur	-11.9224
secretaris	-11.9224
groot	-11.9224
▁Rise	-11.9225
▁Haags	-11.9227
▁McG	-11.9227
▁omschrijft	-11.9228
gebergte	-11.9228
▁achteruit	-11.9229
▁Singh	-11.9229
▁Robertson	-11.923
mba	-11.923
▁multinational	-11.923
▁crimineel	-11.9231
▁Algemeen	-11.9231
▁Campaign	-11.9231
▁Senegal	-11.9231
▁primitieve	-11.9231
circuit	-11.9231
▁aanviel	-11.9231
lidstaten	-11.9232
▁Noords	-11.9233
kus	-11.9234
▁bonus	-11.9236
ough	-11.9236
echt	-11.9236
oto	-11.9237
status	-11.9237
Land	-11.9239
▁Object	-11.9243
▁Yellow	-11.9243
▁Hawk	-11.9244
▁Normandische	-11.9244
▁archeologie	-11.9244
▁solidariteit	-11.9244
▁BASIC	-11.9244
▁aanvraag	-11.9245
▁Discovery	-11.9246
▁veertiende	-11.9246
▁engelen	-11.9246
▁Perth	-11.9246
▁doorgebracht	-11.9246
▁Hess	-11.9247
▁stroomt	-11.925
?”	-11.9253
▁Duke	-11.9254
▁Than	-11.9254
▁schetst	-11.9256
ania	-11.9256
▁Jennifer	-11.9257
▁koepel	-11.9257
▁power	-11.9257
▁aanhang	-11.9257
EF	-11.9259
▁uitbarstingen	-11.9259
missies	-11.926
Fi	-11.9261
▁geestelijken	-11.9261
▁wijden	-11.9261
▁opgegeven	-11.9261
schilder	-11.9263
moeder	-11.9264
▁keerpunt	-11.9264
▁eet	-11.9268
BD	-11.9268
ender	-11.9269
▁treffen	-11.927
▁Mauritanië	-11.927
▁Siberië	-11.927
▁Oregon	-11.927
▁Bataafs	-11.927
▁Pictures	-11.9272
enne	-11.9272
datum	-11.9272
▁respons	-11.9275
hara	-11.9275
▁besefte	-11.9276
▁geschenk	-11.9276
▁Ars	-11.9278
illy	-11.9282
▁Frey	-11.9283
▁klokken	-11.9284
▁Drive	-11.9286
▁staatshoofd	-11.9286
▁Aba	-11.9288
▁bewuste	-11.9289
▁bin	-11.9295
▁rijen	-11.9297
stoffen	-11.93
grens	-11.93
bia	-11.9301
▁Bag	-11.9304
▁love	-11.9305
▁doneerde	-11.9306
▁Boe	-11.9307
▁Sher	-11.9307
▁Dé	-11.9309
▁tracé	-11.9309
▁Earl	-11.931
nel	-11.931
▁puzzel	-11.9311
▁botten	-11.9311
▁theoretisch	-11.9312
entie	-11.9313
▁Links	-11.9314
get	-11.9314
▁fotografisch	-11.9315
▁schilderkunst	-11.9319
▁Flag	-11.932
▁UN	-11.9324
▁stopten	-11.9324
▁Fen	-11.9326
[...]
