▁the	181265
.	152294
,	145504
▁	111796
▁of	102726
▁and	79487
▁in	72284
1	68915
▁to	60441
0	58361
▁a	55066
s	48082
9	42209
▁was	40759
2	37323
▁The	31801
▁is	26666
-	26008
▁for	23393
'	21328
▁by	20898
▁as	20812
▁on	20034
8	19619
▁with	19432
▁that	19002
▁(	18595
5	18114
3	17088
▁his	16953
▁In	16941
7	16295
6	16246
▁he	15531
4	15490
▁"	14427
▁from	13132
ing	13010
▁at	11823
▁were	11721
▁an	10374
)	9594
▁are	9086
▁He	8963
▁which	8724
▁be	8713
▁had	8703
▁it	8418
▁also	8398
ed	8122
"	8088
▁first	7251
▁not	7128
:	6839
▁has	6803
▁this	6342
▁but	6298
▁or	6157
▁her	6014
▁their	5986
e	5985
▁one	5565
▁A	5455
▁have	5346
▁It	5279
▁been	5156
).	5059
▁who	5009
▁its	4946
▁they	4599
▁two	4539
▁she	4498
▁after	4052
▁other	4049
▁time	3933
d	3913
▁This	3884
▁years	3844
a	3710
▁all	3678
▁more	3678
ly	3586
),	3489
▁would	3463
▁between	3354
▁only	3337
▁new	3321
▁into	3315
▁On	3313
▁him	3303
".	3289
th	3237
▁about	3172
t	3154
▁I	3121
▁later	3090
▁became	3052
▁de	3043
▁can	2983
▁most	2940
▁where	2872
y	2870
▁than	2845
▁when	2829
▁over	2780
▁work	2779
▁used	2760
▁She	2708
;	2705
▁there	2697
▁known	2681
▁made	2579
al	2561
▁part	2554
er	2553
▁many	2544
▁during	2543
."	2542
▁After	2537
▁year	2510
▁name	2505
▁such	2472
o	2462
▁under	2458
▁some	2456
▁His	2435
▁then	2391
▁three	2391
n	2356
▁up	2281
▁no	2275
▁them	2177
▁people	2164
–	2112
▁out	2083
▁until	2052
i	2041
▁these	1990
▁same	1979
▁called	1974
▁several	1920
▁well	1906
▁number	1871
▁United	1855
▁both	1847
▁group	1846
▁They	1836
▁published	1820
▁New	1797
▁At	1773
▁so	1771
▁could	1770
▁As	1765
▁before	1764
▁because	1755
▁began	1743
▁released	1738
▁against	1738
▁will	1705
/	1703
▁second	1703
▁European	1693
▁world	1680
▁World	1671
▁own	1664
▁city	1653
▁'	1641
▁century	1638
▁Dutch	1635
▁through	1626
▁did	1626
in	1624
▁including	1619
en	1600
▁Dur	1595
▁De	1576
▁series	1575
▁since	1574
▁early	1570
▁being	1565
▁S	1548
took	1546
▁government	1537
▁May	1524
▁album	1518
▁French	1517
▁end	1502
▁life	1495
▁use	1485
l	1479
S	1476
▁War	1476
▁film	1474
▁family	1471
▁American	1444
▁found	1432
%	1431
▁company	1408
▁States	1407
▁four	1393
▁death	1393
▁–	1392
es	1382
▁still	1379
▁There	1376
▁E	1375
▁music	1367
▁March	1351
▁last	1349
▁now	1348
▁place	1335
▁may	1332
▁father	1326
▁From	1325
▁German	1323
▁September	1321
▁while	1321
▁British	1307
▁band	1306
▁However	1305
▁June	1302
▁book	1300
▁October	1300
▁left	1296
▁November	1291
▁For	1286
▁named	1284
ic	1273
▁April	1270
▁January	1264
▁around	1256
▁very	1256
▁Europe	1255
▁died	1252
▁any	1247
▁often	1243
▁war	1234
▁played	1233
▁important	1227
▁built	1222
▁July	1211
▁December	1204
▁system	1200
▁C	1197
▁worked	1195
▁wrote	1192
▁August	1191
▁founded	1176
▁large	1168
’	1161
▁started	1161
an	1159
▁received	1157
▁said	1155
▁area	1155
▁period	1155
m	1151
the	1150
▁members	1146
▁each	1143
▁When	1143
▁again	1135
▁member	1133
▁different	1131
▁back	1128
on	1127
▁if	1125
▁political	1124
▁led	1122
us	1119
r	1113
▁van	1109
▁based	1108
▁Netherlands	1097
▁like	1095
▁high	1095
▁day	1094
A	1093
▁University	1092
▁II	1089
▁held	1080
▁won	1077
▁February	1066
▁came	1056
▁do	1055
▁much	1053
▁public	1048
▁small	1043
▁what	1042
▁set	1041
▁long	1040
▁U	1036
▁works	1033
▁son	1031
▁version	1031
st	1028
▁One	1026
▁major	1020
▁returned	1020
▁France	1017
▁international	1012
▁support	1007
▁state	1006
▁military	1005
▁few	1004
▁local	1002
▁role	999
▁moved	995
▁B	993
▁National	991
▁five	990
▁John	990
▁children	987
▁D	985
▁national	984
▁even	982
or	971
I	971
▁main	970
▁country	964
▁history	964
▁By	960
▁following	956
▁written	952
▁another	952
▁million	950
▁International	948
▁become	946
The	942
▁form	939
▁single	939
▁production	939
▁re	937
▁men	932
▁among	930
▁Since	923
▁produced	922
▁order	921
▁original	912
▁York	911
▁himself	911
▁women	910
▁those	908
▁development	907
▁way	907
▁These	905
▁however	904
▁within	904
▁According	894
▁P	893
▁T	891
▁established	888
▁various	886
▁team	886
▁countries	884
▁result	883
▁best	880
c	879
▁power	877
▁given	874
▁school	871
")	869
▁third	869
▁developed	869
▁example	867
▁former	862
▁days	858
▁you	858
▁late	856
▁London	855
▁together	853
▁appeared	853
▁married	850
▁army	849
▁show	846
▁age	842
▁considered	841
▁building	840
▁non	839
▁created	838
▁Germany	836
▁never	834
▁South	833
▁project	833
▁without	832
▁research	829
▁make	828
▁due	827
▁sent	823
▁&	814
▁un	814
▁home	812
▁Her	809
▁old	809
▁song	807
▁went	803
▁game	799
▁With	795
▁next	792
▁An	791
▁O	789
▁announced	786
▁take	784
▁social	779
▁should	777
▁M	775
▁All	773
▁groups	773
▁theory	765
▁continued	763
▁we	763
man	762
▁house	754
▁six	754
▁times	754
▁Union	752
▁La	752
▁man	751
▁general	749
▁great	747
▁Paris	747
▁months	745
▁formed	739
▁North	737
▁remained	736
▁title	735
▁Russian	732
▁human	728
▁followed	726
▁town	725
▁help	721
▁To	720
▁co	720
▁further	720
▁Council	720
▁just	716
▁English	716
re	715
▁mother	714
▁population	714
▁City	713
▁language	713
▁wife	707
▁decided	706
u	705
▁region	703
▁Van	701
▁along	697
▁L	696
▁career	695
▁working	693
▁modern	691
▁born	689
▁lost	686
▁Although	685
▁recorded	684
▁described	684
▁near	683
▁Some	683
C	676
▁study	676
▁taken	674
▁every	674
h	673
▁R	672
▁young	670
▁line	669
▁position	668
▁F	668
gave	666
▁art	666
▁("	665
to	665
▁sold	658
▁King	658
▁how	658
▁Roman	658
▁largest	657
▁short	654
▁included	652
▁possible	651
▁service	650
▁control	647
▁G	646
as	645
▁Italian	644
▁killed	642
▁return	639
▁law	638
▁others	637
—	636
▁must	635
▁opened	635
▁K	634
able	633
▁forces	632
▁does	632
▁V	632
▁Amsterdam	632
▁right	629
▁seen	628
▁joined	628
▁General	628
▁give	627
spite	625
▁introduced	625
▁economic	624
▁term	623
▁books	623
▁God	621
▁rights	620
▁although	620
▁water	620
▁West	619
▁brother	619
▁season	618
▁half	617
▁similar	614
▁television	613
▁down	611
▁information	610
▁play	610
▁point	610
▁served	610
▁director	609
▁President	609
▁America	607
▁program	607
▁final	604
▁success	604
▁less	604
▁H	604
▁especially	603
▁J	602
?	600
▁total	600
▁president	600
▁using	599
▁official	598
▁party	597
g	596
▁almost	596
is	595
▁full	591
▁present	591
k	589
z	589
▁St	589
▁free	588
▁live	588
▁able	587
▁replaced	586
!	586
▁East	582
▁Africa	581
▁performed	580
▁popular	579
▁already	579
▁model	578
▁N	578
▁consist	578
▁king	576
▁church	576
▁appointed	575
▁attack	575
▁Republic	574
▁good	574
▁met	573
▁designed	572
▁Party	570
▁collection	570
▁Minister	570
▁design	569
▁addition	568
▁capital	566
▁off	566
▁lived	564
um	564
▁record	563
▁case	563
▁eventually	561
▁least	560
▁US	560
▁Royal	560
▁No	559
▁states	559
▁start	559
▁provide	558
▁Society	558
ers	558
▁station	557
▁land	556
▁construction	555
▁located	555
▁Japan	554
▁ships	554
B	552
▁available	551
▁changed	549
▁Army	548
D	547
▁Many	546
▁island	542
▁Whil	541
▁Rome	541
▁market	540
▁England	539
▁involved	539
ve	537
▁d	537
▁beginning	537
▁style	535
▁Belgian	534
▁successful	532
having	531
▁my	530
▁soon	529
▁battle	528
▁troops	528
▁originally	527
year	527
▁story	523
▁though	521
▁areas	520
T	520
▁special	519
▁Soviet	517
▁Spanish	516
▁once	516
▁Al	516
▁open	514
▁House	513
▁Japanese	512
▁toward	511
▁include	509
▁force	508
▁Christian	508
▁ship	507
▁campaign	507
▁business	505
▁influence	504
▁Greek	504
▁movement	504
de	504
▁signed	503
▁studied	502
▁trade	502
▁field	501
▁head	501
▁common	500
▁probably	500
▁too	498
▁Belgium	498
▁space	498
▁Italy	497
▁religious	496
el	495
ach	495
▁Le	493
▁daughter	492
▁active	492
▁radio	491
▁traditional	491
▁per	491
b	489
▁Russia	487
▁Later	486
▁means	485
▁car	485
▁itself	484
▁David	483
ation	483
▁real	482
▁W	482
le	482
▁Museum	480
usually	480
▁discovered	479
▁side	479
▁parts	476
▁video	475
▁State	475
▁stated	473
▁community	473
▁Paul	471
▁body	470
▁fact	470
▁organization	469
▁interest	468
▁We	468
▁species	468
▁events	467
P	467
▁character	467
▁club	466
▁$	465
▁outside	464
▁brought	463
▁Records	461
▁William	461
▁independent	461
ism	461
▁Me	460
▁thought	460
▁Chinese	459
▁strong	458
▁culture	458
▁Most	458
▁go	458
▁throughout	457
▁class	457
▁Two	457
▁change	456
▁whom	455
▁me	455
▁data	455
ia	454
▁put	454
▁famous	454
▁natural	454
▁Western	454
▁police	453
▁asked	453
▁reached	453
▁Great	453
▁close	453
▁our	453
▁You	453
▁release	453
▁money	452
▁particular	452
▁systems	451
▁rather	451
▁allowed	451
▁China	451
▁songs	450
▁seven	450
▁responsible	450
▁education	450
▁cities	449
▁process	449
▁night	449
▁That	449
▁If	448
▁certain	448
ist	447
▁private	447
▁companies	447
▁friend	446
▁Group	446
▁see	446
▁themselves	444
▁sometimes	444
▁Robert	444
▁policy	443
p	443
▁saw	442
▁society	442
▁But	442
▁find	440
▁School	440
▁come	439
▁Institute	439
▁awarded	438
▁Kingdom	438
▁peace	437
▁current	436
▁problems	436
▁site	435
▁Latin	435
▁Association	434
▁activities	434
▁la	433
mainly	432
▁magazine	432
▁hand	431
▁Jewish	431
▁little	431
▁court	431
▁“	430
▁presented	430
▁scientific	430
▁summer	429
▁longer	429
▁Park	427
▁upon	426
▁First	426
▁thus	425
▁entire	425
▁village	425
▁fire	425
▁always	425
▁services	424
▁Both	423
▁Between	423
and	422
▁San	422
▁Spain	422
te	422
▁Battle	421
▁ten	421
▁instead	420
▁eight	420
▁students	419
▁numbers	418
▁making	418
▁industry	418
▁far	417
▁woman	416
▁Charles	416
▁Their	415
ian	415
▁level	415
▁soldiers	414
▁completed	414
▁spent	414
▁Man	413
▁reported	413
▁attempt	412
▁aircraft	411
▁financial	411
▁earlier	411
▁Air	410
▁north	409
▁person	409
forced	408
▁living	408
G	407
▁X	407
▁leader	407
▁central	407
▁clear	407
▁relationship	406
M	406
▁love	405
▁science	405
▁personal	404
E	404
ar	404
▁BC	403
▁complete	403
▁Award	402
▁away	402
ion	402
▁studies	402
▁south	401
▁wanted	401
▁provided	401
▁today	400
▁rest	399
▁either	398
▁particularly	397
▁sources	397
▁George	397
▁training	396
▁media	396
▁Company	396
▁plan	395
▁Peter	395
▁shows	394
▁cultural	394
▁debut	394
▁future	393
▁III	393
▁tour	393
▁significant	392
▁travel	392
▁believed	392
▁husband	392
▁launched	391
▁added	391
▁office	391
up	390
▁Swedish	390
▁Its	389
▁friends	389
▁names	388
▁Music	387
H	387
▁African	387
▁light	386
▁evidence	386
▁supported	386
x	386
▁Church	386
▁idea	386
F	385
▁m	385
▁Jan	383
▁arrived	383
▁contains	382
▁lead	382
▁TV	381
K	381
▁museum	380
▁therefore	380
f	380
▁event	380
▁foreign	380
▁der	380
▁elected	379
▁ever	379
▁anti	378
▁post	378
▁previous	377
▁label	377
▁El	376
▁food	376
▁Other	375
▁Red	375
▁ended	375
▁destroyed	375
▁child	375
▁word	374
▁films	374
▁center	374
▁get	374
▁James	373
▁better	373
▁leading	373
▁en	373
land	372
▁complex	370
ta	370
▁air	370
▁player	370
▁Because	369
▁whole	369
▁Brussels	367
▁studio	366
▁Dr	365
▁Earth	365
▁nature	364
▁source	364
▁via	363
▁novel	363
▁Second	362
▁structure	362
▁artists	362
▁whose	361
▁performance	361
▁Central	361
ne	361
▁River	360
▁action	360
▁mid	360
▁takes	359
▁standard	358
old	358
▁closed	358
▁claimed	357
▁Canada	357
▁function	357
▁Sea	356
▁generally	356
est	355
▁top	355
▁UK	355
▁referred	354
▁writing	353
▁Foundation	353
▁Un	353
▁parents	353
▁according	353
▁historical	353
▁km	353
▁subject	352
▁placed	351
▁told	351
at	351
▁Radio	350
▁higher	350
▁Empire	350
▁increased	349
▁Black	349
▁conflict	349
▁officially	348
R	348
▁low	348
▁My	347
▁caused	347
▁command	347
▁Center	345
co	345
▁legal	345
▁projects	345
▁leave	345
▁network	345
é	345
▁Committee	344
▁initially	344
▁commercial	344
▁edition	344
na	344
▁forms	343
▁type	343
▁across	342
▁knowledge	342
▁text	342
▁carried	341
▁meeting	340
▁need	340
▁date	339
it	339
▁India	339
▁energy	339
▁Britain	338
▁mentioned	338
▁appears	337
▁whether	337
O	337
▁run	336
ity	336
▁remains	336
L	336
▁proposed	335
▁Commission	335
▁finally	335
▁terms	335
▁self	334
▁And	334
▁Berlin	333
▁website	333
▁report	333
▁professional	333
▁elements	333
▁letter	333
▁features	332
▁southern	332
▁So	331
▁ordered	331
▁hit	331
▁Another	330
▁musical	330
▁Congress	330
ra	330
ch	329
▁Also	329
▁Philip	329
▁Re	329
▁marriage	329
▁lives	328
▁separate	328
▁got	328
▁numerous	328
▁attention	328
▁Follow	328
▁Catholic	328
▁failed	328
▁managed	327
out	327
▁artist	326
▁fleet	326
▁turn	325
▁adopted	325
▁author	325
▁concept	325
▁related	324
▁owned	323
▁buildings	323
▁quickly	323
la	322
▁associat	322
▁location	322
son	322
▁board	322
▁Australia	321
▁featured	321
et	320
▁Sweden	320
▁Parliament	320
▁pre	320
▁tried	320
▁directed	320
▁list	319
▁basis	319
▁know	319
▁value	319
▁issues	318
▁Richard	318
▁view	316
▁individual	316
▁mostly	316
▁material	315
▁al	315
▁turned	315
▁Michael	314
ca	314
▁Jean	314
▁health	314
▁ancient	314
▁previously	313
▁languages	313
▁Nations	313
▁includes	312
▁College	312
▁camp	311
▁Thomas	311
▁visited	311
▁status	310
ton	310
▁hours	310
▁centre	310
▁results	310
▁stage	310
▁weeks	310
▁Day	309
▁done	309
nearly	308
▁rule	308
▁points	307
▁behind	307
▁race	306
▁intended	305
▁authorities	305
▁League	305
▁finished	304
▁What	304
▁territory	303
▁park	303
▁currently	303
▁fourth	302
▁range	302
▁problem	302
▁effect	302
▁albums	301
▁competition	301
▁northern	301
▁create	301
▁enough	301
▁grew	301
▁contract	300
▁agreement	300
▁gold	300
▁rock	300
▁cases	300
▁required	299
▁Alexander	298
▁accepted	298
▁refused	298
▁Research	297
▁sister	297
▁security	297
▁economy	297
▁majority	297
▁front	297
▁products	297
ary	297
ie	296
one	296
▁larger	296
▁things	296
▁situation	296
▁above	296
▁organized	295
approximately	295
▁captured	295
▁Grand	295
▁past	294
▁models	294
▁Asia	294
ka	294
like	294
based	293
▁coast	293
ma	293
▁operations	292
▁medical	292
▁uses	292
▁changes	291
▁Love	291
▁offered	291
▁words	291
▁Prince	291
▁immediately	290
▁section	290
time	289
▁sea	289
▁lack	289
▁producer	289
▁completely	289
▁deal	289
▁might	288
▁appear	288
▁White	288
▁operation	287
▁Henry	287
▁difficult	287
▁claims	287
se	287
ive	287
▁playing	287
▁oil	287
▁writer	286
▁Court	286
▁royal	286
▁management	286
▁Academy	285
day	285
▁arrested	284
▁religion	284
▁succeeded	284
▁Festival	284
▁computer	284
▁claim	283
less	283
▁acquired	283
▁experience	283
▁regard	283
▁helped	282
▁route	282
▁freedom	282
▁Egypt	282
▁largely	282
▁declared	282
W	281
▁smaller	281
▁remain	281
▁People	281
ial	281
▁composed	280
▁concert	280
▁black	280
▁reason	279
ry	279
▁elections	279
▁taking	279
▁regional	279
▁singer	279
▁move	278
▁Polish	278
▁Art	278
▁California	278
▁technology	277
▁older	277
▁Canadian	277
▁border	277
▁relations	277
▁student	277
▁course	276
▁des	276
▁shown	276
▁civil	276
▁episode	276
▁mission	276
▁Saint	276
▁election	276
▁road	275
▁units	275
nd	275
▁limited	275
von	275
▁division	275
▁direct	275
▁dance	275
▁Z	275
▁becomes	275
▁contain	274
▁families	274
▁letters	274
▁true	274
▁primary	274
▁philosophy	274
▁Co	274
▁practice	273
▁independence	273
▁Over	273
N	273
▁cause	273
▁Cup	272
▁Los	272
▁c	272
▁attended	271
▁award	271
▁divided	271
▁likely	271
▁annual	270
▁High	270
▁Club	270
▁entered	269
▁houses	269
▁engine	269
▁ideas	269
(	269
▁Book	269
▁participated	269
▁month	269
▁software	268
▁Ireland	268
ten	268
▁Middle	268
▁Of	268
by	268
il	267
▁planned	267
▁agreed	267
▁believe	267
▁additional	266
▁Championship	266
▁oldest	266
▁powerful	266
▁recording	266
▁‘	266
▁female	266
▁paper	266
▁plans	265
▁Lord	265
▁brothers	265
▁code	265
▁Only	264
▁specific	264
▁schools	264
▁Don	264
▁Is	264
▁castle	264
▁Street	264
▁Queen	264
ine	263
▁river	263
▁BBC	263
no	263
▁base	263
▁Three	263
▁bought	263
▁lines	263
▁Louis	262
da	262
▁parties	262
▁cannot	262
▁decision	261
▁treatment	261
▁access	261
▁focus	261
▁Indian	261
▁Like	260
▁defined	260
ness	260
▁Israel	260
influenced	260
▁Smith	259
▁unit	259
ment	259
▁centuries	258
▁product	258
▁Sever	258
▁directly	258
▁—	258
▁victory	258
▁conditions	257
▁Island	257
▁proved	257
▁cost	257
▁recent	257
▁physical	256
▁prison	256
▁newspaper	256
▁movie	256
▁dead	255
▁needed	255
▁continue	255
▁p	255
▁literature	255
▁foundation	255
▁existence	255
▁act	255
▁news	254
▁Hall	254
w	254
▁university	254
▁kept	254
▁stories	254
▁industrial	254
▁represented	254
▁western	254
▁conducted	254
▁EU	254
▁Up	253
▁games	253
▁widely	253
os	252
▁activity	252
▁functions	252
▁size	252
▁players	252
▁versions	252
▁inspired	252
▁pay	252
▁remaining	251
▁here	251
▁bring	251
▁cover	251
▁football	250
▁makes	250
▁dedicated	250
▁key	250
▁increase	250
▁Prize	250
▁Bank	249
▁animals	249
ro	249
▁us	249
▁festival	249
▁Under	249
▁gained	249
▁Life	248
▁article	248
▁lower	248
▁carry	248
▁creation	248
▁attacks	248
▁citizens	247
▁nine	247
▁leaders	247
▁account	247
▁prevent	247
▁expedition	246
tells	246
▁tradition	246
▁question	246
▁Jews	246
▁yet	246
▁Mary	246
li	245
ko	245
▁match	245
▁Before	245
▁suggested	245
▁province	244
▁press	244
▁build	244
▁want	244
▁inhabitants	244
▁Mark	244
▁Moscow	244
▁Irish	244
▁defeated	244
V	243
▁fight	243
▁Department	243
▁amount	243
▁west	243
▁importance	243
▁...	243
?"	243
▁Through	242
▁says	242
▁Poland	242
▁join	242
▁quality	242
ous	242
▁unknown	242
▁regular	242
▁subsequently	242
▁institutions	242
▁noted	242
▁regions	242
▁response	242
▁Division	241
▁highest	241
▁actually	241
▁opening	241
▁port	241
▁showed	240
▁Be	240
▁du	240
ke	240
▁reign	240
▁district	240
ur	240
▁think	240
▁growth	240
▁comes	239
▁meaning	239
▁middle	239
▁painting	239
▁method	238
▁places	238
▁approach	238
▁fought	238
▁Hague	238
▁factory	238
▁Act	238
▁articles	238
▁records	238
▁issued	238
▁successor	237
▁primarily	237
▁except	237
▁birth	237
▁visit	237
▁east	237
▁defeat	237
▁entitled	237
▁paintings	237
J	237
▁room	237
ies	237
▁Green	236
▁characters	236
▁issue	236
▁Prime	236
▁Internet	236
▁percent	235
▁fall	235
▁keep	235
▁hard	235
▁titled	235
▁your	235
▁Frank	235
▁occupied	235
▁staff	234
▁chief	234
▁documentary	234
▁Mexico	234
▁protect	234
▁Do	233
▁establish	233
▁plays	233
▁association	233
▁poor	233
▁necessary	233
▁Navy	233
▁fully	233
▁Northern	233
▁white	233
▁develop	233
▁share	232
▁prize	232
▁resulted	232
▁meet	232
▁organisation	232
men	232
▁care	232
▁stars	232
▁mass	232
▁recognized	231
▁Joseph	231
▁test	231
▁Force	231
▁raised	231
▁passed	231
▁analysis	231
ce	231
▁airport	231
▁Martin	230
▁History	230
▁occurred	230
▁treaty	230
▁flag	230
▁week	230
▁feature	230
▁types	230
▁Ministry	229
▁fighting	229
▁ground	229
▁Australian	228
▁Times	228
am	228
▁Time	228
▁/	228
▁extended	228
ally	228
▁Angeles	227
called	227
▁opera	227
▁refers	227
▁track	227
be	226
▁attacked	226
▁promote	226
▁heavy	226
ba	226
▁et	225
▁professor	225
▁suffered	225
▁inter	225
▁Centre	224
▁property	224
▁twenty	224
▁interview	224
▁write	224
▁Switzerland	224
▁seems	224
▁master	224
▁invited	223
▁Antwerp	223
▁classical	223
▁More	223
▁category	223
▁theme	223
style	223
▁fell	223
▁identified	222
known	222
▁Open	222
▁revealed	222
▁Revolution	222
▁Land	222
▁chosen	222
▁organizations	222
age	222
▁di	222
▁becom	222
▁transferred	221
▁sense	221
▁regarded	221
▁latter	221
▁hands	221
▁invasion	221
relatively	221
▁rank	220
▁call	220
▁regularly	220
▁goes	220
▁existing	220
▁price	220
▁plant	220
ul	220
▁workers	220
▁goal	219
▁efforts	219
▁expanded	219
▁extreme	219
em	219
▁estimated	219
▁connection	219
▁minister	219
com	219
▁Washington	219
▁focused	219
▁solo	219
▁twice	219
▁shortly	218
▁founder	218
▁greater	218
▁taught	218
▁say	218
▁laws	218
▁Mo	218
ter	218
▁basic	218
▁contact	218
▁l	218
▁exhibition	218
▁paid	217
▁frequently	217
▁effects	217
ti	217
▁Sir	217
▁presence	216
▁buried	216
v	216
▁minutes	216
▁collaboration	216
▁ran	216
▁conference	216
▁follow	215
▁global	215
▁simple	215
▁prominent	215
▁Government	215
he	215
▁Rock	215
▁voice	215
▁Secretary	215
▁star	215
▁Human	214
▁commander	214
▁gas	214
ized	214
▁Then	214
▁supply	214
▁reasons	213
▁Greece	213
▁multiple	213
▁constructed	213
▁objects	213
▁am	213
▁consider	213
▁Security	213
▁enemy	213
▁protection	212
▁Women	212
▁Thus	212
▁Maria	212
▁programs	212
▁produce	212
▁Turkish	212
▁exist	212
▁broke	211
▁editor	211
▁contemporary	211
▁train	210
▁officers	210
▁resistance	210
▁win	210
▁Old	210
▁sought	210
▁sub	210
▁something	210
▁Tour	210
▁IV	209
▁transport	209
▁Star	209
▁herself	209
▁mathematics	209
▁origin	209
▁Super	209
▁worldwide	209
▁granted	208
▁meant	208
▁obtained	208
▁purchased	208
!"	208
▁capacity	208
▁teams	207
▁applied	207
▁technical	207
▁Islam	207
▁Eastern	207
▁Li	207
▁cross	207
▁appearance	207
ni	206
▁unique	206
▁administration	206
▁contributed	206
▁Austrian	206
ov	206
▁authority	206
▁wide	206
▁Brazil	206
▁going	206
▁argued	206
▁architecture	206
▁Holland	206
go	206
▁actions	205
▁Sun	205
▁Best	205
▁environment	205
▁Danish	204
▁secret	204
▁murder	204
▁describes	204
▁i	204
▁Not	204
▁positive	203
▁arms	203
▁Pan	203
▁renamed	203
▁Muslim	203
▁officer	203
▁Turkey	203
▁purpose	203
▁attempted	203
▁Emperor	203
▁request	203
▁owner	202
▁pro	202
▁average	202
▁publication	202
▁read	202
▁politics	202
▁scene	202
ge	202
▁stop	202
▁winter	202
▁degree	202
▁confirmed	201
▁heard	201
▁younger	201
▁nothing	201
▁Denmark	201
▁red	201
▁figure	201
▁Austria	201
▁powers	201
▁big	201
▁Today	200
▁critical	200
▁Islamic	200
▁attempts	200
▁charge	200
▁goods	200
▁face	199
▁methods	199
”	199
▁selected	199
▁leaving	199
▁trial	199
▁exchange	199
▁online	199
▁assistant	199
▁simply	198
▁Go	198
▁firm	198
▁heart	198
ling	198
▁Lee	198
▁shot	198
▁felt	198
▁alone	198
▁job	198
▁connected	198
▁Film	198
▁initial	198
▁rules	197
▁Tom	197
▁council	197
▁era	197
for	197
▁bank	197
▁escape	197
▁Treaty	196
▁couple	196
▁cooperation	196
▁permanent	196
▁teacher	196
▁library	196
▁orders	196
▁Even	196
▁Service	196
▁send	196
▁earliest	196
line	196
▁architect	196
▁Due	196
den	196
▁levels	195
▁Hill	195
▁content	195
▁disease	195
berg	195
▁kind	195
▁aid	195
▁spread	195
▁Pope	195
▁round	195
▁Arab	195
▁sons	195
▁Bahá	195
sen	195
▁Ver	194
▁expansion	194
j	194
▁learn	194
▁decades	194
▁variety	194
▁officials	194
▁Norway	194
▁Blue	194
▁Law	194
▁crew	193
ard	193
▁formal	193
▁leadership	193
ant	193
▁developing	193
&	193
▁billion	193
▁ex	192
▁growing	192
▁recently	192
▁generation	192
▁begins	192
of	192
▁concluded	192
▁figures	192
▁SS	191
▁traffic	191
▁alternative	191
▁Atlantic	191
▁identity	191
▁Jack	191
▁channel	191
▁loss	191
▁fellow	191
▁introduction	190
▁documents	190
▁entirely	190
ish	190
▁pieces	190
▁split	190
▁Short	190
▁fled	190
▁potential	190
ley	189
▁Director	189
▁promoted	189
▁covered	189
▁jazz	189
▁Year	189
▁Swiss	189
▁questions	189
ler	189
ir	189
▁follows	189
▁manager	189
í	189
▁stay	188
▁committee	188
▁painted	188
▁literary	188
▁length	188
▁Mac	188
▁broadcast	188
▁serious	188
▁maintain	188
▁reduced	188
▁determined	188
▁respectively	188
▁needs	188
▁Can	188
▁offer	188
▁saying	188
▁opposed	188
▁historian	187
▁cars	187
do	187
▁allow	187
▁nearby	187
▁Development	187
▁expected	187
quite	187
▁tax	187
ance	187
▁combined	187
▁Edward	187
▁Project	186
▁opposition	186
▁towns	186
▁reports	186
▁direction	186
me	186
▁federal	186
▁closely	185
▁kingdom	185
▁Among	185
▁maintained	185
▁temple	185
▁administrative	185
▁composition	185
▁Science	185
▁extensive	185
▁Pro	185
▁costs	184
▁prisoners	184
▁Show	184
▁applications	184
▁Unti	184
▁contained	184
▁victims	183
▁railway	183
▁Pacific	183
▁Library	183
▁Formula	183
▁possibly	183
▁hundred	183
▁damage	183
▁nor	183
▁economics	183
▁Theatre	183
▁influential	183
▁cut	183
▁morning	183
▁image	183
▁weapons	182
▁Vienna	182
▁Together	182
▁composer	182
▁interested	182
▁Office	182
▁planning	182
ner	182
rd	182
Z	182
▁removed	182
▁fields	181
▁texts	181
▁normal	181
▁Ben	181
▁ensure	181
▁why	181
▁Di	181
▁distance	181
▁Meanwhile	181
ri	181
▁Egyptian	181
▁improve	180
▁interests	180
▁reach	180
▁dates	180
▁collected	180
▁rate	180
▁hold	180
▁programme	180
▁perhaps	180
De	179
▁piano	179
▁shared	179
▁eastern	179
▁settled	179
▁require	179
▁executed	179
▁pressure	179
ki	178
tic	178
▁Social	178
▁Car	178
ty	178
▁nuclear	178
▁girl	178
▁roles	178
▁accompani	178
▁defend	178
▁Around	178
▁violence	178
▁establishment	178
▁youth	178
▁reference	178
▁minor	178
▁municipality	178
▁Portuguese	177
):	177
▁notable	177
▁principal	177
▁artistic	177
▁achieved	177
▁sites	177
▁bands	177
▁Albert	176
un	176
▁Line	176
▁Mr	176
▁bridge	176
▁Daniel	176
▁examples	176
▁County	176
que	176
▁del	176
▁mountain	176
▁Four	176
▁formation	176
▁Captain	176
▁matter	176
io	176
▁marked	176
▁investigation	176
▁stayed	175
▁Class	175
▁sound	175
▁principle	175
▁b	175
im	175
▁coming	175
mo	175
▁plants	175
▁Bay	175
▁=	175
▁prior	174
▁theatre	174
▁fifth	174
▁joint	174
▁individuals	174
▁views	174
▁audience	174
▁digital	174
▁seat	174
wa	174
▁Athens	174
▁Order	174
▁native	173
off	173
id	173
▁newly	173
▁sports	173
▁Civil	173
▁lot	173
▁determine	173
General	173
▁thousands	173
▁resources	173
▁contributions	172
▁speed	172
▁serve	172
▁standards	172
▁Ma	172
▁headquarters	172
▁EP	172
▁techniques	172
▁Rights	172
▁operated	172
▁Te	172
▁tracks	172
▁tournament	171
▁ways	171
▁Furthermore	171
▁rejected	171
▁Apple	171
▁Trump	171
▁enter	171
▁ability	171
▁equal	171
▁sign	171
▁communication	171
▁hospital	171
▁Democrat	170
▁titles	170
▁sexual	170
▁animal	170
▁break	170
lin	170
▁flight	170
▁cast	170
▁CD	170
▁task	170
mer	169
ham	169
▁Young	169
▁Bo	169
ological	169
▁discovery	169
▁Chicago	169
▁search	169
▁equipment	169
▁Utrecht	169
▁Little	169
▁classes	169
▁alliance	169
▁bodies	169
▁chairman	169
century	169
▁translation	169
▁perform	169
▁expressed	169
ina	169
▁context	168
▁stations	168
▁subsequent	168
▁Games	168
▁look	168
ak	168
▁publications	168
▁blood	168
▁crisis	168
▁prime	168
▁increasing	168
▁urban	168
▁surface	168
▁abandoned	168
▁Airport	168
▁greatest	167
▁agricultural	167
▁Road	167
▁Band	167
▁translated	167
▁inside	167
▁memory	167
▁academic	167
▁Rotterdam	167
▁Federal	167
▁Iraq	167
▁survived	167
▁properties	167
▁advanced	166
▁n	166
▁provinces	166
▁Board	166
ts	166
▁speech	166
ization	166
▁arrival	166
▁debate	166
▁Scotland	166
▁mind	166
▁discover	166
▁compared	165
▁partner	165
pe	165
▁trip	165
chi	165
▁stopped	165
▁values	165
▁restaurant	165
▁daily	164
ek	164
▁existed	164
ha	164
▁Here	164
▁News	164
ja	164
▁giving	164
▁restored	164
▁{\	164
▁compete	163
▁Portugal	163
der	163
▁orchestra	163
ya	163
▁Jones	163
▁platform	163
▁operate	163
▁Night	163
▁users	163
▁Communist	163
▁rise	163
ck	163
▁male	163
▁Good	162
▁vehicles	162
▁Corporation	162
▁receive	162
▁speak	162
▁medicine	162
▁double	162
▁accept	162
▁application	162
▁successfully	162
▁learned	162
ate	162
▁launch	162
▁Peace	162
▁sex	162
▁stone	162
ad	162
▁derived	162
▁phase	161
In	161
▁core	161
▁Top	161
▁islands	161
▁communities	161
▁contrast	161
▁Brown	161
▁twelve	161
▁seek	161
▁Federation	161
▁mathematical	161
▁combat	161
ical	161
▁demand	161
▁principles	161
▁safety	161
▁improved	161
▁finds	160
▁participate	160
▁controlled	160
▁Wilson	160
▁nation	160
▁poetry	160
▁#	160
▁alongside	160
▁Max	160
▁moving	160
▁Southern	159
▁Johnson	159
U	159
▁acting	159
▁Con	159
▁Bill	159
▁document	159
▁Flemish	159
▁internal	159
▁painter	159
▁committed	159
▁hotel	159
▁threat	159
▁Carl	159
▁depend	159
▁environmental	158
▁replace	158
ists	158
with	158
▁doing	158
ured	158
▁Hitler	158
▁Jackson	158
▁department	158
formerly	158
▁coins	158
▁facilities	157
▁leaves	157
partly	157
▁Post	157
▁Bible	157
▁singles	157
▁risk	157
▁scale	157
▁System	157
▁distribution	157
ll	157
▁preserved	156
▁Orchestra	156
▁Convention	156
▁medieval	156
▁concerning	156
▁metal	156
ga	156
▁running	156
▁walls	156
▁Corps	156
▁considerable	156
▁faith	156
▁Arts	155
▁positions	155
▁Romans	155
▁Awards	155
▁journey	155
▁ill	155
▁Castle	155
▁Anna	155
▁Port	155
▁negative	155
▁machine	155
▁ago	155
▁increasingly	155
▁actor	155
▁Presley	155
▁choice	155
▁suicide	155
ver	155
▁ring	155
▁volume	155
▁Special	154
▁Christ	154
▁represent	154
▁sides	154
▁democratic	154
▁page	154
▁journalist	154
▁avoid	154
▁Long	154
▁honor	154
▁operating	154
▁prepared	154
ting	154
▁display	154
sa	154
▁registered	153
▁chose	153
born	153
▁observed	153
▁Indonesia	153
▁Coast	153
▁climate	153
▁impact	153
▁street	153
▁images	153
▁responsibility	153
za	153
▁Education	153
▁markets	153
▁musicians	153
▁clubs	153
▁About	153
X	152
▁Hungary	152
▁Space	152
▁armed	152
▁sector	152
▁founding	152
á	152
▁calls	152
▁Assembly	152
▁goals	152
▁Early	152
▁residents	152
▁description	152
▁UN	152
▁strongly	152
▁domestic	152
▁vice	152
▁cavalry	152
▁guest	152
▁District	151
now	151
▁delivered	151
▁Series	151
▁thousand	151
▁struggle	151
▁employed	151
▁Media	151
▁measures	151
▁Sam	151
▁den	151
▁multi	151
▁Germans	151
▁Francisco	151
▁Five	151
▁occupation	151
▁condition	150
▁negotiations	150
▁structures	150
jo	150
▁Olympic	150
▁solution	150
▁recognition	150
▁refer	150
▁concerned	150
▁historians	150
▁policies	150
▁kill	150
▁organised	150
▁accused	150
▁slaves	150
▁visitors	149
▁Affairs	149
▁Windows	149
▁writers	149
▁square	149
▁wants	149
It	149
▁guitar	149
▁concerts	149
▁Hungarian	149
▁truth	149
▁effective	149
▁accident	148
ese	148
▁episodes	148
▁regime	148
▁employees	148
▁merged	148
▁assistance	148
▁Who	148
American	148
▁Though	148
▁settlement	148
▁reality	148
▁surrounding	148
▁recordings	148
▁don	148
side	147
▁retired	147
▁reaction	147
▁assumed	147
▁respect	147
display	147
sch	147
▁Back	147
ium	147
We	147
▁Within	147
▁parliament	147
▁tower	147
▁sets	147
▁g	146
led	146
▁crime	146
▁effort	146
▁boy	146
▁obtain	146
▁trained	146
pa	146
▁ruled	146
▁subjects	146
▁let	146
ung	146
▁copies	146
▁Q	145
▁travell	145
▁op	145
▁Arabic	145
▁color	145
▁statement	145
per	145
▁union	145
▁Am	145
▁notes	145
▁piece	145
▁capture	145
▁Mediterranean	145
▁object	145
▁Professor	145
so	145
bo	145
▁stand	145
▁ultimately	144
▁college	144
if	144
▁Finland	144
▁behavior	144
▁continues	144
▁gradually	144
▁really	144
▁Asian	144
▁license	144
▁spring	144
▁Conference	144
▁everything	143
▁Age	143
▁emperor	143
▁Live	143
▁performances	143
▁Justice	143
▁income	143
▁technique	143
▁abroad	143
▁branch	143
▁rich	143
▁wall	143
▁Bar	143
mar	143
▁Master	143
▁brand	143
▁combination	143
▁deep	143
▁Barcelona	143
▁heavily	143
▁silver	143
▁hosted	143
▁counter	142
▁Norwegian	142
▁map	142
▁Leiden	142
zi	142
which	142
▁criticism	142
▁authors	142
▁monastery	142
▁senior	142
▁Georgia	142
▁churches	142
▁spaces	142
also	142
▁boat	142
▁returning	141
▁materials	141
▁writings	141
▁winning	141
$	141
▁earned	141
▁looking	141
▁opportunity	141
▁moral	141
▁die	141
▁teaching	141
▁acts	141
▁Nazi	141
▁everyone	141
▁mountains	141
▁Venice	141
▁Moon	141
▁begin	140
▁Senate	140
ville	140
▁Duke	140
▁starts	140
▁Bob	140
▁assigned	140
ski	140
▁happened	140
▁knew	140
▁poems	140
▁Free	140
▁strength	140
▁theorem	140
▁villages	140
▁finish	140
▁sang	140
▁specifically	140
Y	140
ey	140
▁sales	140
▁Adam	140
ius	140
▁performing	140
▁approved	140
▁commonly	139
▁palace	139
▁occur	139
▁Press	139
▁difference	139
▁Simon	139
▁Health	139
▁Public	139
▁prove	138
▁actual	138
▁forest	138
▁Organization	138
▁element	138
▁ethnic	138
▁trying	138
▁Korea	138
▁doctor	138
▁theories	138
▁reform	138
▁allows	138
▁Christmas	138
▁sole	138
▁below	138
▁manner	138
▁instruments	138
▁Ten	138
▁charged	138
▁siege	137
%)	137
▁march	137
▁Euro	137
▁Lake	137
▁horse	137
▁f	137
▁Hans	137
▁affairs	137
▁sell	137
▁converted	137
▁missing	137
▁biggest	137
▁scientists	137
▁aspects	137
▁collections	136
▁discuss	136
▁step	136
▁protest	136
▁governments	136
▁Iran	136
gi	136
▁Part	136
▁printed	136
▁anything	136
▁Big	136
▁creating	136
▁Valley	136
▁governor	136
▁Chris	136
▁candidate	136
▁exists	136
▁afterwards	135
▁recognised	135
▁offers	135
▁constitution	135
▁Elizabeth	135
▁singing	135
▁severe	135
▁earth	135
ns	135
▁nations	135
▁user	135
▁forward	135
ah	135
▁Arthur	135
▁processes	135
kin	135
ier	134
gen	134
▁attributed	134
sk	134
▁offices	134
rs	134
▁residence	134
▁brief	134
▁achieve	134
▁Islands	134
▁Six	134
▁understanding	134
▁lies	134
▁allies	134
▁strategy	134
▁Hamburg	134
▁god	134
▁Hotel	134
▁Home	133
▁moment	133
▁fear	133
▁laid	133
▁progress	133
ster	133
lo	133
q	133
▁aim	133
▁nominated	133
lu	133
▁Scottish	133
▁Cape	133
▁symbol	132
▁Once	132
▁k	132
▁Foreign	132
▁defense	132
naval	132
▁spoke	132
▁stands	132
▁incident	132
+	132
mi	132
▁describe	132
▁someone	132
see	132
▁persons	132
▁secretary	132
▁neither	132
▁Opera	132
▁promotion	132
▁Santa	132
▁manuscript	132
▁Ho	132
tra	132
а	132
ship	132
▁cycle	132
▁sale	132
▁reflect	132
▁Florida	131
▁intelligence	131
ang	131
▁asks	131
car	131
▁weight	131
▁suggest	131
▁arrest	131
▁encouraged	131
▁Cross	131
▁Or	131
▁try	131
▁vote	131
▁educational	131
▁greatly	131
▁advance	130
▁universe	130
▁installed	130
▁democracy	130
▁locations	130
▁ends	130
▁bad	130
▁reputation	130
▁electric	130
▁Palace	130
▁pages	130
▁Fort	130
ber	130
▁Soon	130
▁Community	130
ever	130
▁commission	130
▁Pierre	130
▁device	130
▁shall	130
▁pilot	130
▁papers	130
▁Les	130
ol	130
▁scenes	130
▁Your	130
▁humans	129
▁Operation	129
▁labor	129
▁Light	129
▁fundamental	129
▁Power	129
ij	129
▁Nevertheless	129
▁Water	129
▁fuel	129
▁target	129
▁publishing	129
▁briefly	129
▁initiated	129
war	129
▁rapidly	129
▁lawyer	129
▁definition	129
▁Lady	129
▁Zealand	128
▁infantry	128
▁holds	128
▁Joe	128
▁Out	128
▁scholars	128
▁initiative	128
▁Ford	128
▁Such	128
▁thing	128
▁budget	128
▁Gold	128
▁£	128
▁horses	128
▁pure	128
▁Y	128
▁Israeli	128
▁agency	128
▁instance	128
▁electronic	127
▁representative	127
op	127
way	127
▁designated	127
▁ice	127
▁specialize	127
▁purposes	127
▁Finally	127
▁save	127
▁organisations	127
▁Therefore	127
▁passenger	127
▁equivalent	127
▁Sunday	127
▁reduce	127
▁transfer	127
▁Suriname	127
▁benefit	126
▁patients	126
▁hope	126
▁anniversary	126
▁Caesar	126
▁coach	126
ut	126
▁background	126
▁opinion	126
▁seats	126
▁Jesus	126
aimed	126
▁poet	126
▁demanded	126
▁faced	126
▁Allied	126
▁Sicily	126
▁liberal	125
▁Anne	125
▁Golden	125
▁Jacob	125
▁green	125
▁anyone	125
▁popularity	125
▁Argentina	125
▁Team	125
▁Every	125
▁distributed	125
▁Ages	125
▁conservative	125
▁ceremony	125
▁Constitution	125
▁chemical	125
▁territories	125
pi	125
▁trading	125
▁Microsoft	125
▁Ottoman	125
▁store	125
▁manage	125
▁host	125
▁extension	125
ino	125
▁gain	125
▁Men	124
▁monument	124
▁mixed	124
▁listed	124
▁Flanders	124
▁false	124
▁wounded	124
▁lands	124
▁evening	124
▁Finnish	124
▁hits	124
▁drive	124
▁semi	124
▁transform	124
▁blue	124
all	124
▁disappeared	124
▁floor	124
▁Will	124
▁Muslims	124
▁apparently	123
▁Hu	123
▁revolution	123
▁commissioned	123
▁Wall	123
▁Jerusalem	123
▁table	123
▁movements	123
▁Google	122
▁Inter	122
▁planet	122
▁winner	122
▁exact	122
ite	122
▁meters	122
▁Ne	122
▁meetings	122
▁Tu	122
▁Roland	122
▁mention	122
▁testing	122
▁tell	122
▁sport	122
▁Marie	122
▁returns	122
▁refugees	122
▁childhood	122
▁investment	122
di	122
▁components	121
▁Imperial	121
▁advantage	121
including	121
▁Wood	121
▁factor	121
▁classification	121
▁novels	121
▁Kong	121
▁contribution	121
▁Boy	121
▁Brazilian	121
▁belief	121
▁abstract	121
▁Much	121
▁colonial	121
not	121
tries	121
La	121
▁Prix	121
▁Taylor	121
ent	121
▁Fund	121
▁How	121
▁imperial	121
▁differences	121
▁Scott	120
▁witness	120
▁experienced	120
▁damaged	120
▁Mountain	120
▁link	120
▁weak	120
▁explained	120
▁Die	120
▁universities	120
▁eyes	120
▁protests	120
▁resolution	120
▁Afghanistan	120
▁Forest	120
▁practical	120
▁girls	120
▁physics	120
▁gods	120
ci	120
mon	120
▁instrument	120
▁hired	119
▁passengers	119
▁Trade	119
law	119
▁separated	119
▁prices	119
▁Seleucus	119
▁marry	119
▁nickname	119
▁treated	119
▁details	119
▁Lewis	119
▁gets	119
▁tools	119
▁visual	119
▁Chief	119
▁champion	119
▁formally	119
▁address	119
▁copy	119
wing	119
▁advice	119
▁publisher	118
▁imprisoned	118
▁possession	118
▁wealthy	118
ji	118
▁Wales	118
▁publicly	118
▁miles	118
▁hundreds	118
▁mental	118
credited	118
▁celebrated	118
▁Third	118
▁drama	118
▁agriculture	118
Man	118
▁Sky	118
}	118
▁mean	118
▁talk	118
▁Stephen	118
▁easily	118
▁Mars	118
▁rebuilt	118
▁Instead	117
▁designs	117
▁collaborated	117
▁Game	117
▁Indies	117
▁typically	117
▁trains	117
▁represents	117
ac	117
▁exception	117
▁manufactured	117
▁relationships	117
▁serves	117
▁funds	117
▁Bell	117
▁Tibetan	117
▁throne	117
▁interior	117
▁distinct	117
▁armies	117
▁Tokyo	117
▁Victoria	117
▁membership	117
du	117
▁Now	117
▁Family	117
▁executive	116
▁implementation	116
▁viewed	116
▁concepts	116
▁empire	116
▁Police	116
▁assault	116
▁Bernard	116
▁Children	116
▁protected	116
▁Natural	116
▁selection	116
▁chain	116
▁Du	116
▁folk	116
▁Seven	116
vi	116
à	116
▁pick	116
ik	116
▁objective	116
▁Pre	116
▁portion	116
▁Eventually	116
▁didn	116
▁decade	116
▁Square	116
▁shares	115
▁failure	115
▁acted	115
▁virtual	115
▁surviving	115
▁controversial	115
▁experiences	115
▁defence	115
▁Station	115
▁producing	115
▁chance	115
▁Play	115
▁Walter	115
▁Bishop	115
▁Williams	115
▁enemies	115
▁fast	115
▁raise	115
▁sentenced	115
ho	115
ura	115
▁Real	114
▁Besides	114
▁fish	114
▁Tower	114
▁eye	114
▁web	114
▁Nick	114
▁Football	114
▁constant	114
▁Journal	114
▁matches	114
▁Stone	114
▁boys	114
▁extent	114
▁cancer	114
con	114
▁poem	113
▁historic	113
▁Harry	113
▁experiments	113
▁suggests	113
▁notably	113
▁captain	113
▁linked	113
▁slave	113
▁awards	113
ijn	113
istic	113
▁Front	113
▁videos	113
▁illness	113
▁accounts	113
▁threatened	113
▁kings	113
▁themes	113
е	113
▁understand	113
▁supports	112
▁Culture	112
▁estate	112
▁theater	112
▁Americans	112
ised	112
▁Just	112
▁Morgan	112
▁Ka	112
▁offensive	112
long	112
▁banned	112
▁guitarist	112
▁engineer	112
▁experiment	112
▁Ni	112
▁dark	112
▁Town	112
▁commanded	112
▁Christianity	112
▁restoration	112
▁huge	112
▁dated	112
▁Eric	112
▁Su	112
▁sees	111
▁Song	111
▁v	111
▁und	111
▁discussion	111
▁journal	111
▁wealth	111
▁showing	111
▁factors	111
▁devoted	111
▁burned	111
▁Bush	111
▁Dark	111
▁conquered	111
▁conduct	111
▁explain	111
▁dropped	111
▁Economic	111
▁dynasty	111
▁extra	111
▁thirty	111
les	111
▁Sports	111
▁format	111
▁broken	111
ae	111
▁Tibet	111
▁wars	111
▁manuscripts	111
ze	111
▁rare	111
▁vehicle	111
▁affected	111
ot	111
▁storm	111
▁participants	111
▁Global	110
▁races	110
▁dispute	110
▁medium	110
▁session	110
▁homes	110
▁Morocco	110
▁interpretation	110
▁duty	110
▁Freedom	110
▁drug	110
▁visible	110
▁criminal	110
▁votes	110
▁discussed	110
▁Jim	110
▁zone	110
▁evolution	110
▁studying	110
▁Sciences	110
▁fashion	110
▁hour	110
▁focuses	110
▁Miller	110
je	110
▁surrounded	110
▁advisor	110
▁See	110
▁Years	110
▁appointment	110
▁Initially	110
ities	109
▁Texas	109
▁path	109
▁Columbia	109
▁duo	109
▁typical	109
scale	109
ted	109
▁message	109
▁extend	109
▁Madrid	109
▁finite	109
vo	109
▁Network	109
▁Mount	109
▁Matt	109
▁championship	109
▁apply	109
▁occasion	109
▁runs	109
▁glass	109
▁voted	109
▁supporters	109
▁sixth	109
▁spiritual	109
▁spoken	109
▁flights	109
▁pop	109
▁retained	109
▁Renaissance	109
▁overall	109
▁Originally	108
▁tribes	108
▁Indonesian	108
▁none	108
class	108
No	108
▁Studio	108
▁define	108
▁sections	108
▁classic	108
▁plane	108
▁owners	108
▁wing	108
▁Syria	108
▁routes	108
▁Forces	108
che	108
▁maximum	108
▁Forum	108
▁Are	108
▁spirit	108
ken	108
▁waste	108
▁Count	108
▁Standard	108
и	108
о	108
▁infrastructure	108
▁engines	107
▁Oxford	107
▁metres	107
▁compositions	107
au	107
▁Ali	107
▁aims	107
▁proof	107
era	107
ger	107
▁Luxembourg	107
▁Modern	107
▁Movement	107
▁impossible	107
▁Frederick	107
▁dominated	107
▁immediate	107
▁fifteen	107
▁Design	107
▁beyond	107
air	107
▁requested	107
ker	107
stra	107
▁VI	107
▁arranged	107
▁begun	107
▁Ken	107
▁compilation	107
▁camps	107
▁Mer	107
convinced	106
ica	106
▁engaged	106
▁Along	106
▁reveal	106
▁NATO	106
▁dog	106
▁relation	106
▁block	106
▁wedding	106
▁expression	106
▁Lo	106
▁End	106
▁murdered	106
▁shift	106
▁funding	106
▁campaigns	106
term	106
▁charges	106
▁thinking	106
sy	106
▁Holy	106
▁situated	106
▁diplomatic	106
▁personnel	106
ão	106
speaking	106
▁possibility	106
▁Vietnam	106
▁integrated	106
▁accessible	106
▁stood	106
▁provid	105
▁tree	105
om	105
▁Guard	105
▁ruler	105
▁annually	105
▁exactly	105
▁significantly	105
▁contribute	105
▁dangerous	105
▁radical	105
▁cabinet	105
▁contest	105
▁uncle	105
▁domain	105
▁Major	105
▁shop	105
▁genetic	105
▁productions	105
▁Additionally	105
▁realized	105
▁quarter	105
▁Geneva	105
▁Miss	105
▁queen	105
▁expensive	105
▁Milan	105
▁concentrated	105
▁devices	105
▁edited	105
▁Summer	105
▁matters	105
▁proposal	105
bit	104
▁Cuba	104
▁Ge	104
▁resigned	104
▁Magazine	104
▁variant	104
▁internationally	104
▁partnership	104
▁headed	104
▁logic	104
▁Francis	104
▁wind	104
▁Boston	104
▁covers	104
▁grandfather	104
▁occurs	104
▁controversy	104
▁farm	104
▁gathered	104
▁rival	104
▁balance	104
▁portrayed	104
▁mere	104
▁stages	104
▁Leopold	104
▁secure	104
▁driver	104
▁Channel	104
▁replacement	104
▁attracted	104
▁Youth	104
ap	104
▁choose	104
▁characterize	104
handed	104
▁justice	104
▁Lu	103
▁cultures	103
▁Ocean	103
▁Willem	103
▁representatives	103
▁holding	103
€	103
ology	103
▁arts	103
▁locomotives	103
cha	103
▁hall	103
▁algebraic	103
▁drugs	103
▁Saudi	103
▁Nobel	103
▁landscape	103
▁escaped	103
▁weekly	103
house	103
▁Last	103
▁roughly	103
▁motion	103
▁mode	103
▁portraits	103
▁drawn	103
▁Clark	103
▁Otto	102
▁purchase	102
wood	102
▁topics	102
▁sun	102
▁con	102
▁Studies	102
▁correspond	102
▁Den	102
▁birthday	102
▁Ph	102
▁monarchy	102
▁wine	102
▁belonged	102
▁killing	102
▁periods	102
▁Death	102
▁illegal	102
▁serving	102
over	102
▁ask	102
▁networks	102
net	102
▁Winter	102
▁trust	102
▁seasons	102
▁designer	102
red	102
▁argues	102
▁programming	102
▁Hong	102
▁Story	102
▁volumes	102
▁scored	102
▁employment	102
▁Athenians	102
▁daughters	102
▁Plan	102
▁Dance	102
▁safe	102
▁Railway	102
we	101
▁vary	101
▁Vice	101
▁decisions	101
▁Ross	101
▁causes	101
▁organ	101
▁Karl	101
▁favor	101
▁donat	101
▁stadium	101
ini	101
▁height	101
▁Fire	101
▁Tony	101
▁surrender	101
▁detailed	101
▁review	101
▁formula	101
▁teachers	101
▁magic	101
▁unclear	101
▁mayor	101
▁soundtrack	101
▁DVD	101
▁statue	101
▁brain	101
▁institution	101
▁capable	101
▁ready	100
▁Gen	100
▁traditions	100
▁continuous	100
▁onwards	100
▁somewhat	100
▁limit	100
▁correct	100
▁thereafter	100
▁researchers	100
▁reforms	100
▁Alliance	100
▁FM	100
uk	100
▁airline	100
ful	100
▁participation	100
▁receiving	100
▁widespread	100
▁Member	100
▁export	100
▁da	100
▁steps	100
▁answer	100
▁grown	99
ven	99
▁Prior	99
▁fiction	99
▁column	99
▁believes	99
▁destruction	99
▁withdrew	99
▁Iraqi	99
▁featur	99
▁FC	99
▁partially	99
▁bomb	99
▁secondary	99
▁collect	99
▁grow	99
▁farmers	99
▁machines	99
▁entry	99
▁note	99
▁Moreover	99
▁Davis	99
▁Han	99
▁Inc	99
▁judge	99
▁Na	99
▁Napoleon	99
▁Mar	99
▁criticized	99
▁departure	99
▁explanation	99
▁deaths	99
▁circumstances	99
▁stable	99
▁Supreme	99
▁editions	99
▁DNA	99
▁setting	99
allowing	99
sh	99
▁Juan	99
▁absence	99
▁lay	99
▁Greeks	98
ise	98
▁Wars	98
▁voor	98
▁Lie	98
▁x	98
▁strategic	98
▁bishop	98
▁agents	98
▁cell	98
▁switch	98
▁Governor	98
▁beautiful	98
α	98
▁Garden	98
▁identical	98
▁selling	98
▁ending	98
▁desire	98
▁stock	98
▁transition	98
▁maps	98
▁concerns	98
▁framework	98
▁Cor	98
▁alive	98
▁chapter	98
▁apartment	97
▁informed	97
▁upper	97
part	97
▁submitted	97
ß	97
▁demonstrated	97
▁garden	97
▁flee	97
▁priest	97
▁Grant	97
▁promised	97
▁shape	97
▁Abraham	97
▁Sport	97
▁Business	97
▁republic	97
▁classified	97
▁argument	97
▁AD	97
▁Ca	97
▁colony	97
▁assisted	97
▁leads	97
▁activist	97
▁requirements	97
▁divisions	97
▁seriously	97
▁Fair	97
ok	97
▁ambassador	97
▁pass	97
▁musician	97
who	97
▁Technology	97
You	97
°	97
▁Christians	97
▁Roger	97
▁concentration	96
▁En	96
▁Alfred	96
▁Het	96
▁Hollywood	96
yn	96
▁defended	96
▁newspapers	96
▁express	96
▁fired	96
▁Julian	96
▁Way	96
▁entrance	96
▁broad	96
ö	96
▁warn	96
▁challenge	96
▁observations	96
▁+	96
▁survey	96
▁Tri	96
▁subsidiary	96
tre	96
▁dream	96
▁violent	96
hi	96
▁concern	96
▁understood	96
▁Vol	96
▁Il	96
▁conflicts	96
▁script	96
▁Head	96
▁involve	96
▁Steve	96
▁ban	95
▁recognize	95
▁watch	95
▁filled	95
▁permission	95
▁heritage	95
▁injured	95
▁conductor	95
▁opposite	95
ill	95
▁tests	95
looked	95
qui	95
ated	95
▁calling	95
▁Princess	95
▁seem	95
▁distinguished	95
▁Brothers	95
▁currency	95
▁isolated	95
▁coalition	95
▁execution	95
▁fly	95
▁provincial	95
▁essential	95
▁affect	95
▁rooms	95
▁connections	95
▁retirement	95
▁Pa	95
ola	95
▁exile	95
▁Transport	95
▁rapid	95
yl	95
▁Bad	95
▁Per	95
▁door	95
ai	95
▁Facebook	95
▁otherwise	95
▁favour	95
▁agree	95
▁Si	95
▁Mi	94
▁disaster	94
▁Petersburg	94
tro	94
▁emerged	94
▁chapel	94
▁Anti	94
▁missions	94
▁Mike	94
▁Sparta	94
▁characteristic	94
▁inspiration	94
from	94
▁Bas	94
▁Iron	94
▁notion	94
▁Marine	94
▁writes	94
▁exhibitions	94
▁praised	94
▁meets	94
▁Ja	94
mann	94
▁critics	94
▁Cambridge	94
van	94
▁Entertainment	94
▁substantial	94
▁wrong	94
▁Bowie	94
▁Fiat	94
▁Persian	94
▁incorporated	94
▁circle	94
▁photo	94
▁Antonio	94
▁Rose	94
▁fans	94
▁Da	94
tel	94
▁internet	94
▁Mexican	94
▁Munich	94
▁output	94
▁streets	94
▁wood	93
▁experimental	93
▁Beach	93
▁Hospital	93
nt	93
▁Protestant	93
▁fishing	93
▁beer	93
MS	93
▁Czech	93
▁strict	93
▁photographer	93
▁Jane	93
▁lessons	93
▁USA	93
▁banks	93
▁supplies	93
▁Alan	93
▁crimes	93
run	93
▁trees	93
▁Admiral	93
▁implemented	93
▁Dan	93
▁ceased	93
▁enjoyed	93
▁massive	93
▁rebellion	93
▁Nigeria	93
▁Jordan	93
▁reading	93
▁suffering	93
▁Er	93
▁photographs	93
▁reserve	93
▁Leo	93
▁chair	93
end	92
▁businesses	92
▁het	92
▁Province	92
ron	92
▁involvement	92
▁solutions	92
▁developments	92
▁medal	92
▁theoretical	92
▁Buddhist	92
▁immigrants	92
▁evolved	92
▁lyrics	92
▁predecessor	92
▁prisoner	92
▁statements	92
▁PlayStation	92
▁legend	92
▁Jo	92
▁grounds	91
▁rail	91
water	91
▁tested	91
▁consumption	91
▁appearances	91
▁Sch	91
▁calendar	91
ip	91
▁suspected	91
▁representation	91
▁suitable	91
▁wish	91
▁seconds	91
▁attend	91
▁Management	91
▁Arabia	91
▁Korean	91
tal	91
▁ownership	91
▁landed	91
▁Andrew	91
isation	91
▁temporary	91
rat	91
▁Gu	91
▁weather	91
▁Caribbean	91
▁easy	91
▁Republican	90
▁biological	90
▁introduce	90
po	90
▁mine	90
▁artillery	90
such	90
▁Warsaw	90
▁hoped	90
dimensional	90
▁denied	90
▁dating	90
▁learning	90
ford	90
▁fixed	90
▁filmed	90
ory	90
ä	90
▁Ex	90
▁Shi	90
▁youngest	90
▁philosophical	90
▁talent	90
▁intention	90
sky	90
▁Anglo	90
▁Heart	90
▁sufficient	90
ev	90
nes	90
▁Bridge	90
▁prototype	90
ê	90
▁expert	90
▁Java	90
▁bear	90
▁aired	90
▁Wolfgang	90
▁measure	90
▁Son	90
▁Parker	90
▁Constantinople	90
▁decide	90
▁slightly	90
▁exclusively	90
)"	90
▁modified	90
▁exhibited	90
▁Military	89
▁aware	89
▁Jersey	89
▁portrait	89
▁Baltic	89
▁founders	89
▁tomb	89
▁retain	89
▁repeated	89
▁Further	89
▁Ba	89
▁camera	89
▁peoples	89
▁succeed	89
ii	89
▁tons	89
▁talks	89
▁Iceland	89
volving	89
▁colour	89
▁Fu	89
▁ideal	89
▁corps	89
▁flow	89
▁Cha	89
her	89
▁slow	89
−	89
▁Cyprus	89
▁indeed	89
▁picture	89
▁spend	89
▁revolt	89
▁Code	89
▁Agency	89
▁arm	89
▁score	89
▁destroy	89
wi	89
▁items	89
▁unusual	89
▁friendship	89
si	89
▁absolute	88
▁useful	88
▁demands	88
▁composers	88
▁cable	88
▁logo	88
▁origins	88
▁institute	88
▁external	88
▁obvious	88
▁Ha	88
▁categories	88
He	88
▁perfect	88
▁database	88
▁drawing	88
▁graduated	88
▁coup	88
▁originated	88
▁threats	88
▁phenomenon	88
▁computers	88
▁duties	88
▁mentions	88
▁ha	88
ret	88
▁magazines	88
”.	87
▁Jazz	87
fi	87
▁mining	87
▁Ber	87
▁Call	87
▁occasions	87
▁Pat	87
fa	87
▁tank	87
▁micro	87
▁Thailand	87
▁integration	87
▁accord	87
▁Area	87
▁Price	87
▁behalf	87
▁Mont	87
▁Mu	87
▁Ray	87
▁Jacques	87
▁distinguish	87
▁satellite	87
▁Florence	87
art	87
▁hair	87
▁Butterfly	87
ís	87
▁conquest	87
▁civilian	87
▁responded	87
▁linear	87
▁relative	87
▁Fox	87
tu	87
▁sessions	87
▁signal	87
▁narrow	87
ana	87
▁storage	87
▁drawings	87
▁adapted	87
▁independently	87
▁landing	87
▁Byzantine	87
▁visiting	86
▁merger	86
bi	86
▁Dublin	86
▁retreat	86
▁simultaneously	86
▁charter	86
▁le	86
▁Renault	86
▁Symphony	86
▁publish	86
▁Orange	86
han	86
▁functional	86
▁Bureau	86
▁Groningen	86
▁comedy	86
▁Ukraine	86
▁losing	86
▁Mega	86
▁educated	86
▁Our	86
▁Bre	86
▁practices	86
▁electricity	86
▁Chi	86
▁noble	86
▁roads	86
▁Information	86
▁Margaret	86
▁passage	86
▁developers	86
ez	86
▁lecture	86
hu	86
▁emphasis	86
▁worth	86
▁knows	86
▁mosque	86
ō	86
▁invented	86
sur	86
▁bus	86
▁beliefs	86
har	86
▁baby	85
▁trans	85
▁procedure	85
▁candidates	85
▁consumer	85
▁Mall	85
▁Sony	85
field	85
▁declined	85
▁photography	85
▁indicate	85
▁characteristics	85
▁adult	85
▁skills	85
ig	85
▁hydrogen	85
▁willing	85
▁secured	85
▁districts	85
▁taxes	85
▁Stockholm	85
▁opponents	85
tes	85
cy	85
▁ISO	85
▁draw	85
▁cold	85
▁YouTube	85
Dutch	85
▁difficulties	85
▁Ghent	85
ens	85
▁cousin	85
▁gone	85
▁addressed	85
▁Ko	85
▁Howard	85
▁carbon	85
tor	85
but	85
▁Billy	85
▁Ku	85
▁genre	85
▁county	84
ble	84
▁indicated	84
▁bit	84
▁marketing	84
▁realize	84
▁buy	84
▁autumn	84
▁Jr	84
▁Ltd	84
▁fair	84
▁trio	84
▁Market	84
▁José	84
▁Sudan	84
▁guns	84
▁finding	84
getting	84
▁birds	84
▁honour	84
▁doesn	84
▁strike	84
▁agent	84
▁flying	84
▁depict	84
▁Copenhagen	84
▁approval	84
▁volunteers	84
ria	84
▁printing	84
ire	84
▁parallel	84
▁card	84
▁underground	84
▁consequence	84
▁grand	84
set	84
▁housed	84
▁Memorial	84
▁feel	84
▁rates	84
▁tanks	84
▁societies	84
▁survive	83
▁influences	83
▁municipalities	83
▁Studios	83
▁box	83
▁borders	83
German	83
ans	83
▁ministers	83
▁fate	83
▁effectively	83
▁actress	83
▁customers	83
▁Web	83
bel	83
▁Fleet	83
▁Samuel	83
▁else	83
▁chart	83
▁engineering	83
▁decides	83
▁assembly	83
▁appropriate	83
ex	83
▁saved	83
▁steel	83
▁Mor	83
▁actively	83
▁roots	83
▁supposed	83
sche	83
▁clothing	83
od	83
ud	83
▁mobile	83
▁soul	83
▁Medic	83
▁covering	83
▁operational	83
▁expand	82
▁changing	82
▁peak	82
▁followers	82
ff	82
▁Local	82
▁admitted	82
▁convince	82
▁Khan	82
▁alleged	82
burg	82
▁participating	82
ack	82
▁gun	82
▁Production	82
▁stores	82
▁racing	82
▁fame	82
▁losses	82
▁Der	82
▁rebels	82
▁coat	82
▁decline	82
▁poverty	82
▁Guinea	82
▁pictures	82
▁pull	82
ny	82
▁component	82
▁Sub	82
va	82
▁beauty	82
▁Hell	82
▁visits	82
▁hill	82
later	82
parliamentary	82
▁Moore	82
European	82
▁constitutional	82
▁sing	82
▁illustrated	82
▁vessels	82
▁departed	82
ors	82
▁Ki	82
drew	82
▁friendly	82
▁Ro	82
ep	82
▁apparent	82
▁Guide	82
▁NASA	81
▁Po	81
▁manufacturer	81
▁relevant	81
▁actors	81
▁Prussian	81
▁collapse	81
▁Near	81
▁Congo	81
▁drummer	81
▁fireworks	81
▁plot	81
▁surprise	81
▁MS	81
If	81
▁regulations	81
▁politicians	81
till	81
Š	81
▁Airlines	81
▁te	81
▁Pop	81
▁approached	81
▁kilometers	81
elle	81
▁patent	81
▁equilibrium	81
▁etc	81
▁generated	81
▁Construction	81
▁summit	81
▁celebrate	81
▁ocean	81
▁secular	81
bar	81
hose	81
▁Far	81
▁cells	81
▁comic	80
▁branches	80
▁facility	80
▁hidden	80
▁Antigonus	80
▁Dam	80
▁socialist	80
▁solve	80
▁Systems	80
▁revolutionary	80
▁genus	80
▁Val	80
▁Ukrainian	80
▁Nietzsche	80
▁pair	80
▁representing	80
▁lectures	80
▁assembled	80
▁speaking	80
▁proper	80
▁Spider	80
dy	80
▁Brigade	80
▁Romanian	80
▁corresponding	80
▁Gordon	80
▁perspective	80
▁architectural	80
▁vast	80
▁affair	80
▁instrumental	80
▁neighbour	80
ix	80
▁waters	80
▁Canal	80
▁Independence	80
▁Small	80
▁CEO	80
▁Alex	80
▁festivals	80
▁lake	80
▁enjoy	80
▁sisters	80
▁bar	80
▁pursue	80
▁Philadelphia	80
▁elsewhere	80
▁Type	80
▁structural	80
▁partners	80
▁wear	80
▁Days	80
ï	80
▁unsuccessful	80
▁Lieutenant	80
▁Iranian	80
▁citizen	80
▁victim	80
cho	80
▁Testament	80
▁Mission	80
▁battles	80
▁tourist	80
▁valuable	80
▁rescue	80
▁Where	80
▁inform	79
▁surrendered	79
ub	79
▁lose	79
▁voyage	79
▁Tim	79
▁Georgian	79
▁encourage	79
▁mm	79
ay	79
▁prevented	79
▁abolished	79
use	79
▁List	79
▁dominant	79
▁familiar	79
▁merchant	79
▁Father	79
▁seemed	79
▁renowned	79
ons	79
What	79
▁critic	79
▁Jimmy	79
ab	79
▁Hart	79
▁legislation	79
ju	79
▁Point	79
▁frequency	79
▁Henri	79
▁fine	79
zen	79
▁panel	79
▁Non	79
▁politician	79
▁municipal	79
▁Works	79
Ma	79
▁channels	79
▁Ju	79
▁Child	79
▁communist	79
▁colleagues	79
ng	79
▁bed	78
▁sustainable	78
▁solar	78
▁super	78
▁recovered	78
▁electrical	78
▁frequent	78
▁equipped	78
▁Disney	78
▁occasionally	78
▁Las	78
▁fan	78
▁Johnny	78
▁Anderson	78
▁enabl	78
▁Electric	78
▁debt	78
▁Ar	78
▁transportation	78
▁labour	78
▁Armenian	78
▁references	78
▁scheduled	78
▁Woman	78
▁Miami	78
▁guard	78
▁settlements	78
.”	78
cal	78
▁Dream	78
Q	78
▁reportedly	78
▁Orthodox	78
▁doubt	78
▁marine	78
▁Scientific	77
▁driven	77
▁motor	77
▁soldier	77
▁transported	77
▁prestigious	77
▁crash	77
▁Russians	77
▁cathedral	77
▁pianist	77
▁screen	77
ara	77
▁offering	77
▁differ	77
▁universal	77
▁seized	77
▁directors	77
ada	77
ow	77
▁displayed	77
▁Col	77
▁peaceful	77
▁vocal	77
▁temporarily	77
▁euro	77
▁Universal	77
▁distinction	77
▁cemetery	77
š	77
▁adopt	77
▁crucial	77
▁foot	77
▁Johannes	77
▁reaching	77
▁Broadway	77
▁Palestinian	77
▁Wild	77
▁Frans	77
▁jobs	77
▁personally	77
▁intellectual	77
▁decisive	77
▁unemployment	77
▁Colonel	77
▁Romania	77
▁stored	77
▁Pericles	77
▁presents	77
res	77
▁apart	77
fer	77
▁receives	76
▁algebra	76
▁indigenous	76
▁hero	76
▁Sa	76
▁Herman	76
▁Members	76
eur	76
my	76
▁psychological	76
▁Century	76
▁continuing	76
▁fourteen	76
▁waiting	76
▁eldest	76
▁operator	76
▁remainder	76
▁Charlie	76
▁defensive	76
ā	76
▁prepare	76
▁pp	76
▁dis	76
▁league	76
▁stake	76
▁evil	76
▁Wright	76
▁Ohio	76
▁Mrs	76
mont	76
▁administer	76
▁scientist	76
▁signs	76
▁crossing	76
▁crossed	76
▁lists	76
rum	76
▁Sound	76
▁Regional	76
▁insurance	76
▁dependent	76
▁Final	76
▁happy	76
▁guide	76
▁Manhattan	76
▁exercise	76
▁ball	76
▁Bern	76
▁Program	75
▁links	75
▁caus	75
▁Chile	75
▁Bulgaria	75
vin	75
▁Anton	75
▁arrives	75
▁vision	75
▁cargo	75
▁inner	75
▁styles	75
▁blind	75
▁restrictions	75
▁rose	75
▁onto	75
▁Athenian	75
This	75
▁mechanical	75
▁standing	75
▁opportunities	75
▁biography	75
▁Boys	75
▁maintenance	75
▁Friday	75
ative	75
▁particles	75
▁Marc	75
č	75
▁Wolf	75
▁Trans	75
▁humanitarian	75
▁weapon	75
most	75
▁Costa	75
▁premiere	75
▁arrive	75
▁latest	75
▁radiation	75
▁ongoing	75
▁Girl	75
▁lifetime	75
▁thesis	75
▁rural	75
▁recruited	75
star	75
▁Defence	75
▁Oliver	75
▁tool	75
▁adults	75
▁certainly	75
▁Start	75
straat	75
▁efficient	75
▁dissolved	75
ei	75
▁eleven	75
▁politically	75
▁geometry	74
▁amateur	74
▁feet	74
▁convention	74
▁Work	74
Madame	74
▁Action	74
▁manga	74
ren	74
▁SA	74
▁Sint	74
▁Nederland	74
ray	74
▁slowly	74
bert	74
▁error	74
▁audio	74
▁Adolf	74
ure	74
▁ABC	74
▁relatives	74
▁fund	74
▁credit	74
▁heat	74
▁Medal	74
▁soil	74
▁iron	74
▁euros	74
▁Cultural	74
▁cm	74
ska	74
▁Donald	74
▁solid	74
▁assist	74
▁Model	74
▁depicted	74
▁conclusion	74
▁advertising	74
▁completion	74
▁associations	74
▁server	74
▁Executive	74
▁Official	74
▁Defense	74
▁acquisition	74
▁charts	74
▁Energy	73
▁Norman	73
▁Camp	73
▁housing	73
▁contracts	73
▁employ	73
▁Heritage	73
▁residential	73
▁considerably	73
▁imposed	73
▁Franz	73
▁TMF	73
▁Data	73
bre	73
▁Estonia	73
▁gender	73
▁progressive	73
▁correspondence	73
▁shipping	73
▁casualties	73
▁Infantry	73
▁amounts	73
▁Command	73
▁commentary	73
▁expeditions	73
▁slavery	73
▁colonies	73
▁sailed	73
▁Philippines	73
▁essentially	73
▁Ferdinand	73
▁philosopher	73
▁Review	73
▁severely	73
eau	73
▁ally	73
▁Naval	73
▁Cold	73
▁zero	73
▁longest	73
▁na	73
▁straight	73
▁Pakistan	73
▁terminal	73
mp	73
▁succession	72
▁continent	72
▁reinforcements	72
▁temperature	72
▁diverse	72
▁demo	72
▁fit	72
▁Ball	72
▁documented	72
▁Kim	72
▁expelled	72
▁preserve	72
▁boats	72
▁sure	72
▁chemistry	72
▁Ivan	72
▁register	72
▁driving	72
▁convicted	72
▁acknowledged	72
▁Was	72
bra	72
▁confront	72
▁profit	72
▁falls	72
▁civilians	72
▁Brian	72
▁enable	72
▁Get	72
▁hot	72
▁suddenly	72
▁dancer	72
▁Virginia	72
▁eighteen	72
▁Nor	72
▁Television	72
▁criteria	72
▁priests	72
ari	72
▁generations	72
▁dies	72
▁Low	72
▁explosion	72
▁Theater	72
▁Skeptics	72
▁Commissioner	72
▁Joan	72
▁reconstruction	72
yan	72
ney	72
vis	72
▁Declaration	72
ability	72
▁experts	72
▁sleep	72
▁speakers	72
▁foundations	72
▁Dead	72
▁memorial	71
▁commented	71
▁trials	71
llied	71
▁Dick	71
▁Watch	71
ator	71
▁Monte	71
▁skin	71
▁journalists	71
Æ	71
▁promot	71
▁Control	71
▁forming	71
▁advocate	71
can	71
án	71
founder	71
▁inscription	71
My	71
▁psychology	71
▁Stars	71
▁rising	71
▁shops	71
▁relief	71
▁Future	71
▁favorite	71
▁aged	71
▁condemned	71
▁dialogue	71
well	71
bringing	71
▁Country	71
▁contacts	71
▁thanks	71
▁cancelled	71
▁tend	71
▁girlfriend	71
▁caught	71
▁ports	71
▁technologies	71
▁gallery	71
inus	71
▁producers	71
▁derive	71
▁increases	71
▁minimum	71
▁Carthage	71
▁Rio	71
▁joining	71
▁shut	71
▁Syracuse	71
▁investigated	71
▁Har	71
▁dismissed	71
▁awareness	71
▁bill	71
▁phenomena	71
▁reduction	71
▁Viking	71
ins	70
▁minority	70
▁Maastricht	70
▁Cathedral	70
life	70
▁spending	70
let	70
▁implement	70
our	70
▁Dave	70
▁Rob	70
▁rivers	70
▁treat	70
cus	70
▁convert	70
▁teach	70
▁infinite	70
▁confusion	70
▁grain	70
▁heads	70
▁fort	70
▁dimension	70
▁remembered	70
▁thirteen	70
▁emergency	70
ique	70
▁parish	70
▁tribe	70
▁Dewey	70
▁grant	70
▁chapters	70
▁Allies	70
▁stating	70
▁arguments	70
▁settlers	70
▁Ban	70
▁discussions	70
▁remove	70
French	70
cher	70
▁precise	70
ball	70
▁Gil	70
▁Nelson	70
▁Food	70
▁cattle	70
▁mechanism	70
▁Blood	70
▁Hot	70
▁Secret	70
▁elite	70
▁extensively	70
▁funeral	70
▁strengthen	70
▁controls	70
▁Hope	70
▁Op	70
▁Metropolitan	70
▁looks	69
▁grave	69
▁investigations	69
▁ensemble	69
▁belongs	69
▁atmosphere	69
▁Temple	69
▁flat	69
▁beat	69
▁empty	69
▁Sol	69
▁Johan	69
▁closer	69
▁Never	69
▁Aviation	69
▁Pe	69
▁Baby	69
▁Franco	69
▁speaks	69
▁Express	69
▁tourists	69
▁consultant	69
▁preferred	69
ring	69
▁symbols	69
rie	69
ü	69
pel	69
▁Apollo	69
▁Lithuania	69
mans	69
▁researcher	69
var	69
▁sentence	69
▁hear	69
don	69
▁danger	69
▁Win	69
Ö	69
▁earthquake	69
▁arose	69
▁appearing	69
▁Del	69
▁collective	69
▁murders	69
▁Nu	69
=	69
▁relat	69
▁owns	69
▁replac	69
▁tasks	69
▁Codex	69
▁guilty	69
▁explore	68
▁propaganda	68
▁Mayor	68
▁gay	68
ong	68
rove	68
▁attract	68
▁rulers	68
▁deliver	68
mark	68
ence	68
ru	68
▁Fish	68
▁consistent	68
▁rarely	68
ñ	68
▁Pi	68
▁Cat	68
▁discipline	68
uf	68
ran	68
▁stolen	68
SS	68
▁concrete	68
▁bears	68
▁stronger	68
▁stability	68
▁preparation	68
▁wave	68
▁Silver	68
▁Friedrich	68
ning	68
▁Plato	68
ene	68
▁Campaign	68
▁moves	68
▁Championships	68
ec	68
▁recommended	68
pen	68
▁Bur	68
▁wider	68
▁merchants	68
▁Se	68
▁catalogue	68
▁asking	68
▁neutral	68
▁identify	68
▁Hamilton	68
▁Observatory	68
▁Clinton	68
▁conventional	68
▁BCE	68
▁prince	68
▁phone	68
▁flowers	68
▁Nijmegen	68
▁Latvia	68
right	68
▁speaker	68
▁flank	68
▁agencies	68
▁attached	68
▁courses	68
▁Wind	68
▁Palestine	68
▁listen	68
▁comparison	68
▁Mountains	68
▁Oil	68
▁Ter	68
▁corruption	67
▁Austin	67
▁salt	67
▁Crown	67
▁Spring	67
▁Gallery	67
▁variable	67
▁lieutenant	67
▁Racing	67
▁forty	67
▁constantly	67
gu	67
▁Avenue	67
▁Berg	67
▁faction	67
▁fictional	67
▁Labour	67
▁argue	67
free	67
▁Kal	67
▁Yo	67
▁populations	67
▁personality	67
ize	67
▁funded	67
▁behaviour	67
▁Frisian	67
To	67
▁MTV	67
▁tribute	67
▁creative	67
▁sovereignty	67
▁Alice	67
▁Bos	67
▁Mon	67
▁repeatedly	67
▁skeptical	67
▁fortress	67
▁poly	67
▁detect	67
▁Policy	67
▁outbreak	67
▁gift	67
▁cited	67
▁Mother	67
▁ranks	67
▁Kent	67
▁erected	67
▁conservation	67
▁Robinson	67
▁Flagler	67
bach	67
▁bombing	67
▁consequences	67
▁Lincoln	67
▁Guy	67
llegedly	67
▁benefits	67
▁Tan	67
▁turns	67
▁mines	67
▁permanently	67
▁united	67
▁hearing	66
▁deployed	66
▁guidance	66
▁sum	66
ó	66
▁reviews	66
▁protocol	66
▁Lucas	66
▁appeal	66
▁columns	66
▁Chamber	66
▁loyal	66
▁competing	66
▁premiered	66
▁vessel	66
▁activists	66
stein	66
▁Fred	66
▁volunteer	66
▁relocated	66
▁Doctor	66
▁partial	66
▁wooden	66
▁Ice	66
▁finance	66
▁Webb	66
▁replied	66
▁Os	66
▁Bel	66
kan	66
▁colors	66
▁centers	66
▁interviews	66
▁stationed	66
▁Page	66
▁Kings	66
▁Gerard	66
▁Lost	66
▁Spirit	66
▁Brabant	66
▁gate	66
▁Lyon	66
▁Pennsylvania	66
▁namely	66
▁Croatian	66
▁explains	66
▁monks	66
▁manufacturers	66
related	66
▁Macedonian	66
▁marks	66
lying	66
▁Protection	66
TV	66
▁survivors	66
▁Robin	66
▁starred	66
▁delayed	66
▁tunnel	66
▁processing	66
▁inherited	66
▁meat	66
gy	66
▁Ger	66
ette	66
▁rational	66
▁Services	66
▁Gulf	66
▁mill	66
ft	66
▁fallen	66
▁Wilhelm	66
▁corner	66
▁Article	66
▁describing	66
▁illustrations	65
operation	65
▁Political	65
▁difficulty	65
▁fifty	65
▁locally	65
oni	65
▁Giovanni	65
▁RAF	65
There	65
▁usage	65
tta	65
that	65
des	65
▁matrix	65
▁assassination	65
head	65
▁immigration	65
▁broadcasting	65
eg	65
level	65
▁attitude	65
▁file	65
▁count	65
dom	65
▁Programme	65
▁household	65
▁restore	65
▁struck	65
▁Armenia	65
▁clan	65
▁Gothic	65
▁Syrian	65
▁coffee	65
▁walk	65
▁jury	65
▁widow	65
▁eat	65
▁drink	65
▁reliable	65
▁sciences	65
▁highway	65
▁faster	65
▁hunting	65
▁Say	65
▁interaction	65
▁comprehensive	65
ban	65
▁deals	65
state	65
{	65
▁inflation	65
▁reflected	65
▁navy	65
▁Late	65
▁Ya	65
▁enormous	65
nik	64
▁Deutsche	64
▁Independent	64
▁symbolic	64
▁Dis	64
▁Mad	64
▁Field	64
▁Hudson	64
▁attraction	64
▁supporter	64
▁laboratory	64
▁spin	64
▁Macedon	64
▁humanity	64
▁manufacturing	64
▁blow	64
ata	64
heim	64
▁filed	64
▁demolished	64
▁dozen	64
▁Daily	64
▁drinking	64
▁ordinary	64
▁Hugo	64
▁monk	64
▁Motor	64
▁equations	64
hour	64
stone	64
▁archives	64
▁catch	64
▁successes	64
specially	64
▁whil	64
▁parks	64
▁debuted	64
▁soft	64
▁Isaac	64
▁movies	64
▁unity	64
▁fresh	64
▁Theory	64
▁copper	64
▁presentation	64
▁peninsula	64
▁client	64
els	64
bank	64
elli	64
▁bass	64
▁coal	64
▁romantic	64
▁curve	64
▁mandate	64
▁cash	64
New	64
▁Kara	64
▁arrangement	64
▁rain	64
ians	64
▁raid	64
▁Greenland	64
▁Croatia	64
▁Ed	64
ku	64
▁yellow	64
▁roof	64
bol	64
▁Serbia	64
▁Yugoslavia	64
▁Mol	64
▁releases	64
▁freely	64
▁Girls	64
▁facilitate	64
▁Sur	64
▁unlikely	64
▁exceptional	64
▁Nature	64
▁astronomy	64
▁depth	64
▁dimensions	64
æ	64
▁Victor	63
▁garrison	63
▁Flight	63
▁alcohol	63
pro	63
▁demonstrate	63
▁sort	63
▁flew	63
▁Tsar	63
▁smallest	63
▁Lion	63
▁entity	63
▁Staff	63
▁earn	63
▁Ash	63
▁Regiment	63
▁Ra	63
▁cooperate	63
▁penalty	63
▁Commander	63
▁GT	63
▁Authority	63
▁topic	63
▁sacred	63
▁Nintendo	63
▁Ludwig	63
▁ruling	63
▁accompany	63
▁suspended	63
▁bound	63
enberg	63
▁investors	63
▁boundaries	63
▁Race	63
▁reunited	63
▁Others	63
▁territorial	63
▁survival	63
▁Mind	63
▁aviation	63
▁print	63
▁telling	63
▁CO	63
▁passes	63
▁intervention	63
▁mysterious	63
▁rings	63
▁wins	63
▁developer	63
▁consciousness	63
▁adaptation	63
▁normally	63
general	63
▁Julius	63
▁towers	63
▁neighbor	63
▁Vi	63
▁Nine	63
▁pregnant	63
▁produces	63
▁fewer	63
▁Michigan	63
rin	63
▁Anthony	63
▁Esperanto	63
▁valley	63
▁findings	63
▁Books	63
▁updated	63
▁seventh	63
▁DJ	63
▁FIFA	62
▁Russell	62
▁observation	62
▁Earl	62
▁Socialist	62
▁Toronto	62
▁Afterwards	62
▁Malta	62
▁Houston	62
▁stones	62
▁plus	62
▁venture	62
▁disputed	62
▁plague	62
▁colours	62
▁hop	62
▁labels	62
▁monthly	62
Don	62
iv	62
▁Johann	62
▁academy	62
▁squadron	62
kar	62
town	62
▁pseudonym	62
lan	62
zy	62
port	62
▁Again	62
▁topological	62
▁supplement	62
▁decorated	62
▁Ye	62
▁innovative	62
▁Challenge	62
▁Oscar	62
▁Tunisia	62
oc	62
▁Ham	62
▁clients	62
▁cult	62
▁Born	62
▁Min	62
▁generals	62
ano	62
▁Phillips	62
▁Za	62
▁welcomed	62
ı	62
▁advocated	62
language	62
two	62
Russian	62
▁recalled	62
▁congress	62
▁Frankfurt	62
▁se	62
▁circuit	62
▁citizenship	62
light	62
▁Stirner	61
▁travels	61
▁Dar	61
▁locomotive	61
Re	61
▁Faith	61
▁Gar	61
▁Th	61
▁equality	61
ń	61
▁variations	61
log	61
ona	61
×	61
coined	61
▁Adams	61
▁complicated	61
▁Next	61
▁fill	61
▁efficiency	61
▁Lloyd	61
▁Computer	61
▁add	61
▁Blues	61
▁besieged	61
▁reject	61
profit	61
▁Gaul	61
▁Sal	61
▁revised	61
▁limits	61
▁canal	61
▁Cologne	61
▁guests	61
▁indicates	61
▁signing	61
▁exported	61
▁Nation	61
▁judges	61
▁compile	61
▁Aires	61
▁investigate	61
▁Hawaii	61
▁systematic	61
On	61
..."	61
▁programmes	61
form	61
▁grandson	61
▁Morris	61
▁Ernst	61
▁Chairman	61
▁resumed	61
▁touring	61
▁urged	61
hy	61
▁furniture	61
▁occupy	61
▁feared	61
▁Gro	61
▁transmission	61
orum	60
▁degrees	60
▁Ancient	60
▁Left	60
▁auction	60
▁interesting	60
sis	60
▁remember	60
▁scholar	60
▁variation	60
▁afternoon	60
▁Douglas	60
▁Peru	60
▁Christopher	60
▁Danny	60
▁Hendrik	60
▁pairs	60
▁Hermann	60
▁counted	60
cat	60
▁sponsored	60
▁abandon	60
▁Cohen	60
▁competitive	60
▁Hardy	60
▁Nam	60
▁museums	60
▁Kane	60
▁temples	60
▁autobiography	60
▁window	60
▁millions	60
▁adding	60
▁crown	60
▁supplied	60
▁Twitter	60
▁Mill	60
▁Des	60
▁logical	60
▁hypothesis	60
▁Matthew	60
▁Patrick	60
▁brigade	60
▁invitation	60
▁Harold	60
▁Stalin	60
▁lie	60
▁Prague	60
▁sequel	60
tied	60
▁improvements	60
▁clock	60
▁improvement	60
▁photos	60
▁Istanbul	60
▁Mass	60
▁farms	60
▁separation	60
▁operas	60
▁mark	60
▁diversity	60
▁beach	60
din	60
▁hence	60
ew	60
▁architects	60
fo	60
▁celebration	60
▁PC	60
▁accurate	60
▁Stanley	60
▁aspect	60
top	60
ado	60
▁lasting	60
ð	60
▁Trust	59
Do	59
▁drivers	59
▁abilities	59
was	59
▁maritime	59
▁assume	59
▁Kar	59
ations	59
▁Nord	59
▁superior	59
All	59
▁dry	59
lived	59
▁combine	59
▁bronze	59
▁Par	59
▁essays	59
▁Nova	59
▁edge	59
▁desert	59
▁Commonwealth	59
org	59
▁civilization	59
▁correspondent	59
▁Boeing	59
▁mainland	59
▁Luke	59
▁violin	59
▁seeing	59
▁opponent	59
▁Moroccan	59
▁strengthened	59
▁emerging	59
▁pointed	59
▁tourism	59
▁wished	59
▁religions	59
▁im	59
▁pioneer	59
▁sand	59
▁improv	59
▁confused	59
▁Barbara	59
▁petition	59
▁Roosevelt	59
illa	59
▁divorced	59
▁Azerbaijan	59
▁submarine	59
▁Prussia	59
▁Bueno	59
▁revenue	59
▁scandal	59
▁detail	59
▁wild	59
▁ma	59
▁Lawrence	59
▁Darwin	59
▁ver	59
▁bird	59
▁descendants	59
▁Capital	59
▁sung	59
▁Agreement	59
page	59
▁neighborhood	59
▁Let	59
▁Building	59
▁undertook	59
▁objectives	59
▁colleague	59
▁respective	59
▁Stan	59
▁Season	59
dis	59
▁designation	59
▁criticised	59
▁Dor	59
▁Soul	59
▁construct	59
▁reporter	59
▁Jon	59
▁Abbey	59
▁Exchange	58
▁Olympics	58
▁forbidden	58
▁Arrow	58
▁twentieth	58
iel	58
ide	58
▁Klein	58
low	58
▁guilders	58
▁sequence	58
▁vector	58
▁tennis	58
▁Augustus	58
type	58
▁Chechnya	58
ero	58
▁shorter	58
▁Manchester	58
▁Estonian	58
▁Circle	58
gg	58
▁Hugh	58
▁Saturday	58
▁opinions	58
▁fairly	58
ella	58
▁Catholics	58
▁clothes	58
▁Nederlands	58
▁Interior	58
ett	58
▁Reich	58
▁Babylon	58
▁Che	58
▁exiled	58
▁explicitly	58
lar	58
TA	58
zo	58
▁unlike	58
▁estimates	58
▁proclaimed	58
min	58
▁gardens	58
▁Administration	58
▁dancers	58
▁artificial	58
▁belong	58
▁ballet	58
▁fighter	58
▁Para	58
und	58
▁imprisonment	58
▁transformation	58
▁sounds	58
▁conducting	58
▁specimens	58
making	58
▁deeply	58
▁ge	58
▁guarantee	58
master	58
▁Bobby	58
▁Scandinavian	58
▁perceived	58
hof	58
▁shooting	58
isch	58
▁Murray	58
▁Carlos	58
▁passing	58
▁{	58
▁Against	58
▁proportion	58
▁André	58
▁Sarah	58
▁Barry	58
▁impression	58
▁Zo	58
▁Harvard	58
lle	58
▁publishe	58
▁Laboratory	58
tus	58
▁destination	58
▁Pokémon	58
▁withdrawn	58
▁Beijing	58
▁intense	58
▁Sierra	58
▁Examples	58
▁hardware	58
▁Mario	58
▁cards	58
▁moderate	58
tis	58
▁h	57
▁ministry	57
▁outstanding	57
▁resolved	57
ries	57
▁Caroline	57
▁Philosophy	57
▁Amber	57
▁boundary	57
▁numbered	57
real	57
▁courts	57
▁mutual	57
▁helicopter	57
▁relate	57
▁reactions	57
▁Fa	57
tron	57
▁technological	57
▁Vegas	57
▁delegation	57
▁communications	57
mes	57
▁touch	57
▁readers	57
▁emigrated	57
▁proven	57
▁mi	57
▁proposals	57
▁faculty	57
▁symptoms	57
▁warning	57
▁zones	57
▁quoted	57
then	57
▁leg	57
▁warfare	57
▁Expedition	57
▁sends	57
ions	57
back	57
▁Muhammad	57
▁Chechen	57
▁Dog	57
▁Ram	57
▁ruins	57
▁rocket	57
▁Village	57
For	57
▁abbey	57
▁Bus	57
▁Pinkerton	57
▁noticed	57
▁linguistic	57
▁closure	57
▁voting	57
▁wearing	57
▁resignation	57
▁disbanded	57
▁Yu	57
▁tenth	57
▁fragments	57
▁sword	57
▁creates	57
▁injuries	57
▁Fe	57
▁chamber	57
▁mentor	57
▁circles	57
▁Any	57
▁posted	57
▁flags	57
▁distinctive	57
▁Note	57
book	57
▁net	57
aux	57
▁teachings	57
▁keeping	57
▁Bal	57
▁Cuban	57
az	57
▁Carolina	57
▁Neu	57
▁Villa	57
▁enterprise	57
▁Orania	57
▁AG	57
▁punishment	57
▁sugar	57
▁Bart	57
El	57
▁Bond	57
▁Competition	56
▁pursued	56
▁complet	56
▁serial	56
▁harbour	56
▁Vladimir	56
▁advised	56
del	56
▁bio	56
▁phrase	56
▁engineers	56
å	56
▁archaeological	56
▁significance	56
▁supervision	56
▁gap	56
▁pope	56
▁continuation	56
▁Michel	56
▁Via	56
▁sky	56
▁Auto	56
▁exposed	56
▁Stewart	56
▁dying	56
pri	56
rock	56
▁staged	56
arch	56
▁adj	56
▁Allen	56
▁sample	56
▁compensation	56
▁Glasgow	56
▁Sultan	56
▁Honor	56
▁Helen	56
▁Alexandria	56
founded	56
tur	56
▁maintains	56
▁consul	56
▁banking	56
▁Leon	56
▁beings	56
inger	56
▁Storm	56
▁trouble	56
▁Lisbon	56
▁crowd	56
▁hotels	56
nis	56
▁Chess	56
▁Kon	56
▁Fellow	56
▁compact	56
▁monetary	56
▁mistake	56
▁variants	56
▁Edinburgh	56
Be	56
ī	56
▁reserves	56
▁withdrawal	56
▁Serbian	56
▁Deputy	56
▁Virgin	56
▁blocks	56
▁tape	56
▁Colombia	56
▁Industrial	56
▁coin	56
atomic	56
▁overcome	56
▁Mann	56
zer	56
▁patient	56
▁Puert	56
▁abuse	56
ima	56
▁modular	56
hr	56
▁feminist	56
Al	56
▁tea	55
▁risks	55
▁fierce	55
▁Technical	55
▁separately	55
released	55
▁frame	55
▁Bi	55
▁naturally	55
▁smoke	55
▁Language	55
▁Former	55
▁Bosnia	55
▁Ryan	55
▁USSR	55
▁für	55
▁arriving	55
▁Blake	55
▁Im	55
▁Joint	55
▁honorary	55
▁Friends	55
▁mis	55
▁Fall	55
▁Ptolemy	55
▁ritual	55
US	55
▁questioned	55
▁grandmother	55
▁impressed	55
▁interface	55
▁renovation	55
▁discrimination	55
▁Riemann	55
▁Upper	55
▁resort	55
▁Nicholas	55
▁autonomy	55
▁paint	55
▁targets	55
▁moon	55
▁nobility	55
▁doctrine	55
▁Cal	55
▁examined	55
▁propose	55
enburg	55
▁managing	55
ros	55
▁studios	55
▁wait	55
▁Route	55
▁secretly	55
▁kills	55
▁competitions	55
▁closing	55
▁Ke	55
▁Steel	55
Or	55
▁heaven	55
▁Liberty	55
hal	55
ale	55
▁renewed	55
▁bones	55
▁legions	55
▁Dresden	55
ice	55
▁uncertain	55
chief	55
▁row	55
▁meantime	55
work	55
▁Snow	55
▁Glen	55
▁Bou	55
▁adoption	55
▁Right	55
▁Evans	55
▁travelling	55
▁freed	55
▁een	55
▁Jerry	55
itz	55
ert	55
▁challenged	55
▁migration	55
tje	55
▁ignored	55
▁remote	55
▁Protocol	55
vol	55
sson	55
▁Claude	55
una	55
eu	55
▁gene	55
stad	55
▁resident	55
▁Bruce	55
▁pattern	55
▁Massachusetts	55
▁Gate	55
▁Ta	55
▁roll	55
▁sheep	55
▁clean	55
ging	55
▁quick	55
act	55
▁Study	54
▁DC	54
▁nephew	54
▁Nazis	54
iz	54
▁myself	54
▁Felix	54
▁cat	54
quantum	54
▁paranormal	54
▁preparing	54
▁Collins	54
▁choir	54
sel	54
▁Hav	54
▁fortifications	54
▁Atheist	54
▁holiday	54
▁Arnold	54
▁Wrestling	54
▁organisms	54
▁Representatives	54
▁motto	54
▁Stadium	54
ula	54
▁Gas	54
▁Sp	54
▁settle	54
▁Thai	54
▁synthesis	54
▁centres	54
*	54
▁Erik	54
▁dress	54
▁escort	54
▁patrol	54
▁Marshal	54
▁remarkable	54
▁VII	54
party	54
▁Lang	54
▁adapt	54
▁ahead	54
▁Sha	54
▁tru	54
▁necessarily	54
▁Wi	54
nic	54
▁reaches	54
▁recovery	54
ische	54
▁conversion	54
▁Newton	54
▁delivery	54
▁Linux	54
▁organs	54
under	54
▁persecution	54
▁graphic	54
written	54
▁Mat	54
▁Solomon	54
ë	54
bu	54
▁resemble	54
▁Thirty	54
▁campus	54
▁Campbell	54
▁seeks	54
▁Apart	54
▁IBM	54
▁specimen	54
king	54
▁Naples	54
▁encounter	54
▁Dean	54
Me	54
Men	54
▁inaugurated	54
ants	54
▁Angola	54
▁Hebrew	54
Le	54
▁communicate	54
▁outcome	54
▁instruction	54
▁notice	54
▁Bor	54
▁mix	54
▁Strasbourg	54
▁Neo	54
▁facts	54
gan	54
▁rescued	54
▁Terry	54
rit	54
▁suspect	54
▁Reserve	54
▁sculpture	54
▁Celtic	54
▁uprising	54
▁liberation	54
▁invaded	54
▁Obama	54
sta	54
▁hostile	54
▁Gregory	54
▁Thompson	54
▁welfare	54
▁Marshall	53
▁horror	53
▁negotiated	53
▁deem	53
▁Sim	53
▁inhabited	53
▁UNESCO	53
▁excellent	53
▁masters	53
▁acid	53
▁utility	53
▁Main	53
band	53
▁Region	53
▁Masters	53
▁restricted	53
▁skill	53
▁fraud	53
▁Video	53
▁Batavia	53
▁governed	53
▁inscriptions	53
▁Subsequently	53
new	53
tz	53
▁essay	53
▁Lithuanian	53
▁dramatic	53
▁libraries	53
▁geographical	53
▁Side	53
▁presenter	53
ram	53
▁Beethoven	53
some	53
▁equally	53
▁Zone	53
went	53
ato	53
▁Au	53
▁push	53
aire	53
▁Software	53
▁examine	53
▁Sometimes	53
tion	53
▁tri	53
▁package	53
▁varieties	53
▁comparable	53
more	53
▁creator	53
▁conferences	53
▁Devil	53
ef	53
▁confirm	53
▁lowest	53
▁Place	53
▁Gra	53
▁Curaçao	53
▁Cairo	53
▁quantities	53
▁Potter	53
▁Stein	53
made	53
▁autonomous	53
An	53
▁ties	53
▁shock	53
ida	53
▁Mobile	53
▁hosts	53
▁Nero	53
▁Unit	53
▁Liverpool	53
▁Euler	53
▁Archbishop	53
▁meningitis	53
▁Manuel	53
▁blog	53
presumably	53
▁animated	53
▁Hal	53
▁Wat	53
▁monuments	53
▁breakthrough	53
▁Chapter	53
▁withdraw	53
▁regardless	53
ich	53
▁Voice	53
▁permitted	53
▁princes	53
▁theology	53
▁dialect	53
▁string	53
▁Hard	53
▁Diego	53
▁Engineering	53
▁opens	53
▁giant	53
▁Ga	53
▁LP	53
▁draft	53
▁bacteria	53
▁disputes	52
▁commanders	52
sized	52
▁regiment	52
▁dealing	52
ū	52
▁translations	52
▁Ever	52
▁Carlo	52
▁bond	52
elo	52
▁measurements	52
▁jointly	52
▁Watson	52
▁pilots	52
▁faces	52
▁freight	52
▁Char	52
▁Lou	52
▁valid	52
▁optical	52
▁doors	52
▁Jason	52
▁Angel	52
▁possessions	52
▁asylum	52
▁ambitious	52
▁graphics	52
▁equation	52
▁expectations	52
▁invested	52
▁Rudolf	52
▁Pu	52
▁Rhine	52
▁compromise	52
ane	52
▁uniform	52
▁ride	52
ranging	52
uz	52
▁Gustav	52
fe	52
▁Roy	52
▁forests	52
▁divorce	52
▁presidency	52
▁Fine	52
▁Julia	52
▁Agriculture	52
▁rear	52
▁Ian	52
▁goddess	52
▁Magic	52
▁industries	52
▁dollars	52
▁duet	52
▁victories	52
▁sings	52
su	52
▁implies	52
▁Ri	52
▁culminat	52
▁extraordinary	52
▁Ab	52
▁Phil	52
▁kinds	52
ile	52
▁Mur	52
ating	52
▁collapsed	52
▁ecological	52
▁workshops	52
▁Why	52
▁option	52
▁comprises	52
▁Tiger	52
▁plates	52
▁Nordic	52
▁Justin	52
▁infection	52
▁Take	52
▁terrorist	52
▁grid	52
▁Beatles	52
▁punk	52
▁economists	52
▁witch	52
▁mouth	52
▁businessman	51
▁Miles	51
▁conquer	51
▁Sen	51
▁Latvian	51
▁virus	51
tive	51
gra	51
▁wishes	51
▁Franklin	51
▁feeling	51
▁Productions	51
▁Tennessee	51
ova	51
▁doctors	51
▁Suzuki	51
lly	51
▁telephone	51
▁landscapes	51
▁Junior	51
▁Raymond	51
lmost	51
▁reserved	51
▁investigating	51
▁Gi	51
ré	51
▁Susan	51
▁Stock	51
▁elder	51
▁commercially	51
_	51
▁Volvo	51
▁spelling	51
▁passion	51
▁Cooper	51
▁Universe	51
▁literally	51
▁tensions	51
▁pain	51
▁Creek	51
▁Persia	51
▁fruit	51
▁Planet	51
▁Ajax	51
▁guidelines	51
tin	51
sz	51
▁Germanic	51
▁refuses	51
▁possess	51
▁mercenaries	51
▁Argentine	51
▁Baron	51
▁enlarged	51
iya	51
▁feelings	51
gar	51
▁Tra	51
è	51
▁bulk	51
pt	51
▁decree	51
▁crops	51
▁Lisa	51
▁financed	51
gue	51
▁strictly	51
ib	51
AM	51
▁snow	51
▁divine	51
▁guards	51
▁\	51
▁jump	51
ding	51
▁Georges	51
▁sight	51
▁reception	51
Love	51
▁Arabs	51
▁Stra	51
▁voices	51
▁Ridge	51
▁Fun	51
▁hiding	51
▁spectrum	51
▁fever	51
▁reverse	51
▁commemorate	51
▁Aristotle	51
▁Heaven	51
weg	51
ema	51
▁Pieter	51
▁fastest	51
▁FBI	51
▁negotiate	51
▁plastic	51
ase	51
▁chess	51
▁Europa	51
human	51
▁Turks	51
▁sat	50
rich	50
▁ca	50
shi	50
▁disc	50
▁Ser	50
▁Cartman	50
▁rape	50
▁Quartet	50
▁patterns	50
▁predicted	50
▁Ghost	50
▁Peninsula	50
▁embassy	50
▁farming	50
ama	50
ug	50
▁retreated	50
▁eliminated	50
▁filming	50
▁symmetry	50
▁custom	50
▁marketed	50
▁Limburg	50
▁quit	50
▁Sk	50
▁situations	50
▁Venetian	50
▁innovation	50
▁Dragon	50
horn	50
▁customs	50
pop	50
▁pour	50
▁praise	50
▁exhibit	50
▁Singapore	50
▁Minor	50
▁burning	50
even	50
▁pollution	50
▁resolve	50
▁upgraded	50
▁fortified	50
▁podcast	50
▁legally	50
▁admit	50
▁expect	50
▁Outside	50
▁feels	50
▁regiments	50
pl	50
acent	50
▁manufacture	50
▁priority	50
▁undertaken	50
▁Walker	50
▁anthem	50
▁feed	50
ux	50
ward	50
▁CBS	50
ath	50
ensis	50
governing	50
▁organize	50
ification	50
▁decoration	50
▁Carthaginians	50
▁sharing	50
▁magnetic	50
▁consecutive	50
▁Vincent	50
▁quantity	50
pan	50
▁neo	50
▁yield	50
▁operators	50
▁commit	50
▁Sydney	50
▁Cemetery	50
▁worker	50
▁Kan	50
▁assets	50
▁Deep	50
▁Expo	50
▁prayer	50
▁Organisation	50
▁blues	50
▁Crusade	50
▁Indians	50
▁payment	50
▁Taiwan	50
▁*	50
▁René	50
▁initiatives	50
▁holy	50
▁Ru	50
▁surfaces	50
▁missiles	50
▁Carter	49
▁villa	49
▁Down	49
▁Zoo	49
ink	49
▁gathering	49
▁refuge	49
One	49
▁Finance	49
▁Baker	49
▁dogs	49
▁Hilbert	49
world	49
organizing	49
▁dissertation	49
▁Knight	49
▁Wim	49
▁discontinued	49
about	49
▁Warren	49
▁Marcus	49
▁Constantine	49
▁sixteen	49
▁Flag	49
▁renovated	49
ware	49
▁achievement	49
▁Jupiter	49
Á	49
vir	49
▁detected	49
▁Caucasus	49
FM	49
mm	49
▁dancing	49
hen	49
▁Madagascar	49
▁corporate	49
▁interrupted	49
▁consortium	49
kh	49
▁spot	49
▁posts	49
▁sacrifice	49
ele	49
▁explicit	49
▁obesity	49
▁voiced	49
▁True	49
▁Digital	49
▁Lebanon	49
▁wings	49
▁Fourth	49
▁Lex	49
▁canon	49
▁automatically	49
▁pet	49
▁irrigation	49
▁Rail	49
hor	49
▁Kor	49
▁conspiracy	49
▁traveling	49
▁monarch	49
▁Delft	49
ala	49
▁Yet	49
list	49
▁vampire	49
▁Oslo	49
▁broader	49
▁repair	49
▁Mis	49
til	49
▁Baghdad	49
▁BMW	49
dra	49
▁privileges	49
▁jail	49
▁possessed	49
▁physically	49
▁starr	49
▁Melbourne	49
▁Reg	49
▁Environment	49
▁Elvis	49
ă	49
▁restaurants	49
▁depression	49
▁Sara	49
Best	49
▁Var	49
▁Champion	49
ible	49
▁Airways	49
St	49
▁varied	49
▁integral	49
▁Benjamin	49
▁heir	49
▁Sy	49
▁Know	49
▁el	49
▁tournaments	49
▁Mal	49
▁mail	49
▁Colorado	49
▁ideals	49
▁sick	49
▁Abu	49
▁factories	49
▁Classic	49
▁platforms	49
ste	49
▁select	48
▁Larry	48
▁dinner	48
▁usual	48
▁committees	48
▁Nepal	48
▁protein	48
▁pushed	48
length	48
▁legendary	48
▁nineteenth	48
ou	48
los	48
▁philosophers	48
▁Leipzig	48
▁championships	48
▁evacuated	48
ington	48
▁WWF	48
▁entities	48
▁Currently	48
▁tale	48
▁organic	48
▁Thousand	48
▁trend	48
▁Off	48
▁Icelandic	48
▁Ernest	48
▁commitment	48
▁Factory	48
▁Diamond	48
saw	48
▁northeast	48
gs	48
bro	48
▁railroad	48
▁Mercedes	48
▁sensitive	48
▁Limited	48
▁fighters	48
ić	48
▁strange	48
▁procedures	48
▁François	48
▁targeted	48
▁par	48
▁unveiled	48
AF	48
▁Salvador	48
▁Friendship	48
▁Wang	48
AT	48
▁Luc	48
▁reducing	48
▁backed	48
▁definitions	48
▁reporting	48
▁revived	48
▁Machine	48
▁Students	48
▁exploration	48
▁teeth	48
▁surprised	48
ava	48
▁textile	48
▁mathematicians	48
▁astronomical	48
▁dubbed	48
pre	48
▁Tre	48
borne	48
▁requirement	48
▁Train	48
▁lover	48
▁belonging	48
▁sectors	48
huis	48
▁happen	48
▁oversee	48
▁Graham	48
▁Shakespeare	48
▁Zu	48
▁noise	48
▁voters	48
▁shelter	48
af	48
▁legislative	48
▁neighbourhood	48
ø	48
▁Economics	48
par	48
▁Collection	48
▁Chan	48
▁bi	48
▁fires	48
▁Heinrich	48
five	48
▁Eight	48
▁ch	48
▁asthma	48
▁Mathematical	48
▁Base	48
▁mathematician	48
▁easier	48
ped	48
▁economist	48
▁preservation	48
▁MP	48
ua	48
▁fossil	48
▁spectra	48
▁Missouri	48
▁Baden	48
die	48
▁recover	48
▁physician	48
▁scholarship	47
▁Catalan	47
▁reopened	47
▁approaches	47
▁consensus	47
▁explored	47
▁servants	47
▁Truth	47
▁kilometres	47
▁impressive	47
▁Wil	47
▁scheme	47
▁Metro	47
▁Maritime	47
late	47
ee	47
idae	47
▁Kenya	47
▁syndrome	47
▁rotation	47
▁Fighter	47
▁agreements	47
▁encountered	47
▁provision	47
▁bases	47
▁Ring	47
▁Historical	47
▁oxygen	47
▁raising	47
▁lifestyle	47
lands	47
▁enhanced	47
▁CE	47
▁Senator	47
PR	47
▁Test	47
ain	47
▁tables	47
▁Francesco	47
▁Liberation	47
▁Bulgarian	47
▁refugee	47
▁loves	47
sha	47
▁installation	47
▁Shaw	47
▁predict	47
▁aggressive	47
board	47
▁hip	47
▁publishers	47
▁eventual	47
▁Smart	47
▁Spartan	47
▁shipped	47
▁milk	47
▁Libya	47
▁Trophy	47
val	47
▁sovereign	47
▁facto	47
▁Fisher	47
▁biology	47
▁broadcasts	47
ars	47
▁announce	47
▁Mas	47
▁Farm	47
▁periodic	47
▁remind	47
▁Gary	47
▁percentage	47
rom	47
▁Ad	47
▁challenges	47
▁Ur	47
▁Players	47
▁Lin	47
down	47
▁bread	47
▁constitute	47
▁Rogers	47
▁connects	47
▁deputy	47
uro	47
tas	47
Mo	47
As	47
▁wives	47
▁engagement	47
▁lab	47
▁para	47
▁Medicine	47
▁demonstration	47
▁Cinelerra	47
▁Resolution	47
▁metric	47
▁Mil	47
affiliated	47
▁matrices	47
▁Catherine	47
▁segment	47
▁tropical	47
▁recurr	47
rew	47
▁shore	47
▁genes	47
lus	47
▁bombs	47
ned	47
▁Steven	47
▁Carthaginian	47
▁Cook	47
▁proteins	47
lláh	47
▁openly	47
▁Memphis	47
▁instructions	47
▁Countries	47
▁attacking	47
gon	47
▁Marvel	47
▁Bon	47
▁declaration	47
▁occurring	47
dan	47
▁animation	47
▁Democracy	46
▁confrontation	46
tone	46
▁globe	46
▁privately	46
▁zoo	46
▁Concert	46
▁Amazon	46
▁Alaska	46
mb	46
▁expanding	46
Pro	46
▁salary	46
▁Mari	46
▁altar	46
▁mounted	46
▁desired	46
▁cinema	46
▁Wa	46
▁Electronic	46
▁medals	46
▁Cantillon	46
▁Cardinal	46
show	46
▁Kunst	46
▁measured	46
▁referr	46
▁Rockefeller	46
ğ	46
▁Clara	46
▁reward	46
▁judicial	46
▁facing	46
▁Sex	46
▁Pol	46
minute	46
▁Canterbury	46
SL	46
ML	46
▁Capitol	46
▁interpreted	46
▁anonymous	46
▁recommendations	46
West	46
▁carrier	46
▁planets	46
▁doctorate	46
▁warships	46
▁nationalist	46
▁parent	46
▁Norse	46
▁Kevin	46
▁Sahara	46
▁competitors	46
mond	46
▁brown	46
▁Financial	46
▁Bull	46
▁patron	46
▁Mauritania	46
▁mainstream	46
▁steam	46
▁Bach	46
▁Still	46
▁imported	46
▁Ministers	46
▁Gun	46
▁agrees	46
▁Ol	46
▁Arabian	46
▁engage	46
▁Justinian	46
▁steal	46
▁modest	46
botanical	46
▁kg	46
▁Hunter	46
▁fusion	46
▁respected	46
after	46
▁ADE	46
▁twin	46
his	46
▁Ste	46
▁Jamaica	46
▁hide	46
▁excluded	46
west	46
▁surgery	46
▁oblig	46
▁signature	46
Co	46
uff	46
▁Malaysia	46
▁testimony	46
▁revival	46
ites	46
AN	46
ges	46
▁Pascal	46
ag	46
▁eruption	46
▁navigation	46
▁Us	46
bri	46
▁geometric	46
▁torture	46
▁Venus	46
ello	46
▁Rico	46
▁worst	46
▁Support	46
▁fitted	46
▁servant	46
▁Monday	46
MA	46
ses	46
▁Pont	46
▁Humanist	46
ita	46
▁Ahmad	46
▁footage	46
▁repertoire	46
▁app	46
mos	45
▁thereby	45
▁Lenin	45
onic	45
▁compatible	45
▁Dynasty	45
▁sailing	45
▁stress	45
▁PS	45
▁Ci	45
▁realistic	45
▁census	45
▁Sto	45
▁licence	45
▁hostages	45
dia	45
▁Coll	45
brother	45
▁worship	45
▁Vancouver	45
▁loan	45
▁diesel	45
▁topology	45
non	45
▁Armstrong	45
▁signals	45
▁Monument	45
▁Georg	45
▁announcement	45
▁Philips	45
▁minimal	45
etti	45
▁carries	45
▁harsh	45
▁painters	45
▁notation	45
▁Zürich	45
udi	45
▁Ethiopia	45
had	45
▁Fifth	45
mat	45
▁Kr	45
▁Section	45
▁wore	45
uri	45
▁Kra	45
app	45
▁Cornelis	45
ther	45
▁striking	45
disciplinary	45
▁mono	45
▁departments	45
▁emissions	45
gin	45
▁pan	45
▁exposure	45
gel	45
▁motorcycle	45
▁nobles	45
▁Mak	45
▁Consequently	45
▁hills	45
▁Kate	45
▁feast	45
▁ages	45
▁profile	45
▁Mitchell	45
▁councils	45
▁bridges	45
hand	45
▁bare	45
▁Sar	45
▁performs	45
owned	45
▁Hand	45
▁counts	45
▁Legend	45
▁telescope	45
▁Ann	45
hin	45
▁populated	45
▁ancestors	45
▁Kyle	45
▁cruise	45
sol	45
▁Net	45
▁Tel	45
▁trends	45
▁Inside	45
▁depiction	45
▁HIV	45
mus	45
▁Aragon	45
ő	45
▁cave	45
▁Holocaust	45
▁revenge	45
▁Horn	45
▁Key	45
▁Báb	45
▁dispatch	45
▁Pedro	45
▁Bert	45
paia	45
▁reformed	45
qua	45
▁humanist	45
▁fun	45
▁sustainability	45
▁exclusive	45
▁honored	45
▁attractive	45
vid	45
loved	45
▁oppose	45
person	45
▁API	45
she	45
▁truck	45
ets	45
▁auto	45
▁check	45
▁Maarten	45
▁verse	45
▁inventor	45
▁falling	44
ell	44
▁Hence	44
▁poorly	44
▁investments	44
▁highlight	44
▁Tribe	44
park	44
▁Rats	44
ean	44
▁LGBT	44
▁bid	44
▁Found	44
vat	44
▁Euclidean	44
▁prompted	44
▁authored	44
▁Toward	44
▁Arena	44
▁tone	44
▁journals	44
▁Allah	44
▁console	44
▁files	44
▁regulation	44
oli	44
▁Turin	44
lon	44
▁electro	44
▁Bangkok	44
▁ammunition	44
▁Metal	44
▁junior	44
▁emotional	44
▁inquiry	44
▁referendum	44
▁answered	44
sar	44
dar	44
▁variables	44
▁naming	44
▁revision	44
▁Venezuela	44
Day	44
▁Victorian	44
▁GmbH	44
tier	44
▁Breton	44
▁Maurice	44
▁Cantor	44
▁ticket	44
▁warm	44
▁Mel	44
▁Billboard	44
▁Lucy	44
▁Marcel	44
▁incomplete	44
▁bankrupt	44
▁Bat	44
sse	44
▁Tell	44
fu	44
▁inheritance	44
hl	44
▁associate	44
mmer	44
▁pool	44
▁Wonder	44
▁contrary	44
▁squad	44
NA	44
▁Broadcasting	44
▁binding	44
▁translate	44
▁traced	44
qu	44
▁armor	44
far	44
▁kidnapped	44
▁bishops	44
▁racial	44
▁Often	44
▁Premier	44
▁sketch	44
▁crowned	44
▁mar	44
▁descriptions	44
▁shadow	44
▁Wagner	44
ante	44
▁Gilbert	44
▁rent	44
uka	44
▁forts	44
▁Charlotte	44
▁spreading	44
mun	44
▁sail	44
▁shortened	44
▁tag	44
▁mechanics	44
bus	44
▁Delta	44
▁angry	44
▁Ti	44
▁volcanic	44
▁Ontario	44
▁Less	44
▁plead	44
▁archive	44
▁Banks	44
▁firms	44
▁Mc	44
▁missed	44
▁entertainment	44
▁chocolate	44
▁Warner	44
▁forever	44
mu	44
▁conversation	44
▁Ny	44
▁intentions	44
▁Mongolia	44
▁missile	44
▁beaten	44
▁riots	44
▁Armed	44
tan	44
▁ninth	44
▁Jade	44
▁republican	44
▁dual	44
▁possibilities	44
▁j	44
▁forth	44
▁singers	44
cut	44
▁acceptance	44
▁ethical	43
▁organise	43
▁charity	43
▁Fame	43
▁Strong	43
▁historically	43
▁Training	43
ón	43
▁Va	43
▁vulnerable	43
▁threaten	43
▁atheist	43
ade	43
▁forc	43
▁Plus	43
▁root	43
▁invention	43
▁prosperity	43
▁Orleans	43
▁verses	43
▁Philippe	43
▁analytic	43
When	43
▁atheists	43
▁promise	43
▁regent	43
rian	43
▁Shin	43
▁Urban	43
▁vital	43
▁z	43
▁poets	43
▁Kerry	43
uch	43
▁Rod	43
▁Turner	43
▁Surinamese	43
▁cantons	43
▁Mercury	43
▁Magnus	43
▁Gabriel	43
kov	43
▁complained	43
▁concentrate	43
gr	43
▁Private	43
put	43
▁determin	43
▁solved	43
president	43
▁tours	43
▁Glass	43
▁afraid	43
▁Sophie	43
Comedy	43
▁combin	43
▁Kid	43
▁radar	43
▁accommodate	43
▁profession	43
▁detective	43
▁marginal	43
▁triumph	43
ée	43
▁Sz	43
▁proceeds	43
▁golden	43
▁messages	43
▁Already	43
▁bassist	43
win	43
▁capabilities	43
▁breeding	43
▁eighth	43
▁enrolled	43
▁Sel	43
▁Micro	43
▁Kiev	43
▁Run	43
▁lord	43
▁Scandinavia	43
▁ratio	43
tha	43
▁legitimate	43
selling	43
▁specified	43
▁Kill	43
▁Rich	43
▁consumers	43
▁circulation	43
▁Given	43
▁Officer	43
▁dissolution	43
▁stops	43
▁prohibited	43
▁shipyard	43
▁applies	43
▁Macintosh	43
gate	43
▁Illinois	43
▁loyalty	43
▁junction	43
▁Tar	43
▁Similar	43
▁Hi	43
▁allegations	43
▁handle	43
▁Baldwin	43
▁Ferrari	43
▁Kai	43
▁performers	43
▁powered	43
Muslims	43
▁consent	43
▁Week	43
English	43
▁Morning	43
▁Butler	43
▁sh	43
mel	43
▁pen	43
▁statistical	43
▁artifacts	43
▁provisions	43
▁Damascus	43
▁Rita	43
▁alphabet	43
▁specialist	43
▁achievements	43
▁prizes	43
▁arise	43
▁Intelligence	43
▁Sant	43
▁substance	43
▁emphasized	43
ious	43
▁machinery	43
▁Mason	43
▁statues	43
▁traces	42
▁algorithm	42
▁ter	42
▁Indo	42
room	42
▁Record	42
▁Siberia	42
▁artwork	42
play	42
▁financially	42
▁Serbs	42
ú	42
▁tactical	42
▁decreased	42
▁winners	42
▁requests	42
anti	42
▁wrestling	42
▁scope	42
▁Alps	42
▁winds	42
vert	42
▁pursuit	42
▁Common	42
▁Mid	42
int	42
rag	42
are	42
▁fo	42
▁orientation	42
▁pupils	42
▁aftermath	42
▁admired	42
▁domains	42
▁Wo	42
▁fantasy	42
▁Philippine	42
▁Kh	42
ani	42
▁countryside	42
▁Gogh	42
▁comments	42
▁unions	42
ologist	42
▁brands	42
eri	42
▁backing	42
▁theological	42
▁examination	42
▁lacking	42
▁counties	42
▁Vrij	42
▁swimming	42
▁observers	42
point	42
▁import	42
▁addresses	42
▁delay	42
▁raids	42
▁adequate	42
▁Gor	42
▁potentially	42
▁Southeast	42
▁Diana	42
zon	42
▁strip	42
▁Erasmus	42
▁Eddie	42
▁Bali	42
▁Aruba	42
She	42
▁bay	42
ris	42
▁commerce	42
▁interpret	42
▁boost	42
▁Yak	42
▁Paulo	42
▁substances	42
▁lung	42
werk	42
met	42
sport	42
▁Native	42
igo	42
▁basketball	42
▁sharp	42
▁Tree	42
ela	42
▁breed	42
▁memories	42
▁indicat	42
▁appealed	42
▁terminated	42
▁comment	42
▁viewers	42
▁worse	42
▁harm	42
▁ideology	42
▁fortune	42
▁Qu	42
▁divide	42
▁unexpected	42
▁schedule	42
▁documentation	42
▁regained	42
▁connect	42
▁hectares	42
▁monitoring	42
pp	42
}}	42
▁Com	42
▁sank	42
wan	42
▁reinforced	42
▁portray	42
▁Moses	42
ick	42
chin	42
▁gather	42
ē	42
▁favourite	42
tter	42
▁Shu	42
▁whatever	42
▁Direct	42
▁Ras	42
yo	42
▁tactics	42
▁hopes	42
▁Neil	42
rmal	42
▁Lower	42
▁Reformed	42
▁violations	42
▁workshop	42
▁Report	42
aided	42
▁Living	42
▁skepticism	42
▁vocals	42
thirds	42
▁sixty	42
▁forgotten	42
▁Gang	42
izing	42
▁phases	42
▁Well	42
▁comparative	42
▁trips	42
▁prayers	42
▁geological	42
▁mosques	42
▁Jay	42
▁shopping	42
▁mu	42
▁Rica	42
governmental	42
▁protesters	42
▁Nash	41
▁elementary	41
nen	41
▁Haarlem	41
iro	41
▁Chester	41
▁organizes	41
▁fee	41
Ra	41
▁registration	41
ments	41
▁Shell	41
della	41
▁diameter	41
▁preceded	41
▁Nathan	41
▁Ros	41
dic	41
▁bankruptcy	41
▁cloud	41
▁Skeptical	41
▁descent	41
▁Casa	41
▁complement	41
▁compounds	41
ichi	41
▁Word	41
▁WWE	41
▁codes	41
▁injury	41
▁arrangements	41
▁Horse	41
▁pyramid	41
▁economies	41
owed	41
▁failing	41
▁attending	41
▁Dal	41
▁spark	41
▁colleges	41
▁Hat	41
▁Had	41
▁Card	41
▁planes	41
modern	41
its	41
▁radioactive	41
▁realised	41
▁healthy	41
▁Teatr	41
▁drop	41
▁Plant	41
▁Cicero	41
▁Zero	41
▁Tommy	41
▁Algeria	41
cen	41
▁mechanisms	41
▁Hil	41
▁fulfill	41
▁treatise	41
▁Ambassador	41
▁Religion	41
▁deported	41
gal	41
▁mixture	41
ified	41
▁Box	41
ido	41
▁Version	41
▁Je	41
▁Tin	41
▁coordinate	41
▁estimate	41
▁devastated	41
▁famine	41
▁Industry	41
▁flood	41
▁qualified	41
▁Hunt	41
▁mythology	41
▁RTL	41
there	41
▁kingdoms	41
eh	41
▁Cho	41
▁Survey	41
ş	41
▁Industries	41
▁harvest	41
len	41
▁Buddhism	41
▁convoy	41
▁Pyrrhus	41
olo	41
meter	41
adi	41
▁Birmingham	41
▁ceremonies	41
tte	41
Bas	41
jar	41
▁Movie	41
eb	41
▁performer	41
▁Zee	41
phi	41
▁reconciliation	41
▁rivalry	41
▁commenced	41
▁oath	41
▁intelligent	41
▁walking	41
▁Want	41
▁Harris	41
▁Literature	41
▁Palm	41
▁Salt	41
▁Gay	41
▁Beat	41
pu	41
kai	41
▁measurement	41
▁rely	41
avi	41
▁photograph	41
▁Kurdish	41
▁rating	41
▁insects	41
▁Spartans	41
ides	41
lam	41
▁tension	41
▁incidents	41
▁interactions	41
▁remix	41
bul	40
▁revenues	40
▁dynamic	40
▁continental	40
▁successors	40
▁Herbert	40
▁Pur	40
▁Soviets	40
cio	40
▁Comics	40
▁Ward	40
▁Stuart	40
ear	40
ture	40
▁Half	40
tech	40
▁Vario	40
▁excavations	40
garde	40
▁Environmental	40
▁Fantasy	40
▁vertical	40
▁Conservatory	40
▁rapper	40
▁Bro	40
▁index	40
▁Grande	40
osi	40
▁DB	40
▁supposedly	40
▁repeat	40
▁incorporate	40
May	40
▁Mozart	40
▁formulated	40
▁Herzegovina	40
▁seeming	40
▁Tor	40
▁NBC	40
▁persuaded	40
▁governance	40
▁windows	40
▁Dag	40
▁paying	40
national	40
▁resign	40
▁undergo	40
lis	40
▁competitor	40
▁proud	40
row	40
▁Protestants	40
▁breaking	40
▁Bruno	40
▁frequencies	40
▁Continent	40
▁missionaries	40
connecting	40
▁les	40
▁replica	40
coming	40
▁concludes	40
fra	40
ben	40
▁pupil	40
▁protagonist	40
ingen	40
ping	40
▁atheism	40
▁Exhibition	40
▁drums	40
▁tenor	40
▁nevertheless	40
▁chef	40
▁Danube	40
▁seventeen	40
Art	40
▁electora	40
▁Grammy	40
▁Workers	40
▁routine	40
▁Kennedy	40
▁invite	40
▁Catholicism	40
CD	40
▁Experience	40
▁Jong	40
▁sudden	40
▁Shanghai	40
▁Rain	40
▁Detective	40
▁Edgar	40
▁Guards	40
▁minute	40
fall	40
▁Grace	40
▁properly	40
▁Classical	40
▁Kids	40
▁Gibraltar	40
lum	40
▁Amy	40
▁Adventures	40
▁terrain	40
▁conjecture	40
▁dialects	40
▁diseases	40
▁diary	40
▁Reagan	40
EC	40
▁Helsinki	40
Brien	40
▁bigger	40
aki	40
▁removal	40
▁Charter	40
▁Mus	40
duc	40
lay	40
▁conceived	40
▁emigration	40
pol	40
▁primitive	40
▁Flying	40
▁Arctic	40
▁Nothing	40
▁Crisis	40
▁errors	40
▁conventions	40
▁shoot	40
▁Piano	40
Bo	40
▁Picasso	40
▁smooth	40
▁drafted	40
gre	40
▁Dexter	40
▁intermediate	40
▁Welsh	40
vit	40
place	40
▁trademark	40
ea	40
▁Working	40
▁Constantius	40
▁Diodorus	40
pos	40
▁Foot	40
▁reconstructed	40
▁elephants	40
cle	40
▁sphere	40
▁demanding	40
▁Sin	40
▁Panama	40
▁minorities	40
▁cab	40
▁IX	40
▁Has	40
evolutionary	40
▁predominant	40
▁contributing	40
▁confidence	40
▁websites	40
uck	40
▁demonstrations	40
ional	40
▁Notes	40
IN	40
▁doubled	40
uni	40
▁reconcile	40
▁Ballet	40
▁Habsburg	40
▁Gray	40
▁Roberts	40
▁Camillus	40
^	40
▁nurse	39
▁prophet	39
▁plain	39
rus	39
▁Institution	39
dijk	39
month	39
▁Personal	39
▁Nieuwe	39
▁vacation	39
▁Cabinet	39
▁Genoa	39
▁acoustic	39
▁Lane	39
lets	39
▁enters	39
▁professionals	39
▁Chronicle	39
▁documentaries	39
▁Grey	39
▁tram	39
▁Reichs	39
▁Harrison	39
▁Brand	39
▁mini	39
▁Ronald	39
▁abbot	39
▁Julie	39
▁rally	39
▁disorder	39
▁Wayne	39
▁Make	39
oku	39
▁Legion	39
▁Beginning	39
▁oriented	39
▁Versailles	39
▁Mun	39
▁molecular	39
▁violation	39
SO	39
▁Nixon	39
▁fatal	39
▁Wu	39
▁Mé	39
pin	39
▁Railroad	39
▁inaugura	39
dale	39
ston	39
phy	39
▁subjective	39
▁surname	39
▁missionary	39
▁Highway	39
▁warriors	39
▁brigades	39
▁enforcement	39
▁copyright	39
WA	39
lock	39
raced	39
ios	39
ía	39
▁carriers	39
▁Blair	39
hill	39
▁coincide	39
▁raw	39
▁comet	39
▁Perdiccas	39
▁resume	39
▁Advisor	39
”,	39
▁Priestley	39
▁cameras	39
▁Confederate	39
▁vol	39
TO	39
▁prosperous	39
▁Being	39
▁contents	39
▁Songs	39
CF	39
ern	39
▁Kelly	39
CP	39
▁Case	39
▁Have	39
▁sponsor	39
▁cuts	39
unt	39
▁compound	39
▁insisted	39
rop	39
▁Basel	39
▁expense	39
▁confiscated	39
▁Bruges	39
▁Emma	39
▁Block	39
DE	39
▁Tur	39
▁Marco	39
▁Got	39
▁Railways	39
▁Augustine	39
▁Gospel	39
▁squares	39
▁saving	39
▁vocalist	39
▁pirates	39
▁badly	39
▁bundle	39
▁editorial	39
▁preceding	39
▁diagnosis	39
▁Uruguay	39
▁tenure	39
▁tail	39
▁clinical	39
Rocky	39
▁chains	39
▁ghost	39
▁pension	39
▁authorized	39
▁dances	39
▁struggles	39
▁Dun	39
▁indication	39
bin	39
▁editors	39
▁atlas	39
▁debts	39
▁Einstein	39
▁predecessors	39
▁hospitals	39
▁practiced	39
▁Dominican	39
▁rebuild	39
▁consideration	38
▁suit	38
▁handled	38
▁Rutherford	38
▁Name	38
▁OS	38
▁Alfonso	38
responsibilities	38
▁Cole	38
east	38
▁geo	38
▁searching	38
▁nervous	38
▁Lhasa	38
▁decrease	38
▁therapy	38
▁hyper	38
▁tonnes	38
▁Jules	38
▁bombardment	38
▁respond	38
▁Bu	38
▁Guerrero	38
▁discoveries	38
▁managers	38
▁Large	38
ue	38
▁Meeting	38
▁innocent	38
▁Jin	38
▁Fat	38
matic	38
▁gates	38
bl	38
▁airports	38
▁waves	38
▁Tiberius	38
▁download	38
▁lady	38
▁Spencer	38
ques	38
▁hybrid	38
▁epidemic	38
▁happens	38
▁Student	38
▁Yellow	38
▁Eye	38
▁container	38
▁Chechens	38
▁quiet	38
▁legacy	38
▁evident	38
▁Veronica	38
▁intact	38
▁Popular	38
▁disk	38
▁romance	38
▁Revolutionary	38
rick	38
lich	38
▁Westminster	38
▁retail	38
ière	38
▁weakened	38
▁Keith	38
▁eliminate	38
▁summon	38
▁temperatures	38
▁Kansas	38
⁄	38
produced	38
ple	38
▁lakes	38
▁Stage	38
poli	38
▁transit	38
▁foster	38
▁Desert	38
▁Edition	38
▁graduation	38
▁mirror	38
▁marriages	38
▁alien	38
ob	38
▁Tele	38
▁Wikipedia	38
▁Shadow	38
▁Roll	38
ín	38
▁Herald	38
▁exposition	38
▁Nonetheless	38
▁Bergen	38
production	38
▁bicycle	38
▁climb	38
▁Nacional	38
▁Pet	38
▁certification	38
▁Rau	38
shin	38
That	38
▁Swedes	38
▁judgment	38
▁Hills	38
ž	38
ky	38
▁layer	38
▁Reynolds	38
burn	38
▁AM	38
▁thinks	38
RA	38
▁Cer	38
iff	38
▁Mohamed	38
▁preparations	38
▁abolition	38
zzi	38
lit	38
▁Slim	38
▁geography	38
▁integrity	38
▁debates	38
▁intent	38
▁explaining	38
ugh	38
▁Sisters	38
osaurus	38
how	38
wide	38
ult	38
EU	38
▁costumes	38
▁Wallace	38
▁deceased	38
▁ultimate	38
▁functioning	38
Saxon	38
▁unified	38
▁Italians	38
▁Total	38
▁explosive	38
▁afford	38
▁sitting	38
▁trucks	38
▁particle	38
CO	38
▁Yale	38
kom	38
ect	38
ige	38
▁Sherman	38
▁acquire	38
▁flute	38
▁Wing	38
order	37
worth	37
moto	37
▁HD	37
▁Northwest	37
▁Using	37
▁rounds	37
▁Budapest	37
▁neighbours	37
▁Domitian	37
rr	37
▁Belgrade	37
▁detained	37
▁Elisabeth	37
▁Cu	37
▁Mathematics	37
cross	37
yne	37
▁battlefield	37
▁maker	37
▁Ve	37
▁Reform	37
▁witnesses	37
Ō	37
ye	37
▁Lange	37
lov	37
▁massacre	37
▁conceptual	37
ches	37
▁Bonn	37
▁Exposition	37
▁rice	37
▁absent	37
▁Greg	37
▁provisional	37
▁yearly	37
▁Bird	37
▁nights	37
absolutely	37
▁productive	37
▁thrown	37
mit	37
orn	37
published	37
ör	37
▁Talpa	37
▁determination	37
▁tune	37
ald	37
▁span	37
ivity	37
▁Thursday	37
▁Jonathan	37
ère	37
▁observatory	37
▁tobacco	37
▁Mali	37
OR	37
▁Annie	37
▁Gos	37
▁accusations	37
▁Leuven	37
▁mortality	37
▁informal	37
▁Coors	37
▁Volume	37
Ho	37
▁fragment	37
▁Hyman	37
▁Indiana	37
▁profits	37
▁Rex	37
▁Nar	37
▁Von	37
▁taste	37
▁alternate	37
▁ceasefire	37
▁update	37
volume	37
▁Bremen	37
rot	37
▁Hood	37
winning	37
aga	37
▁Louise	37
▁Trial	37
▁Senior	37
▁aboard	37
▁arguing	37
▁gang	37
▁continuously	37
▁Ultimately	37
▁dressed	37
une	37
▁Own	37
▁poll	37
▁Self	37
▁credits	37
▁Finn	37
▁unrest	37
▁Stirling	37
SA	37
NS	37
▁sketches	37
▁axiom	37
▁Clarke	37
uur	37
▁develops	37
▁Lola	37
▁coverage	37
And	37
bor	37
▁talking	37
▁Male	37
▁detection	37
▁approaching	37
▁Barbauld	37
▁memoir	37
▁ceremonial	37
▁Ven	37
▁Normandy	37
▁Paolo	37
They	37
▁Liberal	37
▁Harbor	37
▁isolation	37
▁Josh	37
▁Marx	37
▁Mini	37
▁elderly	37
▁Eindhoven	37
lim	37
ira	37
▁magical	37
py	37
▁Wilhelmina	37
▁weekend	37
▁careers	37
Ha	37
▁VIII	37
▁outer	37
▁Commerce	37
▁neoclassic	37
▁speeches	37
rt	37
▁semantic	37
▁pilgrims	37
▁sailors	37
▁monasteries	37
▁Professional	37
rk	37
▁pe	37
Con	37
BL	37
▁bottom	37
▁survives	37
▁Bri	37
▁Vision	37
▁calm	37
zar	37
▁Rather	37
▁factions	37
▁Macedonia	37
▁valued	36
high	36
▁None	36
OS	36
▁guided	36
aine	36
▁sometime	36
▁consumed	36
▁Indeed	36
▁AP	36
▁apartments	36
ought	36
▁archbishop	36
World	36
▁submarines	36
▁seed	36
maker	36
only	36
▁input	36
▁algebras	36
▁reasonable	36
▁Stefan	36
▁Bologna	36
▁assignment	36
▁Advanced	36
▁Novgorod	36
▁excavated	36
▁Jake	36
▁Pearl	36
▁courage	36
Ar	36
▁devised	36
▁dust	36
II	36
kel	36
▁careful	36
▁Edison	36
▁Labor	36
▁arrange	36
▁neck	36
▁payments	36
wick	36
▁Hour	36
▁servers	36
▁Him	36
▁Smit	36
▁Owen	36
▁binary	36
▁Operations	36
▁battery	36
▁intend	36
▁Bass	36
▁myth	36
▁coordinates	36
▁varies	36
▁Bio	36
▁inspection	36
▁embrace	36
▁Dawn	36
▁plate	36
mber	36
▁adviser	36
▁Summit	36
▁AC	36
▁Rhodes	36
usa	36
▁Ly	36
▁Perry	36
▁journalism	36
▁canceled	36
bil	36
▁sacked	36
▁ac	36
▁jurisdiction	36
ox	36
▁shoes	36
▁grade	36
▁strongest	36
ico	36
▁optimal	36
▁Dou	36
zel	36
▁frontier	36
▁probability	36
▁overthrow	36
ters	36
▁Pete	36
▁hometown	36
▁Nan	36
▁coordinated	36
▁treaties	36
▁patents	36
▁Come	36
▁skilled	36
▁Similarly	36
▁veterans	36
oe	36
▁Eyes	36
▁"...	36
▁constituted	36
IM	36
▁masses	36
ders	36
▁Store	36
▁subordinate	36
▁Pier	36
▁estates	36
▁Cut	36
▁annexed	36
▁midnight	36
nal	36
▁Boris	36
▁satisfied	36
except	36
▁contracted	36
▁Bangladesh	36
▁nomination	36
▁counterpart	36
▁Walk	36
▁Augusta	36
▁}	36
▁graves	36
NI	36
▁cotton	36
▁Friedman	36
▁Pole	36
mil	36
▁killer	36
▁disappearance	36
▁identification	36
▁assassinated	36
▁Guardian	36
▁intervene	36
▁Player	36
pass	36
▁couldn	36
▁nationalism	36
▁Core	36
box	36
▁nave	36
▁delegates	36
▁terrorism	36
▁ranges	36
▁Folk	36
▁Duchy	36
▁peacekeeping	36
▁Atlas	36
▁accomplished	36
▁segments	36
▁eternal	36
▁releas	36
mir	36
▁projective	36
▁aunt	36
▁Gott	36
▁welcome	36
▁Mala	36
▁rented	36
▁surveillance	36
▁sufficiently	36
▁Ce	36
▁monumental	36
ende	36
▁Ai	36
▁Color	36
▁answers	36
▁regulated	36
▁transmitted	36
▁corporations	36
▁Cleveland	36
▁Belfast	36
ali	36
▁Jessica	36
▁preference	36
av	36
▁IWL	36
▁flora	36
▁promising	36
where	36
▁Talk	36
▁Planning	36
▁Corinth	36
▁differential	36
▁Curtis	36
▁metals	36
▁Siam	36
▁astronomer	36
▁Faculty	36
▁Stories	36
▁silence	36
▁po	36
How	36
anda	36
▁Easy	36
eastern	36
▁Montenegro	36
aba	35
▁guaranteed	35
▁helicopters	35
March	35
▁Coalition	35
▁adventure	35
▁functionality	35
▁franchise	35
▁oppos	35
▁insight	35
▁Perhaps	35
▁passionate	35
▁naked	35
▁vers	35
▁coaches	35
▁Bran	35
▁Hundred	35
erman	35
▁Shah	35
▁Comp	35
▁Principles	35
▁resist	35
▁Rad	35
plein	35
▁Neumann	35
▁battalion	35
▁poetic	35
▁mystery	35
▁Vera	35
▁slogan	35
▁commands	35
sey	35
▁Ag	35
nan	35
▁craft	35
▁Atlanta	35
▁Leonard	35
▁exploitation	35
▁Depend	35
▁Porsche	35
▁Holmes	35
oriented	35
Marie	35
▁attributes	35
nia	35
▁certificate	35
▁Confederation	35
▁q	35
▁Giuseppe	35
▁gameplay	35
▁inclusion	35
kon	35
▁Index	35
▁Communication	35
▁simplified	35
▁recruit	35
▁Brittany	35
pot	35
▁conjunction	35
▁Original	35
▁Choice	35
▁Vries	35
▁paradox	35
▁Christie	35
▁Eduard	35
▁Buck	35
▁Pen	35
ising	35
▁Rosa	35
▁boyfriend	35
▁summary	35
▁admiral	35
gaining	35
▁senator	35
▁Leeds	35
▁Ze	35
▁individually	35
▁Criminal	35
ock	35
IP	35
▁eligible	35
▁faithful	35
▁creatures	35
▁irregular	35
titled	35
▁acclaimed	35
since	35
▁choreographer	35
▁employee	35
bridge	35
▁matern	35
▁liquid	35
▁advances	35
▁publicity	35
pur	35
▁Hus	35
SC	35
ena	35
▁duke	35
dal	35
elected	35
▁reflection	35
Paris	35
▁Vampire	35
▁talents	35
eff	35
▁stimulate	35
lia	35
▁Tak	35
▁posed	35
▁Inuit	35
dam	35
▁graduating	35
hir	35
▁Linda	35
▁marble	35
▁pronounced	35
▁Sebastian	35
▁Prison	35
▁sizes	35
▁Luigi	35
▁halted	35
▁knowing	35
▁hate	35
▁Geo	35
▁capitalism	35
▁thoughts	35
shu	35
DS	35
series	35
▁blame	35
ines	35
mnesty	35
▁Churchill	35
▁fi	35
▁eating	35
although	35
▁Tai	35
▁accession	35
▁Toulouse	35
▁Care	35
▁proximity	35
▁collaborate	35
▁homeless	35
▁Chapel	35
▁Fro	35
▁corporation	35
President	35
▁customer	35
oi	35
▁Mikhail	35
▁Zen	35
ER	35
▁transformations	35
▁notions	35
▁watching	35
▁Crimea	35
▁Ana	35
▁Ellen	35
▁flown	35
Te	35
▁Mafia	35
▁northwest	35
▁Sand	35
▁Eu	35
▁Ton	35
▁density	35
▁Pink	35
▁electronics	35
▁exhibits	35
▁Dom	35
▁talented	35
▁entries	35
▁dollar	35
▁adventures	35
▁Dennis	35
▁Ammianus	35
▁gifts	35
▁meanwhile	35
▁ferry	35
▁wears	35
PA	35
▁Heine	35
▁crack	35
week	35
▁supervisor	35
▁CEN	35
▁homeland	35
▁Kosovo	35
Arabic	35
`	35
▁staying	35
gricultural	35
▁walked	34
▁multiplication	34
▁Castro	34
press	34
▁pregnancy	34
▁biographer	34
▁diet	34
▁tortured	34
las	34
lli	34
will	34
▁adjust	34
▁Vin	34
▁Burton	34
▁Relations	34
▁protested	34
▁Twin	34
▁proponent	34
▁Kre	34
▁Witnesses	34
▁Chad	34
▁southwest	34
▁Craig	34
▁dome	34
▁spy	34
▁Eve	34
▁horizontal	34
▁Nashville	34
▁Prophet	34
▁drowned	34
▁Meyer	34
tag	34
▁Helena	34
▁Mambo	34
▁reads	34
MP	34
▁automatic	34
▁Bla	34
▁certified	34
▁Artists	34
ere	34
▁Senegal	34
citing	34
ition	34
▁comedian	34
nl	34
Li	34
gem	34
▁bull	34
▁Keynes	34
▁Body	34
▁Tang	34
▁likewise	34
▁complaints	34
ute	34
π	34
▁Ober	34
▁Communications	34
uc	34
▁bitter	34
▁odd	34
▁Generation	34
▁Speed	34
▁proofs	34
▁Venezuelan	34
▁unofficial	34
▁Teresa	34
▁Verdi	34
▁Face	34
▁Das	34
een	34
▁Neith	34
koda	34
▁disappear	34
▁perception	34
▁crush	34
wed	34
▁Belarus	34
▁Nationale	34
▁illustrator	34
▁Chemical	34
▁mild	34
▁meter	34
chan	34
▁Andy	34
▁weigh	34
▁composing	34
▁Dala	34
atic	34
▁economically	34
▁Maj	34
▁Fi	34
▁shield	34
aka	34
▁memoirs	34
▁Aztec	34
î	34
▁stem	34
▁organist	34
▁yards	34
▁silent	34
▁Ak	34
▁fights	34
▁Madison	34
▁lesser	34
▁Isle	34
owing	34
▁overseas	34
▁Stones	34
▁Stern	34
▁Critics	34
▁interpretations	34
▁boss	34
▁southeast	34
NE	34
▁Pass	34
▁Carnegie	34
▁continents	34
▁Door	34
▁villagers	34
▁Sharpless	34
▁Kurt	34
▁railways	34
ographic	34
ction	34
▁options	34
▁angels	34
▁pilgrimage	34
▁Pla	34
aert	34
▁Rwanda	34
▁Carmen	34
▁Return	34
▁Spa	34
▁gains	34
▁cup	34
has	34
▁motorway	34
▁exercises	34
dag	34
nna	34
▁random	34
▁Buddha	34
▁songwriter	34
religious	34
▁Slovak	34
boat	34
▁hostage	34
▁grammar	34
▁deportation	34
▁Res	34
▁defin	34
▁dedication	34
▁surroundings	34
▁triangle	34
▁bars	34
▁cube	34
▁orbit	34
▁custody	34
▁ro	34
▁observer	34
▁designers	34
▁Thor	34
▁Ottomans	34
▁immense	34
▁moments	34
▁wake	34
▁pole	34
ender	34
▁precisely	34
▁anthology	34
▁blockade	34
jin	34
▁precursor	34
▁Maryland	34
▁prostitution	34
▁inland	34
▁je	34
▁Noord	34
third	34
▁descended	34
believing	34
▁accuracy	34
▁authenticity	34
▁Dylan	34
▁Harper	34
▁advocates	34
▁Serge	34
often	34
▁invest	34
▁orchestras	34
▁favored	34
▁suspicion	34
▁Peloponnesian	34
▁chaos	34
▁Geological	34
▁wise	34
▁wines	34
▁Mix	34
▁Gran	34
▁prose	34
▁Creative	34
ès	34
especially	34
▁Chang	34
▁choices	34
▁catalog	34
▁exports	34
▁Ecuador	34
▁cheap	34
▁entrust	34
▁Vic	34
▁Nevada	34
▁Rama	34
sberg	34
nny	34
▁Ren	34
▁exploit	34
▁privacy	34
▁Bronze	34
▁Hero	34
▁Cop	34
mis	34
▁BB	34
ción	34
▁manifesto	34
▁practically	34
▁elect	34
▁financing	34
▁Initiative	34
▁Ark	34
▁Brooklyn	33
▁Santo	33
Roman	33
▁ID	33
▁Bag	33
group	33
▁sculptures	33
oph	33
▁colonel	33
▁NBA	33
▁sur	33
▁substitute	33
tia	33
▁Motors	33
▁Nicolas	33
▁Sem	33
▁tombs	33
▁Institut	33
▁Paradise	33
▁governmental	33
▁Commercial	33
▁Wii	33
▁Bohemia	33
▁Catalonia	33
▁hail	33
▁interim	33
▁takeover	33
ania	33
▁rituals	33
▁Crow	33
aw	33
▁Flora	33
▁Kam	33
▁Fear	33
Jo	33
▁Falcon	33
▁Bray	33
naar	33
four	33
▁pub	33
▁Papa	33
▁Rachel	33
source	33
▁bright	33
▁sit	33
▁Napoleonic	33
▁reconnaissance	33
▁expertise	33
▁Friesland	33
▁proceedings	33
tric	33
▁Kaiser	33
▁Cow	33
▁empirical	33
▁distribute	33
cul	33
▁prosecutor	33
▁react	33
view	33
▁DFDS	33
▁bo	33
▁Montreal	33
▁Younger	33
▁Wolff	33
▁Oriental	33
▁Tunnel	33
▁karate	33
tch	33
upcoming	33
▁clay	33
▁Inquiry	33
▁recreation	33
▁Attorney	33
▁Wal	33
▁blamed	33
eth	33
▁unexpectedly	33
▁proceed	33
▁Provincial	33
▁deposed	33
cri	33
▁IRA	33
▁Badawi	33
▁Happy	33
▁macroeconomic	33
▁bonus	33
▁formats	33
▁destroying	33
▁Mira	33
▁Conservative	33
▁settings	33
▁foremost	33
▁Ahmed	33
▁shapes	33
▁Safety	33
▁wisdom	33
▁athletes	33
▁millennium	33
three	33
▁flower	33
museum	33
▁Use	33
▁Tam	33
▁Ted	33
▁rebel	33
borg	33
phon	33
▁ST	33
▁Kad	33
ashi	33
▁alter	33
▁Lab	33
▁Phoenix	33
▁Ty	33
▁dawn	33
μ	33
▁floors	33
▁surgeon	33
▁communism	33
▁Innocent	33
▁Beer	33
▁Hannah	33
▁deployment	33
>	33
▁folklore	33
▁breaks	33
▁Cox	33
▁Kil	33
▁cent	33
▁École	33
▁Slavic	33
▁Kirk	33
,”	33
▁submit	33
▁Takeda	33
hoff	33
▁escapes	33
▁applicable	33
▁befriend	33
▁lunar	33
▁liberated	33
ô	33
▁Interactive	33
▁cease	33
▁RT	33
get	33
▁discrete	33
tius	33
▁tongue	33
▁Rue	33
▁citadel	33
▁Americas	33
ien	33
▁Mohammed	33
▁socio	33
▁Fra	33
▁Representative	33
▁passport	33
▁remarked	33
▁scarce	33
▁Denver	33
▁legends	33
▁barrier	33
▁coordinator	33
▁asserted	33
▁plac	33
▁promises	33
▁consistently	33
▁allocat	33
▁GP	33
▁morality	33
▁nose	33
▁Discovery	33
▁Rouge	33
▁Manu	33
▁essence	33
▁Offa	33
▁preferences	33
xx	33
▁uncovered	33
▁heroes	33
▁Gal	33
nus	33
▁joke	33
▁designing	33
▁rejection	33
▁item	33
▁Jamie	33
loosely	33
▁Crime	33
▁UEFA	33
CA	33
▁crusaders	33
▁Wisconsin	33
▁distant	33
▁implications	32
stop	32
▁Panzer	32
▁Porter	32
▁obligations	32
▁Fan	32
▁poisoned	32
▁poster	32
▁Haag	32
Go	32
▁explosives	32
ulf	32
▁entrepreneur	32
nge	32
fil	32
▁confession	32
jan	32
Br	32
Spanish	32
ric	32
▁consequently	32
▁farmer	32
▁ourselves	32
▁contacted	32
▁innovations	32
▁wage	32
▁Sumatra	32
▁Hy	32
▁exchanged	32
▁Rom	32
▁fat	32
▁Murder	32
▁similarly	32
▁Poly	32
▁Yamaha	32
nu	32
ander	32
▁conviction	32
oro	32
▁elephant	32
▁socialism	32
▁comprised	32
Com	32
▁somewhere	32
▁fiscal	32
nin	32
▁sheet	32
▁deck	32
▁Sta	32
Let	32
▁electron	32
▁shaped	32
▁Raw	32
▁solidarity	32
▁listening	32
▁Agricola	32
▁reinforce	32
▁hole	32
▁loans	32
chu	32
lla	32
▁Suite	32
EA	32
IC	32
▁Combat	32
▁accessed	32
▁characteris	32
▁unchanged	32
▁treasure	32
▁administrator	32
ual	32
NP	32
▁tragic	32
Why	32
lau	32
▁unsuccessfully	32
eta	32
▁identifying	32
brand	32
ery	32
▁conclusions	32
oid	32
▁Ker	32
bat	32
▁Demetrius	32
▁tall	32
ami	32
▁pleasure	32
▁airfield	32
▁castles	32
▁Cap	32
▁knights	32
▁physicist	32
▁similarities	32
▁Table	32
▁acceptable	32
▁constraints	32
▁schemes	32
▁stressed	32
▁supreme	32
▁combinations	32
▁Ensemble	32
▁denote	32
RO	32
▁Barr	32
▁explor	32
▁Salon	32
Our	32
▁darkness	32
▁critique	32
▁prohibit	32
▁Orient	32
Benz	32
▁partition	32
hara	32
▁anarchist	32
?)	32
▁envoys	32
▁photographic	32
▁detention	32
diagnosed	32
▁Hol	32
▁Belisarius	32
▁rewarded	32
nese	32
▁Gauls	32
▁Bath	32
▁Qui	32
▁advocacy	32
▁preliminary	32
▁consulting	32
▁Mechelen	32
▁Everyone	32
▁martial	32
EP	32
▁filter	32
EL	32
▁Ibn	32
code	32
▁hierarchy	32
▁firing	32
▁attorney	32
▁drunk	32
ole	32
urs	32
ably	32
ś	32
bot	32
Pierre	32
▁Nowadays	32
▁Brain	32
▁Chávez	32
▁layers	32
take	32
▁dominance	32
▁Burundi	32
▁Ned	32
▁install	32
▁orange	32
▁Artist	32
▁satrap	32
▁domination	32
▁realm	32
▁Santiago	32
▁Que	32
▁modeling	32
▁Nassau	32
▁Nuclear	32
▁Laura	32
▁Savoy	32
▁inspector	32
tri	32
▁scattered	32
▁poisoning	32
▁USS	32
quin	32
▁controlling	32
▁compare	32
▁respects	32
finitely	32
▁defenders	32
▁Tuesday	32
ssen	32
▁displaced	32
▁novelist	32
▁batteries	32
▁glaciers	32
▁Behind	32
▁Baltimore	32
▁Knox	32
▁Belle	32
▁burial	32
▁App	32
▁cocaine	32
▁Lutheran	32
▁Medieval	32
▁cuisine	32
MC	32
▁Lucia	32
▁Vel	32
▁venues	32
▁knock	32
cell	32
|	32
arum	32
▁depot	32
▁conscious	32
structed	32
▁diplomat	32
▁geographic	32
▁runway	32
▁ski	32
▁sleeping	32
▁Chu	32
▁Xi	32
▁trainer	32
▁shortage	32
lag	32
▁flows	32
ged	32
▁Mul	32
key	32
▁Jew	32
▁sexuality	32
▁persuade	32
▁motivated	32
▁colonists	32
▁Havana	32
▁copied	32
▁definitive	32
▁Burke	32
phe	32
▁mistaken	32
▁revolve	32
▁Mou	32
verse	31
▁Bru	31
▁undertake	31
lie	31
▁veteran	31
▁lighter	31
▁Jeff	31
▁carefully	31
▁mankind	31
▁Kraków	31
▁households	31
ids	31
▁Unfortunately	31
▁brewery	31
▁avant	31
▁loaded	31
▁prefer	31
laying	31
og	31
ncia	31
▁Canon	31
▁Ul	31
▁sexually	31
▁bath	31
▁skull	31
▁coordination	31
▁enrich	31
▁emission	31
▁Milo	31
▁indirect	31
▁tuberculosis	31
▁productivity	31
▁CIA	31
▁printer	31
▁fauna	31
cum	31
▁CA	31
▁Sejanus	31
gun	31
▁molecules	31
Article	31
▁realism	31
vent	31
hausen	31
King	31
▁Rally	31
Free	31
▁Socrates	31
▁Gerrit	31
▁Rembrandt	31
▁timber	31
▁Parks	31
▁barracks	31
▁trapped	31
Ta	31
▁Cyber	31
▁finals	31
Ca	31
▁Ellis	31
▁emphasize	31
▁distances	31
▁profound	31
▁investigators	31
▁hub	31
▁tablets	31
▁stripped	31
▁sp	31
▁improvisation	31
▁Antilles	31
▁contemporaries	31
▁Oost	31
▁Groot	31
▁afterward	31
lix	31
▁Row	31
▁Miranda	31
▁Round	31
▁rocks	31
EM	31
▁reprinted	31
▁monitor	31
▁suite	31
н	31
▁Piet	31
▁proto	31
▁SP	31
▁strategies	31
shan	31
▁spacecraft	31
▁Lebanese	31
▁encode	31
▁Severus	31
zu	31
▁discharge	31
En	31
▁anime	31
▁differs	31
▁Hay	31
▁norm	31
▁Noether	31
▁reissue	31
nell	31
▁Cooperation	31
▁automobile	31
▁Sally	31
▁nobody	31
▁columnist	31
▁newer	31
▁Period	31
▁cooperative	31
▁Publishing	31
aro	31
▁wages	31
▁Chilean	31
▁Money	31
Rolling	31
▁ITV	31
oy	31
▁Oak	31
▁Set	31
▁handling	31
▁wheel	31
▁laser	31
▁modes	31
▁busy	31
▁dam	31
▁Claus	31
▁Maximilian	31
▁spatial	31
▁Por	31
▁Albania	31
▁bin	31
▁Psycho	31
▁protocols	31
ito	31
hop	31
▁imply	31
▁abbreviated	31
▁Em	31
▁parking	31
▁Ron	31
▁immun	31
▁Lords	31
▁Admiralty	31
▁Monster	31
▁sculptor	31
▁cartoon	31
▁Auschwitz	31
▁wounds	31
▁Did	31
▁celebrating	31
▁Andre	31
▁institutional	31
▁Liège	31
▁Bristol	31
▁CR	31
▁storms	31
▁desktop	31
▁spokesman	31
uv	31
▁screenplay	31
▁DS	31
▁café	31
▁Mesopotamia	31
face	31
▁swor	31
ces	31
▁Palatinate	31
▁extract	31
city	31
▁Bol	31
▁AB	31
via	31
linking	31
▁identifie	31
▁conception	31
▁legs	31
isse	31
▁heated	31
▁spirits	31
▁Babylonian	31
▁lecturer	31
▁genocide	31
▁Room	31
▁Innovation	31
▁Aaron	31
▁modifications	31
▁globally	31
▁magnitude	31
▁scenario	31
▁listing	31
▁collector	31
▁reli	31
▁com	31
▁finest	31
▁Cambodia	31
▁Beatrice	31
▁Gods	31
▁Jakarta	31
▁concessions	31
▁Pers	31
▁crypt	31
▁encouraging	31
▁nationality	31
▁psychiatric	31
Ro	31
▁draws	31
▁lying	31
ule	31
aj	31
▁Mare	31
▁Qua	31
▁customary	31
▁Isabella	31
▁vicinity	31
▁PhD	31
Big	31
established	31
game	31
▁reply	31
▁nest	31
▁overview	31
▁absorbed	31
▁Sancho	31
▁Singer	31
▁exceed	31
cis	31
▁pastor	31
cs	31
▁Quest	31
▁audition	31
▁dictatorship	31
▁everywhere	31
name	31
chen	31
▁monster	31
état	31
▁Simpson	31
▁Liber	31
▁Schools	31
▁cruisers	31
▁Princeton	30
▁keyboard	30
▁stepped	30
fri	30
RE	30
bound	30
▁fascinated	30
▁evaluation	30
▁exceptions	30
▁Eagle	30
▁grandparents	30
cent	30
▁resisted	30
▁Norris	30
▁Lei	30
cker	30
enne	30
▁Qing	30
▁intellectuals	30
▁Kur	30
▁trumpet	30
▁recreational	30
▁Rocket	30
▁emergenc	30
▁overlap	30
▁scenarios	30
▁cruiser	30
uit	30
sma	30
▁Lindsay	30
▁enthusiastic	30
▁cc	30
▁boards	30
▁Champions	30
▁Provision	30
▁rough	30
▁flash	30
▁diamond	30
Star	30
▁CSI	30
eck	30
▁Search	30
▁Lorenzo	30
▁forum	30
▁captur	30
▁destroyers	30
▁compiler	30
▁invade	30
▁Algerian	30
▁Sanders	30
▁Tales	30
▁Analysis	30
▁Contest	30
▁atoms	30
▁Travel	30
▁Scots	30
▁observ	30
lé	30
▁Sacred	30
▁lighting	30
▁dreams	30
▁Full	30
MO	30
▁Ethiopian	30
▁Veld	30
▁tight	30
▁warrior	30
▁Economy	30
▁cardinal	30
▁Sons	30
▁calculated	30
▁Investigation	30
▁merit	30
▁Scha	30
▁Olaf	30
bur	30
▁heavier	30
▁sponsors	30
▁Lama	30
optic	30
aria	30
rising	30
▁Claire	30
tell	30
▁Contra	30
▁poison	30
piece	30
feld	30
▁Ant	30
▁Jarrah	30
▁Wan	30
▁Jung	30
▁Hawk	30
▁BV	30
▁consultation	30
▁Ming	30
fold	30
▁tales	30
▁evacuate	30
▁puzzle	30
osa	30
▁gross	30
▁stream	30
▁Twente	30
▁Emil	30
▁Chair	30
▁Online	30
▁SE	30
▁Ei	30
▁interviewed	30
▁ideological	30
Latin	30
▁storyline	30
▁installations	30
▁prestige	30
▁pact	30
▁planted	30
▁Marina	30
▁disabled	30
Car	30
▁Bolivia	30
▁Zagreb	30
▁Globe	30
▁Territory	30
▁headquarter	30
▁Look	30
▁skeleton	30
author	30
▁Riga	30
▁exotic	30
▁Vietnamese	30
bia	30
▁Met	30
eva	30
▁bombers	30
pra	30
▁Vichy	30
▁intensive	30
▁Breda	30
▁mountainous	30
loo	30
▁Artyom	30
▁showcase	30
▁commentaries	30
▁Framework	30
▁Gauss	30
▁Cornell	30
▁companion	30
War	30
▁Mai	30
ò	30
▁violinist	30
▁Stanford	30
▁postal	30
aut	30
▁Edmund	30
zur	30
▁Mono	30
▁Liu	30
▁patented	30
▁Yang	30
built	30
iers	30
▁Gre	30
▁Pact	30
▁Alpha	30
▁suited	30
▁accommodation	30
▁imports	30
▁Airbus	30
▁quantitative	30
▁auditioned	30
▁achieving	30
▁complexes	30
▁monopoly	30
kamp	30
▁Rode	30
▁networking	30
▁guitars	30
▁Chart	30
▁Golf	30
▁Columbus	30
▁Miracle	30
▁correctly	30
▁Pul	30
▁mercury	30
▁CH	30
▁Publish	30
iana	30
Little	30
▁deteriorated	30
▁cyber	30
▁Maps	30
▁annexation	30
tting	30
▁Gross	30
▁beaches	30
â	30
▁Nuremberg	30
▁Clare	30
▁specification	30
▁Tal	30
force	30
▁transaction	30
▁livestock	30
▁pornography	30
▁sits	30
▁cultivated	30
▁Wine	30
▁refusal	30
▁introducing	30
▁Penn	30
▁freelance	30
▁Sunda	30
▁convey	30
▁kitchen	30
▁lo	30
▁Quran	30
▁Gardens	30
▁instability	30
▁victorious	30
▁Sak	30
▁Antiochus	30
▁Singh	30
▁wonder	30
▁Sign	30
San	30
▁altitude	30
rant	30
▁siblings	30
bou	30
▁calculus	30
▁psychologist	30
▁inequality	30
▁statistics	30
▁toxic	30
▁representations	30
▁Insurance	30
▁oral	30
▁trace	30
▁spelled	30
▁bore	30
▁Animal	30
▁renounce	30
▁attractions	30
▁lawsuit	30
▁costume	29
ologie	29
▁arc	29
oria	29
▁Aircraft	29
Time	29
▁transcendental	29
▁Frederik	29
▁Register	29
▁miss	29
▁utter	29
▁Telescope	29
dor	29
▁luxury	29
▁indirectly	29
▁ambition	29
▁Historic	29
▁Site	29
▁Tacitus	29
cia	29
▁Mead	29
▁complaint	29
▁mature	29
▁abbreviation	29
▁Dionysius	29
read	29
▁Cash	29
specific	29
▁Claris	29
▁hostilities	29
▁Fernando	29
▁stroke	29
▁Ji	29
▁Montana	29
▁pharmaceutical	29
▁nu	29
▁doubts	29
▁Mississippi	29
▁NV	29
▁crosses	29
▁racism	29
▁pray	29
▁Nat	29
▁emperors	29
▁Multi	29
▁Sav	29
▁diagram	29
▁donations	29
▁prototypes	29
och	29
PS	29
▁Cro	29
▁psycho	29
tini	29
▁hurt	29
▁Change	29
▁Arnhem	29
▁thick	29
▁Directors	29
▁execute	29
bbe	29
▁Société	29
▁pap	29
▁Ble	29
too	29
niface	29
ois	29
dorf	29
▁Martina	29
▁earning	29
▁mo	29
▁Drake	29
▁Czechoslovakia	29
▁rifle	29
BE	29
▁prolong	29
▁patch	29
cca	29
▁substantially	29
▁leased	29
▁Batavian	29
▁toll	29
▁Ralph	29
sided	29
▁Drive	29
▁audiences	29
▁Lan	29
▁Muse	29
▁User	29
▁feud	29
▁Era	29
▁Vos	29
▁princess	29
▁deeper	29
▁voluntary	29
▁Pri	29
▁curator	29
▁Robertson	29
▁Crete	29
▁Lead	29
▁Ladies	29
▁ka	29
rang	29
és	29
screen	29
▁jet	29
▁comply	29
▁Monetar	29
▁Elements	29
▁seeds	29
bis	29
▁everybody	29
▁width	29
▁repairs	29
▁calculate	29
government	29
▁traders	29
▁hunter	29
Black	29
▁panels	29
neath	29
▁Ry	29
▁visitor	29
International	29
▁caves	29
▁Gibson	29
▁Galaxy	29
episode	29
▁Rosas	29
fen	29
▁thank	29
▁impose	29
▁Salzburg	29
▁affirm	29
▁cluster	29
▁observe	29
▁Putnam	29
Christian	29
IS	29
▁qualities	29
▁drum	29
mers	29
▁Oregon	29
▁crop	29
▁deliberately	29
▁Wide	29
▁punish	29
▁Dale	29
▁enterprises	29
▁Chin	29
▁expulsion	29
▁lawyers	29
oon	29
▁Leone	29
▁Carr	29
▁immigrant	29
tern	29
▁Sei	29
VA	29
▁celebrations	29
▁Kenny	29
▁Reformation	29
inch	29
▁Goud	29
▁Claudius	29
▁hell	29
anta	29
▁conclude	29
▁graph	29
▁Sr	29
▁volcano	29
▁pseudoscience	29
▁obscure	29
▁bombings	29
▁flagship	29
▁Riley	29
▁miniature	29
▁Things	29
▁adds	29
▁Epirus	29
▁Henderson	29
▁Sergeant	29
▁pit	29
▁Duncan	29
▁raided	29
▁Virtual	29
▁differently	29
NO	29
▁demographic	29
▁ecclesiastic	29
▁Commodore	29
kt	29
▁aerial	29
▁Nile	29
owski	29
▁Ultra	29
▁golf	29
▁Foster	29
▁Daleks	29
▁astronomers	29
▁parody	29
▁reproduce	29
▁subsidies	29
▁XII	29
▁Knights	29
▁refuse	29
Ex	29
▁devotion	29
▁quest	29
▁suggestion	29
▁Nissan	29
▁availability	29
▁resource	29
att	29
▁probabl	29
hether	29
▁battalions	29
▁speculation	29
mail	29
▁Haiti	29
▁hunger	29
open	29
▁luck	29
▁AS	29
▁sentences	29
▁Sing	29
▁Connecticut	29
fort	29
pec	29
▁dignity	29
▁Jam	29
▁Arsenal	29
▁Burn	29
▁Panorama	29
▁arbitrary	29
cur	29
▁launching	29
▁asteroid	29
▁circulated	29
▁throw	29
▁cabin	29
▁log	29
▁curves	29
▁horn	29
▁multinational	29
▁crews	29
ianus	29
▁altogether	29
▁Notable	29
▁symbolize	29
fl	29
▁eaten	29
▁Form	29
▁Davies	29
CC	29
▁Tyson	29
uda	29
▁crystal	29
▁Miguel	29
▁remarks	29
▁Vis	29
fried	29
FI	29
▁Nicaragua	29
gli	29
mph	29
gat	29
range	29
▁basin	29
▁Fry	29
▁axioms	29
▁rejoin	29
▁reunion	29
▁technically	29
▁Empress	29
▁Rey	29
▁burnt	29
▁onward	29
▁airlines	29
▁Burgundian	29
▁Pot	29
▁Schmidt	29
▁visa	29
distance	29
▁Source	29
▁Springs	29
▁pretend	29
▁fr	29
ESF	29
▁XI	29
▁Lilly	29
▁terrible	29
▁holder	29
▁Gates	29
▁cheaper	29
▁Mae	29
tank	29
Bahá	29
▁legion	29
▁insufficient	29
▁Rick	29
▁expenditure	28
▁optional	28
MT	28
▁Brig	28
lex	28
▁USB	28
▁Essex	28
zin	28
▁Weimar	28
spoken	28
▁formations	28
▁Bang	28
GC	28
▁interference	28
▁vo	28
meer	28
▁gamma	28
▁Pisa	28
pon	28
▁Battalion	28
▁ear	28
standing	28
▁cognitive	28
▁environments	28
▁Strange	28
nos	28
hood	28
▁Zurich	28
▁bonds	28
▁pitch	28
▁bias	28
▁Too	28
first	28
▁Lazarsfeld	28
aries	28
▁CNN	28
shaped	28
▁samples	28
▁directing	28
▁Andrews	28
▁Timoleon	28
▁assign	28
▁ordering	28
▁complexity	28
▁triggered	28
Guinness	28
▁choreography	28
▁interactive	28
▁niece	28
▁tolerance	28
▁Wave	28
December	28
▁Arch	28
▁athlete	28
fiction	28
▁keen	28
▁neutrality	28
▁corrupt	28
▁circular	28
▁Chancellor	28
lf	28
▁humorous	28
▁eruptions	28
▁É	28
▁sociology	28
▁ancestor	28
▁homosexuality	28
▁Jackie	28
▁discusses	28
▁congregation	28
▁Below	28
▁cultivation	28
▁Victory	28
eren	28
▁Previously	28
▁Arizona	28
▁dinosaurs	28
Who	28
vic	28
▁Med	28
▁ambitions	28
▁lift	28
▁resided	28
▁AT	28
NG	28
wy	28
▁mapping	28
So	28
▁Assyrian	28
▁passages	28
▁Concerto	28
▁Bir	28
▁portal	28
▁reacted	28
▁fur	28
▁kids	28
▁avoided	28
▁Sri	28
▁methodology	28
▁sums	28
western	28
▁Flash	28
är	28
▁Physics	28
▁clashes	28
▁Franc	28
▁saga	28
▁commissioner	28
▁Number	28
▁Clement	28
▁lifted	28
▁Ran	28
God	28
hall	28
powered	28
▁Hit	28
eng	28
▁Present	28
gro	28
▁necessity	28
▁SmackDown	28
▁Gwen	28
hai	28
▁birthplace	28
▁Lotus	28
▁Superman	28
▁Tournament	28
▁Statistics	28
▁chorus	28
▁rivals	28
▁Byron	28
▁broadly	28
▁analyses	28
▁Fr	28
Can	28
▁Stuttgart	28
sia	28
▁Cab	28
▁containers	28
▁Pictures	28
▁rendered	28
▁Toledo	28
▁vs	28
▁Close	28
▁Assistant	28
▁Negro	28
link	28
▁destroyer	28
lang	28
▁Andrea	28
▁Constitutional	28
▁suppressed	28
▁Gr	28
▁Gaius	28
▁Oh	28
▁females	28
mbo	28
pproximately	28
▁archaeologists	28
▁fails	28
gas	28
▁posthumously	28
▁Een	28
▁inmates	28
▁graduate	28
\	28
▁Yan	28
▁happiness	28
▁Egyptians	28
▁telescopes	28
▁Léon	28
▁thorough	28
▁García	28
▁textual	28
▁finances	28
▁flourish	28
▁thou	28
▁functioned	28
▁presid	28
▁Fl	28
▁Battlegroup	28
▁ensur	28
bal	28
▁Montgomery	28
▁contributor	28
▁transactions	28
makers	28
▁makers	28
▁Parisian	28
rated	28
▁extant	28
unk	28
▁plunder	28
▁pot	28
▁shareholder	28
▁inauguration	28
▁Locke	28
political	28
▁paths	28
bon	28
▁logistics	28
▁qua	28
Mu	28
Is	28
▁sin	28
▁Putin	28
ral	28
▁Powell	28
mor	28
▁Fantastic	28
▁Hayes	28
▁Emmy	28
▁Trio	28
▁Stop	28
market	28
▁attendance	28
▁Andorra	28
▁Adventure	28
▁Rise	28
tie	28
member	28
▁fossils	28
▁extinct	28
hard	28
ctor	28
▁Göttingen	28
▁Sue	28
normal	28
▁satellites	28
gram	28
▁load	28
▁extinction	28
▁grace	28
▁ethics	28
▁Chen	28
▁exchanges	28
▁Transportation	28
ees	28
song	28
▁Sig	28
▁Cancer	28
▁modification	28
Where	28
▁waited	28
▁Ace	28
▁Brun	28
▁tens	28
gil	28
cation	28
▁comfort	28
▁assess	28
dem	28
▁danced	28
▁genuine	28
▁declaring	28
▁photographed	28
▁Sho	28
▁VOC	28
▁lobbying	28
▁Jar	28
▁cool	28
▁borrowed	28
▁Dai	28
▁Bra	28
▁Sullivan	28
▁controller	28
nine	28
chaired	28
▁beating	28
▁gradual	28
▁Africans	28
▁Roma	28
▁Contemporary	28
▁Ars	28
▁Logan	28
hould	28
▁supernatural	28
▁Mint	28
▁Think	28
▁Bauer	28
▁Shelley	28
▁happening	28
▁Conservation	28
FOB	28
▁lit	28
▁brilliant	28
▁Apo	28
▁Joachim	28
▁permit	28
▁puts	28
▁Quarter	28
▁Cody	28
▁Iberian	28
▁Eumenes	28
▁Jump	28
father	28
tar	28
stro	28
mut	28
block	28
ose	28
▁Thunder	28
▁Leader	28
▁alarm	28
▁plantation	28
▁effectiveness	28
▁Alba	28
oka	28
▁computational	28
ronym	28
▁Circuit	27
▁Senators	27
▁bedroom	27
▁advantages	27
Vereniging	27
▁EC	27
Greek	27
▁theatrical	27
▁stronghold	27
▁Valencia	27
▁AIDS	27
▁comfortable	27
▁Ebony	27
▁processor	27
▁cook	27
▁Squadron	27
▁geology	27
▁lease	27
IT	27
ön	27
step	27
▁Seattle	27
▁ceiling	27
▁Brooks	27
▁accidents	27
▁taxation	27
▁Religious	27
▁ruined	27
▁genera	27
cultural	27
▁Poincaré	27
▁loop	27
left	27
▁certainty	27
▁omitted	27
▁capability	27
amba	27
iger	27
▁Historically	27
▁Archives	27
▁magician	27
▁peasants	27
▁presumed	27
▁Lego	27
▁prostitutes	27
▁Marsh	27
▁Nga	27
▁Welt	27
▁projected	27
▁layout	27
▁Eva	27
▁mistakes	27
▁editing	27
▁narrative	27
season	27
▁Wasp	27
ON	27
bility	27
▁Jet	27
▁Mach	27
famous	27
▁tendency	27
▁extensions	27
Italian	27
▁fe	27
▁criminals	27
▁Af	27
▁Hurrian	27
yon	27
▁Jose	27
▁Walt	27
▁curvature	27
▁Kiss	27
▁Course	27
▁invading	27
woman	27
enstein	27
▁loose	27
▁Politics	27
▁Bacon	27
izz	27
▁halls	27
sburg	27
white	27
”)	27
gno	27
lick	27
sea	27
▁Bartók	27
fish	27
▁Opel	27
▁Plutarch	27
▁Extra	27
action	27
▁tendencies	27
▁quartet	27
bed	27
Oh	27
▁Spin	27
▁Gallic	27
▁Lam	27
▁strive	27
▁Made	27
▁Hindu	27
▁tutor	27
▁priorities	27
▁ladies	27
▁scholarly	27
October	27
▁relieved	27
İ	27
▁Pub	27
Un	27
▁Praag	27
▁Alt	27
▁Musical	27
Di	27
▁breach	27
▁recognise	27
eira	27
care	27
▁paramilitar	27
▁Ride	27
▁scout	27
lem	27
▁Antioch	27
▁Renz	27
▁Weil	27
shire	27
green	27
▁Nij	27
▁Michiel	27
▁torpedo	27
▁activism	27
▁Constant	27
▁remnants	27
▁Hor	27
music	27
▁Smolensk	27
▁anger	27
version	27
mmediately	27
denounced	27
▁Eli	27
▁realization	27
Rock	27
▁configuration	27
▁Mystery	27
▁Reid	27
natural	27
▁anymore	27
▁Perth	27
▁scoring	27
▁reliability	27
VP	27
▁elaborate	27
▁participant	27
▁compliance	27
▁Antarctic	27
▁Berkeley	27
▁inverse	27
▁Hung	27
▁Than	27
▁marrying	27
▁Mainz	27
hua	27
yu	27
▁parade	27
▁Intel	27
▁protector	27
▁unstable	27
▁satire	27
▁Ent	27
EF	27
▁Kenneth	27
▁embedded	27
▁uit	27
▁obey	27
▁mate	27
▁Stella	27
lop	27
▁Standards	27
▁Dante	27
▁Cunningham	27
AL	27
▁Kyoto	27
▁Mongol	27
▁Noah	27
▁Emily	27
Mi	27
▁Tyler	27
▁Spaniards	27
▁XIV	27
▁standardized	27
▁modules	27
▁triple	27
▁numerical	27
▁chat	27
▁surplus	27
▁Animals	27
▁Budd	27
CE	27
▁iPhone	27
öl	27
▁Fermat	27
▁Hey	27
▁smoking	27
▁IPF	27
▁buses	27
fat	27
ester	27
▁Angkor	27
▁requir	27
Bavarian	27
▁canton	27
▁Galois	27
▁Alfa	27
▁professors	27
▁premises	27
▁Jeremy	27
▁cycles	27
ffer	27
Pa	27
▁panic	27
▁hears	27
▁justified	27
rig	27
▁betrayed	27
▁Aegean	27
▁Luna	27
▁outskirts	27
▁Resident	27
▁Legal	27
enko	27
BC	27
▁Vikings	27
▁Quebec	27
▁Cry	27
▁brachytherapy	27
▁mile	27
▁Laurent	27
▁Joy	27
▁Strike	27
▁rector	27
▁seventeenth	27
▁elevated	27
▁justify	27
▁Path	27
▁volcanoes	27
wen	27
▁accepts	27
▁parameters	27
▁venue	27
▁Murphy	27
great	27
▁Hof	27
▁sustained	27
▁Reis	27
Van	27
WF	27
▁Fer	27
▁α	27
▁intensity	27
▁destinations	27
Am	27
▁Leibniz	27
▁Cavalry	27
▁reasoning	27
▁Edwards	27
lecommunications	27
▁comics	27
▁scores	27
▁tip	27
▁civilizations	27
▁analog	27
▁Harvey	27
▁Link	27
▁chassis	27
▁Mack	27
▁Brother	27
▁Logic	27
beek	27
ax	27
bad	27
▁Thanks	27
▁Plaza	27
▁liberty	27
utical	27
▁punished	27
sive	27
▁acquainted	27
▁secrecy	27
▁mega	27
▁pride	27
▁neighbors	27
second	27
▁anywhere	27
▁Gong	27
▁testified	27
▁PV	27
▁HTML	27
raz	27
▁Burgundy	27
CV	27
▁holomorphic	27
▁assumption	27
▁Cave	27
▁motivation	27
▁Marxist	27
▁Ch	27
▁organising	27
▁Gödel	27
▁synthetic	27
▁Solar	26
▁cry	26
ika	26
▁Austrians	26
▁favorabl	26
▁landowners	26
▁Recent	26
▁Covenant	26
▁cemeteries	26
bos	26
▁Vilnius	26
▁Cell	26
▁Embassy	26
▁Dame	26
DO	26
▁Evil	26
▁Goes	26
ash	26
▁Detroit	26
▁Bosnian	26
wal	26
▁biographies	26
▁Powers	26
▁manifold	26
▁Formation	26
▁Hoover	26
▁occasional	26
▁Stichting	26
▁maybe	26
▁wolves	26
schi	26
▁federation	26
▁unnecessary	26
▁clinic	26
▁cheese	26
▁Strait	26
▁Democrats	26
▁pack	26
▁ease	26
▁uncertainty	26
▁translator	26
ography	26
▁aiming	26
▁favoured	26
▁chip	26
ht	26
▁Sword	26
▁lion	26
▁positioned	26
▁Regulation	26
▁Archimedes	26
▁heirs	26
▁Agnes	26
▁compar	26
▁Jennifer	26
ș	26
▁Gru	26
▁steadily	26
both	26
sim	26
▁attested	26
▁authentic	26
▁auspic	26
▁suspension	26
▁Zeeland	26
Mr	26
▁Wit	26
▁Oklahoma	26
eld	26
▁commissions	26
▁codex	26
Land	26
onian	26
▁demons	26
▁Troy	26
Abdu	26
▁bomber	26
▁shareholders	26
▁chest	26
▁Introduction	26
▁Reconstruction	26
▁psychic	26
yi	26
▁token	26
▁Beautiful	26
▁Siena	26
▁Tomorrow	26
▁Shot	26
▁elegant	26
▁Blind	26
gh	26
▁richest	26
▁fail	26
gged	26
▁Everett	26
▁talked	26
▁consecrated	26
▁tribal	26
▁Armenians	26
▁enhance	26
▁consume	26
▁manual	26
▁Yemen	26
▁icon	26
▁Bul	26
ias	26
▁monastic	26
present	26
▁Martha	26
▁pressing	26
▁Sc	26
▁Secular	26
▁inventions	26
▁commentators	26
▁cure	26
▁numbering	26
PC	26
▁norms	26
▁Vor	26
tle	26
▁appoint	26
enza	26
▁Hopkins	26
▁nutrition	26
▁anticipated	26
▁Christine	26
▁Xavier	26
▁Bolsheviks	26
▁ob	26
▁Bear	26
▁portfolio	26
▁seas	26
▁Deng	26
▁excess	26
▁clarinet	26
▁Hits	26
▁Sweet	26
▁Hurricane	26
▁hurricane	26
▁Rem	26
▁Cy	26
mina	26
▁honoured	26
▁Drug	26
▁Mine	26
▁unaware	26
▁Thebes	26
ID	26
▁Guitar	26
▁souls	26
▁Portrait	26
▁Verona	26
▁Loo	26
▁abused	26
▁Kay	26
▁Comité	26
▁Silva	26
Divine	26
▁Esther	26
▁provok	26
▁mad	26
▁restructuring	26
▁insist	26
▁Mail	26
lev	26
▁Johnston	26
▁Floris	26
hart	26
▁saint	26
▁Medici	26
▁hat	26
▁shallow	26
ates	26
wald	26
▁arena	26
recht	26
▁Hours	26
▁Dana	26
▁soprano	26
▁Pale	26
▁finale	26
▁mal	26
▁militia	26
UN	26
▁harbor	26
▁beside	26
▁continuum	26
▁Sven	26
▁guerrilla	26
▁nineteen	26
▁Castile	26
National	26
▁Physical	26
▁sad	26
hun	26
▁Different	26
▁María	26
tory	26
held	26
▁pigs	26
▁Theodore	26
Č	26
▁preserv	26
▁suffer	26
lot	26
▁directions	26
▁Historia	26
▁Tyrol	26
▁carved	26
▁Rüdiger	26
▁Racer	26
six	26
▁Novella	26
▁Baroque	26
wrote	26
▁Converse	26
▁Normal	26
atory	26
▁supervised	26
▁Manager	26
▁telegraph	26
▁Jesuits	26
▁mercy	26
▁Antarctica	26
▁Restoration	26
▁Nieuw	26
▁Yard	26
cc	26
▁stance	26
▁SCI	26
Muslim	26
▁Granada	26
▁worried	26
▁terror	26
▁exhausted	26
▁Terminal	26
▁reviewed	26
▁lesbian	26
GE	26
elen	26
▁Bernhard	26
▁chant	26
▁ni	26
én	26
▁viral	26
pit	26
▁Cru	26
▁bits	26
▁desirable	26
▁shotgun	26
▁epi	26
▁Bald	26
▁personalities	26
▁rehabilitation	26
▁Sean	26
▁Text	26
▁defeats	26
tended	26
▁detachment	26
▁encompass	26
craft	26
▁neur	26
▁convent	26
▁threatening	26
▁rises	26
gone	26
▁Alma	26
▁Camille	26
▁Nad	26
▁melody	26
camp	26
rous	26
▁Antoine	26
▁socially	26
▁Loch	26
▁Henk	26
▁ratified	26
test	26
▁tunnels	26
▁edit	26
confined	26
▁Parade	26
Da	26
AD	26
mps	26
▁evacuation	26
▁Mons	26
▁Chance	26
▁generalization	26
▁Kant	26
▁wizard	26
▁insane	26
▁Hemingway	26
→	26
▁forensic	26
▁blocked	26
▁bearing	26
▁Basic	26
▁sitcom	26
sub	26
▁Cher	26
▁chronic	26
▁conversations	26
▁revolts	26
▁Burzynski	26
▁journeys	26
▁Botanic	26
ED	26
cast	26
▁Khmer	26
▁Heavy	26
▁arch	26
▁Aerospace	26
cz	26
rel	26
▁Nickelodeon	26
▁Siege	26
▁dictionary	26
▁fault	26
▁mobility	26
▁Beast	26
▁attained	26
▁structured	26
▁Directive	26
▁Malcolm	26
lor	26
▁Diet	26
▁chronicle	26
▁Judaism	26
ça	26
▁Franks	26
▁atmospher	26
▁MSX	26
▁BASIC	26
arian	26
▁Gau	26
▁privilege	26
▁agenda	26
▁Ost	26
▁Caz	26
▁Cam	26
▁sunk	26
▁Countess	26
▁nowadays	26
▁Sugar	26
▁clergy	26
▁pornographic	26
▁Maas	26
▁Arms	26
▁systematically	26
▁Boat	26
sens	26
▁Homer	26
▁uniforms	26
▁Twenty	26
▁Ultimate	26
▁Compagnie	26
▁Double	26
▁promoter	26
▁counsel	25
▁Unity	25
▁Sister	25
▁chronicles	25
▁dangers	25
▁Wife	25
▁Rot	25
beat	25
▁Nice	25
▁seasonal	25
▁tough	25
plane	25
▁Lambert	25
ustainable	25
▁appreciated	25
▁teenage	25
▁vague	25
▁Lyceum	25
▁Saxon	25
▁diagnostic	25
▁Huntington	25
▁Need	25
▁ordained	25
▁Jehovah	25
iano	25
BA	25
▁shogunate	25
▁recognizable	25
▁Fritz	25
▁duration	25
▁aside	25
▁unprecedented	25
▁hunters	25
▁Cesare	25
▁Robbie	25
▁pursuing	25
▁riot	25
▁bottle	25
▁deities	25
▁XIII	25
llo	25
▁Patricia	25
▁thoroughly	25
▁joy	25
eurs	25
kha	25
▁compris	25
▁remake	25
anne	25
counting	25
▁Philharmonic	25
▁frozen	25
▁soap	25
▁Alpin	25
▁ministerial	25
▁skeptic	25
▁Euclid	25
vé	25
▁Jos	25
utter	25
▁burn	25
▁Woods	25
▁Tr	25
▁disappointed	25
▁gear	25
▁Mans	25
▁floating	25
▁metro	25
▁Monaco	25
director	25
active	25
▁Bau	25
▁Turn	25
▁egg	25
▁ambassadors	25
tru	25
▁absorb	25
▁Dé	25
▁Kerk	25
▁mineral	25
privileged	25
▁proceeded	25
▁Bright	25
eke	25
▁spectators	25
▁blank	25
▁Tat	25
numbered	25
das	25
▁Tru	25
▁Letters	25
▁Zhang	25
det	25
▁suspects	25
▁maiden	25
▁recall	25
▁Enschede	25
▁honest	25
▁Tata	25
▁expenses	25
minded	25
pat	25
▁mixing	25
▁ensu	25
base	25
lm	25
▁Audi	25
▁Tale	25
▁discharged	25
escu	25
▁qualification	25
▁Overall	25
▁halt	25
umerous	25
▁Harbour	25
text	25
▁emerge	25
▁Writers	25
▁Medina	25
▁discourse	25
▁wor	25
▁Cecilia	25
▁fabric	25
▁Rijks	25
▁Cherokee	25
▁vegetation	25
▁Trinity	25
▁Birds	25
▁Opéra	25
▁nucleus	25
▁Sas	25
▁guides	25
▁Knowledge	25
▁disrupt	25
bahn	25
▁shoe	25
NC	25
▁Sexual	25
▁campaigning	25
▁Swan	25
▁Gerald	25
▁Bailey	25
tif	25
▁besides	25
▁weaker	25
▁recounts	25
▁vain	25
▁bow	25
▁curriculum	25
▁Album	25
nk	25
▁drinks	25
▁commentator	25
Great	25
▁iTunes	25
▁Merchant	25
Bu	25
▁prints	25
▁Laws	25
generation	25
oke	25
card	25
▁deploy	25
Turkish	25
▁fulfilled	25
▁lights	25
▁Auguste	25
▁satisfy	25
▁strings	25
▁debated	25
big	25
▁associates	25
▁myths	25
ucci	25
▁pagan	25
▁Cove	25
▁Rus	25
▁geologist	25
▁Bis	25
▁aristocrat	25
lat	25
▁pseudo	25
▁Romantic	25
▁interact	25
▁Irene	25
rate	25
nalogous	25
▁Benedict	25
▁Guatemala	25
▁dealer	25
authored	25
▁NL	25
fire	25
▁successive	25
cu	25
thus	25
▁Arm	25
▁Nie	25
▁explosions	25
▁backgrounds	25
▁Syracusans	25
▁Vatican	25
▁hosting	25
GM	25
▁correlation	25
▁originates	25
▁Saw	25
▁collaborative	25
▁Tag	25
▁polynomial	25
sun	25
removing	25
▁referee	25
▁holidays	25
▁Subsequent	25
Holland	25
▁static	25
cro	25
▁Manga	25
▁Cannon	25
▁Shop	25
▁blend	25
▁crises	25
nts	25
▁proportional	25
▁upgrade	25
brook	25
▁Stilicho	25
▁genome	25
British	25
▁bas	25
▁natives	25
kke	25
▁outlined	25
▁rediscovered	25
▁Reason	25
▁Estate	25
▁Above	25
lee	25
▁unfinished	25
eight	25
RR	25
?'	25
▁View	25
▁array	25
▁EX	25
▁Edwin	25
▁generic	25
▁feudal	25
mac	25
agh	25
▁Blo	25
tl	25
kill	25
being	25
▁nationally	25
▁Lau	25
▁accidentally	25
▁Az	25
▁Shirley	25
▁Mick	25
▁circumcision	25
▁dramatically	25
▁realise	25
▁merge	25
▁seal	25
mission	25
gna	25
▁formulation	25
due	25
eus	25
▁Jenny	25
▁Dirk	25
▁sacrificed	25
▁sa	25
▁Germania	25
tani	25
haus	25
▁Wir	25
▁Branch	25
▁kiss	25
alis	25
▁jungle	25
sam	25
boats	25
▁Zimbabwe	25
▁relics	25
▁Engineers	25
▁cruel	25
▁Creation	25
▁Led	25
▁pretty	25
▁troubles	25
▁Karen	25
▁Moto	25
▁bureau	25
▁captivity	25
path	25
otti	25
tending	25
▁spared	25
▁PSP	25
current	25
▁Mag	25
▁disciplines	25
▁Enix	25
▁fascist	25
▁bone	25
DP	25
▁demise	25
▁erupted	25
▁Poles	25
▁carriages	25
▁Pieces	25
rim	25
ati	25
▁Kris	25
▁provider	25
▁Norfolk	25
▁Fé	25
▁Motorsport	25
▁exceeded	25
▁expresses	25
▁forgiveness	25
▁invariant	25
▁revelation	25
RV	25
▁Ibrahim	25
isi	25
▁Tribunal	25
power	25
▁Lands	25
▁appreciation	25
door	25
▁Beauregard	24
▁Ladislaus	24
▁mistress	24
▁immortal	24
speed	24
▁evaluate	24
▁revert	24
▁targeting	24
literally	24
▁Wei	24
▁ranking	24
▁uncommon	24
▁synagogue	24
▁activated	24
▁furious	24
position	24
▁behave	24
ridge	24
▁Peak	24
▁Sat	24
▁postponed	24
▁trail	24
▁ecosystem	24
▁Katumbi	24
▁declare	24
gle	24
▁generalized	24
▁Cossack	24
kens	24
very	24
▁Miro	24
▁owe	24
functions	24
▁objections	24
LR	24
pha	24
▁Singles	24
ár	24
▁Sharon	24
▁Adrian	24
▁Psychology	24
▁searched	24
▁executions	24
▁judgement	24
beck	24
▁Vergennes	24
▁Must	24
stand	24
▁subspecies	24
word	24
▁fed	24
▁Sh	24
abba	24
▁Wol	24
▁ja	24
rob	24
▁Recordings	24
▁murderer	24
▁miners	24
▁enforce	24
▁shell	24
▁Marker	24
▁safeguard	24
tim	24
▁generate	24
▁Thing	24
fest	24
kos	24
▁Ple	24
ora	24
▁teenagers	24
pplied	24
try	24
dit	24
▁Jesse	24
▁regulate	24
▁feat	24
▁Angels	24
Arab	24
▁Luis	24
▁Mask	24
▁Vo	24
▁males	24
Mer	24
▁Rule	24
▁spare	24
▁nonetheless	24
wireless	24
▁Johanna	24
▁impli	24
▁Minnesota	24
û	24
▁Tropic	24
▁inscribed	24
eo	24
disc	24
▁Clan	24
▁assert	24
▁Judge	24
▁opus	24
▁Yugoslav	24
▁boycott	24
ort	24
Alejandro	24
▁Ground	24
▁Alabama	24
drop	24
oth	24
▁clans	24
controlled	24
illo	24
▁Palmer	24
▁devil	24
▁burden	24
▁Waterloo	24
fir	24
▁Journey	24
▁helium	24
▁versa	24
▁Hua	24
DL	24
ground	24
▁reader	24
▁Goodman	24
▁Mussolini	24
▁Av	24
oga	24
cies	24
▁demolition	24
court	24
kk	24
▁Cinema	24
▁minerals	24
▁Telegraph	24
▁Elena	24
▁Nancy	24
▁albe	24
▁polar	24
▁advocat	24
▁Sheridan	24
▁neglect	24
▁directive	24
▁Sil	24
▁Samoa	24
▁Critical	24
▁manifest	24
▁filmmaker	24
ille	24
▁Abe	24
▁smuggle	24
▁altered	24
▁rumour	24
▁Hayles	24
though	24
▁Depression	24
num	24
Royal	24
▁illustrate	24
▁Iberia	24
▁deny	24
▁pocket	24
▁intimate	24
▁businessmen	24
▁CDs	24
▁Els	24
building	24
▁squadrons	24
▁apparatus	24
divided	24
▁issu	24
▁Moss	24
▁thin	24
▁truce	24
▁stays	24
▁orphanage	24
▁instant	24
laan	24
▁Samsung	24
ense	24
▁Tax	24
▁seller	24
▁routed	24
wer	24
▁Saxony	24
▁harmony	24
▁enacted	24
▁wolf	24
▁assured	24
▁pipeline	24
▁Michelangelo	24
▁safely	24
▁proclamation	24
▁Uni	24
kerk	24
▁sealed	24
Ge	24
▁disappointment	24
▁Pin	24
▁Thereafter	24
▁Dmitry	24
GS	24
fin	24
▁Principality	24
▁Sofia	24
▁Winston	24
▁MD	24
▁counterattack	24
▁Avi	24
▁coasts	24
▁Rider	24
▁rue	24
▁demonstrat	24
▁Bil	24
▁urge	24
▁Ivy	24
▁beneficial	24
▁sporting	24
▁Dock	24
▁Sed	24
▁thinkers	24
▁gravity	24
pper	24
▁Corn	24
Académie	24
▁bu	24
▁Trudy	24
▁Mago	24
▁descendant	24
▁Shepherd	24
▁evolve	24
▁spectacular	24
▁deeds	24
▁barriers	24
▁dairy	24
▁cannon	24
▁Beyond	24
▁Brotherhood	24
▁forget	24
▁Tonight	24
▁renewal	24
▁codename	24
▁bridgehead	24
▁pleased	24
▁su	24
▁armoured	24
Armoured	24
▁trivial	24
▁knife	24
East	24
▁Phantom	24
▁circa	24
▁nationwide	24
▁strand	24
itat	24
▁McCormick	24
▁prevail	24
▁Saturn	24
▁MHz	24
▁Kentucky	24
▁unemployed	24
▁creature	24
▁grows	24
▁slight	24
▁McMahon	24
▁aria	24
▁Klöckner	24
▁erotic	24
▁Access	24
▁qualify	24
▁pin	24
▁paved	24
▁freedoms	24
▁riding	24
▁nonprofit	24
▁arises	24
▁Anglican	24
HS	24
▁Accademi	24
chel	24
▁transparent	24
▁imagination	24
▁Associate	24
▁updates	24
▁Bernoulli	24
▁Ac	24
Neill	24
▁crashed	24
▁Opposition	24
▁tele	24
▁Yoshi	24
▁depended	24
▁Fran	24
▁Remember	24
▁urgent	24
▁SI	24
Vi	24
▁Jensen	24
rise	24
▁Annual	24
uli	24
▁diagonal	24
▁SF	24
▁Balkans	24
WI	24
EN	24
▁Chaucer	24
▁Bonaparte	24
▁Echols	24
▁disabilities	24
▁researched	24
Swedish	24
▁email	24
▁eggs	24
▁confinement	24
Her	24
▁Everything	24
▁divert	24
▁Scheveningen	24
▁Manfred	24
▁Commons	24
▁circus	24
▁specifications	24
▁Beatrix	24
▁fleets	24
@	24
▁Aspasia	24
▁unwilling	24
▁Todd	24
▁conscience	24
▁Fast	24
▁adverse	24
uous	24
▁exterior	24
yr	24
▁Kle	24
▁electromagnet	24
▁Zon	24
▁bottles	24
▁monograph	24
▁Lanka	24
▁Marianne	24
▁los	24
▁confessed	24
▁textbook	24
▁Wehrmacht	24
▁alert	24
▁drain	24
dengue	24
jer	24
WS	24
weight	24
▁Lucius	24
▁favourable	24
▁Meer	24
Ka	24
▁defender	24
▁prevention	24
▁offshore	24
▁Veteran	24
▁Est	24
▁Eliza	24
▁Recording	23
▁Dub	23
hos	23
▁chicken	23
▁plaque	23
▁Plans	23
▁Rep	23
▁Compar	23
▁throws	23
▁redesigned	23
▁bloody	23
▁unusually	23
▁meanings	23
▁petroleum	23
▁Saints	23
▁Cool	23
▁locked	23
▁earthquakes	23
AR	23
▁dynast	23
▁interval	23
▁receiver	23
rup	23
▁Tank	23
burgh	23
▁disposal	23
▁Beth	23
▁deaf	23
▁stint	23
▁succeeding	23
ST	23
▁schizophrenia	23
▁Pala	23
rro	23
track	23
▁Ravenna	23
▁Leslie	23
▁zeta	23
▁Angle	23
▁Biblical	23
▁Jud	23
▁emblem	23
tine	23
▁Kok	23
▁Albanian	23
▁Eusebius	23
▁hunt	23
▁Sophia	23
cope	23
▁ICA	23
▁abolish	23
▁contradictory	23
▁highlighted	23
▁Films	23
▁imaginary	23
bb	23
▁Braun	23
▁Save	23
▁Ob	23
stream	23
▁dragg	23
etta	23
▁chambers	23
▁stretch	23
▁Hampton	23
▁Eurovision	23
▁concession	23
▁Congol	23
▁academics	23
idal	23
▁brutal	23
▁Patriot	23
▁Progress	23
FA	23
▁RCA	23
▁Aid	23
▁Bulgakov	23
rite	23
people	23
▁recipient	23
▁Housing	23
flow	23
▁Moral	23
▁broadcaster	23
▁Winchester	23
▁explorers	23
away	23
▁Bed	23
▁recruitment	23
▁enzyme	23
▁Atari	23
▁satirical	23
▁Nur	23
▁distrust	23
▁Paper	23
▁Castilian	23
▁exit	23
▁risen	23
▁Kells	23
▁assertion	23
originally	23
▁mint	23
▁unite	23
gard	23
▁Grove	23
▁Perfect	23
AC	23
gui	23
▁Twain	23
neg	23
▁testify	23
▁Prof	23
▁Sab	23
▁jealous	23
▁Thessaly	23
▁stylistic	23
sued	23
▁Sum	23
!'	23
SD	23
▁Vita	23
autobiographical	23
leen	23
▁illusion	23
▁clone	23
▁Thracian	23
▁clerk	23
▁genres	23
▁bullet	23
host	23
▁presenting	23
pé	23
▁strikes	23
▁pastoral	23
▁Boss	23
▁bilateral	23
▁Meet	23
▁universally	23
▁Jacobs	23
scher	23
▁Trip	23
▁Aero	23
large	23
▁vow	23
▁youths	23
▁encounters	23
cap	23
▁Arco	23
▁armament	23
▁healthcare	23
ango	23
▁Bomb	23
ET	23
▁Lynn	23
▁mayors	23
Ba	23
▁urging	23
▁darts	23
▁suspicious	23
▁Ré	23
half	23
▁Merit	23
▁livery	23
▁interfere	23
▁Weekend	23
nier	23
vy	23
tiny	23
▁critically	23
▁GNU	23
▁Panther	23
anza	23
▁leftist	23
▁verify	23
▁Brandenburg	23
▁proprietary	23
▁secrets	23
▁Paramaribo	23
poort	23
▁occurrence	23
▁abundant	23
▁Hungarians	23
▁Hillary	23
▁allegiance	23
▁Quality	23
▁cl	23
▁Boer	23
▁analyst	23
▁tender	23
▁cr	23
▁Arc	23
▁MB	23
▁gauge	23
▁IJ	23
▁educate	23
Soviet	23
▁Rainbow	23
▁Lamb	23
▁peacefully	23
▁Timor	23
grad	23
▁Alexi	23
▁McG	23
graph	23
▁reminiscen	23
▁honours	23
▁Queens	23
▁rhetoric	23
core	23
▁Explorer	23
▁competent	23
▁Bundesliga	23
▁breast	23
▁exploded	23
OT	23
▁Dreams	23
body	23
rik	23
▁devote	23
MG	23
▁Angolan	23
▁Gui	23
▁counterparts	23
▁Karel	23
▁electrons	23
hat	23
▁bind	23
▁terminology	23
atio	23
▁commemorated	23
▁miniseries	23
ovich	23
▁asserts	23
▁SEAT	23
ór	23
▁Ricardo	23
▁Inspector	23
▁reactor	23
▁Colonies	23
▁endangered	23
▁criticize	23
▁browser	23
compatible	23
▁Fuji	23
▁heading	23
▁infrared	23
stage	23
▁MC	23
cam	23
ties	23
Net	23
▁TR	23
▁proclaim	23
▁prevalent	23
▁typeface	23
▁trafficking	23
rent	23
▁Château	23
jen	23
▁consolidated	23
▁Mecca	23
▁refined	23
▁Bavaria	23
▁Jagger	23
▁hydro	23
▁Porto	23
treating	23
▁cameo	23
AP	23
operative	23
▁affordable	23
▁Hop	23
▁Bethlehem	23
▁emphasizes	23
▁Avengers	23
▁calculations	23
▁Squad	23
▁Frey	23
▁bells	23
▁Zi	23
▁Keynesian	23
▁CoR	23
▁cooking	23
▁Hanna	23
▁descend	23
glo	23
▁dense	23
▁Patriarch	23
▁demon	23
▁chi	23
▁Speak	23
▁satisfaction	23
enia	23
▁Marines	23
▁hydraulic	23
▁Bros	23
Cha	23
▁baroque	23
▁Bata	23
▁Cargo	23
tai	23
▁Combin	23
Hungary	23
▁asset	23
ough	23
▁workplace	23
▁Theodor	23
▁chips	23
franc	23
▁airplane	23
▁excessive	23
▁PBS	23
▁athletics	23
▁Haas	23
RL	23
▁generators	23
▁icons	23
▁profiles	23
▁hanging	23
▁Muscle	23
▁Thames	23
icht	23
▁Quevedo	23
▁addressing	23
▁Nanninga	23
▁Athletic	23
▁disasters	23
▁Lor	23
▁Stedelijk	23
tou	23
▁Visser	23
▁Sad	23
▁Pablo	23
stadt	23
linear	23
▁Proto	23
▁Honorius	23
SP	23
▁armour	23
▁Zack	23
TE	23
▁indicator	23
RI	23
static	23
▁posting	23
▁turbine	23
rell	23
▁fresco	23
▁faculties	23
▁instances	23
Point	23
▁Glo	23
р	23
▁Hyper	23
▁Bahrain	23
▁Burma	23
▁Pittsburgh	23
▁subscription	23
▁instructor	23
▁Hulk	23
▁enthusiasm	23
▁disastrous	23
prom	23
▁reflections	23
▁meta	23
▁Casino	23
▁upset	23
▁reside	23
urban	23
▁Galileo	23
▁lodge	23
▁Comic	23
▁accurately	23
FC	23
vas	23
▁Naka	23
▁screening	23
▁unhappy	23
▁diamonds	23
▁teaches	23
ket	23
▁steep	23
▁consult	23
▁Maltese	23
{\	23
▁subsidy	23
▁Cao	23
▁Richmond	23
▁endow	23
▁knight	23
▁Fur	23
▁Wednesday	23
▁Cort	23
rius	23
▁Tok	23
▁Gestapo	23
▁Hou	23
▁theorems	23
▁Bee	23
▁porter	23
▁televis	23
▁quarters	23
▁rebuilding	23
▁Stand	23
▁Acts	23
▁Lip	23
uga	23
▁Kei	23
▁Carnival	23
▁specify	23
▁physicists	23
▁integer	23
▁granting	23
▁Oud	23
ducted	22
▁ultra	22
▁Domingo	22
▁Kri	22
▁Rufus	22
▁batch	22
▁prefect	22
▁Recreation	22
▁riders	22
illon	22
South	22
▁Ling	22
nard	22
▁Moltke	22
▁Cercle	22
▁Lib	22
ér	22
▁Jakob	22
▁investigati	22
gor	22
utonomous	22
▁underway	22
▁Tro	22
mak	22
▁mutant	22
▁CC	22
▁unto	22
ular	22
Paul	22
▁tube	22
▁eco	22
saurus	22
▁coma	22
taka	22
▁Motion	22
▁slower	22
iga	22
▁Mama	22
▁loses	22
▁librarian	22
▁sequences	22
▁cubic	22
amine	22
▁Hassan	22
▁measuring	22
rack	22
▁deficit	22
▁gases	22
mates	22
plo	22
VG	22
▁Fest	22
▁Letter	22
▁palm	22
tek	22
▁Tara	22
▁runner	22
▁govern	22
Fi	22
▁Pride	22
table	22
▁Nicola	22
▁pioneering	22
▁silk	22
▁homage	22
▁distress	22
▁advertise	22
▁retire	22
▁Tourism	22
▁stick	22
▁Grass	22
songwriter	22
lier	22
▁pamphlet	22
▁Bab	22
▁harmonic	22
▁generator	22
gé	22
▁bombed	22
▁Regina	22
independent	22
▁narrator	22
▁acquitted	22
seat	22
▁exam	22
▁epic	22
▁Colonial	22
▁bravery	22
▁Elder	22
▁vacant	22
▁tissues	22
▁ECW	22
▁cosm	22
▁Afro	22
▁Atlantis	22
▁computing	22
▁Beau	22
▁streams	22
▁Opus	22
alt	22
morphism	22
centred	22
▁Simons	22
▁contexts	22
▁Cities	22
▁prohibition	22
▁Resistance	22
▁Fed	22
▁Kos	22
▁spots	22
▁Jeanne	22
▁retrospective	22
▁Ellie	22
ghe	22
nick	22
▁sustain	22
rij	22
▁Chemistry	22
rm	22
▁Lives	22
▁accumulat	22
▁reorganized	22
▁Azerbaijani	22
▁Jun	22
wang	22
▁Overse	22
▁shout	22
▁distributor	22
▁comets	22
▁pottery	22
▁Bourbon	22
▁Igor	22
▁Grabar	22
▁Break	22
▁Palazz	22
quality	22
▁validity	22
▁Duck	22
▁presidents	22
ega	22
▁Béla	22
▁flooding	22
▁Yiddish	22
▁bestow	22
▁Few	22
▁promptly	22
Louis	22
▁francs	22
▁pillars	22
▁NGO	22
▁advertisement	22
▁Style	22
▁Goro	22
icus	22
▁inevitable	22
ologists	22
▁geometrical	22
▁deposits	22
▁quote	22
▁Sera	22
oo	22
▁Basketball	22
▁Silk	22
died	22
▁advancing	22
▁canonical	22
▁jailed	22
▁Danes	22
▁kick	22
▁anchor	22
▁multiplayer	22
▁Roth	22
▁Cornelius	22
▁Monica	22
▁Kru	22
▁fears	22
▁Gregorian	22
▁Current	22
▁convened	22
▁Frost	22
▁prospect	22
▁Lind	22
▁Angela	22
ld	22
uma	22
▁recalls	22
▁Bron	22
▁shuttle	22
▁banker	22
UR	22
▁tragedy	22
▁hanged	22
▁Tours	22
▁galleries	22
▁Fiction	22
▁Rag	22
▁Academic	22
▁infected	22
▁Dy	22
▁synonym	22
▁initials	22
▁assists	22
▁purchas	22
▁buying	22
▁symphony	22
▁simpler	22
▁angel	22
▁protectorate	22
▁regain	22
Islamic	22
▁declining	22
▁midst	22
▁Prefecture	22
▁fond	22
▁Bai	22
▁Literary	22
▁senate	22
▁grey	22
▁Ethics	22
issen	22
▁Anatolia	22
▁woods	22
▁Looking	22
▁Hub	22
▁glory	22
▁Hussein	22
▁assumptions	22
▁Steiner	22
▁mob	22
▁popularized	22
▁pal	22
eries	22
▁Ou	22
▁Crystal	22
▁convenient	22
roll	22
opted	22
▁Alive	22
▁flame	22
▁Pal	22
best	22
▁Sounds	22
▁allocation	22
▁mask	22
▁inception	22
▁analyzed	22
▁NGOs	22
▁Janeiro	22
▁medication	22
▁surround	22
ore	22
▁Visual	22
▁Twelve	22
▁embarked	22
▁superiority	22
dos	22
▁Speaker	22
▁Vlaams	22
Just	22
mended	22
▁Leonardo	22
▁Cameron	22
▁Leave	22
▁Kaye	22
▁Enlightenment	22
▁Yorker	22
tv	22
▁Giant	22
▁Rosen	22
Gra	22
ibus	22
▁Manila	22
▁unanimously	22
▁Liberia	22
waiting	22
▁stadtholder	22
▁ICC	22
▁disagreement	22
▁perfectly	22
▁negotiating	22
▁Municipal	22
▁composit	22
▁Persians	22
▁nominal	22
▁RNA	22
▁Transition	22
▁rode	22
omb	22
esi	22
▁Eleanor	22
▁separatist	22
sometimes	22
▁singular	22
Association	22
▁responses	22
▁builds	22
▁preface	22
▁Kerr	22
MB	22
▁Heroes	22
▁Koninklijk	22
Connor	22
▁Cruz	22
gotten	22
▁SON	22
▁coinage	22
▁cyclic	22
▁alliances	22
yang	22
spired	22
▁participates	22
▁Hö	22
▁Frontier	22
▁Dijk	22
▁highlights	22
▁violated	22
▁Worcester	22
ović	22
rail	22
▁Inner	22
Sha	22
▁trilogy	22
▁handful	22
ario	22
eword	22
▁Products	22
▁NS	22
▁dynamics	22
▁killings	22
tical	22
▁relieve	22
▁Tab	22
▁precious	22
▁Sci	22
▁Practice	22
▁Goethe	22
▁sweet	22
▁Madonna	22
▁Mic	22
▁modify	22
aceae	22
▁positively	22
▁builders	22
Chinese	22
▁Bram	22
▁Farmers	22
▁Centro	22
▁Ship	22
▁Irving	22
▁outlook	22
▁Gospels	22
figure	22
▁Lockheed	22
▁prosecution	22
▁Decade	22
▁Sans	22
▁Wise	22
▁messenger	22
▁Fernández	22
▁Signal	22
▁Gandhi	22
▁Track	22
▁mixtape	22
▁peaked	22
GT	22
▁sensitivity	22
▁Café	22
▁refus	22
▁Hughes	22
▁choosing	22
▁Halifax	22
▁XVI	22
▁homeopathy	22
▁Patent	22
frac	22
▁Cube	22
Jan	22
▁gyre	22
▁foreigners	22
▁Archive	22
▁theft	22
aci	22
▁Clinic	22
▁Frei	22
▁nightclub	22
▁Better	22
▁locate	22
▁Audio	22
▁curse	22
▁Hoog	22
▁persecuted	22
▁Falun	22
▁Kemp	22
▁momentum	22
▁shake	22
▁shots	22
▁penal	22
▁Fal	22
ih	22
France	22
▁unconscious	22
berry	22
▁Hellenistic	22
Fassi	22
▁Paulus	22
SR	22
model	22
▁Ski	22
▁Pac	22
▁bike	22
▁Rubens	22
▁specialised	22
▁Fraser	22
▁Away	22
▁Geert	22
née	22
▁Qur	22
▁lowered	22
▁entirety	22
▁treason	22
▁alcoholic	22
▁Partners	22
▁Marathon	22
▁GB	22
▁Torre	22
▁Figure	22
what	22
▁belt	22
lä	22
▁astronaut	22
▁Person	22
▁Bucharest	22
played	22
Col	22
▁Randi	22
▁censorship	22
flux	22
▁Rosalie	22
▁CPTED	22
▁psychiatrist	22
front	22
ori	22
night	22
gens	22
▁Lauren	21
▁exploited	21
▁elimination	21
VS	21
CR	21
COM	21
▁Fly	21
▁iOS	21
▁frames	21
▁signatories	21
▁Investment	21
▁Radical	21
▁drives	21
▁Font	21
▁Toyota	21
▁Aleppo	21
▁scientifically	21
▁Midnight	21
City	21
▁intrinsic	21
▁raped	21
▁breakdown	21
▁Gy	21
▁fortresses	21
▁authoritarian	21
▁Macau	21
▁Whitman	21
Saint	21
▁Task	21
aks	21
▁AI	21
▁rhythm	21
▁instituted	21
▁Voor	21
▁Gene	21
▁anthrop	21
▁attain	21
▁Benoit	21
▁KDE	21
▁heavens	21
▁FSMA	21
▁Arkansas	21
▁Liang	21
▁photographers	21
▁Schwarz	21
▁yourself	21
▁Falls	21
logic	21
▁Resources	21
▁pace	21
▁Brook	21
▁comeback	21
John	21
▁insignia	21
amo	21
eman	21
▁Kap	21
▁habitat	21
▁corn	21
▁brave	21
▁Nationalist	21
▁knot	21
teau	21
▁Tolkien	21
Thank	21
▁Adobe	21
ł	21
From	21
▁Architecture	21
▁Settlement	21
▁exaggerated	21
▁shocked	21
social	21
▁accent	21
▁Saba	21
▁banknotes	21
▁frustrated	21
▁liked	21
▁Huxley	21
fly	21
▁judged	21
▁simplicity	21
▁registers	21
▁Lim	21
▁Somalia	21
nor	21
▁teammate	21
▁Floyd	21
▁McC	21
▁schema	21
▁Emergenc	21
school	21
▁curious	21
▁Marseille	21
▁erosion	21
▁flourished	21
▁Hubert	21
▁Earlier	21
▁Mika	21
▁interpreter	21
▁pledged	21
▁Mighty	21
▁helmet	21
▁rebelled	21
▁default	21
▁skeptics	21
▁packages	21
Bar	21
▁Juliana	21
▁Alta	21
▁senators	21
▁Parma	21
▁cur	21
▁Nicole	21
▁Bundes	21
cco	21
▁reaffirm	21
▁Din	21
▁McClellan	21
NF	21
▁Pil	21
▁Peithon	21
▁Ari	21
Die	21
▁Moors	21
Hu	21
▁standardization	21
▁cap	21
▁Maximus	21
lust	21
▁soci	21
Jewish	21
▁deity	21
shaw	21
▁Doom	21
▁smart	21
▁Myth	21
▁pig	21
▁aggregate	21
▁obsolete	21
▁cake	21
▁farewell	21
▁stellar	21
▁Moment	21
▁robust	21
▁Pack	21
▁Josef	21
▁Vid	21
cites	21
▁Process	21
tam	21
▁Consumer	21
GG	21
mata	21
aving	21
idad	21
posing	21
▁Devon	21
▁Cos	21
▁Patti	21
▁tickets	21
otte	21
▁Pel	21
▁inherit	21
▁Gall	21
▁horizon	21
▁Havilland	21
▁Factor	21
▁Agathocles	21
▁Tehran	21
named	21
ull	21
▁hire	21
tung	21
▁Jaguar	21
▁Metz	21
pic	21
▁shoots	21
ups	21
▁Ky	21
▁Volkswagen	21
Baptiste	21
▁Magna	21
wave	21
▁Virus	21
▁apprentice	21
▁Lena	21
nova	21
hon	21
▁expressions	21
soft	21
▁Brunswick	21
▁Dubai	21
▁Derek	21
▁Gill	21
▁clocks	21
terra	21
eps	21
▁Andreas	21
▁rockets	21
▁nomadic	21
▁Alberto	21
▁Brewery	21
running	21
▁Serb	21
nh	21
▁Mao	21
▁Holding	21
▁teenager	21
▁healing	21
▁hammer	21
rica	21
mol	21
omi	21
▁assemble	21
▁Flu	21
▁Campus	21
▁Help	21
▁precision	21
▁Sang	21
▁Silesia	21
▁Ord	21
▁tanker	21
▁Afrikaans	21
▁Trinidad	21
▁imp	21
▁Lodge	21
▁solving	21
▁Keep	21
▁Pavel	21
▁unification	21
▁repository	21
tour	21
▁coronation	21
size	21
▁molecule	21
▁Kham	21
▁outdoor	21
▁underwater	21
▁Quinn	21
▁trap	21
▁Relief	21
▁Translation	21
▁Holly	21
▁breakfast	21
▁spawn	21
▁abducted	21
UP	21
▁practicing	21
Japanese	21
▁regulatory	21
▁specializing	21
▁bestseller	21
▁Fischer	21
hang	21
ranking	21
▁proportions	21
▁recommendation	21
▁humor	21
▁Odin	21
▁Places	21
▁Job	21
▁Dio	21
▁compose	21
inter	21
▁deputies	21
▁Peters	21
▁luxurious	21
▁patrols	21
▁Franck	21
▁Spiritual	21
alia	21
VB	21
▁plots	21
MM	21
▁Basin	21
▁Creed	21
▁climbed	21
▁Tsu	21
▁Ale	21
opened	21
morph	21
▁terrorists	21
▁constructions	21
▁Pius	21
▁Antipater	21
UK	21
▁traits	21
▁Tribune	21
▁excuse	21
Life	21
▁Jefferson	21
▁painful	21
▁Dutroux	21
▁Bey	21
▁herald	21
▁insect	21
▁tankers	21
▁viruses	21
Super	21
▁Jenna	21
▁torpedoes	21
▁initiate	21
▁Lem	21
▁neglected	21
▁TI	21
▁ministries	21
▁licenses	21
states	21
▁Traditionally	21
until	21
▁Vir	21
▁Hon	21
▁bride	21
▁Decree	21
ngel	21
▁Wellington	21
▁Attack	21
▁mythological	21
▁Honda	21
▁Newman	21
▁Townshend	21
▁Hittite	21
▁Server	21
▁Radboud	21
gren	21
rash	21
rien	21
quadratic	21
▁crusade	21
acon	21
good	21
▁Darts	21
▁doctrines	21
▁Iowa	21
▁Cars	21
▁Marion	21
▁failures	21
▁boxes	21
▁bodyguards	21
▁Transformers	21
▁Jorge	21
▁viewing	21
▁Hotels	21
▁Dudley	21
▁illegally	21
▁wagon	21
▁Volga	21
▁Kazakhstan	21
mma	21
▁amusement	21
election	21
▁exhaust	21
▁readi	21
▁Zuid	21
▁Sicilian	21
▁Normans	21
▁Gaza	21
▁detector	21
▁Hanover	21
▁eclipse	21
▁isolate	21
atus	21
▁Secrets	21
▁addiction	21
▁Ville	21
ili	21
▁Astro	21
▁Fit	21
▁simultaneous	21
▁Haitian	21
▁wet	21
▁intercept	21
▁Gent	21
▁ascend	21
▁Misskelley	21
▁reclaim	21
▁Garfield	21
▁Broad	21
nar	21
EG	21
▁verdict	21
▁lament	21
▁tu	21
gracht	21
isa	21
▁Balinese	21
▁Platinum	21
Å	21
▁dictator	21
▁scripts	21
▁Spy	21
ivo	21
▁Willy	21
ista	21
▁Hale	21
▁neuro	21
▁Ay	21
▁Burroughs	21
▁Vermont	21
eter	21
phone	21
▁Mercia	21
iturgical	21
mal	21
▁convincing	21
▁equals	21
▁Solo	21
ę	21
erial	21
▁consulted	21
▁Faust	21
yama	21
▁Arn	21
lik	21
pedia	21
▁Jasenovac	21
▁Ulster	21
▁Kamakura	21
▁Ferry	21
onia	21
stre	21
electric	21
▁trophy	21
▁elliptic	21
▁Michaels	21
▁continuity	21
cost	21
▁possesse	21
▁Partnership	21
▁Agent	21
race	21
▁polymer	21
▁innocence	21
▁restriction	21
▁Composers	21
▁Gretel	21
bang	21
xin	21
fel	21
wr	21
▁Slovakia	21
▁guardian	21
▁Merlin	21
▁Bennett	21
▁Schwarzenberg	21
mine	21
▁admirer	21
▁Sidney	21
▁Shar	21
▁Lil	21
▁Brok	21
RC	21
▁Pompey	21
▁partnerships	21
▁Luftwaffe	21
▁rows	21
▁FF	21
▁Pilot	21
▁defenses	21
▁Chrysler	21
▁definitively	21
▁Pain	21
▁latitude	21
▁Uppsala	21
▁Witte	21
▁Loftus	21
▁Whit	21
▁harmful	21
nda	21
▁quarrel	21
▁Aurora	21
ingham	21
Ç	21
▁Cla	21
▁Cent	21
▁bij	21
aq	21
▁prominence	21
▁Brussel	21
▁Groen	21
▁Mot	21
▁Tanzania	21
▁MacArthur	21
▁Cre	21
▁Pratt	21
▁Libyan	21
▁Quidditch	20
▁Excellence	20
▁Achievement	20
▁Hank	20
▁contingent	20
▁expose	20
▁Spira	20
▁hostility	20
▁Lantern	20
Green	20
▁offerings	20
▁Terra	20
London	20
▁marathon	20
▁bell	20
lingen	20
▁safer	20
▁troubled	20
▁Rafael	20
▁Memory	20
▁pounds	20
▁shifts	20
▁Uganda	20
▁Et	20
▁gaming	20
▁URL	20
▁Heidelberg	20
▁Axis	20
▁auxiliary	20
▁Diane	20
▁Gan	20
▁Ear	20
lumin	20
▁biodiversity	20
▁Percy	20
▁Bolshevik	20
yard	20
▁Wizard	20
▁Staten	20
akh	20
▁assemblies	20
▁Gel	20
between	20
▁Lolita	20
▁noteworthy	20
▁equivalence	20
▁explorer	20
▁upgrades	20
▁deliberate	20
▁surprising	20
▁FIA	20
▁northeastern	20
▁chaotic	20
▁Satan	20
August	20
▁numerals	20
▁hearts	20
▁acute	20
▁reorganization	20
▁Returning	20
▁FA	20
▁Rhythm	20
▁sophisticated	20
▁Denis	20
▁Haw	20
▁procure	20
▁Chosen	20
ý	20
▁synthesizers	20
▁SSR	20
▁facade	20
▁Sheffield	20
▁eighty	20
▁recommend	20
▁admission	20
▁Jor	20
▁Vince	20
White	20
▁Classics	20
▁notices	20
▁Caledonia	20
▁Tbilisi	20
▁committing	20
▁Kat	20
▁Molly	20
▁Lakes	20
▁Sleep	20
▁Ingush	20
▁pose	20
▁Alain	20
▁treatises	20
ude	20
LC	20
▁grants	20
▁adjusted	20
PP	20
▁Amiga	20
RS	20
media	20
▁Heather	20
cott	20
▁thy	20
▁unpublished	20
Polish	20
▁Stargate	20
▁Mov	20
▁transmitter	20
▁Tezuka	20
▁corpse	20
DC	20
profile	20
▁Oude	20
bau	20
▁tar	20
ebel	20
▁drastically	20
lies	20
odon	20
▁Rhein	20
ène	20
▁ensued	20
rist	20
hot	20
▁Haus	20
▁acknowledge	20
▁Spe	20
▁deriv	20
▁authoris	20
▁Pit	20
rank	20
▁Certain	20
ě	20
▁energetic	20
uva	20
▁Lud	20
▁Toy	20
oto	20
▁continually	20
▁blew	20
▁keys	20
▁Milk	20
▁Adel	20
▁Tennis	20
▁Pearson	20
▁XML	20
▁harp	20
▁Jero	20
▁vinyl	20
▁chemicals	20
м	20
etz	20
▁Hamas	20
▁Roslavets	20
uel	20
▁Ster	20
▁enlisted	20
▁courtyard	20
▁linguistics	20
▁Uncle	20
▁projection	20
▁Give	20
▁Islamist	20
▁acids	20
▁similarity	20
▁Kom	20
▁warrant	20
lio	20
▁cello	20
▁Rescue	20
▁Clock	20
▁Communities	20
say	20
mania	20
▁Wells	20
▁sharply	20
▁Calvin	20
umi	20
Club	20
▁Mk	20
▁Foy	20
▁pavilion	20
▁Yuan	20
▁Jesuit	20
▁archaeology	20
▁Savage	20
▁Mina	20
▁Newcastle	20
▁ingredients	20
▁dispersed	20
▁converge	20
▁Rib	20
▁"(	20
▁Complete	20
▁simulation	20
▁fluid	20
kul	20
▁peer	20
▁Bij	20
▁institutes	20
▁Eugène	20
▁Ruth	20
▁treasury	20
▁settl	20
▁resemblance	20
▁Dirty	20
▁enforced	20
upon	20
▁Nabis	20
nce	20
mag	20
▁Geoffrey	20
▁Universiteit	20
▁mammals	20
▁Sauer	20
▁Nas	20
▁valleys	20
wn	20
▁expired	20
▁absorption	20
utovía	20
final	20
▁Scala	20
quet	20
▁nationalists	20
▁Boot	20
cock	20
▁IP	20
▁Cyrus	20
▁unrelated	20
▁Rab	20
▁lineup	20
▁affection	20
▁Millennium	20
▁vault	20
▁Consider	20
Seventeen	20
▁hamlet	20
▁hockey	20
sphere	20
▁Consul	20
walk	20
▁retaliation	20
▁Mirror	20
▁Vorarlberg	20
▁Katsu	20
▁porcelain	20
▁Preston	20
▁Phelps	20
▁Holt	20
▁Libre	20
▁Romani	20
▁Mand	20
Red	20
▁Yorkshire	20
▁experimenting	20
▁Poker	20
}}}	20
▁Benedictine	20
▁Prim	20
▁baptized	20
▁stuck	20
ency	20
▁specialists	20
▁Canton	20
▁Umeå	20
▁Tier	20
▁Qi	20
▁Rousseau	20
▁supportive	20
▁Luther	20
▁imagery	20
▁repaired	20
▁Filipino	20
▁Ara	20
▁genius	20
▁prop	20
▁Pas	20
zone	20
ake	20
▁harder	20
▁hatred	20
▁Mona	20
lifting	20
▁Argos	20
today	20
ART	20
tt	20
▁Romeo	20
▁Assassin	20
▁endorsed	20
▁undesirable	20
▁wreck	20
wel	20
▁companions	20
▁hol	20
November	20
▁embargo	20
▁ignore	20
▁Deal	20
▁Quick	20
tions	20
▁sorts	20
kra	20
▁beloved	20
▁precedent	20
▁residences	20
▁Saul	20
gau	20
ume	20
▁Ir	20
mad	20
▁mood	20
▁blessing	20
▁Meijer	20
chus	20
rio	20
▁tired	20
▁deserted	20
North	20
▁Feyenoord	20
▁pirate	20
▁Robot	20
▁inadequate	20
▁concentrations	20
▁Münster	20
▁jewelry	20
▁gratitude	20
NET	20
▁famously	20
▁Hicks	20
AB	20
▁Employment	20
▁cannons	20
▁researches	20
▁assessment	20
ilius	20
▁coastline	20
▁Silent	20
▁liberalism	20
▁suppression	20
Na	20
oog	20
▁tin	20
rey	20
▁dioxide	20
▁Punk	20
▁walks	20
▁baseball	20
▁confirmation	20
▁integrate	20
▁Donna	20
▁predictions	20
ström	20
▁Maxim	20
▁Bordeaux	20
aris	20
LM	20
▁Michelin	20
▁Viva	20
▁Guillaume	20
▁balls	20
▁Dover	20
▁Louvre	20
▁Wallonia	20
▁disco	20
rü	20
▁Bradley	20
▁wrestl	20
public	20
▁celebrity	20
iste	20
▁believers	20
▁auctioned	20
poor	20
▁oceans	20
▁Slovene	20
cons	20
augmented	20
▁Rapid	20
▁Bod	20
▁invasions	20
▁occupie	20
oma	20
▁anthropologist	20
▁SOMO	20
▁Strip	20
▁intervened	20
▁Holdings	20
▁Thomson	20
Civic	20
▁antenna	20
▁Happen	20
▁Antonin	20
▁Amazing	20
Blue	20
▁contested	20
▁Seville	20
▁sanctions	20
▁Dimitri	20
▁boarding	20
▁integers	20
▁reluctant	20
▁lords	20
▁semina	20
hurst	20
▁dismantled	20
fre	20
▁stead	20
wife	20
▁Internal	20
▁hang	20
▁Ala	20
▁unacceptable	20
▁Legio	20
▁cement	20
▁angle	20
▁miracle	20
▁automo	20
▁Abel	20
▁Greene	20
▁pertain	20
▁lap	20
▁Basilica	20
▁lenses	20
▁burst	20
▁chances	20
▁Wheel	20
▁qui	20
idi	20
й	20
Î	20
when	20
tum	20
▁notorious	20
▁module	20
Il	20
▁spotted	20
inal	20
▁passive	20
▁Arno	20
▁maid	20
▁keynote	20
▁transports	20
▁pronunciation	20
▁Female	20
▁compulsory	20
▁archipelago	20
▁Circus	20
▁Historian	20
lux	20
▁genetics	20
▁prefix	20
▁obligation	20
▁Amor	20
▁Riot	20
▁Sheen	20
aku	20
last	20
sex	20
▁invaders	20
vine	20
▁Bog	20
▁Darkness	20
▁fertile	20
alone	20
▁Himalaya	20
▁overthrown	20
function	20
▁aren	20
▁landmark	20
▁devastating	20
▁controllers	20
▁transfers	20
▁unreleased	20
cylinder	20
pulse	20
dium	20
▁morale	20
▁WIC	20
▁GDP	20
RM	20
▁Artistic	20
▁Triple	20
▁Launch	20
compelled	20
▁Guido	20
▁orchestral	20
kes	20
personal	20
▁profitable	20
without	20
▁Boyd	20
▁Alone	20
▁champions	20
▁Cleopatra	20
▁reproduction	20
▁Richards	20
▁embassies	20
▁Trier	20
▁Edge	20
▁AR	20
▁guarded	20
historic	20
▁Wester	20
▁witches	20
▁advisors	20
▁Teen	20
▁Volsci	20
▁Sul	20
developed	20
▁Primar	20
clock	20
gul	20
▁pledge	20
▁Camera	20
▁Watt	20
rage	20
▁Forbes	20
ulu	20
▁Lot	20
▁Mod	20
▁Rie	20
hab	20
dian	20
▁Worldwide	20
▁swords	20
ific	20
▁ballot	20
▁Theodosius	20
NL	19
▁saxophone	19
wind	19
spanning	19
▁Māori	19
▁fisheries	19
MV	19
▁defences	19
▁Complex	19
TEC	19
▁Fri	19
▁Greens	19
▁Greco	19
▁Dunkirk	19
▁jam	19
▁departing	19
▁alike	19
▁taboo	19
jet	19
▁Maya	19
▁tie	19
▁Engel	19
▁cats	19
▁dear	19
aya	19
Mon	19
▁cooling	19
sight	19
▁charm	19
nson	19
▁concerto	19
▁Aer	19
▁rigorous	19
▁suffers	19
▁Mik	19
▁strategically	19
dried	19
▁sack	19
▁garage	19
ograph	19
were	19
reaching	19
▁Monde	19
▁builder	19
▁literal	19
▁Picture	19
▁sinking	19
▁Mein	19
▁Neolithic	19
▁cleared	19
▁Afghan	19
▁samurai	19
dio	19
▁baron	19
▁Gerhard	19
shley	19
▁haul	19
▁SC	19
▁Dax	19
▁Dakota	19
▁Sarajevo	19
▁banished	19
▁das	19
▁wrestlers	19
▁Leeuwarden	19
▁w	19
▁mandatory	19
evich	19
▁Merton	19
▁Tilburg	19
▁legislature	19
▁Betty	19
▁Derby	19
iki	19
▁Chase	19
▁Mills	19
▁delegate	19
▁ascent	19
▁contend	19
erne	19
▁reasonably	19
▁clips	19
▁conservatism	19
▁wool	19
▁Peugeot	19
▁Weiss	19
▁rubber	19
chemical	19
▁weights	19
▁dissatisfied	19
▁Starr	19
ceded	19
▁Writing	19
rge	19
▁overwhelmed	19
▁pla	19
▁lunch	19
▁posters	19
▁Beauty	19
▁Brahms	19
▁engravings	19
▁Epi	19
▁eighties	19
▁Orlando	19
▁revive	19
▁Legends	19
ient	19
▁postwar	19
▁Fay	19
▁Seventh	19
▁pricing	19
▁Nights	19
IV	19
▁plantations	19
▁magistrate	19
▁ghetto	19
▁Eat	19
▁aesthetic	19
▁searches	19
iyah	19
▁mascot	19
▁envoy	19
▁summariz	19
▁duel	19
▁kernel	19
MU	19
▁convergence	19
▁Bow	19
▁Rum	19
Ne	19
▁inconsistent	19
▁reminder	19
scientific	19
▁Mongols	19
sci	19
▁Uprising	19
▁Boulevard	19
▁Canyon	19
▁progressed	19
▁elevation	19
▁Clio	19
GB	19
▁Sandra	19
▁Raven	19
▁slept	19
▁Vandal	19
▁Hobbes	19
▁cents	19
▁Janssen	19
▁astrology	19
▁unify	19
▁Malouma	19
▁Acquisition	19
▁reprise	19
▁Baku	19
▁Kath	19
▁debris	19
Music	19
▁Berber	19
▁Match	19
▁Technologies	19
▁Talent	19
▁Bismarck	19
AS	19
▁orbital	19
▁diminished	19
▁hardcore	19
▁turbines	19
▁worsened	19
▁dismissal	19
▁Bib	19
▁antiquity	19
Up	19
▁Palestinians	19
▁ancestry	19
▁Collective	19
istinguished	19
▁deprive	19
▁monsters	19
economic	19
▁amino	19
dig	19
isman	19
▁Mau	19
▁statesman	19
HA	19
▁enslaved	19
▁Extreme	19
▁Schelling	19
rak	19
▁Balkan	19
▁spokesperson	19
▁Zak	19
▁Frankie	19
▁acquir	19
▁surpassed	19
▁Weapons	19
▁Titan	19
▁Additional	19
▁nm	19
▁prosecuted	19
▁Million	19
blue	19
▁hereditary	19
▁Collect	19
▁Christina	19
▁Nobu	19
▁clouds	19
▁denominations	19
▁imagine	19
▁Exploration	19
▁breakup	19
▁worm	19
▁Networks	19
▁gospel	19
▁submission	19
▁Saab	19
▁reappear	19
attack	19
▁Synod	19
▁Vila	19
▁Cara	19
▁Reading	19
▁Colony	19
▁Roz	19
▁Eugene	19
▁treatments	19
communist	19
▁Amstel	19
▁Trent	19
▁Promise	19
▁naturalist	19
▁Wash	19
▁Enric	19
▁Wade	19
▁Philipp	19
▁Dexia	19
▁Colombian	19
▁SPA	19
▁complications	19
▁Painting	19
▁Ahmose	19
▁Ceres	19
▁evaluated	19
live	19
▁Geographic	19
▁Climate	19
▁implementations	19
▁physicians	19
▁slot	19
▁Ankara	19
▁lucrative	19
▁destin	19
▁Notre	19
▁northwestern	19
führer	19
▁Triumph	19
▁Vogue	19
▁umbrella	19
▁Forever	19
▁permits	19
▁discontent	19
▁Adriaan	19
▁Velsius	19
▁lots	19
urge	19
▁vampires	19
▁Usually	19
▁Progressive	19
LA	19
▁uploaded	19
▁Dixon	19
▁AW	19
▁Natal	19
▁Burg	19
▁terminals	19
▁MGM	19
▁procession	19
▁UNITA	19
▁dismiss	19
nom	19
▁forged	19
mate	19
▁turmoil	19
▁monitored	19
probably	19
nais	19
▁Augsburg	19
▁robbery	19
mostly	19
bili	19
▁Genocide	19
sley	19
ás	19
▁timetable	19
stronomical	19
▁derivative	19
▁cliff	19
Este	19
▁perished	19
▁transmit	19
Most	19
▁revolutionaries	19
▁Dialogue	19
▁Musk	19
▁dispos	19
▁widen	19
▁Method	19
▁emancipation	19
▁Aba	19
▁Dutchman	19
▁dike	19
▁karting	19
▁thriller	19
▁athletic	19
tsu	19
▁supervise	19
▁Schwartz	19
▁fees	19
▁chronicler	19
▁employer	19
▁mutiny	19
▁Beta	19
▁symmetries	19
▁suffrage	19
▁Benelux	19
▁DJs	19
▁Colin	19
▁NPC	19
▁Manser	19
user	19
▁Lies	19
▁thirteenth	19
▁imposing	19
film	19
▁Kees	19
▁climbing	19
▁Johannesburg	19
▁Reno	19
▁assum	19
▁motives	19
▁installment	19
nch	19
bade	19
▁Visit	19
▁Cleo	19
▁holotype	19
▁Rush	19
▁Cloe	19
▁Brady	19
▁Britannia	19
▁problematic	19
bury	19
▁oeuvre	19
▁highways	19
▁boom	19
▁Molson	19
▁bunker	19
▁Casablanca	19
▁synod	19
▁Cast	19
▁Principal	19
▁importer	19
▁wo	19
▁Step	19
▁Clu	19
occupied	19
▁acclaim	19
▁Manor	19
disproportionate	19
▁sprint	19
▁impartial	19
▁Milton	19
▁aligned	19
shirt	19
▁Vu	19
▁aggression	19
ES	19
▁Stigand	19
▁threshold	19
▁utilize	19
▁abortion	19
▁Patrol	19
tica	19
▁Niger	19
▁stack	19
▁Ape	19
▁Violin	19
▁Passenger	19
▁wire	19
▁Austro	19
▁Rangers	19
▁Jacque	19
▁copying	19
▁Sui	19
▁Weekly	19
Se	19
▁Vytautas	19
any	19
▁runes	19
▁strategist	19
▁Fruit	19
▁parasit	19
▁Bouterse	19
▁Césa	19
▁lamp	19
▁differentiable	19
this	19
▁biblical	19
▁Wig	19
▁mall	19
▁commitments	19
▁Trek	19
FT	19
▁Beck	19
▁mirrors	19
▁DDR	19
▁Amenhotep	19
▁Mental	19
▁Elliott	19
▁Parts	19
▁disorders	19
▁Superior	19
Ü	19
inn	19
▁sensor	19
▁Simpsons	19
▁Dru	19
▁Gram	19
▁speculated	19
km	19
▁drops	19
▁Evening	19
iyya	19
▁Procopius	19
▁creativity	19
▁ensembles	19
OH	19
▁clip	19
▁Perform	19
▁liver	19
▁Vocal	19
▁apple	19
Ri	19
▁Guidelines	19
system	19
▁Petrus	19
Mother	19
▁marker	19
▁Peel	19
▁Corsica	19
feminine	19
▁downloaded	19
rguably	19
▁coloniz	19
iso	19
▁surprisingly	19
▁Brouwer	19
▁attendees	19
▁encyclopedia	19
veen	19
▁dominate	19
▁Electronics	19
mentioned	19
dō	19
▁Neptune	19
▁Pentagon	19
▁condemn	19
critical	19
▁limitations	19
▁Soccer	19
largest	19
▁SBS	19
▁redesign	19
urg	19
▁looted	19
AZ	19
++	19
▁Mauritius	19
▁Samawah	19
tronic	19
▁taxonomy	19
▁transcription	19
▁affiliation	19
▁entertain	19
Out	19
▁Thorn	19
▁transplant	19
▁si	19
▁spill	19
▁Patriots	19
chant	19
▁swing	19
Din	19
Belgian	19
▁Werk	19
▁Lita	19
▁Ghana	19
CENELEC	19
▁Easter	19
▁Single	19
▁organism	19
▁Value	19
▁Joey	19
▁subsidiaries	19
▁Soldier	19
▁faint	19
▁robot	19
▁reconstruct	19
▁hated	19
▁endemic	19
nel	19
▁laude	19
▁firmly	19
illus	19
▁tears	19
▁ESA	19
▁migrated	19
introduced	19
▁costly	19
▁eliminat	19
AV	19
▁Somerville	19
▁Lucerne	19
▁inspect	19
▁rainfall	19
▁republics	19
▁VJ	19
▁Coming	19
▁capita	19
▁(#	19
▁abundance	19
▁Past	19
▁please	19
▁Bolt	19
Amsterdam	19
▁Lar	19
▁Wer	19
▁homosexual	19
▁Prins	19
▁Grim	19
▁employers	19
▁Burnside	19
▁Sher	19
bla	19
▁dependence	19
oh	19
▁Fen	19
▁ft	19
post	19
▁Poll	19
▁SLAM	19
▁Platform	19
▁Rat	19
▁Fellowship	19
▁Padua	19
▁prostitute	19
▁beers	19
▁Lub	19
▁Maatschappij	19
▁Hutcherson	19
▁Socialists	19
aeus	19
▁Dogg	19
▁Marino	19
ugawa	19
space	19
▁weakness	19
▁Ful	19
▁quarks	19
▁Hammer	19
▁providers	19
▁lovers	19
▁magnet	19
ech	19
▁Vista	19
wit	19
▁Risk	19
▁exclusion	19
▁metre	19
▁Bryan	19
.'"	19
stri	19
▁Animation	19
▁Gesellschaft	19
▁Oblast	19
▁Kiel	19
▁anthropology	19
cession	19
▁profess	19
CH	19
▁Taliban	19
seven	19
ITE	19
▁Savannah	19
awa	19
▁Communists	19
▁Nina	19
▁Lights	19
▁libretto	19
▁infant	19
▁dwarf	19
▁crater	19
▁Feodor	19
▁worry	19
▁Giles	19
▁Turbo	19
▁canals	19
mper	19
▁weaken	19
▁Economist	19
▁Wad	19
▁Aberdeen	19
▁suppress	19
▁decreases	19
▁swore	19
▁Tina	19
▁damages	19
ə	19
▁obstacles	18
▁colored	18
▁espionage	18
▁Wealth	18
▁revealing	18
▁Lima	18
February	18
▁Fidel	18
▁prominently	18
▁Crew	18
▁soup	18
definitely	18
▁Graves	18
▁Newfoundland	18
omparative	18
▁complementary	18
▁Artillery	18
▁exclud	18
▁Ferguson	18
▁Mystic	18
lai	18
▁imaging	18
▁Elephant	18
▁tsunami	18
▁sins	18
▁saints	18
▁commune	18
▁Legacy	18
▁divid	18
ç	18
este	18
appointed	18
▁Saga	18
▁unmarried	18
▁Rural	18
▁inferior	18
At	18
▁plateau	18
zes	18
▁anyway	18
▁proposition	18
▁pm	18
▁warming	18
▁peasant	18
▁Giuli	18
▁Berger	18
▁Lok	18
▁Sax	18
▁Zan	18
▁Hume	18
▁Poetry	18
▁Caspian	18
▁Goths	18
Mar	18
▁Vot	18
PH	18
rai	18
fan	18
▁Cur	18
▁accelerated	18
▁Baptist	18
▁Joanna	18
▁Lance	18
▁Ein	18
psi	18
▁fog	18
▁Sou	18
PL	18
▁McLaren	18
▁Praetorian	18
ily	18
▁Meta	18
▁Brett	18
▁puppet	18
▁PP	18
Make	18
czy	18
LP	18
▁Hansen	18
▁RS	18
▁Hama	18
▁liaison	18
▁Robespierre	18
▁Hastings	18
▁archaeologist	18
para	18
site	18
▁shed	18
Will	18
▁botany	18
▁collaborator	18
▁abuses	18
▁EMI	18
▁refinement	18
▁prediction	18
▁calculation	18
▁auxilia	18
rö	18
▁destiny	18
▁determinant	18
▁suburbs	18
With	18
▁Scar	18
countless	18
▁chaplain	18
plan	18
▁Heavyweight	18
▁throwing	18
▁listeners	18
▁nude	18
▁frustration	18
▁Jac	18
▁tracking	18
▁Oda	18
▁nuns	18
▁classroom	18
▁baritone	18
▁butter	18
▁erect	18
▁Hausdorff	18
lig	18
ì	18
▁Matthias	18
▁Wink	18
▁atrocities	18
gaila	18
▁twelfth	18
▁buyer	18
▁Labs	18
▁CFI	18
▁subscribers	18
▁Pool	18
▁GUI	18
▁rope	18
sdorf	18
number	18
metal	18
▁Astronomy	18
▁Fighting	18
stellar	18
▁Devo	18
▁shipbuilding	18
▁Sharp	18
▁repudiat	18
▁Ptolema	18
hem	18
▁classics	18
▁Cilicia	18
▁Vas	18
▁darker	18
▁Leng	18
▁internally	18
▁tribunal	18
Hungarian	18
▁treasurer	18
ddy	18
▁slaughter	18
▁Zeus	18
▁Etruscan	18
▁Cornwall	18
ienne	18
▁Maxwell	18
▁Mir	18
▁delta	18
iko	18
▁Pure	18
▁Carey	18
date	18
▁Petrarch	18
▁Elector	18
shirts	18
▁repetition	18
▁dilemma	18
▁wound	18
▁Pré	18
Nassau	18
▁Lines	18
▁practitioners	18
▁Pay	18
▁recovering	18
▁Hanse	18
▁Dawkins	18
possibly	18
▁chemist	18
▁Temp	18
▁contemplat	18
bour	18
▁Thrace	18
▁Katniss	18
▁Elsa	18
ła	18
nian	18
▁heating	18
▁Poems	18
▁cannabis	18
▁Pound	18
plant	18
▁Skeptic	18
▁extraction	18
▁Grow	18
▁pump	18
▁Cypriot	18
▁Titanic	18
▁hegemony	18
kawa	18
▁Languages	18
▁Córdoba	18
▁Fou	18
▁amazing	18
used	18
▁Kassel	18
▁Erdo	18
▁absurd	18
vian	18
grave	18
▁inventory	18
▁Warriors	18
▁Revelation	18
▁shipyards	18
maru	18
▁disturbed	18
▁charg	18
wise	18
▁gravitational	18
▁Doppler	18
▁Gear	18
▁Does	18
Two	18
▁prisons	18
▁justification	18
▁sultan	18
▁originat	18
VD	18
▁solemn	18
▁seldom	18
ural	18
▁Lime	18
▁toys	18
▁simplify	18
▁bust	18
bid	18
▁Swing	18
seller	18
▁Oul	18
▁Valentine	18
▁disagreements	18
▁Str	18
▁Companies	18
▁laugh	18
▁acres	18
▁AV	18
▁ladder	18
▁Shiva	18
▁Pirates	18
operate	18
▁Banach	18
Su	18
▁artworks	18
▁reservation	18
▁prompt	18
capable	18
Mill	18
LL	18
▁Graphics	18
▁Simone	18
cry	18
iter	18
bé	18
▁Belgique	18
▁Chiang	18
▁König	18
▁rap	18
sure	18
▁Alban	18
▁Koch	18
▁Presbyterian	18
▁Cambodian	18
▁patriot	18
▁Promotion	18
stall	18
▁attach	18
▁Nab	18
▁dragon	18
uring	18
▁viewer	18
▁arrondissement	18
▁Boek	18
▁challenging	18
hol	18
▁Erich	18
▁Saddam	18
BD	18
▁Concordi	18
▁minimize	18
▁lock	18
▁overwhelming	18
▁struggling	18
▁fraction	18
▁Constable	18
▁Cock	18
cin	18
▁cycling	18
▁nice	18
kowski	18
▁Freeman	18
▁perceive	18
▁radically	18
▁complain	18
▁Parque	18
▁Fourier	18
▁colorful	18
▁poker	18
▁Pia	18
cover	18
▁consistency	18
▁multimedia	18
▁resting	18
▁Android	18
▁Buch	18
▁imminent	18
▁Descartes	18
▁Norwich	18
▁Said	18
▁appointments	18
▁Himera	18
roy	18
sister	18
▁hamper	18
▁Kung	18
▁Vale	18
▁trim	18
▁Feel	18
defined	18
▁Stre	18
▁tumor	18
▁Fre	18
alk	18
▁lineage	18
▁optimiz	18
▁rotat	18
dell	18
cke	18
service	18
▁segregation	18
▁facelift	18
▁Uno	18
Part	18
▁Won	18
▁societ	18
▁contradiction	18
▁Kart	18
▁incorporat	18
▁blast	18
▁Titu	18
▁Kawa	18
▁Comet	18
Germany	18
▁Trace	18
ND	18
▁antagonist	18
round	18
▁scribe	18
▁syndicate	18
▁ci	18
▁Likewise	18
▁flu	18
▁lesson	18
finals	18
▁Byers	18
▁Mette	18
▁Lausanne	18
▁Horace	18
▁Delhi	18
▁seminars	18
▁flames	18
▁vaccine	18
▁Invisible	18
▁Smithsonian	18
rut	18
▁mph	18
▁Sales	18
▁mosaic	18
▁Witch	18
▁Palermo	18
itis	18
lach	18
▁magister	18
▁Kuhn	18
▁apartheid	18
▁processors	18
▁spontaneous	18
▁Barton	18
▁Rand	18
▁Justus	18
▁Raphael	18
▁analyze	18
nov	18
▁Chuck	18
▁Müller	18
▁orphan	18
▁arcade	18
▁SV	18
▁Rare	18
▁purchases	18
▁Hancock	18
▁Hayek	18
▁Barber	18
▁Month	18
Queen	18
▁hospitality	18
full	18
▁Okinawa	18
▁fitness	18
▁cum	18
▁Cage	18
▁Saar	18
ikon	18
▁hull	18
▁Borneo	18
holm	18
Elite	18
▁cigarettes	18
June	18
▁Petro	18
▁alias	18
▁Isis	18
▁digits	18
▁contributors	18
▁MiG	18
▁Municipality	18
▁wakes	18
▁Theresa	18
▁Bosch	18
▁Mile	18
▁Valens	18
▁Crocker	18
▁conc	18
▁Arie	18
▁authorship	18
▁Dallas	18
▁neighborhoods	18
atum	18
agi	18
dance	18
▁Bak	18
▁Willie	18
kun	18
▁NPO	18
▁quasi	18
▁rendering	18
▁troop	18
▁Demosthenes	18
▁clash	18
abu	18
▁professionally	18
▁UFO	18
▁royalties	18
▁theologian	18
evidently	18
uta	18
▁Nomad	18
IEC	18
▁bounded	18
▁Huis	18
▁Hair	18
▁Ooster	18
▁penalties	18
▁ostensibl	18
▁Image	18
▁honors	18
▁slain	18
▁Zeppelin	18
iza	18
▁Wheeler	18
buch	18
▁Nikolai	18
▁Hesse	18
▁Bonnet	18
▁Daughter	18
▁Seg	18
▁Mohammad	18
▁Cowboy	18
▁Ships	18
▁Prayer	18
▁merging	18
▁overnight	18
‘	18
в	18
▁synthesizer	18
▁Aston	18
hur	18
▁Groups	18
▁finger	18
▁Massacre	18
▁Reed	18
▁Thermopylae	18
issue	18
▁Pig	18
▁lyrical	18
▁Connection	18
▁Rij	18
▁Vega	18
watch	18
▁anarchists	18
▁Olivier	18
▁Navarre	18
▁Fool	18
▁presentations	18
gni	18
propelled	18
▁hymn	18
ozo	18
lab	18
▁Mimi	18
ør	18
▁Joris	18
▁Description	18
▁shortages	18
Ver	18
▁marshal	18
▁Gardner	18
sius	18
▁acquisitions	18
igen	18
▁pink	18
tti	18
▁Morse	18
▁Kirby	18
▁Property	18
▁Interpol	18
▁Vig	18
veld	18
▁fonts	18
▁Rijn	18
LD	18
▁Material	18
▁accomplish	18
▁kidney	18
▁theatres	18
▁Delaware	18
▁Amateur	18
▁Kir	18
▁GWUP	18
▁Casimir	18
▁Reference	18
complete	18
hout	18
▁Fad	18
▁Od	18
▁compatibility	18
boom	18
▁Level	18
▁Burnham	18
▁Touch	18
▁Nara	18
▁Website	18
apping	18
cept	18
▁recaptured	18
▁miracles	18
▁bypass	18
▁Guthrie	18
▁histories	18
▁ou	18
▁Mora	18
▁Alberta	18
▁Survival	18
▁decid	18
▁Cloud	18
riz	18
peri	18
▁Photo	18
▁XP	18
▁Feng	18
▁meal	18
▁Rim	18
▁Kin	18
▁Lili	18
▁Fin	18
▁Meg	18
▁basement	18
▁Tani	18
▁Draad	18
▁progression	18
dienst	18
▁Legislati	18
Cola	18
▁Volks	18
▁Clo	18
sexual	18
▁sympathy	18
▁Tha	18
▁patrons	18
▁Trotsky	18
▁Emmanuel	18
▁Janet	18
▁render	18
▁stereo	18
▁booty	18
▁Brave	18
▁Rud	18
▁persistent	18
▁voluntarily	18
▁Cork	18
TI	18
ores	18
▁impacts	18
▁Terror	18
▁Strategic	18
▁upbringing	18
▁Dome	18
▁Sud	18
▁Corr	18
▁Continu	18
▁Wilfrid	18
▁asleep	18
witch	18
▁Shan	18
blade	18
▁lava	18
▁indoor	18
▁Griffith	18
▁patriarch	18
rolling	18
▁florins	18
▁min	17
▁deadly	17
rowing	17
▁feasible	17
Outstanding	17
▁Producer	17
▁Kensington	17
▁Outlook	17
▁Fanny	17
▁León	17
▁Taf	17
purpose	17
▁Rochelle	17
▁Chat	17
▁Flat	17
▁behaviors	17
▁Gideon	17
▁fragile	17
▁Wake	17
▁Homo	17
gene	17
▁Morrison	17
RT	17
Ž	17
▁Messenger	17
▁Nottingham	17
▁Shane	17
▁Sham	17
shot	17
▁rehearsal	17
▁advent	17
▁Resort	17
▁flexible	17
ACA	17
▁Psalm	17
▁Python	17
village	17
▁dig	17
▁quota	17
▁Bertrand	17
▁Perl	17
▁Spi	17
▁Domini	17
▁dish	17
▁Puerta	17
"—	17
▁Tram	17
▁Huygens	17
▁mummies	17
▁Anselm	17
▁geographer	17
aged	17
▁Cassie	17
▁summers	17
▁lig	17
▁Windsor	17
▁Dakar	17
fro	17
▁Williamson	17
▁pressures	17
É	17
▁Gh	17
▁Alexandr	17
▁Phoebus	17
quire	17
▁Egmont	17
▁Vogel	17
▁timing	17
iva	17
▁suburb	17
▁turret	17
▁emotions	17
▁warehouses	17
▁Huiswoud	17
▁nowhere	17
▁Ave	17
▁Territories	17
▁manifolds	17
▁homology	17
▁Deeyah	17
▁Sukarno	17
▁generous	17
▁childless	17
▁speeds	17
▁statutes	17
▁wartime	17
▁filters	17
▁canvas	17
▁yard	17
▁IJssel	17
lake	17
hole	17
▁corpses	17
bie	17
▁Fo	17
▁downtown	17
upp	17
▁categor	17
▁Olympia	17
▁Seal	17
wei	17
▁Xenophon	17
dov	17
▁relativity	17
▁objected	17
▁Qatar	17
▁Pad	17
▁Namazie	17
▁olive	17
▁decay	17
▁conform	17
▁therapeutic	17
bald	17
gir	17
roep	17
▁BAM	17
issa	17
▁stopping	17
▁Veen	17
▁Ludwigsfelde	17
▁communal	17
▁phrases	17
▁Nico	17
▁Evidence	17
▁Doel	17
value	17
vitri	17
eye	17
▁wealthiest	17
▁differentiation	17
▁Kooten	17
▁administrators	17
▁Tobago	17
▁cow	17
▁Tripoli	17
EE	17
yō	17
▁Alaric	17
▁Octavian	17
▁Mok	17
▁feedback	17
nut	17
▁Experimental	17
▁vanished	17
▁Troll	17
▁Tibetans	17
growing	17
▁Parc	17
they	17
aught	17
▁Nouvelle	17
ité	17
▁seventy	17
aise	17
▁Abd	17
apped	17
▁Martini	17
▁violate	17
guard	17
▁Plate	17
▁Trap	17
erg	17
▁nomads	17
▁Australians	17
load	17
▁Decker	17
▁insights	17
▁contractor	17
▁bombard	17
▁Zwart	17
▁Ach	17
▁platinum	17
▁Models	17
▁Prosecutor	17
)—	17
▁Alley	17
prijs	17
▁checkpoints	17
▁exempt	17
TU	17
WC	17
▁Monitoring	17
phen	17
▁Pretoria	17
▁deposit	17
DM	17
▁Oss	17
▁evenings	17
▁charitable	17
▁Object	17
▁pressed	17
▁fishermen	17
▁Salva	17
rice	17
▁McDonald	17
▁alcoholism	17
agawa	17
ritten	17
▁readings	17
▁Hasbro	17
▁Hip	17
▁unpopular	17
▁grammatical	17
▁motive	17
▁aristocracy	17
Bi	17
▁Carus	17
oso	17
▁Dia	17
pac	17
▁flooded	17
▁rests	17
storm	17
mple	17
▁Carol	17
▁Gore	17
▁advisers	17
▁remark	17
▁decorative	17
▁generates	17
▁inability	17
yet	17
▁Marley	17
▁Wald	17
▁DARE	17
▁Dangerous	17
▁imagined	17
tik	17
▁stamps	17
rico	17
akov	17
▁motets	17
▁breath	17
taking	17
mouth	17
▁Gone	17
▁Active	17
formally	17
▁Contrar	17
yar	17
▁Deltic	17
▁Belgacom	17
▁Bless	17
▁Pharaoh	17
▁Oct	17
▁fruits	17
▁assessed	17
▁KSP	17
▁Gaulle	17
▁sheets	17
tem	17
ident	17
▁Particular	17
▁perpetual	17
▁excavation	17
Seven	17
▁Tomb	17
▁processed	17
▁lions	17
▁Messina	17
▁Crawford	17
▁Pra	17
ometric	17
ệ	17
eyn	17
▁Apache	17
▁Gren	17
▁betrayal	17
dress	17
▁Musik	17
markt	17
▁orthogonal	17
iled	17
Long	17
▁modernist	17
▁trailer	17
▁retreating	17
hold	17
▁Magnitsky	17
▁Priest	17
▁holes	17
▁Bock	17
▁Safari	17
iccol	17
▁Archaeological	17
▁roman	17
▁Giacomo	17
▁Ricci	17
▁graphical	17
ppen	17
▁Kha	17
▁inserted	17
▁Jes	17
ôme	17
▁Lig	17
▁Panizza	17
▁Pepsi	17
lander	17
▁reluctance	17
▁stor	17
▁phones	17
▁pork	17
▁renovations	17
▁superficial	17
▁martyr	17
▁Isabel	17
▁fitting	17
▁NOS	17
▁NT	17
▁Mia	17
▁commodities	17
▁fantastic	17
USA	17
▁odds	17
ordination	17
▁translat	17
▁Jans	17
▁rides	17
▁Brighton	17
HR	17
▁subset	17
▁spheres	17
▁Rene	17
▁sta	17
▁tyrant	17
tig	17
▁Ramsey	17
▁Rebellion	17
▁Regions	17
▁dominion	17
▁Scotia	17
local	17
▁va	17
▁jets	17
▁skate	17
bond	17
▁corrections	17
▁Yuki	17
▁Slam	17
kol	17
▁liberals	17
▁Beek	17
▁Marius	17
ARC	17
mori	17
eli	17
▁meditation	17
▁chiefs	17
▁Transylvania	17
▁Variety	17
▁cloth	17
▁attitudes	17
▁Interest	17
OM	17
▁synthesize	17
▁Expert	17
▁Gyres	17
▁Elliot	17
disguised	17
ijs	17
▁protects	17
▁Enterprise	17
ushi	17
enbach	17
▁decorations	17
▁NES	17
VM	17
hom	17
▁cutting	17
▁Zach	17
▁Provence	17
▁Werner	17
▁Velde	17
▁Louisiana	17
▁harassment	17
ress	17
▁penetrate	17
OE	17
▁wipe	17
ota	17
▁Pir	17
▁Select	17
▁Rwandan	17
little	17
▁Palais	17
▁habit	17
▁Architects	17
▁Oro	17
homotopy	17
▁incidence	17
iku	17
▁choreograph	17
▁Cheetah	17
▁annex	17
Lo	17
▁giraffe	17
▁collaborating	17
designed	17
▁yacht	17
▁Duchess	17
▁Provinces	17
Þ	17
fax	17
▁floods	17
▁brick	17
▁uncles	17
▁Allan	17
▁mud	17
▁Richardson	17
Your	17
ibn	17
self	17
▁convictions	17
▁penn	17
kara	17
▁mount	17
▁lacks	17
Translated	17
cyclo	17
ente	17
▁Warcraft	17
▁Lamp	17
emi	17
▁Disc	17
▁Counter	17
▁Epp	17
uh	17
▁warehouse	17
▁Levant	17
ème	17
▁Mozambique	17
▁anybody	17
▁sake	17
▁Plymouth	17
▁soloist	17
▁diplomats	17
▁amateurs	17
▁Mada	17
▁Grave	17
▁coached	17
zia	17
story	17
▁Elias	17
▁Banque	17
▁armistice	17
▁gig	17
▁investigator	17
▁Sainte	17
▁upload	17
▁Cruise	17
▁Sonata	17
bird	17
berger	17
▁gasoline	17
▁AVR	17
▁corrected	17
▁holdings	17
▁PM	17
imi	17
▁accounting	17
▁sponsorship	17
▁disruption	17
hou	17
▁protagonists	17
▁Crest	17
▁Thi	17
schel	17
▁MAN	17
▁stocks	17
▁resurrection	17
▁cul	17
▁Cable	17
enda	17
▁Maud	17
▁Nishi	17
▁Walsh	17
▁manipulation	17
▁Bug	17
▁Ada	17
coat	17
▁Transit	17
AIDS	17
▁screens	17
mast	17
▁signatures	17
Stars	17
▁Mendoza	17
▁Koz	17
▁Batman	17
▁exclude	17
▁Brad	17
▁Nederlandsche	17
▁Put	17
fully	17
Lord	17
▁Slite	17
▁Bolton	17
▁meals	17
▁confesses	17
▁Himmler	17
▁Norma	17
▁Sche	17
▁fundamentally	17
▁Sascha	17
▁Guild	17
▁lighthouse	17
▁Ah	17
▁Escher	17
▁Buy	17
▁Bin	17
▁beg	17
▁steer	17
▁detailing	17
▁disliked	17
▁Armand	17
▁Chaos	17
▁interned	17
▁CPU	17
▁Seas	17
erie	17
▁MyHeritage	17
RMS	17
▁Accord	17
▁aliens	17
▁mutations	17
▁voyages	17
▁Maine	17
▁Divi	17
▁velocity	17
▁cinemas	17
▁Tyr	17
▁hunted	17
▁Aachen	17
▁dresses	17
▁Lowry	17
▁quo	17
▁rabbi	17
▁Vicente	17
SAS	17
▁algorithms	17
▁integrat	17
▁Print	17
▁Please	17
particularly	17
▁Vinci	17
▁Strauss	17
▁Volk	17
▁Billie	17
▁Mosque	17
iensis	17
▁Blu	17
▁examinations	17
▁Conflict	17
▁scrapped	17
▁accumulation	17
▁spies	17
hash	17
DD	17
▁resides	17
▁lobby	17
▁Gellish	17
▁Were	17
zione	17
▁competitiveness	17
▁aristocrats	17
▁seated	17
▁Dodge	17
▁vocabulary	17
▁Deir	17
idia	17
atie	17
▁Variations	17
▁sanctuary	17
▁creditors	17
▁disguise	17
▁footsteps	17
▁Harding	17
▁Pepin	17
▁viewpoint	17
▁Tallinn	17
▁tissue	17
▁Doge	17
raw	17
▁Asylum	17
▁minds	17
▁Retriev	17
DG	17
▁Interview	17
▁Kof	17
▁Annan	17
▁rifles	17
▁IT	17
▁broker	17
▁Taj	17
▁Apocalypse	17
izes	17
▁Française	17
bir	17
▁Goal	17
▁Delphi	17
▁dump	17
Europe	17
▁ransom	17
▁Addis	17
label	17
▁sunlight	17
▁membrane	17
true	17
ät	17
▁Articles	17
▁crude	17
mbri	17
▁revisions	17
ether	17
▁Uruguayan	17
▁dwarves	17
▁Marriage	17
▁preached	17
▁mRNA	17
▁collaborations	17
▁Customs	17
▁Lombard	17
formed	17
▁ears	17
▁fake	17
BSD	17
▁Recently	17
▁feeding	17
First	17
▁RPB	17
▁modernized	17
▁loving	17
zawa	17
▁mutants	17
▁Kurtz	17
ancy	17
▁couples	17
▁railroads	17
Secondary	17
▁advertisements	17
▁Alternative	17
▁criticiz	17
▁promulgated	17
sibility	17
▁Built	17
▁spiral	17
▁caldera	17
▁crushed	17
▁Sutherland	17
border	17
▁macro	17
▁Cameroon	17
▁Forty	17
uan	17
▁Flow	17
▁podium	17
▁Always	17
▁Ruby	17
unc	17
▁Cod	17
▁considerations	17
launched	17
▁radicals	17
▁allude	17
▁Moi	17
▁Niels	17
▁Traditional	17
▁kingship	17
▁Castlehaven	17
▁diffusion	17
herence	17
eit	17
▁virtues	17
ajah	17
emia	17
▁fascination	17
▁Diocletian	17
▁Gud	17
▁boyd	17
▁worthy	17
club	17
ved	17
▁switching	17
Year	17
▁Morgen	16
▁visions	16
▁Achilles	16
▁Whitney	16
▁Adler	16
▁Nikola	16
▁Duo	16
▁Adelaide	16
▁Tea	16
▁Vill	16
▁interchange	16
▁Pr	16
▁Hubble	16
▁Regent	16
▁venerat	16
▁Vanessa	16
▁homogeneous	16
▁Tran	16
▁miraculous	16
small	16
▁Samson	16
▁Dol	16
▁verb	16
▁Clay	16
▁Lysimachus	16
hé	16
▁diagrams	16
▁Mott	16
▁Yacht	16
▁Question	16
▁generating	16
ote	16
▁namesake	16
▁upheld	16
▁uninhabited	16
▁Sierpi	16
chev	16
▁Skepsis	16
fr	16
▁Merseyside	16
gang	16
▁exponent	16
▁Isles	16
▁Euboea	16
closed	16
▁rumors	16
▁parliaments	16
▁cu	16
▁sensation	16
nski	16
▁Aki	16
▁Events	16
▁Brass	16
▁Drum	16
▁Sources	16
▁weaknesses	16
▁duchy	16
▁commissioners	16
aar	16
▁Monroe	16
▁communists	16
▁Cotton	16
lice	16
▁veto	16
▁secularism	16
rib	16
▁Cassandra	16
ample	16
▁strain	16
▁forerunner	16
▁Example	16
▁iconic	16
eni	16
▁Morton	16
▁Carson	16
▁Alien	16
Atomic	16
▁biologist	16
▁Editor	16
▁kilometer	16
Power	16
▁cows	16
▁Dragons	16
▁Roads	16
▁propulsion	16
ija	16
▁coloured	16
▁Mozarts	16
▁disregard	16
▁Peoples	16
African	16
▁feminism	16
▁Perceval	16
▁fix	16
▁entomology	16
bet	16
Son	16
schen	16
owner	16
▁Cra	16
elius	16
▁diploma	16
▁BP	16
iglia	16
▁unrealistic	16
▁Smits	16
▁Appeal	16
▁roster	16
▁TNA	16
▁Joost	16
▁Ninja	16
LT	16
▁Def	16
▁reinstated	16
▁citation	16
ritt	16
main	16
reservation	16
▁outfit	16
▁Om	16
elijke	16
▁Brutus	16
<	16
▁Hide	16
▁alternatives	16
▁footballer	16
▁resid	16
▁collects	16
▁Hut	16
▁parameter	16
▁barr	16
▁Growth	16
▁Dow	16
chair	16
color	16
opolis	16
residency	16
▁angered	16
▁nitrogen	16
mass	16
▁Koo	16
▁rounded	16
▁footballers	16
suit	16
▁censor	16
▁Disease	16
▁paradigm	16
▁plea	16
▁intrigue	16
▁democratically	16
▁Elagabalus	16
vous	16
▁stuff	16
▁expressive	16
▁folio	16
▁Leav	16
▁Singers	16
▁Credit	16
▁Bonaire	16
▁abstraction	16
ningen	16
▁Cord	16
▁ironic	16
▁Seleucid	16
ils	16
▁stairs	16
▁Czechoslovak	16
▁militant	16
▁concurrently	16
▁fortunes	16
▁Scout	16
▁Chessington	16
▁delays	16
▁pragmatic	16
▁Phase	16
▁chase	16
▁formulas	16
▁Lodewijk	16
▁mummy	16
▁assure	16
▁instruct	16
rav	16
▁Historians	16
▁desperate	16
▁Deco	16
signed	16
▁motors	16
▁Pyrenees	16
▁detectors	16
▁mystical	16
iegel	16
here	16
▁FP	16
▁racist	16
▁Chronicon	16
▁rider	16
rith	16
just	16
▁Edo	16
Radio	16
▁fountain	16
▁Mana	16
▁Fiji	16
▁VVD	16
▁Theology	16
uki	16
eux	16
fusion	16
▁Treatment	16
▁Rosecrans	16
akis	16
▁Idol	16
Brussels	16
▁Lille	16
▁Bing	16
▁pas	16
▁offspring	16
ischen	16
▁Dordrecht	16
▁encompasse	16
▁Read	16
ici	16
▁hazard	16
▁Judgment	16
▁Becker	16
▁Cub	16
▁Gol	16
▁Hag	16
▁tomorrow	16
binding	16
▁Pod	16
▁manuals	16
▁labourers	16
▁chronology	16
▁deposited	16
blood	16
▁Gabon	16
▁ATSC	16
▁Bowl	16
▁receipt	16
▁accredited	16
▁CL	16
▁stamp	16
▁ineffective	16
▁Judith	16
▁unreliable	16
ymphonic	16
▁Acc	16
▁smuggling	16
▁excited	16
▁Natura	16
ila	16
▁Zambia	16
▁meaningless	16
▁Broek	16
▁capitulation	16
▁Paraguay	16
▁Dollar	16
▁Appel	16
▁Wale	16
▁hemisphere	16
▁spouse	16
▁Sanchez	16
Woman	16
▁offence	16
▁shower	16
▁Gouda	16
Het	16
jah	16
▁Forte	16
▁Jazeera	16
ovsky	16
▁inevitably	16
▁Origins	16
lash	16
▁CT	16
▁reactors	16
▁mansion	16
▁Koning	16
▁Dorothy	16
▁retract	16
wil	16
Western	16
▁quotes	16
▁Learning	16
kie	16
MAC	16
▁conditional	16
HL	16
Prince	16
▁analytical	16
ave	16
▁Vall	16
ower	16
▁shirt	16
image	16
▁Rais	16
▁Palatine	16
▁physiology	16
▁González	16
▁forthcoming	16
▁engraved	16
▁subgroup	16
Jacques	16
▁loading	16
▁impetus	16
▁Peeters	16
▁Neuchâtel	16
dius	16
▁Fashion	16
▁westward	16
▁manned	16
▁Scientology	16
▁Joel	16
tonic	16
oscope	16
bru	16
▁Cliff	16
▁entertainer	16
▁replies	16
▁Lund	16
▁zombie	16
▁envelope	16
▁Adult	16
▁Galerie	16
eaux	16
▁Longstreet	16
▁arrests	16
▁defects	16
▁coffin	16
▁Heineken	16
SV	16
▁Firstly	16
▁colonization	16
▁PvdA	16
▁Flower	16
▁str	16
▁Turing	16
coherent	16
▁Hannibal	16
▁Alexios	16
▁Oka	16
▁improper	16
▁impoverish	16
▁comedies	16
▁Fisheries	16
▁adhere	16
▁recounted	16
▁Christensen	16
CICAP	16
▁Etruscans	16
▁cor	16
▁deviation	16
▁booked	16
▁Map	16
▁Poindexter	16
fur	16
▁leaked	16
▁Spiegel	16
!)	16
▁Colour	16
vil	16
▁Albany	16
▁thread	16
▁ruin	16
▁Grothendieck	16
▁Burmes	16
▁Freddie	16
▁Herodotus	16
▁approve	16
rev	16
▁SK	16
▁Headquarters	16
▁rebellious	16
▁Riv	16
▁Franciscan	16
▁Kreuz	16
▁abelian	16
arte	16
SPD	16
AE	16
▁Ursu	16
CB	16
▁crazy	16
▁Marin	16
▁Casey	16
▁Hawkins	16
▁thriving	16
▁Martian	16
▁pointing	16
▁String	16
▁alternately	16
▁overshadow	16
▁slaughtered	16
▁paternal	16
▁Romanov	16
Book	16
▁conservatives	16
jes	16
▁hint	16
Jean	16
▁Prevention	16
▁additionally	16
▁blessed	16
▁var	16
▁Maru	16
▁Lowe	16
▁Galicia	16
▁intercepted	16
▁demonstrators	16
abi	16
▁Sev	16
▁obstacle	16
Si	16
▁silicon	16
▁XV	16
recorded	16
▁Margarita	16
▁Plum	16
▁SN	16
▁Jogaila	16
▁pedestrian	16
wards	16
▁lattice	16
▁EDPS	16
▁pillar	16
ová	16
▁Shadows	16
bergen	16
▁Meng	16
guer	16
▁Slovenia	16
▁emphasised	16
▁scar	16
▁remarried	16
▁Ethical	16
▁Suzanne	16
▁Moro	16
▁Mate	16
▁ratings	16
▁Uit	16
ijk	16
▁IMI	16
▁Almere	16
▁scales	16
?")	16
dden	16
nton	16
▁villain	16
▁Architect	16
▁Dj	16
▁infect	16
▁Mantua	16
▁leak	16
▁Domenico	16
▁Secretariat	16
editor	16
▁Agrippina	16
▁glasses	16
▁Clean	16
▁proliferation	16
▁impulse	16
▁Scientists	16
▁AK	16
▁rendition	16
▁globalization	16
▁Tau	16
▁Yes	16
Union	16
bey	16
▁Which	16
▁Aga	16
▁Epic	16
▁Lorraine	16
▁Gö	16
vig	16
▁Kool	16
▁watches	16
▁Treasury	16
▁Fernand	16
▁Warrior	16
▁collectors	16
ijuana	16
▁circuits	16
▁Cit	16
chem	16
▁touching	16
By	16
▁miniatures	16
▁Hicetas	16
▁Rowland	16
▁treasures	16
▁Finding	16
ondo	16
▁lengths	16
▁freethinkers	16
▁Export	16
▁Dillon	16
▁Shō	16
▁premium	16
▁Hansa	16
misunderstanding	16
▁disadvantage	16
▁Bragg	16
▁rever	16
ety	16
▁Trading	16
▁grief	16
▁programmer	16
▁Milky	16
▁afore	16
▁waterway	16
▁Vespasian	16
liv	16
ility	16
▁survivor	16
iere	16
▁Gallen	16
▁Lac	16
▁soccer	16
vio	16
▁friction	16
▁Dell	16
▁Nail	16
▁commutative	16
▁Tail	16
▁Emile	16
▁Ricky	16
▁constructing	16
▁Penny	16
▁anatomical	16
uke	16
▁Som	16
▁landings	16
▁Strabo	16
loch	16
▁confident	16
▁Michell	16
Hara	16
▁overlook	16
oids	16
▁immoral	16
▁Palin	16
▁Kurdistan	16
▁Doris	16
▁Unix	16
▁desires	16
▁combustion	16
▁currencies	16
▁amendment	16
▁tweet	16
▁Frag	16
▁Phra	16
▁Malay	16
▁Uri	16
SEA	16
▁Could	16
▁Nora	16
▁Lanier	16
▁fin	16
▁repression	16
▁Malaga	16
▁Avlon	16
Magn	16
lihood	16
ilia	16
OK	16
▁steppe	16
▁nationale	16
▁Ang	16
▁Freud	16
▁regimes	16
▁consular	16
▁Turkic	16
▁Curie	16
▁Consortium	16
▁Cato	16
acker	16
icide	16
▁lens	16
▁Confederates	16
emba	16
▁Bombay	16
Po	16
▁lib	16
▁Ore	16
▁Cannes	16
▁dissent	16
▁hierarchical	16
▁Linnaeus	16
▁Campo	16
▁magnificent	16
▁scooter	16
▁Ammonius	16
▁psychiatry	16
▁certificates	16
▁theorists	16
sele	16
▁Wen	16
▁Gum	16
▁qualifying	16
▁turbulen	16
rina	16
illi	16
▁exer	16
▁Herr	16
▁Gemini	16
▁Jardin	16
▁oppression	16
▁equity	16
▁Beverly	16
▁Salem	16
urt	16
▁Liberace	16
¡	16
▁Understanding	16
▁Barlow	16
▁gall	16
▁Dec	16
▁entrepreneurs	16
▁Meleager	16
▁doubtful	16
▁contraction	16
▁Osaka	16
EMO	16
▁seventies	16
▁Champagne	16
▁Midwest	16
▁Santos	16
▁Disco	16
▁postulat	16
▁Moulin	16
▁Bruxelles	16
▁dive	16
wear	16
▁psychedelic	16
telling	16
Pap	16
▁immunity	16
▁anatomy	16
▁Henrik	16
än	16
center	16
▁Caspar	16
mythical	16
arius	16
Now	16
▁Reign	16
het	16
▁Durham	16
Lithuanian	16
nium	16
yev	16
▁Scene	16
▁Fairy	16
▁disciples	16
▁salaries	16
▁fiber	16
terrestrial	16
▁Mori	16
Pla	16
ombi	16
yah	16
▁Slave	16
oper	16
▁Gam	16
▁Gustaf	16
▁offense	16
▁obsess	16
Here	16
▁Clarence	16
▁Genesis	16
mose	16
▁DOS	16
Ä	16
▁Francesca	16
▁Invasion	16
god	16
▁isomorphism	16
▁Griffin	16
▁rid	16
▁Gis	16
▁preview	16
▁stealing	16
▁Evolution	16
heid	16
▁Malaya	16
▁Parr	16
▁stud	16
▁Simple	16
Husseini	16
▁Yuri	16
▁Mahmo	16
▁Zhu	16
▁Wiki	16
▁Generally	16
▁Motorola	16
▁Rak	16
▁formidable	16
▁Stark	16
▁Rossi	16
▁Hoorn	16
▁Numbers	16
shima	16
hle	16
▁Database	16
▁IF	16
▁Murcia	16
▁recipes	16
▁Hitchcock	16
▁marches	16
▁Huy	16
▁captive	16
▁recession	16
▁catastrophe	16
▁Beirut	16
▁amendments	16
▁cancellation	16
▁Smile	16
▁Tipton	16
lending	16
rule	16
▁abrupt	16
▁Border	16
bani	16
▁reunite	16
▁Acting	16
▁washing	16
▁serializ	16
▁transitions	16
▁Levy	16
▁Dunant	16
▁declares	16
▁provoke	16
▁Regard	16
etter	16
▁Mam	16
Ł	16
▁Brooke	16
pseudoscientific	16
▁covert	16
▁reservoir	16
▁Locomotive	16
▁Théâtre	16
▁vacuum	16
▁Clear	16
FDA	16
▁disapprov	16
▁tricks	16
▁suppliers	16
▁Sichuan	16
▁Hammond	16
▁Cardiff	16
▁ignorance	16
foot	16
▁overdose	16
▁Kuwait	16
▁Tasmania	16
▁UNICEF	16
▁spire	16
▁menu	16
▁Biology	16
▁dec	16
▁Mesa	16
▁Dalton	16
▁Courant	16
▁designate	16
▁brutality	16
▁Barrett	16
▁Mandarin	16
▁greenhouse	16
▁prescribed	16
▁Catalogue	16
▁Slow	16
▁COE	16
▁greet	16
▁repelled	15
▁Oskar	15
stern	15
▁obligatory	15
▁Citroën	15
▁Stevens	15
▁Kitty	15
GP	15
▁ousted	15
▁ES	15
▁percussion	15
▁vassal	15
TK	15
▁Albrecht	15
▁filmmakers	15
▁clipper	15
▁Rising	15
▁reused	15
▁USD	15
icia	15
▁Tijd	15
▁Strategy	15
ifying	15
leigh	15
KP	15
▁NFL	15
▁Dogs	15
▁Maggie	15
▁caravan	15
▁garrisons	15
▁Cassander	15
▁Goku	15
▁divides	15
▁Claudia	15
▁stipulated	15
▁Commius	15
▁isomorphic	15
▁ceramic	15
▁orbitals	15
▁severed	15
▁satisfiers	15
▁interconnected	15
▁intricate	15
▁complied	15
▁bloggers	15
▁Atheists	15
▁Chincho	15
▁Crusader	15
▁Inge	15
abe	15
▁Rai	15
▁Stor	15
▁Avia	15
▁Diva	15
▁Tartu	15
▁identities	15
▁retrieve	15
▁Communism	15
acre	15
▁Try	15
▁Rap	15
▁Autumn	15
▁Vet	15
▁Amalric	15
▁deliveries	15
▁Cassin	15
▁Performance	15
▁Heinz	15
KC	15
▁Rings	15
anus	15
▁entourage	15
▁Gret	15
▁Eno	15
▁satraps	15
▁skating	15
kat	15
▁arous	15
▁Cycle	15
enta	15
▁Pé	15
▁ego	15
▁ghosts	15
▁programmed	15
▁workforce	15
▁Katanga	15
▁habits	15
▁Mordrel	15
▁Eugen	15
▁leisure	15
history	15
▁dei	15
▁pamphlets	15
▁Ek	15
▁gymnasium	15
▁SMS	15
▁potato	15
▁fingers	15
orough	15
▁Zam	15
▁Haley	15
▁Rabbi	15
▁laps	15
▁MLS	15
▁tooth	15
▁beta	15
▁emigrate	15
igan	15
▁Etherpad	15
▁pad	15
▁intra	15
digenous	15
▁Connect	15
▁Doc	15
▁prefecture	15
▁Lat	15
▁Dimension	15
▁Minerva	15
▁Dit	15
▁cautious	15
▁unarmed	15
▁Wedding	15
Walk	15
▁respondents	15
▁SG	15
▁Chloe	15
▁concede	15
▁helpful	15
▁Lough	15
▁stepfather	15
▁Stratos	15
▁filtering	15
▁prosecutors	15
▁illnesses	15
▁fork	15
▁envisioned	15
▁Alto	15
astic	15
along	15
▁Leeuw	15
▁rats	15
bara	15
▁Poli	15
nte	15
Sc	15
▁Recht	15
▁elders	15
▁Tay	15
uto	15
▁WE	15
▁Tristan	15
lane	15
▁Domain	15
▁Harlem	15
▁Confederacy	15
▁Fong	15
▁advise	15
▁Lucien	15
▁Polynesian	15
oll	15
▁Troi	15
▁Rae	15
▁Timur	15
hero	15
▁leap	15
▁Deb	15
▁Dre	15
math	15
▁undermined	15
▁Tears	15
going	15
▁distributors	15
▁displacement	15
central	15
▁Brands	15
▁periodical	15
▁assistants	15
▁Fleming	15
▁perfection	15
chau	15
Sea	15
▁collectively	15
Indian	15
▁disobedience	15
orial	15
▁efficiently	15
т	15
▁Nate	15
▁Portsmouth	15
chip	15
▁Kampen	15
▁preacher	15
▁Tech	15
▁angles	15
▁premature	15
▁separating	15
▁Internacional	15
▁codon	15
▁NU	15
▁drafting	15
▁imitation	15
▁Glacier	15
▁grandchildren	15
▁Saladin	15
▁placement	15
▁Rasmussen	15
▁lend	15
▁Louie	15
hia	15
cité	15
▁hopeful	15
▁Kop	15
▁Avr	15
wo	15
longside	15
▁Loung	15
▁Liz	15
▁Kata	15
▁gateway	15
▁uranium	15
▁administrations	15
▁eleventh	15
▁buffer	15
▁assisting	15
▁eager	15
▁advancement	15
▁triumphant	15
▁drift	15
▁bizarre	15
▁Soldiers	15
▁License	15
sell	15
β	15
▁Liv	15
▁Ulrich	15
▁noon	15
exclud	15
▁Magi	15
▁Teenage	15
▁Hampshire	15
▁extradit	15
▁Zand	15
▁hypothetical	15
▁Nunavut	15
inner	15
classical	15
▁Papers	15
▁loaned	15
▁Northumbria	15
▁Comme	15
hm	15
▁Pseudo	15
▁Rice	15
▁Shock	15
▁Bronx	15
▁Dorset	15
▁remarkably	15
pick	15
▁Conquest	15
▁Norton	15
▁Sammy	15
▁Cricket	15
▁parallels	15
roux	15
▁indicted	15
▁Lions	15
▁Susanne	15
▁Abbott	15
õ	15
vey	15
pitched	15
▁Tuvalu	15
▁wheels	15
▁Brugge	15
▁reigns	15
▁hp	15
▁Peloponnese	15
▁dysentery	15
▁Fil	15
▁minimalist	15
▁Tito	15
hō	15
country	15
Old	15
▁Miley	15
▁Worth	15
▁Address	15
Ab	15
team	15
▁licensing	15
▁manipulate	15
▁Predator	15
▁shoulder	15
Ó	15
▁Prizes	15
▁subjugat	15
ergic	15
▁travelers	15
PM	15
▁Author	15
▁Application	15
ús	15
▁wander	15
hak	15
dominated	15
pole	15
▁null	15
▁clever	15
▁Allison	15
)")	15
▁flashback	15
hler	15
litzer	15
ASI	15
▁Romance	15
▁Huyton	15
▁Yar	15
▁Houten	15
mist	15
▁Levi	15
▁protracted	15
▁mantle	15
flicted	15
▁Hoo	15
▁Peruvian	15
amble	15
▁adequately	15
▁shy	15
▁Helicopter	15
▁Event	15
▁climax	15
▁adulthood	15
kade	15
▁Patsy	15
▁Peterson	15
ło	15
▁distribut	15
▁Rivera	15
▁Episode	15
▁Carrier	15
char	15
▁await	15
▁conjectures	15
▁Expansion	15
mie	15
▁Mich	15
After	15
See	15
▁Xu	15
▁Crusaders	15
▁BioWare	15
▁polder	15
▁chooses	15
▁haven	15
▁Rams	15
▁prolific	15
▁radius	15
▁heroic	15
▁Belo	15
▁unequal	15
▁Maartens	15
military	15
▁chronological	15
meaning	15
egan	15
▁ATP	15
▁Benny	15
etto	15
▁centralized	15
▁Geller	15
Ş	15
▁Ens	15
▁Kwan	15
▁annoy	15
▁Puy	15
▁footprint	15
tat	15
▁mor	15
▁plenty	15
▁Eliot	15
▁Capellen	15
Tom	15
▁downfall	15
▁Chain	15
▁Sheriff	15
▁Olsen	15
▁Karua	15
▁Birth	15
▁Lü	15
▁Aurelius	15
▁Rosenberg	15
▁Hippo	15
▁Ferrara	15
▁Yama	15
▁Gab	15
▁Groep	15
▁Humboldt	15
▁Peggy	15
▁Important	15
▁intuition	15
▁pending	15
▁Mode	15
▁Archi	15
▁PowerBook	15
▁geographically	15
▁Pep	15
▁Muller	15
▁guy	15
▁Violet	15
▁liability	15
perhaps	15
security	15
▁eccentric	15
gia	15
Take	15
▁Palma	15
moor	15
▁Roses	15
▁Antonia	15
▁shade	15
zai	15
▁Halle	15
▁Brus	15
▁slipp	15
▁specialty	15
azzo	15
▁pest	15
▁outcomes	15
clined	15
▁Br	15
lite	15
▁Suffolk	15
▁aide	15
▁Lux	15
▁Directorate	15
▁apologize	15
▁tetra	15
DH	15
▁restrict	15
▁expectancy	15
▁Coal	15
Andalus	15
▁Pérez	15
▁cleansing	15
▁constituent	15
▁Administrative	15
ogram	15
▁Aristotelian	15
▁Elo	15
spar	15
▁Rho	15
▁clearance	15
Gérard	15
guan	15
▁MIT	15
▁Excel	15
▁Dufour	15
▁Honey	15
▁windmill	15
▁Concerts	15
▁Mitanni	15
▁underworld	15
▁derivatives	15
▁slopes	15
▁incarcerated	15
▁Axel	15
leaning	15
album	15
▁transcrib	15
▁nano	15
▁patriotic	15
▁Drop	15
▁Palla	15
▁Thuy	15
▁renewable	15
▁Corinthian	15
sychological	15
ghi	15
▁Nicanor	15
▁niche	15
▁Constance	15
▁bag	15
▁liable	15
▁allegorical	15
▁belongings	15
vik	15
▁southwestern	15
▁virtue	15
▁Organic	15
▁referenced	15
ief	15
kus	15
sign	15
▁Girondins	15
eel	15
▁reformer	15
▁palaces	15
groups	15
▁Span	15
▁relie	15
than	15
▁candidacy	15
▁dan	15
▁Tract	15
borough	15
▁methyl	15
▁distinguishe	15
▁devian	15
inary	15
▁liters	15
folk	15
submarine	15
black	15
▁Lucifer	15
▁Names	15
▁intensified	15
▁inspections	15
▁PA	15
▁jokes	15
▁Concern	15
▁tablet	15
▁Theme	15
▁Superstar	15
▁supremacy	15
▁wildlife	15
▁fairy	15
▁savings	15
▁Lebesgue	15
▁occult	15
nniversary	15
▁Ket	15
▁Aetolians	15
tant	15
▁Enter	15
▁despair	15
▁Ivory	15
▁creations	15
▁minors	15
▁undermine	15
▁Monthly	15
▁Aldo	15
▁Problems	15
▁ontological	15
trick	15
▁Dieppe	15
▁reparations	15
▁Jenkins	15
▁exiles	15
▁musicals	15
▁Antony	15
▁cables	15
pter	15
▁Parent	15
ʻ	15
lid	15
▁Escape	15
▁torn	15
DCC	15
▁packet	15
▁Hack	15
▁dislike	15
▁Suez	15
▁Actor	15
▁Pitt	15
▁Sell	15
▁hiatus	15
▁theologians	15
ahn	15
▁Payne	15
deco	15
▁AH	15
official	15
▁superhero	15
▁escaping	15
▁Miya	15
▁Philosophica	15
▁Belge	15
▁gaps	15
▁hearings	15
▁Wilde	15
zio	15
▁dé	15
▁Hin	15
▁Individual	15
▁Fol	15
▁surfaced	15
earth	15
▁Salomon	15
schrift	15
▁accuse	15
▁Freiburg	15
IF	15
▁Ariel	15
▁Checkpoint	15
▁persisted	15
▁Zeit	15
Ac	15
▁bail	15
rze	15
aste	15
hit	15
▁ambiguous	15
▁Domestic	15
▁springs	15
cion	15
lah	15
▁Moseby	15
oki	15
▁boxer	15
▁Gazette	15
rō	15
▁pipe	15
▁Honduras	15
▁prerequisite	15
▁Hail	15
▁caps	15
▁catalyst	15
▁Benito	15
you	15
chter	15
▁origami	15
▁flamenco	15
▁fantasies	15
▁hospitaliz	15
▁Pasha	15
▁incorrectly	15
existent	15
▁reggae	15
▁donation	15
▁skeletons	15
▁Dos	15
▁capitalist	15
▁Areas	15
zero	15
▁determinism	15
▁Geographical	15
▁nominally	15
к	15
▁Kind	15
▁Witt	15
▁follower	15
▁Matteo	15
lager	15
▁Magdeburg	15
▁ballets	15
▁Thom	15
▁Tig	15
▁Brennan	15
▁intersection	15
▁sedan	15
▁Borg	15
zum	15
▁negotiation	15
▁Encyclopedia	15
▁Cruyff	15
▁Mercy	15
▁disclosed	15
▁Leadership	15
▁Thought	15
▁broadcasters	15
▁redesignated	15
▁granite	15
▁Gaskins	15
▁Trait	15
▁Baanders	15
▁ye	15
▁veil	15
▁Crazy	15
▁Satellite	15
▁adjustments	15
▁Stevie	15
▁auditions	15
▁commemoration	15
around	15
meister	15
▁troupe	15
▁clearing	15
OL	15
kko	15
▁Fond	15
▁Tol	15
▁activation	15
▁Graaf	15
▁VPRO	15
endorf	15
▁Restaurant	15
cade	15
▁Landscape	15
SU	15
▁PSV	15
▁reputed	15
▁industrialist	15
▁Chor	15
▁merits	15
▁invoke	15
▁Dalek	15
▁appeals	15
▁Automobile	15
▁gatherings	15
▁upstream	15
▁Mart	15
dices	15
▁suppose	15
▁Plain	15
▁injustice	15
▁Oxyrhynchus	15
▁shells	15
▁Ababa	15
▁cutters	15
▁Emirates	15
▁acquaintance	15
ów	15
vier	15
▁Lucan	15
▁unjust	15
▁fraudulent	15
▁Russ	15
▁mediate	15
▁seminar	15
▁originate	15
▁hinder	15
▁TNO	15
▁Hansel	15
▁rebellions	15
▁Gaston	15
▁Flynn	15
pathy	15
▁Xbox	15
▁mercantilist	15
▁energies	15
▁Salee	15
▁Mathilde	15
▁Omar	15
▁Marks	15
FE	15
▁hid	15
Keep	15
tian	15
▁patronage	15
▁rumor	15
▁pioneers	15
▁Winsock	15
▁Philo	15
▁Blonde	15
▁galaxy	15
▁Hole	15
▁Scipio	15
▁Kel	15
~	15
▁tunes	15
▁Pietro	15
▁Stamp	15
▁SU	15
▁standardisation	15
▁Sápara	15
▁Berry	15
▁circulate	15
Du	15
CAP	15
▁Gin	15
▁advises	15
▁Barney	15
bei	15
Good	15
▁française	15
Ḥ	15
▁Fields	15
mari	15
▁Rules	15
я	15
▁Chelsea	15
▁irrelevant	15
▁Queensland	15
jack	15
Type	15
▁longitude	15
▁resolutions	15
▁seduce	15
Tu	15
Space	15
▁Ranch	15
▁Bolzano	15
▁monkey	15
▁Sector	15
▁pleas	15
▁Virtu	15
witz	15
▁affinity	15
▁Perch	15
▁Wiesbaden	15
▁humour	15
▁Shuttle	15
arium	15
nnie	15
▁Trail	15
ected	15
▁donors	15
▁Grimm	15
▁Bengal	15
▁detach	15
Pat	15
▁Tunis	15
▁conserved	15
ASA	15
▁Smu	15
▁Polybius	15
holder	15
rijk	15
▁Publications	15
▁earnest	15
oux	15
▁theorist	15
▁Underground	15
▁deserve	15
▁marketplace	15
awi	15
▁Going	15
▁chancellor	15
▁newsletter	15
help	15
▁dell	15
▁Southampton	15
▁Ik	15
▁automated	15
acht	15
▁apologized	15
▁Deventer	15
gha	15
]	15
eme	15
▁imprint	15
▁Monkey	15
▁accus	15
▁Wereld	15
neck	15
▁GO	14
▁Rou	14
found	14
▁receptor	14
▁Hé	14
▁sergeant	14
▁dose	14
▁dwellings	14
wyn	14
vre	14
▁Mahler	14
▁Pak	14
▁Observations	14
▁resentment	14
nius	14
▁brains	14
▁rainforest	14
▁hoard	14
▁fatalities	14
verted	14
▁donor	14
▁mg	14
▁pardon	14
▁Enterprises	14
▁playable	14
erritorial	14
▁Abbas	14
▁Roos	14
▁Disneyland	14
▁Vinçotte	14
▁logistical	14
bone	14
▁tiger	14
▁interventions	14
▁substrate	14
break	14
fjord	14
▁parishes	14
▁Advance	14
itia	14
▁Split	14
▁conspirators	14
iber	14
ethnic	14
▁Belt	14
▁Cecil	14
▁trams	14
▁Liberals	14
▁Orl	14
▁och	14
▁Paula	14
▁clashed	14
▁Bicker	14
▁Technos	14
▁plug	14
▁mus	14
▁Tobacco	14
▁Effect	14
udge	14
▁Playboy	14
▁Cri	14
kō	14
▁mouse	14
▁restor	14
▁Fury	14
▁sizable	14
January	14
rode	14
▁focusse	14
▁pyramids	14
▁Yates	14
portrait	14
▁Ott	14
▁perceptions	14
PF	14
▁invisible	14
▁Ceylon	14
▁Bolesław	14
wanted	14
▁Godwin	14
▁Purple	14
▁laborers	14
▁keeper	14
flag	14
▁Hōjō	14
appointing	14
Jet	14
▁salon	14
mund	14
▁ethno	14
▁Spo	14
kil	14
▁Gé	14
kuru	14
▁Kirch	14
▁Zhou	14
▁Except	14
whi	14
▁graffiti	14
▁Simultaneously	14
▁JavaScript	14
▁Believe	14
▁Croix	14
tium	14
▁arithmetic	14
▁disgrace	14
bner	14
▁AVRO	14
▁Kaplan	14
▁Frau	14
▁Euphrates	14
▁Amendment	14
▁WrestleMania	14
▁BMI	14
▁reorganised	14
Ten	14
▁capacities	14
▁Gothenburg	14
▁uprisings	14
▁pic	14
▁investigates	14
▁Asiatic	14
▁Minneapolis	14
▁Comes	14
lobe	14
▁pacifist	14
▁Webster	14
▁Pick	14
▁Fokker	14
▁Bie	14
▁injection	14
▁Stephanie	14
▁relay	14
cuous	14
▁tailor	14
▁Ole	14
▁Agu	14
▁Guys	14
▁Giorgi	14
liberal	14
▁contrasting	14
▁Jill	14
▁Amina	14
▁tense	14
▁Decca	14
▁blogs	14
▁cartoons	14
uter	14
▁embryo	14
▁coaster	14
▁Wilkinson	14
▁pr	14
▁vivid	14
▁supplier	14
writing	14
▁Gloria	14
▁Snorri	14
▁Corfu	14
▁barbarian	14
▁Apparently	14
▁Foley	14
kata	14
▁encouragement	14
▁causal	14
▁Katie	14
tze	14
▁Sey	14
▁afterlife	14
allo	14
▁Fundamental	14
▁kidnapping	14
driven	14
▁Bry	14
▁Almighty	14
▁Gertru	14
▁bak	14
▁unnamed	14
▁Württemberg	14
▁futurist	14
▁goth	14
▁Cypriots	14
▁Ap	14
Stop	14
FK	14
▁Bahamas	14
▁tattoo	14
▁authorization	14
▁Daisy	14
orthodox	14
▁tab	14
▁Polski	14
▁Pict	14
omen	14
▁Maz	14
▁ZF	14
▁bilingual	14
OP	14
POL	14
▁presently	14
directed	14
nau	14
▁encryption	14
▁Gü	14
▁Paramo	14
▁Thinking	14
▁Plains	14
▁scan	14
▁Broadcast	14
▁Mulder	14
▁SM	14
▁Regi	14
▁Jury	14
▁Scripture	14
▁dialogues	14
▁cord	14
hoek	14
▁Wikitravel	14
▁Lech	14
▁asbestos	14
looking	14
tec	14
▁epoch	14
many	14
▁tonnage	14
▁Dominion	14
▁apology	14
▁additive	14
▁Judy	14
▁fiancée	14
▁Lennon	14
▁royalty	14
champ	14
▁confer	14
gesellschaft	14
▁Waal	14
▁Lydia	14
UT	14
▁dynamical	14
Hor	14
▁tegen	14
▁GM	14
▁frigate	14
▁farmhouse	14
▁RAI	14
▁Screen	14
▁Visitors	14
▁cowboy	14
SAT	14
▁Cath	14
▁Chip	14
▁Listen	14
toral	14
valent	14
▁ducats	14
▁Tul	14
clean	14
▁platoon	14
▁Mata	14
▁Piper	14
Corp	14
▁Troops	14
▁Marv	14
ologia	14
▁mausoleum	14
▁Bot	14
▁excellence	14
▁Cré	14
SW	14
▁intervals	14
▁hyp	14
▁Stade	14
▁eminent	14
▁Aviv	14
▁perish	14
▁Gard	14
▁Guyana	14
ROM	14
▁Neuro	14
▁hydroelectric	14
▁Bourgeois	14
mid	14
▁temporal	14
▁Gelo	14
▁correlat	14
▁checks	14
▁tent	14
▁Sylvia	14
▁Thou	14
▁starvation	14
▁nominate	14
▁litres	14
▁Tracks	14
▁BA	14
▁Sovereign	14
▁Carlyle	14
▁Brent	14
▁practised	14
▁Mess	14
▁Marconi	14
call	14
▁newborn	14
▁Ley	14
▁alleviat	14
▁Dul	14
▁snake	14
▁Rodgers	14
tau	14
▁Tajikistan	14
▁Scholars	14
▁temper	14
▁surge	14
Miss	14
ilt	14
▁Duc	14
▁cottage	14
▁Castell	14
▁Erw	14
▁engagements	14
▁Sánchez	14
▁forums	14
▁twins	14
science	14
▁Chnodomar	14
▁Dirichlet	14
▁Vaughan	14
▁Ames	14
▁Potsdam	14
▁spherical	14
▁kan	14
▁Rommel	14
▁seize	14
▁Mole	14
▁narrat	14
▁sensors	14
▁Lt	14
kop	14
▁widower	14
▁Waste	14
▁monographs	14
producer	14
▁Weber	14
▁Kis	14
Université	14
▁discarded	14
▁Lopez	14
▁ignor	14
▁Eureka	14
ffel	14
harm	14
hindered	14
▁FR	14
▁Fifty	14
orthodoxy	14
▁proprietor	14
asil	14
œ	14
▁Schmitt	14
culture	14
▁Gelder	14
▁Fuller	14
works	14
▁Reports	14
▁Citizens	14
corporation	14
▁robotic	14
▁Nicias	14
▁Vasily	14
▁Banner	14
▁Clyde	14
▁Dagblad	14
▁Gould	14
ener	14
▁Bohemond	14
▁lightning	14
dustrialization	14
▁Valk	14
▁Ideal	14
▁Herb	14
▁fundraising	14
▁Fernandes	14
trap	14
▁limiting	14
▁Friend	14
▁navigator	14
▁Argentinian	14
▁Abkhazia	14
▁Safe	14
▁Journalists	14
▁PHP	14
▁Engine	14
kia	14
Engle	14
▁saloon	14
▁differentiate	14
mentally	14
print	14
▁Fitz	14
lob	14
Til	14
ég	14
▁Kahn	14
▁Crem	14
▁Choir	14
▁Statistical	14
▁versatil	14
▁Gian	14
▁Unicode	14
▁Salm	14
▁vaccines	14
▁Drew	14
▁button	14
vra	14
▁flaws	14
▁Edmond	14
▁attribute	14
gt	14
▁SD	14
▁Panda	14
▁Thier	14
Pan	14
▁dinosaur	14
▁Novo	14
▁Extension	14
▁escalated	14
▁Seine	14
▁Scale	14
▁Produc	14
▁resonance	14
▁Cretan	14
▁Eck	14
▁rush	14
▁harassed	14
Drummer	14
▁Froman	14
ró	14
▁Wound	14
▁Darfur	14
▁Dancing	14
▁vibration	14
▁accountant	14
▁spell	14
wagen	14
▁checked	14
▁Chet	14
▁Gert	14
House	14
▁forecast	14
▁Essen	14
▁embark	14
▁establishes	14
▁Cats	14
ugu	14
▁Tori	14
▁Gmail	14
Ø	14
▁dissatisfaction	14
▁ratification	14
▁Thur	14
▁Pae	14
▁Ung	14
▁Fortress	14
▁Thucydides	14
▁lengthen	14
▁ridge	14
according	14
▁Plastic	14
▁Horses	14
▁MySpace	14
▁Dickson	14
slam	14
scribed	14
▁Midway	14
ignon	14
▁NK	14
▁Stu	14
▁mortally	14
▁Eden	14
▁gro	14
clamation	14
▁Stevenson	14
▁Yve	14
▁og	14
▁Eco	14
▁Rev	14
rand	14
breaking	14
▁coordinat	14
▁witchcraft	14
Hertogenbosch	14
▁consolidation	14
▁Cyril	14
defense	14
flat	14
Come	14
itude	14
▁satisfying	14
dice	14
▁TCP	14
▁peers	14
▁calculat	14
▁reporters	14
▁traumatic	14
bund	14
arth	14
▁nurses	14
rea	14
▁Afrikaner	14
▁fluctuations	14
gn	14
▁notebook	14
▁Anger	14
▁interfaces	14
medical	14
▁pseudonyms	14
▁climber	14
▁transitional	14
▁Valle	14
▁petrol	14
▁Glas	14
▁jumped	14
▁viable	14
▁acceleration	14
bend	14
▁Revue	14
▁Nihon	14
Mart	14
▁Pho	14
▁princely	14
▁ward	14
▁Cas	14
▁Aetios	14
Ger	14
▁Guam	14
▁Kab	14
▁announcing	14
▁converse	14
kite	14
dex	14
▁Aram	14
historical	14
▁quad	14
▁tallest	14
▁Eleven	14
▁Northeast	14
▁Optare	14
▁lever	14
▁Rolls	14
▁Chas	14
▁subtle	14
hare	14
▁transforms	14
graduate	14
organized	14
▁thrust	14
▁hobby	14
▁Harm	14
▁criticisms	14
▁Montagu	14
▁iPod	14
HK	14
▁Dagestan	14
▁Ard	14
▁disclosure	14
▁textiles	14
▁guilt	14
DF	14
▁manpower	14
▁VIP	14
▁funny	14
cini	14
lea	14
ké	14
▁booklet	14
▁Quadr	14
▁cartoonist	14
Too	14
▁Jef	14
▁congresses	14
former	14
▁unused	14
▁beheaded	14
geomagic	14
▁streaming	14
mitt	14
nstru	14
ção	14
▁sandstone	14
Ball	14
Turn	14
▁legitimacy	14
spor	14
▁sporadic	14
revolutionary	14
▁meteorologica	14
▁Rhode	14
▁assassinate	14
ME	14
▁Pavilion	14
▁Lilli	14
▁Organisations	14
▁seminary	14
▁Boulton	14
▁Wessex	14
Semitism	14
▁Catalunya	14
▁Viktor	14
▁Nielsen	14
▁Requiem	14
▁monitors	14
▁rallies	14
train	14
▁Abdel	14
▁vegetarian	14
▁Kamp	14
▁Toll	14
▁pause	14
▁liberate	14
▁Barnes	14
▁clusters	14
rini	14
auto	14
fast	14
▁Budget	14
▁Tango	14
▁Daniels	14
▁actresses	14
▁substitution	14
▁supernova	14
flight	14
▁Occupation	14
▁reunification	14
▁rewards	14
count	14
▁reversal	14
▁Mingus	14
▁Ypres	14
▁Innsbruck	14
▁Patient	14
▁Tiber	14
▁Sumerian	14
ohn	14
▁Graceland	14
▁metropolitan	14
▁Tomas	14
▁Rik	14
▁purple	14
▁Boe	14
▁Clifford	14
▁Officers	14
trans	14
▁Sussex	14
▁IS	14
▁Cass	14
▁civilisation	14
BS	14
▁Indianapolis	14
▁elaborated	14
Force	14
▁Sekirei	14
▁endurance	14
▁Distribution	14
▁coll	14
▁immortality	14
▁modernization	14
▁Protect	14
▁contempt	14
▁Klaus	14
ermanent	14
▁Aj	14
mile	14
▁Emerald	14
edited	14
▁postpone	14
▁Vanguard	14
▁Vulcan	14
▁Cá	14
▁warmer	14
▁Goods	14
▁Rupert	14
other	14
▁MR	14
kr	14
▁monkeys	14
▁humble	14
▁Tangier	14
nya	14
oud	14
▁Kabul	14
process	14
▁Togo	14
ssel	14
▁signify	14
▁Inquisition	14
egitimate	14
ahu	14
▁Hawker	14
▁masked	14
poly	14
▁Alcala	14
▁Moh	14
▁holders	14
)(	14
▁Kash	14
▁amphibi	14
▁Doug	14
▁pond	14
▁Dunstan	14
pati	14
▁marries	14
▁Minutes	14
▁UNOMIG	14
▁Grozny	14
gne	14
▁Authorities	14
▁nominations	14
▁destructive	14
inda	14
daughter	14
▁Twardowski	14
▁migrate	14
nica	14
▁Hau	14
▁Harald	14
▁offender	14
▁recapture	14
▁Wageningen	14
▁Evo	14
▁salvation	14
▁ditch	14
▁tide	14
▁Raj	14
▁parachute	14
▁Isfet	14
▁commence	14
Vol	14
▁Mayo	14
▁conserve	14
▁outright	14
▁Pei	14
▁discs	14
zhi	14
▁Parscale	14
Irish	14
▁plastics	14
▁Charlemagne	14
▁delivers	14
▁Questions	14
▁alternating	14
Talk	14
▁contradict	14
▁blindness	14
▁victor	14
▁Label	14
▁Cran	14
eeuw	14
▁Habsburgs	14
▁Wolverine	14
station	14
▁Psy	14
drag	14
ked	14
▁severity	14
ār	14
▁Staurakios	14
pont	14
▁incarnation	14
oct	14
▁accordingly	14
▁Oldenburg	14
cite	14
ación	14
▁Timothy	14
▁firearms	14
▁Sli	14
▁decent	14
▁Noir	14
▁executives	14
▁premier	14
combe	14
▁backup	14
▁instinct	14
▁Hur	14
▁Acre	14
▁Chastelein	14
▁Philipse	14
▁Groene	14
Chief	14
nkel	14
▁branded	14
▁Cover	14
▁Joaquin	14
▁metaphysic	14
▁interrogated	14
▁reluctantly	14
▁Truman	14
▁malaria	14
▁dean	14
▁authoritative	14
äh	14
robably	14
gray	14
▁Igwe	14
▁McDowell	14
▁expectation	14
scended	14
college	14
▁cricket	14
▁Slavs	14
▁alkaloid	14
kiewicz	14
▁Mohiuddin	14
▁Goodbye	14
among	14
▁sweep	14
▁Pine	14
▁Tate	14
hagen	14
▁casting	14
▁Archaeology	14
▁Camb	14
ullah	14
▁naive	14
▁Willow	14
▁Folio	14
▁festivities	14
▁Aug	14
[...]
