▁de	165293
.	154049
▁	122689
▁van	115939
,	102031
▁en	78694
▁in	78160
▁het	67698
1	67502
▁een	65001
0	57439
9	40844
2	37310
e	36857
-	35714
s	35616
▁zijn	29668
▁te	28038
▁op	27802
▁De	25217
▁met	24893
▁werd	24465
▁is	24434
▁voor	23944
▁dat	21261
▁was	20289
▁die	20138
▁door	19916
▁(	19764
8	19451
▁hij	19279
▁als	18695
5	17970
▁In	17672
3	16963
▁aan	16830
7	16160
6	16084
▁om	15676
4	15379
▁Het	12298
en	12298
▁"	11596
▁naar	11488
'	11481
)	11078
▁tot	10785
▁uit	10432
▁of	9711
▁ook	9314
▁ze	8848
▁niet	8778
▁bij	8168
:	7972
▁Hij	7796
▁over	7609
▁worden	7578
▁haar	7252
▁maar	7184
▁wordt	6829
▁eerste	6500
▁werden	6305
▁deze	6155
▁er	6029
▁heeft	5665
▁jaar	5608
▁hun	5516
"	5494
n	5491
▁zich	5460
t	5335
▁had	5258
).	5119
▁waren	5106
▁andere	4785
de	4713
▁dan	4673
▁twee	4530
▁na	4499
▁onder	4295
▁meer	4241
▁Op	4094
▁Een	3971
er	3761
a	3755
▁zou	3752
▁dit	3634
▁waar	3619
▁tussen	3609
▁The	3601
▁hem	3485
▁Na	3436
▁nog	3412
▁hebben	3406
▁Ze	3255
),	3158
▁jaren	3100
▁'	3015
▁geen	2980
▁zo	2934
o	2917
▁tegen	2900
▁nieuwe	2871
▁deel	2779
d	2759
▁al	2755
▁later	2716
▁kan	2704
▁naam	2700
▁zoals	2678
▁Van	2640
▁zij	2630
".	2602
▁tijdens	2595
ing	2582
▁A	2566
dat	2542
▁toen	2499
▁Deze	2451
;	2451
▁bekend	2445
▁kunnen	2440
▁werk	2439
▁Dit	2413
▁the	2412
▁alle	2405
▁veel	2393
▁Zijn	2380
▁gebruikt	2363
▁drie	2311
▁verschillende	2294
▁tijd	2291
▁terug	2269
▁aantal	2222
▁wat	2207
y	2200
▁grote	2161
▁Er	2108
▁samen	2093
▁plaats	2058
▁echter	2020
▁begon	1981
i	1947
▁stad	1946
le	1944
▁staat	1932
▁omdat	1876
▁ge	1848
af	1848
▁eeuw	1847
al	1822
▁leven	1803
▁mensen	1762
▁kwam	1739
▁tweede	1729
/	1727
▁Verenigd	1718
."	1705
▁eigen	1695
in	1674
▁and	1672
▁kreeg	1658
r	1619
▁laatste	1617
▁af	1616
’	1614
▁ging	1608
wel	1574
▁hadden	1552
▁O	1545
▁S	1516
▁maakte	1500
▁film	1499
▁wereld	1462
▁enkele	1460
▁Amerikaanse	1453
rwijl	1437
%	1437
▁land	1436
▁I	1419
▁waarin	1411
▁schreef	1401
▁werken	1399
▁mei	1389
▁één	1388
us	1380
▁genoemd	1378
▁boek	1374
▁wel	1370
▁maken	1368
▁alleen	1361
▁Als	1360
▁kon	1356
▁ten	1353
▁gebruik	1352
▁nam	1342
▁grootste	1342
▁vaak	1340
▁vier	1339
▁groep	1321
▁toe	1320
▁nu	1319
▁New	1313
▁B	1307
▁september	1306
▁album	1304
▁maart	1301
▁C	1294
heid	1289
",	1288
▁gebied	1287
▁dood	1286
▁opgericht	1272
▁juni	1270
▁oktober	1266
▁november	1258
▁zelf	1248
▁januari	1248
▁vader	1242
se	1239
▁band	1238
▁Staten	1232
▁Tijden	1225
▁Europese	1221
▁periode	1219
▁leger	1216
▁ongeveer	1213
▁eerst	1208
▁binnen	1207
▁werkte	1207
▁weer	1206
▁april	1201
▁enige	1201
▁meest	1194
▁december	1179
▁juli	1168
▁steeds	1166
▁onderzoek	1151
on	1146
es	1141
▁ik	1136
te	1135
▁Ook	1132
▁dag	1130
m	1129
▁gaf	1129
▁Franse	1122
▁rol	1117
▁T	1115
A	1114
▁familie	1113
▁augustus	1110
▁lid	1100
▁man	1097
▁hen	1096
▁zouden	1095
▁vooral	1087
▁vrouw	1081
▁begin	1077
▁groot	1065
▁februari	1064
▁waaronder	1061
▁muziek	1060
▁waarbij	1054
▁gemaakt	1050
▁belangrijke	1049
▁speelde	1047
▁gaan	1046
▁sinds	1041
▁rond	1040
▁vele	1037
▁Toen	1032
re	1030
▁D	1029
▁zal	1027
▁slechts	1022
S	1020
▁Europa	1019
▁zonder	1016
man	1012
▁mogelijk	1008
▁belangrijkste	1007
▁Volgen	1007
▁Nederlandse	1005
▁regering	1004
▁bleef	1001
▁Duitse	1000
▁zoon	1000
▁volgende	993
▁bedrijf	991
▁zien	989
▁geschreven	988
▁gebouwd	980
▁politieke	973
▁Om	969
ers	967
▁meeste	965
▁P	964
▁V	964
▁vijf	956
▁a	955
▁oorlog	952
▁miljoen	952
▁versie	947
▁landen	945
▁Zij	944
▁G	938
▁Al	938
▁per	938
▁kinderen	938
▁bracht	936
f	935
▁Britse	935
▁Nederland	933
▁E	933
wege	931
ve	923
▁leden	922
ische	922
▁“	920
▁on	914
▁elkaar	909
u	909
▁einde	909
▁komen	907
▁koning	905
▁derde	903
▁moment	900
l	898
▁verder	895
▁York	894
▁opnieuw	893
▁daar	888
▁Hoewel	887
▁M	887
▁won	886
▁goed	883
▁uiteindelijk	883
▁ontwikkeling	882
▁internationale	881
▁via	880
▁vrouwen	878
c	877
▁–	877
▁dezelfde	866
▁mee	865
▁waarvan	862
▁keer	862
el	861
▁Voor	860
▁huis	860
ed	858
▁kleine	856
▁zeer	856
▁basis	855
C	854
▁moet	854
▁&	852
▁Met	847
▁men	847
▁gebaseerd	846
▁geschiedenis	845
▁ter	841
ste	840
▁John	837
▁nooit	836
▁Frankrijk	835
▁dagen	833
▁zei	828
▁snel	824
▁weg	820
▁komt	815
▁oude	808
▁gezien	804
k	803
▁ver	803
h	799
▁productie	794
▁moest	791
▁doen	787
▁nemen	786
▁Zo	784
▁hoofd	784
▁serie	783
▁K	782
▁La	780
▁leidde	780
▁II	779
▁uitgebracht	778
▁gepubliceerd	776
▁moeten	771
▁vond	768
▁geweest	766
▁H	765
▁for	764
▁beide	764
▁geven	763
▁daarna	757
▁vorm	757
▁gaat	752
▁Sinds	750
z	748
ge	747
▁militaire	747
▁titel	745
▁waarschijnlijk	743
▁L	742
▁F	738
▁nummer	732
▁maanden	730
▁zelfs	730
▁hele	727
▁nationale	726
▁succes	725
▁president	724
▁genaamd	722
▁bijna	721
▁hoe	719
")	717
▁geboren	717
▁der	715
B	714
▁Zuid	711
▁Bij	710
▁stond	709
▁programma	707
▁nieuw	705
▁we	705
▁v	705
▁bestaat	704
▁zes	704
▁moeder	700
b	699
▁eind	697
ar	697
▁school	694
▁wie	692
▁lokale	691
ia	690
an	688
den	687
▁bestaan	681
▁hier	681
▁Duitsland	681
elke	680
▁waardoor	679
verantwoordelijk	679
▁Haar	676
▁vervolgens	674
▁regio	674
▁buiten	673
▁project	672
▁to	672
▁hoewel	667
▁beschouwd	666
een	664
▁vrij	663
▁Noord	662
▁minder	662
um	657
▁Later	654
▁je	653
R	651
▁vormen	648
▁Wereldoorlog	648
▁bevolking	647
▁Parijs	647
▁water	644
▁U	643
▁onderdeel	642
▁doel	642
is	641
▁deed	639
▁R	639
▁eerder	638
▁laten	637
▁Russische	635
▁troepen	635
▁manier	635
▁verscheen	635
▁Door	634
▁publiceerde	633
▁keerde	632
▁delen	632
D	630
▁huidige	630
▁wil	629
▁vervangen	628
▁Tweede	628
ten	628
jarige	627
▁vanuit	626
▁wanneer	626
▁vinden	625
▁namen	625
na	625
▁seizoen	624
▁invloed	623
▁dus	622
▁leeftijd	621
▁kerk	621
▁beste	618
▁kwamen	618
▁organisatie	618
wetenschappelijk	616
▁verkocht	615
▁konden	615
▁sommige	614
▁bevat	613
▁elk	612
▁gevolg	609
▁boeken	609
ie	606
▁God	604
of	604
▁Le	604
▁verhaal	604
▁volledig	603
st	603
▁opgenomen	602
P	602
▁zichzelf	602
▁mannen	601
▁algemeen	599
▁West	599
durende	599
▁lang	598
▁team	598
▁spel	597
▁gehouden	594
▁vroege	589
▁maakt	589
▁gevonden	588
▁net	586
▁economische	586
▁dochter	584
▁hetzelfde	582
▁World	579
▁begonnen	579
▁J	579
▁eiland	578
▁wilde	573
▁dienst	573
▁Universiteit	569
”	567
▁achter	567
▁macht	567
▁broer	566
▁sociale	565
▁systeem	565
▁stierf	564
▁steden	562
▁W	560
?	558
▁korte	558
▁schepen	558
▁informatie	556
▁moderne	555
De	554
▁bijzonder	554
▁d	553
▁mijn	553
▁ander	553
I	553
▁altijd	553
▁International	553
▁voordat	548
▁Te	546
▁N	546
op	546
▁("	545
!	545
▁Rome	543
▁volgens	543
g	542
G	542
▁bijvoorbeeld	541
T	541
▁Londen	541
▁gebruiken	541
▁partij	540
▁sterk	539
▁jonge	537
▁Aan	537
▁spelen	536
K	535
▁studie	535
▁lange	534
▁uur	532
▁Japan	532
▁Amsterdam	532
▁Maar	530
▁ervan	529
▁Koninkrijk	529
▁gebieden	529
▁taal	528
▁prijs	528
▁nodig	527
▁paar	525
▁minister	524
▁ontwikkeld	524
ta	523
▁groepen	523
F	521
▁stelde	520
▁ligt	519
▁betrokken	519
sen	519
▁houden	518
▁gebouw	518
▁samenwerking	518
▁krijgen	515
▁problemen	514
▁be	512
▁geeft	511
▁auto	511
▁carrière	510
▁‘	510
▁bouw	507
▁leiding	506
▁Records	505
▁National	502
▁welke	502
▁Italiaanse	502
▁liet	501
▁Engeland	501
th	500
▁actief	500
ne	499
▁meestal	498
▁onafhankelijk	498
uit	497
et	496
p	496
▁officiële	495
▁Ik	493
▁diverse	492
▁voorzitter	492
▁meerdere	491
▁verhuisde	490
▁kunst	490
▁geproduceerd	489
▁staan	488
▁hulp	488
▁single	488
▁brengen	483
aan	483
je	483
▁kort	481
▁blijven	481
land	481
▁geld	480
or	480
▁bekende	479
▁Sovjet	478
▁heel	478
▁David	477
▁voornamelijk	477
▁Romeins	475
M	474
ver	473
▁politiek	472
▁bepaalde	470
▁enkel	470
▁volgde	470
▁uitgevoerd	468
la	468
▁goede	468
▁relatie	468
▁weinig	467
Chr	467
H	465
be	464
▁overheid	463
▁anderen	463
▁ontving	462
v	462
é	461
▁la	461
▁zodat	461
▁vroeg	461
▁soms	457
▁België	457
▁belangrijk	457
▁positie	454
▁Italië	454
▁gebruikte	454
to	454
▁besloot	454
▁Me	454
▁St	454
▁Tussen	453
ma	451
E	450
▁gegeven	450
▁benoemd	448
▁San	448
–	448
▁duidelijk	448
▁oorspronkelijk	447
▁pas	447
▁trad	446
▁strijd	445
▁publiek	445
het	445
▁term	444
▁Jan	444
▁zeven	443
▁schip	442
▁acht	442
▁activiteiten	441
▁reeks	440
▁Rusland	439
▁rest	439
▁stijl	439
▁theorie	436
▁soort	435
▁markt	435
▁soldaten	434
zelfde	433
The	433
▁Veel	433
O	433
▁model	433
▁m	431
▁uitgegeven	431
▁directeur	430
▁hoge	429
x	429
▁schrijven	427
▁plan	426
▁Paul	426
▁economie	426
▁Japanse	424
▁aanval	423
▁oorspronkelijke	423
▁verloren	422
▁centrum	422
▁Belgische	422
▁controle	422
▁probeerde	421
▁politie	420
▁totaal	420
▁b	420
▁iets	420
▁beschreven	420
▁tien	419
▁El	419
ton	419
▁belang	419
▁En	418
▁vriend	418
ra	418
▁functie	418
▁verlaten	418
ch	418
▁Hier	417
▁richtte	417
▁kennis	417
▁erg	417
▁midden	417
▁geval	416
▁stellen	416
▁dorp	416
▁gekozen	415
voormalige	414
os	414
▁ontwerp	414
▁China	414
▁volledige	413
▁slag	413
▁gedaan	413
▁X	412
▁Robert	412
eel	412
▁gebracht	412
▁ontworpen	412
▁We	411
▁ruimte	409
▁officieel	409
▁ooit	408
programma	408
ko	406
▁museum	406
▁name	406
▁verliet	405
▁reis	405
▁recht	404
▁Onder	404
ca	403
▁Man	403
▁oud	403
me	402
▁geleid	401
co	401
▁tekst	401
▁bestaande	399
▁originele	399
▁tevens	399
▁zeggen	397
L	396
▁cultuur	396
▁zaken	396
▁Spanje	396
tische	395
▁idee	395
▁hield	395
▁Dat	394
▁zomer	394
▁bronnen	394
N	394
▁geworden	394
▁III	393
▁open	393
▁overleed	393
▁boven	393
▁George	393
ster	392
▁studeerde	392
▁bestond	392
▁bedrijven	392
▁Museum	391
ka	391
▁hoofdstad	391
▁Alle	391
▁daarvan	391
▁geopend	391
▁Daarnaast	390
▁zullen	388
▁Spaanse	388
systeem	388
as	388
▁Engelse	388
▁financiële	387
son	386
▁licht	385
▁trouwde	385
▁Society	385
ook	385
▁ontdekt	384
▁vertegenwoordig	384
▁Ge	383
▁studenten	383
▁inwoners	383
▁oudste	382
▁video	382
▁Sommige	380
▁club	379
W	378
▁Park	378
▁historische	376
▁Royal	375
▁steun	375
▁gespeeld	375
da	375
▁gingen	374
▁Hun	373
▁algemene	373
▁helft	373
groep	372
▁Griekse	372
▁Zweeds	372
▁Peter	371
▁betekent	370
▁hand	370
▁kregen	369
▁zegt	368
▁Republiek	368
▁vraag	368
▁aandacht	368
▁beschikbaar	368
▁moesten	367
▁waarmee	367
▁verklaarde	367
▁persoon	367
at	367
▁Ver	366
▁foto	366
▁vierde	365
▁bewijs	365
ze	365
▁laat	365
▁lijkt	364
▁Tot	364
▁films	364
▁Oost	364
▁latere	364
ig	363
▁Elk	363
▁genomen	362
▁ouders	362
▁feit	361
ter	361
▁Tegen	360
▁Twee	360
▁School	360
▁Award	359
j	359
▁James	358
▁noemde	358
▁helpen	358
▁Chinese	358
▁klein	357
▁City	357
▁soorten	357
▁zeker	356
▁beweging	356
▁religieuze	356
▁woord	356
▁wet	356
▁huwelijk	356
▁daarom	355
▁kind	355
▁verbonden	354
▁geheel	354
▁betrekking	354
ry	353
▁zag	353
▁traditionele	353
len	353
▁ons	353
met	351
▁naast	351
ndanks	351
▁Radio	351
▁Daar	351
▁ontwikkelde	351
▁Frans	351
▁me	350
▁Raad	350
▁Be	350
il	349
ur	349
▁Gedurend	349
ly	349
▁langer	348
sche	348
▁waarop	348
▁leider	348
▁plaatsen	348
der	347
▁zetten	347
▁voorbeeld	347
▁Eerste	346
▁gesloten	346
ul	346
▁gemeenschap	346
▁onze	345
▁Canada	344
▁rivier	344
▁beter	343
▁diende	343
▁website	342
▁Unie	342
▁rechten	341
▁Dr	341
▁gevestigd	341
▁waarde	341
gen	340
▁anti	340
▁bezit	339
▁provincie	338
▁top	337
▁richting	337
▁artikel	337
▁grond	337
▁proces	335
▁meter	335
do	335
▁vrienden	334
▁werkt	334
▁voorkomen	333
▁weken	333
▁onderwijs	332
▁vloot	331
▁beleid	330
▁Nederlands	330
▁Brussel	330
▁Oorlog	330
▁bestuur	329
▁American	329
▁lichaam	329
▁You	329
▁Groot	329
▁gericht	328
als	328
▁Zweden	327
▁langs	327
▁middel	325
▁gehele	325
atie	325
▁Andere	324
▁zee	324
▁poging	324
▁p	324
ige	324
▁kasteel	324
▁bezocht	323
▁bouwen	323
▁speciale	323
ist	323
ke	322
▁campagne	322
▁collectie	321
▁regelmatig	321
▁resultaat	321
▁aanwezig	321
▁William	320
▁gevolgd	320
▁opdracht	320
▁oprichting	320
▁stelt	320
V	319
▁universiteit	318
▁handen	318
▁culturele	317
▁noorden	317
▁grens	317
▁No	316
▁Company	316
▁trok	316
▁televisie	316
▁tegenstelling	316
▁bleek	315
▁begint	315
▁grotere	315
▁Z	315
▁thema	315
▁Music	314
▁speelt	314
eren	314
▁doden	314
▁media	314
ion	314
▁Co	313
▁Charles	313
▁zuiden	312
▁Ten	312
▁Thomas	312
▁leiden	312
▁nummers	311
ro	311
▁verkiezingen	311
▁lijn	310
▁uitgebreid	310
▁University	310
▁personen	309
▁eveneens	309
▁Richard	309
▁Jean	308
▁gelijk	308
▁conflict	308
▁genoeg	308
▁radio	307
no	307
▁sterke	306
▁aanzienlijk	306
▁energie	306
▁Air	305
▁geïntroduceerd	305
▁hiervan	305
▁India	305
▁dollar	304
▁gevallen	302
▁Samen	302
▁$	302
▁buurt	302
▁gebouwen	302
▁Maria	302
▁vrede	302
▁nabij	302
▁contract	302
▁College	301
eerde	301
▁Wanne	301
van	301
▁toegevoegd	300
▁woorden	300
▁gemeente	300
(	300
▁Michael	299
▁probleem	298
▁daarop	298
▁afkomstig	298
▁Die	297
▁orde	297
▁georganiseerd	297
▁kracht	297
▁talen	297
▁reden	296
om	296
▁handel	296
▁publieke	296
▁ervoor	296
▁klassieke	294
▁lijst	294
▁verband	294
▁bedoeld	294
▁Verder	294
▁parlement	294
▁aangezien	294
▁Rijk	293
▁tijdschrift	293
▁verscheiden	293
▁mens	293
▁ontwikkelen	293
▁generaal	293
▁gedood	292
▁woonde	292
Naast	292
▁park	291
▁grotendeels	291
▁contact	291
▁omgeving	291
▁eindigde	290
▁getiteld	290
▁punt	290
▁gevormd	290
▁volgt	289
▁toch	289
▁vernoemd	289
▁bron	289
▁buitenlandse	289
Amerika	289
▁di	289
▁burgers	288
▁gebeurtenissen	288
▁voort	288
▁gedwongen	288
▁persoonlijke	288
▁ontvangen	288
▁km	287
▁hoog	287
▁verloor	287
▁kondigde	287
▁standaard	287
▁Net	286
ns	286
▁lied	286
generaal	286
▁voerde	285
▁Love	285
Ik	285
▁Den	285
▁iemand	285
▁vragen	285
▁show	284
▁groeide	284
sch	283
▁Men	283
J	283
▁locatie	283
nen	282
▁wist	282
▁waarna	281
▁dieren	281
mi	281
▁vallen	280
▁bereikte	280
ken	280
▁menselijke	279
▁extra	279
Afrika	279
▁inclusief	278
▁weten	278
Unie	277
▁keizer	277
▁verzameling	277
▁opera	277
▁speler	277
▁Slag	277
▁vrijheid	276
▁niets	276
▁vast	276
▁nacht	276
▁natuurlijke	276
▁Club	276
▁plannen	275
▁mede	275
▁Association	274
▁alles	274
▁Daarna	274
▁Nationale	274
▁status	273
▁Berlijn	273
▁kant	273
ondanks	273
ja	273
isme	273
▁schrijver	273
▁Center	272
▁Group	272
▁bleven	272
▁centrale	272
▁direct	272
▁wedstrijd	272
▁brief	272
▁Uiteindelijk	271
▁Don	271
▁On	271
▁structuur	271
▁besloten	271
▁organisaties	271
em	271
▁opvolger	270
▁Los	270
▁neemt	270
▁partijen	270
▁ideeën	270
▁My	270
▁reactie	270
ic	270
werk	269
▁voeren	269
ley	269
ard	269
ine	268
▁echte	268
▁Sint	267
▁gestuurd	267
▁station	267
▁co	267
▁overwinning	267
▁reisde	266
sa	266
▁vertelt	266
▁oudere	266
▁f	266
▁optreden	266
▁bepaald	266
▁Over	265
▁raakte	265
▁netwerk	265
▁verhalen	265
▁situatie	265
▁tentoonstelling	265
▁Alexander	264
▁gevraagd	264
▁startte	264
▁Egypte	264
▁bereiken	264
reeds	264
▁Engels	264
▁elementen	264
▁bewaard	263
am	263
▁her	263
▁Go	263
▁hoogste	263
▁niveau	263
▁auteur	263
serie	263
▁haven	262
die	262
▁keren	262
▁beschreef	262
▁gelegen	262
▁tegenwoordig	262
▁kosten	262
▁karakter	261
li	261
ad	261
▁roman	261
▁succesvol	261
ce	261
▁volk	260
▁BBC	260
▁geloof	260
▁Grote	260
▁editie	260
▁Zee	259
▁zette	259
w	259
▁zaak	259
▁zorgen	259
▁mij	258
▁Joodse	258
men	258
▁aangenomen	258
▁Black	258
▁denken	258
▁vindt	257
ski	257
▁ben	257
▁ziekte	257
▁gegevens	257
▁voedsel	257
▁re	257
▁ontstaan	257
▁viel	257
▁onafhankelijke	256
▁Foundation	256
▁bevel	256
▁succesvolle	256
▁internet	256
▁vermoord	256
▁All	256
▁k	255
▁g	255
▁overgenomen	255
go	255
▁eigenaar	255
▁Polen	255
▁geplaatst	255
▁terugkeer	255
Het	255
▁maand	255
▁Afrika	255
ir	254
▁veranderde	254
▁onmiddellijk	254
▁betekenis	254
▁concept	254
▁United	254
▁post	253
▁klasse	253
id	253
▁Beide	253
▁ondersteuning	253
▁brand	253
▁week	253
▁Nieuw	252
▁Is	252
▁VS	252
▁populair	252
▁Partij	252
▁total	252
▁Re	251
▁internationaal	251
voor	251
▁aanvallen	251
▁maakten	251
▁ex	250
▁tv	250
▁bezig	250
vo	250
▁artikelen	250
▁du	250
▁type	250
▁ontstond	249
▁lucht	249
▁zware	249
▁aflevering	249
▁hof	249
▁kilometer	249
▁blijft	249
▁vrije	248
▁wijze	248
up	248
mer	247
▁aanvankelijk	247
▁bereikt	247
▁eenheid	247
▁vertrok	247
▁iedereen	247
▁hoogte	246
▁verdrag	246
▁mate	246
▁evenals	246
▁bevindt	246
▁wonen	246
▁opstand	246
ga	246
ri	246
▁erkend	245
▁vormde	245
▁heb	245
▁stuk	245
▁resultaten	245
▁groter	245
▁late	244
▁bevatten	244
▁diens	244
▁tegenover	243
▁albums	243
▁erop	243
▁toegang	243
▁allemaal	242
▁gearresteerd	242
▁Dan	242
▁oorsprong	242
▁functies	242
▁vrouwelijke	242
Brittannië	242
▁zogenaamd	242
▁beschrijft	242
▁Rond	242
▁jeugd	242
▁broers	241
▁vandaag	241
▁Europees	241
▁u	241
ck	241
▁stem	241
▁Amerika	240
▁theater	240
▁Australië	240
▁Arabische	240
▁weigerde	240
▁liefde	239
▁onderwerpen	239
ven	239
▁sloot	239
▁materiaal	239
style	239
▁veranderd	239
▁beeld	239
▁opleiding	238
▁London	238
▁druk	238
▁ontmoette	238
▁stemmen	238
▁minuten	237
za	237
▁punten	237
▁dergelijke	237
▁kust	237
▁negen	236
▁gevangenis	236
Z	236
▁filosofie	236
▁beschermen	236
▁Smith	235
▁onderwerp	235
▁wetenschap	235
▁et	235
▁Street	235
▁verdeeld	235
▁afstand	235
▁diensten	234
▁reizen	234
▁moord	234
isch	234
▁veroordeeld	234
▁houdt	233
▁scholen	233
▁concert	233
▁doet	233
▁Art	233
▁anders	232
▁want	232
▁moeilijk	232
▁Haag	232
▁kocht	232
▁Hall	231
▁begraven	231
ation	231
▁studies	230
▁publicatie	230
ling	230
▁aarde	230
▁staten	230
▁vermeld	230
▁producten	230
▁bieden	230
huis	229
▁misschien	229
▁gezegd	229
▁liggen	229
display	229
di	229
▁verdere	228
ler	228
▁label	228
▁mogelijkheid	228
ale	227
▁lag	227
▁krant	227
▁behandeling	227
▁Poolse	227
▁{\	227
▁hoger	227
▁beginnen	226
▁Willem	226
▁groei	226
▁Mark	226
ni	226
▁Festival	226
▁huizen	226
▁studio	225
▁Martin	225
▁House	225
ik	225
▁sport	225
▁vonden	225
▁beïnvloed	225
▁vlak	224
▁Ben	224
▁wiskunde	224
▁wegens	224
▁landbouw	224
ber	224
▁ont	224
im	224
▁stand	224
▁vertelde	224
▁westen	224
▁EU	224
▁eigendom	223
▁koninkrijk	223
▁verkozen	223
▁populaire	223
ren	223
▁kleinere	223
▁autoriteiten	223
▁kritiek	223
▁regionale	223
▁Moskou	223
▁relatief	223
▁teksten	223
▁Red	222
▁produceerde	222
▁uitgezonden	222
▁actie	222
▁von	222
▁thuis	222
▁verschenen	222
▁computer	222
▁Angeles	221
▁live	221
▁getrouwd	221
▁vlag	221
▁expeditie	220
▁projecten	220
▁Israël	220
▁product	220
▁Sam	220
Amerikaanse	220
▁mogelijke	220
▁Times	219
▁interesse	219
▁gesteld	219
▁Washington	219
▁Li	219
wa	219
over	218
ek	218
▁natuur	218
▁winnen	218
▁Zaken	218
▁sterren	218
▁beweerde	218
▁getallen	217
▁gedrag	217
▁Kerk	217
▁British	217
▁voormalig	217
▁baan	217
▁behalve	217
▁Henry	216
▁Uit	216
com	216
▁probeer	216
▁even	216
▁voorzien	216
▁specifieke	216
▁verslagen	216
▁Super	215
▁bevatte	215
▁versies	215
maatschappij	215
▁geweld	215
geen	214
▁samenleving	214
▁Bovendien	214
▁Mexico	214
ius	214
que	214
▁veroorzaakt	213
▁krijgt	213
▁literatuur	213
▁religie	213
▁Lee	213
ti	213
▁IV	212
▁onderzoeken	212
▁dingen	212
▁gedeelte	212
▁gezin	212
▁behulp	212
weg	212
▁daarmee	212
▁Rock	212
▁besluit	212
▁verkoop	212
ki	211
▁horen	211
▁willen	211
▁traditie	211
▁namelijk	211
▁koninklijke	211
▁luchthaven	211
▁kunstenaars	210
▁bijdragen	210
ut	210
ham	210
▁goud	210
versie	210
▁invasie	210
▁leiders	209
▁procent	209
▁Tom	209
lin	209
▁vorige	209
ner	209
▁gehad	209
▁missie	209
ert	209
▁Pro	209
▁veiligheid	209
▁Kort	209
▁nieuws	208
X	208
▁volgen	208
▁start	208
▁Vervolgens	208
▁relaties	208
▁dragen	208
▁dans	208
▁Green	207
bij	207
▁wapen	207
▁Commissie	207
▁Nieuwe	207
▁behouden	207
▁kans	207
▁mening	207
▁spelers	207
▁raad	207
theorie	206
▁software	206
ci	206
▁pagina	206
▁verbeteren	206
▁Frank	206
▁beperkt	206
▁wiskundige	206
▁kamp	206
▁milieu	206
▁toekomst	205
the	205
▁gouverneur	205
▁opende	205
▁openbare	205
▁online	205
▁voorgesteld	204
▁biedt	204
mo	204
▁hielp	204
”.	204
berg	204
▁ontdekte	204
istische	204
▁Wat	204
▁wapens	203
▁pro	203
▁vijfde	203
it	203
▁aangekondigd	203
▁Zwitserland	203
▁Mo	203
▁commerciële	203
▁olie	203
▁systemen	203
▁ondersteunen	202
▁interview	202
▁uitbreiding	202
▁Open	202
▁vereniging	202
▁christelijke	202
eeuwse	202
dra	202
pe	201
▁modellen	201
rs	201
▁stuurde	201
▁Eind	201
ering	201
▁c	201
▁—	201
▁Star	200
by	200
▁vol	200
end	200
ant	200
▁voltooid	200
▁ervaring	200
▁Institute	200
▁afhankelijk	200
▁overleden	199
▁non	199
▁loop	199
▁wereldwijd	199
▁/	199
▁Bar	199
bare	199
▁ziet	198
▁onderscheiden	198
▁aanwezigheid	198
▁veranderingen	198
▁verboden	198
▁gaven	198
▁documentaire	198
▁bezoek	198
▁Echter	198
▁verandering	198
▁data	198
▁aangeduid	198
eerd	198
▁One	198
▁slachtoffers	197
▁Deens	197
▁gesticht	197
▁Centraal	197
▁overlijden	197
▁rijk	197
▁categorie	197
▁presenteerde	197
▁berg	197
zen	197
í	197
▁onderzocht	197
▁district	196
▁Joseph	196
▁droeg	196
▁To	196
ji	196
▁Internationale	196
▁vergelijkbaar	196
▁meerderheid	196
chi	196
▁communicatie	196
▁Turkse	196
net	196
jo	196
▁l	196
▁debuut	196
▁assistent	196
fi	195
▁kaart	195
▁Griekenland	195
ger	195
▁beroemde	195
▁It	195
▁veld	195
ment	195
▁Jack	195
ian	195
io	195
▁noch	195
▁Antwerpen	194
▁verdediging	194
▁gebrek	194
ingen	194
▁zoek	194
▁introduceerde	194
▁plaatselijke	194
ast	194
isten	194
ina	194
▁So	194
▁echt	193
▁trekken	193
les	193
▁zoeken	193
▁spreken	193
▁wedstrijden	193
▁erin	193
▁Canadese	193
▁Land	193
▁medische	193
▁minste	193
lo	193
▁omvat	193
▁orkest	193
▁motor	192
▁permanent	192
▁brieven	192
▁technologie	192
▁weet	192
per	192
▁Bank	192
▁stonden	192
▁behaalde	192
▁collega	192
▁jaarlijkse	192
▁Midden	191
ba	191
▁noordelijke	191
▁Huis	191
jes	191
▁Life	190
▁race	190
▁Meer	190
▁tonen	190
dag	190
▁eigenschappen	190
▁creëren	190
▁Denemarken	190
▁vuur	190
▁zwarte	190
pi	190
▁industrie	190
▁verwijst	190
▁effect	190
▁miljard	190
▁=	190
▁King	189
▁War	189
si	189
loze	189
zo	189
baar	189
ium	189
▁marine	189
▁klooster	189
▁sluiten	189
prijs	189
ende	189
▁leggen	189
▁verklaring	189
▁Do	188
▁zuidelijke	188
▁gedefinieerd	188
▁individuele	188
▁sprak	188
▁voetbal	188
▁blijkt	188
▁schilderijen	188
▁North	188
▁festival	188
▁Mac	188
mon	187
U	187
▁islam	187
▁Congres	187
▁Noorwegen	187
▁secretaris	187
▁Grand	187
▁Research	187
▁Wereld	187
▁betalen	187
▁toont	187
▁toestemming	187
▁methode	186
▁twintig	186
nu	186
▁An	186
▁verschillen	186
▁Di	186
▁geleden	186
ele	186
▁regels	186
▁Brazilië	186
▁eigenlijk	186
▁vroegere	186
▁vliegtuig	186
▁euro	185
ha	185
▁White	185
▁analyse	185
tra	185
▁ofwel	185
▁combinatie	185
▁dagelijks	185
▁brachten	184
▁South	184
▁uitzondering	184
▁Bo	184
▁bescherming	184
▁toekomstig	184
▁Rode	184
▁taak	184
▁Duits	184
▁Enkele	184
▁dienen	184
heden	183
▁jaarlijks	183
▁SS	183
sk	183
▁zin	183
▁prijzen	183
▁generatie	183
▁Time	183
▁veranderen	183
▁Drie	182
▁toegekend	182
ty	182
▁hogere	182
▁legde	182
▁Saint	182
▁industriële	182
door	182
&	182
▁bouwde	182
▁bepalen	182
▁families	181
▁gewoon	181
▁eilanden	181
▁kwaliteit	181
▁twaalf	181
▁professionele	181
▁hedendaags	181
▁richten	181
▁State	181
▁goederen	181
▁ieder	181
▁liep	180
▁Hill	180
▁gevangenen	180
▁redenen	180
▁documenten	180
▁gebleven	180
▁gezondheid	180
▁no	180
▁gewonnen	180
▁Media	180
▁Island	180
▁Naties	180
▁slaagde	180
▁Con	180
▁koningin	180
▁Begin	180
▁Athene	180
▁vliegtuigen	179
▁noemt	179
bedrijf	179
In	179
▁publicaties	179
▁plek	179
▁bibliotheek	179
▁wilden	179
▁League	179
▁Sir	179
▁bekendste	179
▁Oostenrijk	179
▁Instituut	179
▁eenheden	178
▁rijke	178
▁zorgde	178
▁Ni	178
▁paus	178
che	178
▁wij	178
▁aanleiding	178
▁respectievelijk	178
▁schade	178
▁pre	177
▁omstandigheden	177
▁Comité	177
▁ontdekking	177
ya	177
▁verjaardag	177
▁eerdere	177
▁Turkije	177
▁architect	177
dien	177
▁duurde	177
▁tempel	177
▁ministerie	176
▁Ierland	176
▁nationaal	176
tje	176
):	176
con	176
▁heen	176
▁identiteit	176
▁geest	176
▁verleden	176
▁He	176
▁uitgebreide	176
▁daaropvolgend	176
▁vluchten	175
muzikale	175
▁gewijd	175
▁neer	175
▁grondwet	175
▁dicht	175
▁bisschop	175
ung	175
!"	175
▁woont	174
▁Christus	174
▁commissie	174
schap	174
▁islamitische	174
▁leren	174
▁onbekend	174
▁Utrecht	174
▁avond	174
▁slaven	174
▁Du	174
▁geïnspireerd	174
▁hoeveelheid	174
▁luchtvaart	174
▁middelen	174
▁As	173
▁technische	173
▁sub	173
▁Oostenrijkse	173
▁brug	173
▁For	173
▁Show	173
▁produceren	173
▁fabriek	173
▁lijken	173
▁kleur	173
▁wetten	173
▁revolutie	172
▁Tour	172
▁overeenkomst	172
eert	172
▁Johannes	172
pa	172
vi	172
▁Can	172
▁oosten	172
▁katholieke	172
▁gevangen	172
▁finale	172
▁grondgebied	171
▁Apple	171
▁Nu	171
▁toegepast	171
▁zus	171
▁architectuur	171
▁les	171
▁ronde	171
▁planten	171
▁enorme	171
▁Verdrag	171
gelegen	171
▁tour	170
▁stichting	170
▁maatschappij	170
▁gedeeltelijk	170
▁uitvoering	170
ij	170
industrie	170
▁gebruikers	170
▁Mary	170
▁piano	170
▁straat	170
▁proberen	170
▁antwoord	170
Y	170
▁Louis	169
▁kunstenaar	169
▁gekregen	169
min	169
▁leerde	169
▁Trump	169
▁draagt	169
▁Britten	169
▁pogingen	169
▁winter	169
▁bewoners	169
▁divisie	169
▁zong	169
pen	169
▁resulteerde	169
ies	169
▁Albert	168
▁beiden	168
▁Brown	168
▁schrijvers	168
ot	168
▁del	168
ak	168
.”	168
komende	168
▁stelling	168
▁lage	168
▁premier	168
▁kennen	168
▁evenement	168
▁toepassing	168
▁gesproken	168
▁Cup	167
▁Wenen	167
▁passagiers	167
▁ontwerpen	167
▁vraagt	167
▁oplossing	167
▁Blue	167
▁best	167
▁verzet	167
▁echtgenoot	167
ach	167
▁ogen	167
▁termen	167
▁Parlement	167
toenmalige	167
gebied	167
▁Film	167
▁vernietigd	167
bo	166
▁vóór	166
▁mag	166
hoewel	166
▁voorbeelden	166
▁geboorte	166
▁jongere	166
▁zat	166
▁Act	166
▁leverde	166
age	166
▁kern	166
▁Ko	166
▁federale	166
▁Am	166
▁beelden	166
▁Australische	165
▁praktijk	165
▁componist	165
tal	165
▁Daniel	165
▁European	165
▁Band	165
▁privé	165
▁mensenrechten	165
▁waarom	165
▁Day	165
▁artiesten	165
▁aard	165
▁directe	164
▁Car	164
▁Joden	164
▁Chicago	164
▁deden	164
▁objecten	164
▁Bill	164
▁gekomen	164
▁minsten	164
▁...	164
▁Californië	164
▁VN	164
▁massa	164
▁rapport	164
▁rang	163
▁operatie	163
▁Romeinen	163
tijd	163
▁hoop	163
▁vormt	163
au	163
▁bijdrage	163
▁at	163
▁US	163
▁Holland	163
▁voldoende	163
leden	162
▁bewijzen	162
á	162
ov	162
▁Formule	162
sel	162
ini	162
▁werknemers	162
▁Ondertussen	162
▁restaurant	162
▁vlucht	162
▁verkopen	162
▁daarvoor	162
▁verzoek	162
▁ster	162
▁aangepast	162
we	161
▁transport	161
▁slecht	161
ong	161
ö	161
▁ton	161
▁nauw	161
▁Anna	161
▁dichter	161
ring	161
anse	161
▁Pas	160
▁Great	160
▁techniek	160
middels	160
▁stukken	160
▁buitenland	160
▁verliezen	160
model	160
▁mocht	160
klasse	159
ën	159
▁beschrijven	159
▁gezet	159
band	159
▁bloed	159
periode	159
▁opgevolgd	159
▁tekende	159
▁geloven	159
▁gedichten	159
▁val	159
ier	159
▁ziekenhuis	159
▁bank	159
▁gevecht	159
▁toernooi	158
▁Daarom	158
▁ruim	158
▁Johnson	158
▁Portugal	158
▁recente	158
▁Wilson	158
▁grootte	158
▁Jones	158
▁actieve	158
▁geïnteresseerd	158
▁with	158
▁dertig	158
▁leidt	158
▁Rotterdam	158
▁achtergrond	158
▁wereldwijde	158
ey	158
▁instellingen	158
▁exemplaren	158
ol	158
▁akkoord	158
▁Hu	157
organisatie	157
aal	157
▁duizenden	157
▁klimaat	157
val	157
▁Karel	157
▁decennia	157
▁organiseerde	157
tel	157
▁verlies	157
Europa	157
▁historicus	156
▁bezoekers	156
▁route	156
lijn	156
▁bedacht	156
▁Duitsers	156
▁Su	156
ker	156
▁Fort	156
▁kleuren	156
aat	156
groepen	156
mar	156
▁zestig	156
▁Ierse	156
▁Max	156
▁Carl	156
productie	156
▁verslag	156
▁wetenschappers	156
▁afgeleid	156
aanse	156
▁oprichter	155
▁helemaal	155
kzij	155
▁literaire	155
▁an	155
▁begrip	155
▁code	155
▁paleis	155
▁kiezen	155
bi	154
po	154
ts	154
▁verwoest	154
▁i	154
▁verkrijgen	154
▁Jackson	154
}	154
▁westerse	154
▁Irak	154
▁jazz	154
▁afdeling	154
▁speciaal	154
onderhandelingen	153
▁Ter	153
▁High	153
▁regisseur	153
▁con	153
▁munten	153
ici	153
▁Fransen	153
▁deelnemers	153
tre	153
▁Pan	153
▁Y	153
▁TV	153
▁personage	153
▁Egyptische	153
▁Afrikaanse	153
ho	152
▁Ministerie	152
▁Euro	152
▁noemen	152
▁gewerkt	152
▁bezoeken	152
tussen	152
▁Post	152
▁burgemeester	152
▁uitgave	152
▁Presley	152
lang	152
▁daarbij	152
▁vermogen	152
▁eisen	151
▁hart	151
▁Amerikaans	151
▁Francisco	151
sh	151
stad	151
▁breed	151
▁digital	151
▁paarden	151
out	151
▁sindsdien	151
▁zonen	151
beweging	150
▁ondersteund	150
▁County	150
▁bevorderen	150
▁risico	150
?)	150
licht	150
▁concerten	150
▁platen	150
▁bezetting	150
hi	150
ino	150
▁conferentie	150
▁General	150
est	150
▁ontsnappen	150
▁iedere	149
▁datum	149
ville	149
▁ontslag	149
▁commandant	149
▁vijftig	149
▁Windows	149
▁gemiddelde	149
project	149
▁kapitein	149
▁speelden	149
▁rollen	149
▁Of	149
stra	149
▁solo	149
air	149
ani	149
▁vluchtelingen	149
▁Bay	149
qu	149
▁gelegenheid	149
▁cavalerie	149
▁werkten	149
rat	149
▁lopen	149
▁kamer	149
▁zond	149
▁vijand	149
▁beschrijving	149
▁gepresenteerd	149
▁nazi	148
▁competitie	148
▁Christian	148
▁ertoe	148
▁Hitler	148
▁stoppen	148
▁Book	148
▁gegaan	148
▁acties	148
▁half	148
▁hotel	148
▁handels	148
▁America	148
▁geheim	148
%)	147
▁Il	147
▁tal	147
vin	147
▁Ma	147
▁Per	147
▁professor	147
▁feite	147
▁complexe	147
▁koos	147
▁werkzaam	147
▁sturen	147
▁vechten	147
▁voegde	147
▁noodzakelijk	147
▁hit	147
ex	147
▁Koning	147
▁verwijderd	147
▁advocaat	147
elektrische	146
niet	146
▁betekende	146
▁Championship	146
zoals	146
▁grenzen	146
nes	146
systemen	146
▁cd	146
aire	146
ap	146
ica	146
▁Binnen	146
▁voornaamste	146
▁effecten	146
▁openbaar	146
▁krachten	146
ese	145
▁vergelijking	145
"-	145
▁organiseren	145
▁geassocieerd	145
ai	145
▁betreft	145
▁destijds	145
▁rechter	145
▁pers	145
▁verkreeg	145
▁advies	145
▁verdedigen	145
▁persoonlijk	145
▁kerken	145
▁klaar	144
▁context	144
▁gevolgen	144
aw	144
▁Joe	144
▁schrijft	144
▁bood	144
▁Vier	144
▁Hans	144
▁vaste	144
▁discussie	144
angezien	144
▁redden	144
▁instrument	144
▁vrijgelaten	144
▁beslissing	144
▁Sa	143
▁Azië	143
▁verbleef	143
▁provincies	143
▁Hendrik	143
▁Corporation	143
▁waarden	143
▁belasting	143
▁vormden	143
▁aangesteld	143
▁acteur	143
▁deels	143
▁zanger	143
▁verspreid	143
▁onderneming	143
▁Adam	143
▁zwaar	143
▁verklaard	143
▁Project	143
▁Tu	143
▁uitgenodigd	142
▁ingezet	142
▁Niet	142
▁getoond	142
▁locaties	142
▁slechte	142
▁voortdurend	142
▁Road	142
▁crisis	142
▁site	142
▁termijn	142
▁tournee	142
▁verschil	142
▁vertaling	142
▁mogen	142
?"	142
▁bevestigd	141
▁afleveringen	141
▁activiteit	141
▁gekocht	141
▁erkenning	141
ara	141
▁Oceaan	141
▁bereid	141
▁Marine	141
▁zagen	141
du	141
▁meisje	141
▁ontwierp	141
▁zeventig	141
▁eten	141
ana	141
▁Or	141
Wat	141
▁voorstel	141
▁Q	140
▁positieve	140
▁Simon	140
▁waarvoor	140
▁leefde	140
▁prins	140
▁lengte	140
ac	140
▁Hierdoor	140
▁toren	140
onder	140
▁twintigste	139
▁eeuwen	139
▁Awards	139
▁terrein	139
▁boeren	139
▁normale	139
team	139
▁vestigde	139
▁Schotland	139
▁Hongaarse	139
▁Barcelona	139
▁gevechten	139
▁Mar	139
▁Edward	139
▁zelfmoord	139
▁toenemend	139
▁Hongarije	138
▁Space	138
▁geleverd	138
▁monument	138
▁Sun	138
tor	138
school	138
▁oog	138
▁behandeld	138
bel	138
▁dorpen	138
▁dacht	138
gi	138
▁toonde	138
▁Science	138
▁test	138
▁kandidaat	138
▁Toch	137
▁trein	137
▁Noorse	137
▁symbool	137
mp	137
▁complex	137
▁seksuele	137
▁Verschillen	137
▁vertaald	137
▁middeleeuws	137
▁Leger	137
▁gouden	137
▁oostelijke	137
▁States	137
▁werking	137
▁klassen	137
▁brengt	137
▁verdwenen	137
▁fase	137
ari	137
▁Hamburg	137
▁Tegenwoordig	136
▁record	136
▁commando	136
▁Mars	136
▁song	136
▁richt	136
▁instrumenten	136
▁Ka	136
▁Line	135
▁toegeschreven	135
▁fusie	135
▁Bob	135
▁geheime	135
▁zingen	135
▁Latijnse	135
▁veiligheids	135
▁Zwitserse	135
▁ontmoet	135
▁Arthur	135
▁Opera	135
▁studeren	135
▁keuze	135
▁Scott	135
▁Chris	135
ator	135
▁Theatre	135
▁Big	135
▁uitvoeren	134
▁Women	134
▁artistieke	134
▁geslacht	134
iteit	134
▁leveren	134
zie	134
aar	134
▁onderzoeks	134
straat	134
▁stopte	134
▁beschuldigd	134
▁zulk	134
▁getekend	134
▁Venetië	134
▁voordeel	133
▁Academie	133
▁getal	133
▁East	133
▁Indonesië	133
▁personages	133
▁halen	133
▁ernstige	133
▁instantie	133
▁lijnen	133
▁onmogelijk	133
▁Orde	133
▁Iran	133
▁universiteiten	133
va	133
▁bevinden	133
zi	133
▁Victoria	133
▁Nationaal	133
▁gespecialiseerd	133
▁god	133
▁Si	133
ah	133
▁gelanceerd	132
ang	132
▁specifiek	132
▁stammen	132
▁moslims	132
▁beweert	132
▁micro	132
+	132
▁Sky	132
▁Jo	132
kin	132
▁rondom	132
waar	132
▁bands	132
▁kantoor	132
▁schilder	132
maal	132
▁bondgenoten	132
▁Aarde	132
▁Revolutie	132
▁militair	132
▁Les	132
water	131
▁voet	131
▁producent	131
centrum	131
La	131
▁verplaatst	131
▁trouwen	131
▁News	131
▁stenen	131
▁Force	131
▁valt	131
cha	131
▁samengesteld	131
▁Ra	131
▁Port	131
▁constructie	131
eg	131
▁Pierre	131
ny	131
▁niemand	131
line	131
▁boord	131
▁vermoedelijk	131
dienst	130
▁titels	130
▁opzichte	130
▁verkregen	130
▁goden	130
▁Finland	130
▁nadruk	130
ish	130
▁initiatief	130
film	130
▁geschat	130
▁bedoeling	130
▁onderzoekers	130
▁verschijnt	130
▁Hotel	130
▁snelle	130
▁nederlaag	130
▁Buitenlands	130
▁historici	129
▁Young	129
▁heden	129
ud	129
▁belangen	129
▁exact	129
▁heerschappij	129
▁gas	129
▁sociaal	129
▁Service	129
▁Jim	129
▁alliantie	129
▁meester	129
ura	129
▁kader	129
▁Florida	128
▁Magazine	128
▁tegelijkertijd	128
▁geschikt	128
▁première	128
▁Ki	128
▁Long	128
muziek	128
▁omvatten	128
▁teams	128
raad	128
▁opgesteld	128
▁kanaal	128
▁gitaar	128
q	128
▁waarheid	128
▁Sea	128
▁winkel	128
▁heet	128
▁voorkeur	128
▁schilderij	128
▁Press	128
▁Prins	128
aparte	127
▁Brits	127
▁ca	127
▁inhoud	127
▁Leiden	127
spel	127
punt	127
▁democratie	127
▁centraal	127
▁May	127
▁republiek	127
▁document	127
▁or	127
▁rock	127
▁duur	127
▁Vlaamse	127
▁Alleen	127
▁student	127
▁volgden	126
▁aangevallen	126
▁lezen	126
▁gepland	126
▁vastgesteld	126
▁precies	126
▁honderden	126
▁bijnaam	126
▁Bond	126
▁betere	126
▁verbinding	126
▁figuur	126
▁juridische	126
▁aandeel	126
▁Top	126
▁gevangengenomen	126
▁hiervoor	126
▁bed	125
▁Centre	125
▁stap	125
▁Anne	125
▁Good	125
▁River	125
▁gewoonlijk	125
▁Ford	125
▁boot	125
ñ	125
▁verslaan	125
ijn	125
▁tachtig	125
Atlantische	125
▁troon	125
▁Matt	125
▁do	125
▁adviseur	125
▁kende	125
▁westelijke	125
▁kaarten	125
lijk	125
▁redacteur	125
▁zichtbaar	124
ú	124
Azië	124
▁trokken	124
▁Lodewijk	124
▁opname	124
▁gebeurde	124
▁opening	124
▁Council	124
ngeveer	124
ab	124
▁Bell	124
▁geschriften	124
tu	124
ep	124
wi	124
▁conflicten	124
▁aspecten	124
▁Academy	123
▁inspanningen	123
▁Live	123
▁personeel	123
▁reputatie	123
▁treden	123
▁strategisch	123
▁behoort	123
▁journalist	123
▁Bijbel	123
▁academische	123
▁regel	123
▁tijden	123
▁laag	123
res	123
▁maan	123
▁promotie	123
nummer	123
▁Gu	123
mede	123
▁opnamen	123
▁definitie	123
▁daardoor	122
tic	122
▁Special	122
▁patiënten	122
▁hertog	122
▁Google	122
▁zon	122
▁Elizabeth	122
ub	122
▁vergadering	122
cultuur	122
▁primaire	122
un	122
▁ziek	122
▁graaf	122
▁afgelopen	122
▁ruil	122
ru	122
▁zijde	122
▁kent	122
▁gestart	122
lu	122
handel	122
tro	122
▁Sch	122
president	122
▁Suriname	122
▁element	121
Ma	121
▁loopt	121
▁Val	121
▁los	121
▁verving	121
▁Roland	121
▁technieken	121
ł	121
▁Microsoft	121
▁genomineerd	121
▁Santa	121
▁schaal	121
▁haalde	121
▁Little	121
▁levens	121
▁belangstelling	121
▁interne	121
▁hiermee	121
▁Latijns	121
▁gevaar	121
▁Sicilië	121
▁banden	121
▁inheemse	120
▁pensioen	120
▁neef	120
▁herstellen	120
▁vocht	120
▁beroep	120
▁Orchestra	120
▁onderdelen	120
▁unieke	120
ron	120
▁complete	120
▁Nederlanden	120
▁auteurs	120
▁ontslagen	120
▁doelen	120
▁Night	120
▁leek	120
▁Pe	120
▁Ha	120
he	120
and	120
▁stichtte	120
▁tijdelijk	120
▁vielen	120
ê	120
▁promoten	120
▁singles	120
▁verschijnen	120
▁toegewezen	120
▁historisch	120
▁capaciteit	120
▁formele	120
taal	120
▁bewust	119
▁introductie	119
▁Mor	119
ff	119
▁voertuigen	119
▁legers	119
▁voorwaarden	119
ef	119
▁overeen	119
▁bijeenkomst	119
▁toegestaan	119
▁Water	119
▁Nick	119
ding	119
Man	119
▁kenmerken	119
▁betreffen	119
▁oorlogen	119
▁eenvoudig	119
▁vijftien	119
▁zender	119
▁Po	119
anvankelijk	119
▁partner	119
▁Union	119
▁object	119
▁debat	119
▁ochtend	119
▁overeenstemming	119
▁Vlaanderen	119
▁maatregelen	119
▁bergen	119
▁Lord	118
▁alternatieve	118
▁kabinet	118
▁Un	118
▁hoofdkwartier	118
▁Team	118
▁testen	118
▁gewone	118
▁gescheiden	118
▁benadering	118
▁End	118
▁mogelijkheden	118
▁hervormingen	118
▁Eén	118
▁dient	118
▁Fu	118
▁fort	118
▁negatieve	118
▁rode	118
▁principe	118
▁hoogleraar	118
▁Je	118
▁Ar	118
▁Marie	118
▁maal	118
▁Lo	118
▁operaties	118
▁tijdperk	118
▁toezicht	118
recht	117
▁officieren	117
▁regime	117
▁opgezet	117
markt	117
▁vertrouwen	117
▁allen	117
▁gemeenschappen	117
▁platform	117
▁Seleucus	117
▁aangeboden	117
han	117
▁verzameld	117
ada	117
▁President	117
▁eer	117
▁zesde	117
ity	117
▁Best	117
▁Tri	117
▁leer	117
leven	117
▁congres	117
▁doorgaan	117
▁rekening	117
▁gebruikten	117
▁riep	117
kampioenschap	117
▁brak	117
▁groeiende	116
▁kopen	116
▁oppervlakte	116
▁Inter	116
lid	116
stijl	116
▁prominente	116
▁behoorde	116
▁Lewis	116
▁Morgan	116
staat	116
▁theorieën	116
▁#	116
dy	116
▁vertellen	116
kerk	116
▁manieren	116
▁sterven	116
▁veilig	116
▁verblijf	116
▁commentaar	116
cy	116
▁Hoe	116
communistische	116
▁gekenmerkt	116
▁aangewezen	116
▁inbegrip	116
▁beurt	115
gel	115
▁Senaat	115
▁hout	115
▁voorheen	115
▁optredens	115
▁luitenant	115
▁Ho	115
▁Harry	115
toe	115
▁tuin	115
▁Oorspronkelijk	115
▁passen	115
MS	115
å	115
▁kwestie	115
wereld	115
▁opnames	115
▁vrijwilligers	115
▁gewond	115
▁Philippus	115
achtige	115
▁voorbij	115
▁Han	115
▁France	115
▁Taylor	115
▁wegen	115
▁koningen	115
iaanse	115
▁Heilige	115
▁verwijzen	115
▁ring	115
▁economisch	114
▁zuster	114
▁zitten	114
▁geallieerde	114
▁Up	114
meer	114
familie	114
▁winnaar	114
▁bewind	114
uur	114
off	114
▁enig	114
ug	114
▁Jacob	114
▁geleidelijk	114
▁vooruitgang	114
▁rechts	114
fe	114
▁indruk	114
▁wijk	114
▁hernoemd	114
▁gratis	114
▁oorzaak	114
▁Mu	114
deel	114
▁beheer	114
▁vijanden	114
ys	114
vertegenwoordigd	114
▁etnische	114
▁clubs	114
▁snelheid	113
▁leidden	113
▁heette	113
▁variant	113
▁ware	113
▁Ro	113
▁ingevoerd	113
▁geloofde	113
▁Bush	113
rom	113
▁Heer	113
▁wees	113
▁verbeterde	113
ting	113
▁lot	113
▁jongens	113
▁as	113
▁Afghanistan	113
▁seks	113
▁Israëlisch	113
▁vervoer	113
▁voldoen	113
▁Schotse	113
▁gast	113
show	113
zer	112
▁Cuba	112
▁voorstander	112
▁populariteit	112
▁echtgenote	112
▁History	112
car	112
▁Out	112
▁Russisch	112
▁Walter	112
▁jongen	112
▁poëzie	112
▁gemakkelijk	112
▁medewerkers	112
ec	112
▁processen	112
▁Williams	112
tie	112
▁ambassadeur	112
album	112
▁keizerlijke	112
▁Her	112
▁reed	112
▁staats	112
▁hemel	112
▁begrijpen	112
boek	112
▁Europe	112
â	112
▁verovering	111
▁Party	111
▁merkte	111
ph	111
▁verteld	111
▁ernstig	111
▁ervaringen	111
▁hersteld	111
▁Game	111
▁verzamelen	111
▁gevoel	111
pt	111
▁Caesar	111
▁instituut	111
▁vereist	111
▁kinder	111
▁oom	111
▁stadion	111
▁leerlingen	111
nam	111
▁geregisseerd	111
▁Tibetaans	111
▁Prix	111
plaats	111
▁evenementen	111
ahá	111
▁creëerde	111
▁hoogtepunt	111
▁versloeg	111
schepen	111
▁steen	111
▁overtuigd	111
▁heilige	111
▁ijs	110
▁Lu	110
▁graf	110
▁Arts	110
▁Frederik	110
ß	110
eenheid	110
▁sector	110
▁beperkte	110
▁leraar	110
▁lanceerde	110
▁omvang	110
▁Karl	110
▁gezicht	110
▁Kunst	110
▁vriendin	110
velen	110
▁bevond	110
▁gecreëerd	110
▁witte	110
▁vertrek	110
▁Office	110
▁zoveel	110
vrouw	110
▁tijde	110
veld	110
▁gedicht	109
▁bevestigde	109
Duitsland	109
▁verzamelde	109
Olympische	109
▁private	109
▁vers	109
▁malen	109
▁democratische	109
▁Light	109
▁benoemde	109
koloniale	109
▁fout	109
▁dateert	109
▁erkende	109
▁arbeiders	109
▁goedgekeurd	109
▁Back	109
▁versterken	109
lla	109
▁onderhouden	109
▁Nederlanders	109
▁Vol	109
▁kijken	109
▁Ken	109
maatschappelijke	109
▁fysieke	109
▁inter	109
fabriek	109
elijke	109
▁aandelen	109
▁System	109
nik	108
▁Oxford	108
▁tijdschriften	108
▁Se	108
▁visie	108
lus	108
naam	108
▁Lake	108
▁FC	108
▁toerde	108
We	108
mans	108
▁Jezus	108
▁juist	108
▁lagere	108
mann	108
▁Will	108
sie	108
bouw	108
▁manager	108
▁principes	108
▁magazine	108
▁zwart	108
▁slotte	108
▁Witte	108
▁Pa	108
▁producer	108
▁bestuderen	108
▁meldde	108
▁ha	108
ay	108
▁ingesteld	108
bar	108
ll	108
tri	107
ary	107
▁Grieken	107
▁spoorweg	107
▁ouder	107
▁zorgt	107
▁und	107
▁vergelijkbare	107
yl	107
▁Marokko	107
▁interpretatie	107
▁meteen	107
▁honderd	107
▁kranten	107
▁veroorzaakte	107
▁chemische	107
▁uitgereikt	107
▁Ali	107
▁Leopold	107
▁zetel	107
▁Chi	107
Koninklijke	107
▁Kamer	107
ã	107
erde	107
▁Zelfs	107
▁mannelijke	107
▁gebeurtenis	107
▁zit	107
▁se	106
▁Wood	106
▁gemeenten	106
ruimte	106
▁uitgever	106
rechten	106
▁moslim	106
▁Argentinië	106
ford	106
▁woonden	106
▁Boy	106
▁Power	106
▁Bernard	106
▁liedjes	106
▁gedeeld	106
▁Minister	106
▁arts	106
bal	106
▁rechtstreeks	106
▁komst	106
▁genetisch	106
▁Ban	106
▁Finse	106
▁Veiligheidsraad	106
▁Ottomaanse	106
▁figuren	106
fer	106
▁vernietigen	106
▁vertrokken	106
▁Naar	106
ü	106
▁Da	106
▁veroverde	106
▁zorg	106
cu	105
▁elf	105
▁strijdkrachten	105
▁overige	105
▁Stichting	105
▁Ku	105
▁experimenten	105
▁zangeres	105
▁weinige	105
▁bos	105
ets	105
▁Sol	105
ä	105
▁scenario	105
▁menselijk	105
▁selectie	105
▁spreekt	105
iële	105
▁muur	105
▁kampioenschap	105
code	105
aak	105
▁gitarist	105
▁aankomst	105
ero	105
bu	105
▁Army	105
▁uitsluitend	105
▁ep	105
▁getroffen	105
▁beheerd	105
▁mislukte	105
▁spoor	105
▁uiteindelijke	104
▁oppositie	104
▁ervaren	104
▁Portugese	104
▁infanterie	104
▁aanpak	104
▁duo	104
har	104
▁Home	104
▁composities	104
▁hard	104
▁camera	104
▁Wij	104
▁langzaam	104
▁wijzen	104
▁Ex	104
▁hielden	104
▁protest	104
▁details	104
▁beschermd	104
▁jongste	104
▁Der	104
▁klanten	104
kant	104
▁kleding	104
▁teken	104
▁verbannen	104
▁Cha	104
modellen	104
▁wezen	104
▁Juan	104
▁Journal	104
▁normaal	104
▁bemanning	104
▁qua	104
diensten	104
cho	104
▁Har	104
▁verplicht	103
▁Vereniging	103
▁gekend	103
▁geïdentificeerd	103
▁training	103
▁Bijvoorbeeld	103
lie	103
ië	103
▁bijgedragen	103
wood	103
▁Series	103
▁aangetoond	103
▁beval	103
▁talrijke	103
▁stappen	103
▁Atheners	103
▁sprake	103
▁Jeruzalem	103
▁Hierna	103
pl	103
wet	103
▁vervolg	103
if	103
ive	103
▁taken	103
▁Napoleon	103
▁toestel	103
els	103
▁licentie	103
▁Bur	103
▁leerling	103
▁bewustzijn	103
▁antwoordde	103
▁onbekende	103
ich	103
▁Otto	103
bit	102
▁Mi	102
▁behoren	102
▁Arabisch	102
stein	102
oorlog	102
▁uitgerust	102
▁Ross	102
ram	102
▁Madrid	102
▁Ne	102
▁verklaren	102
▁immigranten	102
▁Middellandse	102
▁machine	102
ins	102
▁commercieel	102
▁formeel	102
▁Gent	102
▁werkelijkheid	102
▁graag	102
▁geraakt	102
▁binnenlandse	102
▁à	102
▁geregistreerd	102
▁fundamentele	102
▁benoeming	102
▁Your	102
▁baby	101
▁toestand	101
ow	101
ou	101
schip	101
▁middelbare	101
▁Internationaal	101
kan	101
▁ontwikkelingen	101
▁steunen	101
▁vervanging	101
▁incident	101
▁straf	101
▁rijden	101
▁Gold	101
▁burgeroorlog	101
▁vliegen	101
▁Tony	101
▁schilderde	101
▁sporen	101
▁ontmoeting	101
evens	101
▁verkiezing	101
partij	101
don	101
▁opgeheven	101
▁vermeldt	101
▁juiste	101
▁reële	100
▁kathedraal	100
▁Trans	100
▁oorlogs	100
▁Boston	100
▁instelling	100
▁getuigen	100
▁angst	100
▁Indonesisch	100
cal	100
▁geldt	100
dia	100
▁beschouwen	100
▁monarchie	100
▁Syrië	100
isatie	100
▁geluid	100
ette	100
▁leed	100
uw	100
▁contacten	100
▁Corps	100
▁cover	100
▁Tibet	100
▁Miss	100
▁tak	100
▁portretten	100
▁indien	100
▁dochters	100
▁herstel	100
▁methoden	100
▁eindigt	99
▁Amsterdams	99
▁gewicht	99
▁wijn	99
▁Who	99
▁drugs	99
▁release	99
▁christendom	99
▁winst	99
▁verwacht	99
Afrikaanse	99
▁Davis	99
▁invloedrijke	99
▁vliegveld	99
▁burger	99
▁+	99
▁Vrij	99
▁Law	99
▁Amerikanen	99
▁fro	99
organisaties	99
▁waargenomen	99
▁muren	99
leger	99
▁Bad	99
▁Eric	99
▁Human	99
▁geëxecuteerd	99
▁Airport	99
park	98
▁veroveren	98
▁lokaal	98
ros	98
▁toepassingen	98
▁gang	98
▁Sparta	98
▁Latijn	98
bra	98
ologie	98
tjes	98
▁Miller	98
▁sp	98
▁VI	98
▁Fiat	98
▁prestaties	98
▁Station	98
▁bekendgemaakt	98
▁opvattingen	98
▁DNA	98
▁bekendheid	98
▁Texas	97
vers	97
▁afzonderlijke	97
▁bedrag	97
grote	97
vol	97
▁beslag	97
▁logica	97
▁traditioneel	97
▁Wales	97
▁planeet	97
▁Real	97
field	97
burg	97
▁lossen	97
lan	97
lon	97
▁winkels	97
▁songs	97
▁Communistisch	97
meenschappelijke	97
▁volle	97
kel	97
▁uitspraak	97
▁evolutie	97
▁Theater	97
▁gezamenlijke	97
▁onderscheid	97
▁management	97
▁front	97
▁Sub	97
▁meisjes	97
▁administratieve	97
▁bewegingen	97
ges	97
▁Hof	97
bedrijven	97
▁storm	97
▁slachtoffer	97
▁Navy	97
▁you	97
▁toegankelijk	97
ct	97
▁Steve	97
▁inkomsten	96
▁terugkeren	96
▁ontbonden	96
▁plaatste	96
▁bevriend	96
▁gewijzigd	96
▁Ga	96
▁Spelen	96
▁publiceren	96
ku	96
án	96
▁classificatie	96
Oosten	96
▁Studio	96
▁Braziliaanse	96
▁planning	96
▁afgebeeld	96
▁negentig	96
▁pop	96
▁steunde	96
▁versterkt	96
▁hits	96
gar	96
▁plaatsvond	96
▁vriendschap	96
▁Inc	96
▁wind	96
▁geheugen	96
mont	96
▁heer	96
▁kampioen	96
▁compleet	96
ita	96
Europese	96
▁beschadigd	96
▁voelde	96
▁by	96
▁behield	96
universiteit	96
▁Democratisch	95
▁Grieks	95
▁Song	95
▁Alfred	95
▁componisten	95
▁arriveerde	95
▁Grant	95
▁x	95
▁elektronische	95
werken	95
▁Sport	95
▁geneeskunde	95
▁effectief	95
▁verwierf	95
▁morele	95
▁sleutel	95
kamp	95
▁lagen	95
▁wetgeving	95
museum	95
sverkiezingen	95
▁Bowie	95
▁Ju	95
▁toneel	95
▁scoorde	95
▁tekenen	95
▁hierop	95
cher	95
▁Boek	95
▁München	95
▁brede	95
▁Lady	95
▁ondersteunt	94
▁Oude	94
▁concurrentie	94
▁Beach	94
ath	94
▁behoefte	94
▁Hollywood	94
▁circa	94
▁grootvader	94
▁terugkeerde	94
▁heerser	94
vorm	94
yn	94
▁veroverd	94
▁domein	94
▁Mega	94
▁beëindigd	94
▁overtuigen	94
▁dubbel	94
▁Groep	94
▁FM	94
▁Parker	94
▁tegenstanders	94
▁gefinancierd	94
▁stelden	94
ola	94
▁Court	94
▁Hart	94
ix	94
▁bovendien	94
▁Genève	94
▁diplomatiek	94
▁consul	94
▁ballingschap	94
▁vroeger	94
▁Antonio	94
▁Stone	94
maatschappijen	94
▁Milaan	94
proces	94
▁bevonden	94
▁voorwaarde	93
▁Via	93
▁Spaans	93
heim	93
▁gezamenlijk	93
▁bureau	93
▁vis	93
▁verlieten	93
▁kapel	93
▁gezag	93
▁romans	93
▁Mike	93
▁belastingen	93
▁Russen	93
ii	93
▁opkomst	93
▁multi	93
erd	93
▁Modern	93
▁overgebracht	93
▁zocht	93
▁hoofdrol	93
▁Forum	93
▁Gi	93
tin	93
bureau	93
°	93
▁Cambridge	93
▁Nog	93
▁Vrede	93
▁bedreiging	93
era	93
▁kleiner	93
▁sommigen	93
var	93
▁podium	93
▁Roger	93
ux	92
▁vergeleken	92
▁investeringen	92
▁factor	92
hal	92
▁dier	92
▁Mall	92
Indië	92
▁locomotieven	92
▁Ba	92
ack	92
og	92
▁debuutalbum	92
▁bezet	92
Korea	92
▁Committee	92
▁Dark	92
▁lezingen	92
art	92
▁Mr	92
sky	92
voering	92
▁Ca	92
campagne	92
▁markten	92
▁strategie	92
▁geselecteerd	92
▁stedelijke	92
▁halve	92
▁aanbod	92
loop	92
cel	92
▁Abraham	92
▁legende	92
▁Bor	92
▁What	92
▁erfgoed	91
▁Macedonië	91
▁Ball	91
▁veertig	91
ick	91
act	91
▁Philip	91
▁Coast	91
▁priester	91
▁Vele	91
▁terecht	91
▁betrokkenheid	91
▁gelegd	91
troepen	91
▁lieten	91
▁inkomen	91
▁Earth	91
▁algebraïsche	91
dom	91
▁José	91
▁Old	91
▁At	91
▁Aziatische	91
▁rechtszaak	91
her	91
▁praten	91
▁rijkdom	91
▁tweemaal	91
▁NAVO	91
wille	91
▁bezittingen	91
▁gesteund	91
side	91
▁Entertainment	91
▁geïnstalleerd	91
▁schuld	91
▁Wolfgang	91
▁scheiding	91
▁keerden	91
one	91
▁vertrekken	91
▁geregeld	91
gemeenschap	91
▁Filips	91
vis	91
▁trans	90
zij	90
▁District	90
▁Class	90
▁betaalde	90
▁Anti	90
▁luchtmacht	90
▁nood	90
▁ontmoeten	90
▁uitgeroepen	90
▁Las	90
▁agenten	90
SS	90
▁munt	90
▁integratie	90
▁vroegste	90
▁familieleden	90
▁stads	90
▁Wit	90
▁kolonie	90
€	90
▁Central	90
▁Story	90
acht	90
ran	90
bank	90
oe	90
tes	90
dig	90
ô	90
▁ad	90
▁christenen	90
▁Clark	90
*	90
hr	90
▁belast	90
▁uitgeverij	89
Zeeland	89
▁culturen	89
plan	89
▁boom	89
▁Anton	89
▁bier	89
▁ongeluk	89
fa	89
leidende	89
eur	89
▁voltooide	89
▁Jane	89
head	89
▁aangetroffen	89
▁rood	89
post	89
▁toename	89
dan	89
▁protesten	89
lijke	89
▁bijeen	89
▁Ray	89
ging	89
▁plotseling	89
▁verhouding	89
▁natuurlijk	89
▁concludeerde	89
▁begraafplaats	89
▁Nor	89
▁droom	89
later	89
▁Fe	89
▁hoofdzakelijk	89
▁Volks	89
▁Indiase	89
tas	89
▁PlayStation	89
wat	89
▁Pre	89
▁set	89
station	89
▁zodanig	89
▁college	88
▁artillerie	88
iel	88
▁merendeel	88
kamer	88
ure	88
▁aartsbisschop	88
▁vorming	88
▁individuen	88
▁deelname	88
▁innovatie	88
▁gered	88
ip	88
landelijke	88
▁brigade	88
uk	88
▁lager	88
▁geaccepteerd	88
▁Heart	88
▁Design	88
▁Alan	88
uff	88
▁pad	88
▁ingang	88
▁overzicht	88
▁gebruikelijk	88
▁kolonisten	88
bijvoorbeeld	88
▁Gil	88
▁soundtrack	88
▁Nigeria	88
▁Bahá	88
▁diep	88
▁breiden	88
▁Mexicaans	88
▁lidstaten	88
▁Leo	88
▁Ru	88
▁appartement	87
▁organiseert	87
▁hoorde	87
▁beweren	87
▁kandidaten	87
able	87
▁aanslag	87
▁Global	87
▁Renault	87
kampioenschappen	87
way	87
▁Dag	87
▁seconden	87
▁automatisch	87
beleid	87
▁huwde	87
▁Paus	87
▁Sports	87
▁gebeurt	87
▁Noordelijke	87
▁prototype	87
▁manuscript	87
▁Zwarte	87
▁componeerde	87
▁verspreiding	87
▁onduidelijk	87
▁eiste	87
▁bar	87
▁vermoorden	87
▁muzikanten	87
▁jongeren	87
▁Constantinopel	87
▁verwijzing	87
▁da	87
▁Andrew	87
▁verborgen	87
let	87
▁telde	87
▁hoofdstuk	87
▁behoud	87
▁uw	87
▁betrekkingen	87
▁com	86
▁werkzaamheden	86
▁universum	86
▁positief	86
▁verkeer	86
▁armen	86
▁overgebleven	86
▁Columbia	86
▁Za	86
▁definitief	86
▁Lucas	86
▁voorstellen	86
▁Tim	86
tur	86
▁Ltd	86
▁hond	86
▁paard	86
▁wisten	86
▁factoren	86
▁noemden	86
rlei	86
▁starten	86
▁voorgaande	86
regio	86
▁houding	86
▁Winter	86
▁Ab	86
ons	86
maar	86
▁budget	86
▁durende	86
▁omschreven	86
enberg	86
▁volwassenen	86
hit	86
▁ontdekken	86
▁twijfel	86
▁ras	86
▁compositie	86
▁Pop	86
▁bekritiseerd	86
ben	86
commissie	86
▁ontwikkelaars	86
▁schatting	86
▁bewezen	86
ís	86
▁feest	86
▁Ber	86
▁moskee	86
ju	86
loos	86
Al	86
▁Syracuse	86
▁Codex	86
▁gerelateerd	85
▁Jazz	85
▁afkomst	85
rang	85
▁Studios	85
▁degenen	85
No	85
sur	85
▁financieel	85
zake	85
dam	85
nt	85
▁Ph	85
▁Johan	85
▁IJsland	85
▁MS	85
▁particuliere	85
▁Bos	85
▁helpt	85
▁gevierd	85
▁filosofische	85
▁drama	85
▁rechtbank	85
▁trouw	85
▁autoriteit	85
▁bloemen	85
▁verdeling	85
▁stapte	85
▁voorloper	85
▁Stockholm	85
▁Bre	85
▁ISO	85
waarde	85
▁Paris	85
▁lancering	85
▁critici	85
▁Jacques	85
▁behoeften	85
▁Oud	85
ris	85
▁Valley	85
▁reageerde	85
▁manuscripten	85
▁First	85
▁Butterfly	85
▁Praag	85
▁eenvoudige	85
▁verbetering	85
▁vluchtte	85
▁Fox	85
▁Rose	85
▁spoorlijn	85
▁Not	85
▁conclusie	85
▁Wall	85
▁gedachten	85
▁denkt	85
onderzoek	85
▁focus	85
▁liberale	84
▁negentiende	84
▁gemiddeld	84
▁aanhangers	84
▁SA	84
Duitse	84
▁langdurig	84
Er	84
▁wachten	84
▁Groningen	84
▁mochten	84
▁werelds	84
▁structuren	84
▁afbeeldingen	84
▁conservatieve	84
▁Thailand	84
▁tegenstander	84
▁talent	84
▁stam	84
▁fouten	84
▁Ti	84
geschiedenis	84
▁betaald	84
nog	84
▁series	84
▁YouTube	84
▁abdij	84
ska	84
ward	84
▁praktische	84
red	84
▁ondertekend	84
▁stof	84
▁fans	84
aars	84
▁gelooft	84
▁staf	84
▁Billy	84
nie	84
▁nauwelijks	84
▁soortgelijke	84
▁kapitaal	84
▁Facebook	84
ez	84
▁geïsoleerd	84
▁Byzantijns	84
▁algebra	83
▁biologische	83
▁Operatie	83
▁Geen	83
▁Dublin	83
▁Pacific	83
▁Jersey	83
▁Centrum	83
tion	83
▁Lie	83
▁Australia	83
▁Dar	83
▁koor	83
pro	83
ata	83
▁afgewezen	83
ng	83
▁versterkte	83
vertegenwoordigt	83
▁game	83
▁Library	83
▁defensie	83
▁rand	83
▁nr	83
Arabië	83
▁actrice	83
▁gehaald	83
▁dirigent	83
▁suggereert	83
▁middeleeuwen	83
▁Spider	83
▁rebellen	83
▁Bureau	83
▁geconfronteerd	83
▁kamers	83
▁voorwerpen	83
tan	83
▁tradities	83
▁Dam	83
▁loopbaan	83
▁hoeveelheden	83
ane	83
▁lente	83
▁Eduard	83
▁vestigen	83
▁seizoenen	83
▁kritisch	83
kracht	83
▁officier	83
pre	83
▁legt	83
▁zondag	83
▁Dance	83
▁volwassen	83
▁ceremonie	83
sport	82
▁ramp	82
▁wijst	82
▁televisieserie	82
▁bang	82
▁letters	82
▁ergens	82
▁links	82
▁Sony	82
▁plaatsvinden	82
▁onthuld	82
▁uitdrukking	82
▁zelden	82
▁verwant	82
rit	82
auto	82
▁respect	82
▁verzocht	82
▁biografie	82
gebouw	82
£	82
▁successen	82
tentoonstelling	82
▁plaat	82
▁joodse	82
▁verdween	82
▁shows	82
▁Airlines	82
▁voorganger	82
▁para	82
▁Fa	82
š	82
rum	82
▁vermoeden	82
ō	82
▁Family	82
▁enorm	82
▁Howard	82
elen	82
▁verluidt	82
▁dubbele	82
▁resolutie	82
▁Alex	82
▁misdaad	81
ander	81
▁alcohol	81
▁deelnemen	81
▁mensheid	81
keert	81
▁herfst	81
▁bestudeerde	81
ï	81
kken	81
▁opgelegd	81
▁Luxemburg	81
▁Charlie	81
▁Business	81
▁ambtenaren	81
▁kalender	81
▁opnemen	81
▁logo	81
▁Samuel	81
▁denk	81
▁Che	81
▁dertien	81
hl	81
rol	81
sson	81
▁bodem	81
▁voren	81
▁Department	81
▁Onderzoek	81
▁posities	81
▁jury	81
▁populatie	81
▁She	81
▁scène	81
▁coalitie	81
▁Ta	81
all	81
ria	81
anti	81
▁bezat	81
▁Network	81
▁scènes	81
{	81
Een	81
▁identiek	81
▁Ya	81
▁machines	81
▁Generaal	80
ense	80
▁versterkingen	80
ó	80
▁Italiaans	80
▁kabel	80
▁Kim	80
▁merk	80
▁oprichters	80
ø	80
onderneming	80
▁ro	80
▁beloofde	80
▁Par	80
plein	80
▁Nietzsche	80
▁bedrijfs	80
bre	80
▁Vijf	80
▁Development	80
▁duidelijke	80
▁lichamen	80
▁gehoord	80
ā	80
▁groeien	80
▁gelijke	80
▁database	80
▁verliefd	80
▁bestudeerd	80
▁politici	80
Š	80
▁ingenomen	80
▁aangelegd	80
▁mode	80
▁koper	80
▁Stephen	80
rij	80
▁formule	80
▁alternatief	80
▁semi	80
▁militairen	80
▁hierbij	80
▁Mon	80
win	80
▁Mer	80
▁Fair	80
▁geleerden	80
▁dvd	80
▁tijdelijke	80
▁Miami	80
tte	80
ban	80
▁bekendstaat	80
▁he	80
ret	80
▁voegen	80
▁arrestatie	80
▁afval	80
▁tentoongesteld	80
kunst	80
▁aanzien	80
▁beleg	79
▁overleven	79
▁graven	79
▁Federatie	79
▁Mad	79
▁Master	79
▁w	79
▁maritiem	79
▁onderhoud	79
▁Khan	79
▁schiereiland	79
▁overheids	79
▁drummer	79
▁Disney	79
orde	79
▁sectie	79
▁gecombineerd	79
▁omgedoopt	79
▁eindige	79
▁zwakke	79
▁standpunt	79
▁joden	79
▁blad	79
▁hoofdkantoor	79
▁kostte	79
▁Estland	79
▁verandert	79
▁z	79
▁Gordon	79
▁Marc	79
▁breidde	79
▁debuteerde	79
mm	79
▁ondernemingen	79
festival	79
▁Mohammed	79
▁Nobelprijs	79
▁Bridge	79
▁Florence	79
gerelateerde	79
▁aangesloten	79
▁heuvel	79
oc	79
▁super	79
▁kop	79
▁arm	79
▁Garden	79
▁zet	79
▁Westen	79
▁bereikten	79
Ge	79
sta	79
▁Henri	79
daar	79
▁favoriete	79
▁experiment	79
▁ma	79
▁Tan	79
ical	79
▁Tar	78
time	78
leider	78
▁Mountain	78
ū	78
gang	78
▁ministers	78
▁hoopte	78
▁Iraakse	78
▁Gar	78
▁Berg	78
▁maxima	78
▁houten	78
▁comité	78
▁natie	78
▁archeologisch	78
▁Pi	78
▁daarin	78
▁Adolf	78
▁Lange	78
iz	78
▁Johnny	78
▁oplossingen	78
▁Paulus	78
▁schreven	78
town	78
▁Kor	78
ev	78
▁samengevoegd	78
▁concepten	78
▁Burgeroorlog	78
▁schilderen	78
▁opvallend	78
▁Cyprus	78
▁overheden	78
▁distributie	78
▁nederzetting	78
▁deelde	78
▁opgemerkt	78
▁consumenten	78
▁Armeens	78
▁Zie	78
▁Donald	78
▁Perzische	78
▁armoede	78
pel	78
▁onderzoeker	78
▁computers	78
▁besluiten	78
▁papier	78
▁Division	78
producten	78
netwerk	78
▁oppervlak	78
▁aansluiting	78
illa	78
▁afwezigheid	78
▁bal	78
▁im	78
▁regeringen	78
▁Chinees	78
bus	78
streeks	78
▁held	77
▁Commission	77
▁opgelost	77
▁portret	77
▁uitgesproken	77
fo	77
▁stroom	77
▁uren	77
▁stierven	77
▁Studies	77
▁Games	77
ano	77
▁levende	77
▁Year	77
▁vastgelegd	77
▁godsdienst	77
▁vuurwerk	77
▁kwesties	77
tz	77
▁abstracte	77
▁overname	77
▁weerstand	77
gue	77
stukken	77
mes	77
▁telefoon	77
▁waterstof	77
▁More	77
▁financiering	77
▁Queen	77
▁Compagnie	77
jaar	77
mor	77
▁Desondanks	77
▁visue	77
▁Vel	77
▁kruis	77
▁Algemene	77
▁jacht	77
▁wens	77
▁handelen	77
▁Moore	77
▁dynastie	77
▁am	77
▁slaaf	77
▁blauwe	77
▁Para	77
▁overgedragen	77
log	77
▁moorden	77
▁beperken	77
▁Ser	77
▁letter	77
▁werkloosheid	77
hof	77
▁Oliver	77
▁opgeroepen	77
▁raakten	77
▁Kan	77
▁Perikles	77
▁verwijderen	77
profit	77
▁invloeden	76
▁NASA	76
▁afgerond	76
▁bericht	76
reeks	76
ans	76
▁Antigonos	76
▁residentie	76
▁treinen	76
▁vakantie	76
▁kleinste	76
▁controverse	76
▁veertien	76
▁definiëren	76
eer	76
▁getest	76
▁bezorgd	76
rd	76
jarig	76
directeur	76
mus	76
▁Shi	76
▁behandelen	76
▁Boys	76
huizen	76
▁Warschau	76
▁Erik	76
▁doeleinden	76
▁Free	76
▁Anderson	76
▁Indische	76
▁vicepresident	76
▁golf	76
▁cel	76
▁Kopenhagen	76
▁dansen	76
▁verbeterd	76
▁bestonden	76
▁deeltjes	76
▁vice	76
▁vaardigheden	76
▁treedt	76
rie	76
▁generaties	76
▁Philadelphia	76
▁continent	76
egelijkertijd	76
▁Palestijns	76
▁Gro	76
▁Tra	76
▁categorieën	76
▁Belgisch	76
▁eindelijk	76
ls	76
▁geholpen	76
▁tekeningen	76
▁script	76
▁toespraak	76
▁kolonel	76
▁decennium	76
functie	76
▁my	76
▁verhoogd	76
▁absolut	75
▁Wel	75
▁Bri	75
▁materialen	75
▁uniek	75
Madame	75
experimentele	75
▁duurzame	75
▁gulden	75
speler	75
ill	75
▁boerderij	75
▁nucleair	75
▁medaille	75
ë	75
▁Sto	75
ona	75
▁min	75
▁Ivan	75
▁Broadway	75
▁inzet	75
rt	75
sten	75
▁renovatie	75
▁banken	75
▁zetels	75
▁bestuurd	75
▁poort	75
▁architecten	75
▁alvorens	75
▁Electric	75
▁gebruiker	75
▁Jimmy	75
▁Mount	75
low	75
▁campagnes	75
▁vlieg	75
▁toeristen	75
▁slavernij	75
▁Wright	75
▁Kara	75
▁Three	75
▁politicus	75
▁Cat	75
▁Waar	75
ere	75
▁ziel	75
▁veroorzaken	75
▁infrastructuur	75
▁afbeelding	75
▁elite	75
▁daadwerkelijk	75
▁Memorial	75
▁Bern	75
▁begrafenis	75
▁Testament	75
▁schuldig	75
kanaal	75
▁Square	75
gon	75
▁Soms	74
▁tiende	74
▁demo	74
▁accepteerde	74
wedstrijd	74
▁Klein	74
▁soldaat	74
▁beschikking	74
▁Cu	74
▁Th	74
▁Pat	74
▁verschillend	74
ders	74
▁Ash	74
▁Sound	74
mu	74
▁voortgezet	74
▁verwarring	74
lig	74
▁TMF	74
▁glas	74
hand	74
▁Prijs	74
▁Grondwet	74
▁trots	74
▁voorjaar	74
▁Cal	74
▁Bu	74
gaat	74
▁pseudoniem	74
kov	74
▁Four	74
uren	74
▁Are	74
▁evenwicht	74
▁enigszins	74
▁telt	74
▁radicale	74
▁onderging	74
king	74
▁cijfers	74
▁How	74
▁herbouwd	74
▁Ur	74
▁Manhattan	74
▁Ri	74
▁wederom	74
▁server	74
▁mooi	74
▁beroemd	74
▁diepte	74
mijn	73
our	73
▁manga	73
▁leefden	73
▁gevestigde	73
▁Monte	73
Re	73
dynastie	73
▁breken	73
▁trio	73
▁stabiliteit	73
▁omvatte	73
▁gefilmd	73
▁Oekraïne	73
▁match	73
san	73
▁Gerard	73
functies	73
▁People	73
pol	73
▁realiseerde	73
▁Marcus	73
tiv	73
▁aanvaard	73
druk	73
▁feiten	73
▁Staats	73
▁car	73
meester	73
▁Lang	73
▁raakt	73
▁Mont	73
▁Way	73
▁Congress	73
▁With	73
▁USS	73
▁apart	73
▁Mind	73
▁goedkeuring	73
▁symbolen	73
technologie	73
▁cultureel	73
▁cm	73
hu	73
▁vermijden	73
▁verschijning	73
▁producties	73
beeld	73
▁Ad	73
▁componenten	73
eu	73
▁openen	73
▁samenstelling	73
▁collecties	73
blad	73
▁voorbereiding	73
▁beschouwt	73
▁beurs	73
▁gedrukt	73
ire	73
cus	73
projecten	73
▁aantallen	73
▁verspreiden	72
structuur	72
▁harde	72
▁sa	72
ble	72
▁Francis	72
▁Hoge	72
▁uitzonderlijk	72
mond	72
gan	72
gra	72
▁Fred	72
▁vernietiging	72
én	72
▁Africa	72
▁Peru	72
▁Dus	72
stelling	72
▁Hugo	72
▁kampen	72
▁Kal	72
▁besproken	72
▁Management	72
▁Derde	72
▁illegale	72
ds	72
▁krachtige	72
▁sterker	72
Als	72
▁medewerker	72
ique	72
▁landschap	72
▁perspectief	72
ball	72
▁gesprek	72
▁Transport	72
▁ondergronds	72
▁Apollo	72
▁Model	72
▁noodzaak	72
▁toestellen	72
▁verlaat	72
▁rij	72
▁studioalbum	72
▁nederzettingen	72
▁genre	72
▁offensief	72
▁Last	72
▁Tower	72
Ö	72
▁Defensie	72
▁Plan	72
▁Brothers	72
▁geallieerden	72
▁Phil	72
▁mobiele	72
▁reserve	72
▁opgeslagen	72
▁doelstellingen	72
▁valse	72
hy	72
▁po	72
▁Herman	72
wit	72
▁opgerichte	71
▁beweerd	71
▁Maastricht	71
▁Dis	71
▁jarenlang	71
▁priesters	71
▁Racing	71
▁pond	71
▁beëindigen	71
▁sch	71
▁bespreken	71
▁Dave	71
Mo	71
▁beslissingen	71
▁un	71
▁graan	71
▁netwerken	71
▁gebeurd	71
▁vogels	71
▁Georgië	71
geboren	71
▁Brian	71
▁samenwerken	71
▁zuidelijk	71
▁prestatie	71
▁vaders	71
▁cirkel	71
▁agent	71
▁sneller	71
▁Binnenlands	71
bert	71
▁Channel	71
▁wettelijke	71
▁jong	71
▁Forest	71
▁gevoelens	71
▁Hongkong	71
▁Vi	71
▁Georgia	71
▁geografische	71
▁Koningin	71
▁drukken	71
gal	71
los	71
▁uitnodiging	71
▁origineel	71
▁volks	71
▁groene	71
▁Oranje	71
▁verminderen	71
▁recent	71
▁gezongen	71
▁edities	71
▁proefschrift	71
▁modern	71
type	71
▁web	71
▁Hot	71
▁definitieve	71
▁Summer	71
▁begrepen	71
▁tegelijk	71
▁Internet	71
rin	71
Q	71
form	71
▁Yu	71
▁individu	71
gebieden	71
▁Jon	71
▁opgeleid	71
▁CO	70
▁inzicht	70
sis	70
mark	70
▁Dick	70
carrière	70
▁garnizoen	70
▁psychologisch	70
▁Castle	70
▁nauwe	70
▁theoretische	70
▁Gods	70
▁reacties	70
▁concentreren	70
▁Bla	70
▁duizend	70
oli	70
▁accepteren	70
▁leiderschap	70
▁geprezen	70
▁omschreef	70
▁geleerd	70
ehalve	70
films	70
▁tri	70
gie	70
▁ruimten	70
▁Prize	70
▁gestopt	70
▁Ferdinand	70
tisch	70
ico	70
▁Java	70
▁Bus	70
▁beschuldigingen	70
wetenschappen	70
▁referentie	70
▁Von	70
▁Vandaag	70
▁Costa	70
▁Kruis	70
▁ka	70
▁Mag	70
ala	70
▁overleefde	70
▁waardevolle	70
isering	70
dis	70
▁Koninklijk	70
ante	70
port	70
')	70
arch	70
▁\	70
namen	70
▁Type	70
▁geluk	70
▁André	70
mis	70
din	70
bol	70
▁Atheens	70
▁rug	70
erende	70
▁levert	70
▁zevende	70
▁voordelen	69
▁Mijn	69
▁verdreven	69
▁getuige	69
▁Chili	69
▁laboratorium	69
for	69
▁Call	69
▁artiest	69
▁Congo	69
▁Organisatie	69
oni	69
▁verdedigde	69
▁Wa	69
▁regisseerde	69
▁Vergadering	69
▁Stan	69
▁Af	69
▁Sen	69
▁liederen	69
▁professioneel	69
▁ABC	69
olo	69
slag	69
▁kantoren	69
nia	69
▁Get	69
▁zelfstandig	69
▁Front	69
tot	69
afdeling	69
▁Dewey	69
▁Fire	69
▁Friedrich	69
▁Nations	69
č	69
▁slaan	69
▁ijzer	69
▁Town	69
▁Oscar	69
▁Mill	69
▁toneelstuk	69
▁Eu	69
▁Onderwijs	69
▁vestigden	69
▁ambt	69
▁departement	69
▁Ham	69
einde	69
▁Sim	69
▁firma	69
▁spoedig	69
▁ontstonden	69
▁verbod	69
▁Mat	69
▁wetenschapper	69
▁graad	69
▁Litouwen	69
▁gestationeerd	69
▁platenlabel	69
▁stellingen	69
▁overal	69
RO	69
▁vestiging	69
haven	69
▁zilver	69
▁opgebouwd	69
ism	69
▁Iraanse	69
bach	69
▁gedomineerd	69
▁stemde	69
▁ermee	69
▁Roemenië	69
ft	69
sti	69
▁gewapende	69
inus	69
▁draait	69
▁benaming	69
▁mis	69
▁arbeid	69
▁Gal	69
▁Dutch	68
▁wezens	68
▁verleend	68
motor	68
gebruik	68
▁musical	68
▁Pruisisch	68
▁Trade	68
▁voorbereid	68
▁j	68
▁Augustus	68
▁bewees	68
▁verhuisden	68
▁revolutionaire	68
▁EP	68
▁Never	68
▁externe	68
▁Franz	68
▁Death	68
▁fotograaf	68
▁heersers	68
auw	68
▁Dal	68
▁executie	68
▁onderworpen	68
club	68
▁Natural	68
▁geplande	68
▁vrijgegeven	68
▁Alice	68
▁dialoog	68
▁uitmaken	68
▁Western	68
−	68
▁Allen	68
▁Deel	68
tak	68
▁zijden	68
▁Ohio	68
▁Point	68
▁thuisbasis	68
conferentie	68
▁Five	68
▁uitgaven	68
lock	68
eilanden	68
▁lidmaatschap	68
▁Moment	68
▁Standard	68
▁Ja	68
▁ballet	68
▁weigerden	68
▁afgesloten	68
▁argument	68
▁ontvoerd	68
▁Slecht	68
▁bas	68
▁reclame	68
well	68
▁verbindt	68
▁restauratie	68
gy	68
▁getrokken	68
▁tanks	68
▁verbond	68
▁toegelaten	67
▁Dor	67
▁lichte	67
▁Gouden	67
activiteiten	67
▁extreem	67
▁veldslag	67
Petersburg	67
▁Hospital	67
▁bewering	67
ade	67
▁werkelijke	67
▁vloog	67
▁rust	67
▁onderscheiding	67
ń	67
▁kritische	67
tta	67
▁Min	67
▁rivieren	67
ova	67
▁afgeschaft	67
▁audio	67
▁beschaving	67
▁lessen	67
▁inflatie	67
▁Captain	67
▁merkt	67
▁Web	67
ori	67
org	67
rot	67
▁bevrijd	67
▁Col	67
▁vertonen	67
▁beschouwde	67
▁miljoenen	67
▁toevoeging	67
▁chef	67
ato	67
▁Mel	67
▁monniken	67
TA	67
▁ontwikkelden	67
▁streek	67
▁zekerheid	67
mb	67
kaart	67
▁eenmaal	67
▁geprobeerd	67
▁Skeptics	67
▁Hand	67
▁Six	67
▁overgave	67
Me	67
▁Robinson	67
▁Flagler	67
▁technisch	67
itz	67
zone	67
▁verondersteld	67
▁vroegen	67
▁Lincoln	67
▁streven	67
▁Bart	67
▁Golf	67
▁tafel	67
ema	67
▁Vietnam	67
▁Guide	67
▁bezetten	67
▁Austin	66
▁amateur	66
▁beschikt	66
▁verzamelingen	66
▁grootschalige	66
▁Bulgarije	66
▁gedragen	66
▁opmerkelijk	66
▁Mol	66
dimensionale	66
▁Rob	66
▁Giovanni	66
▁prestigieuze	66
▁behalen	66
▁Nova	66
▁Canadian	66
idi	66
▁Os	66
▁Johann	66
▁plant	66
▁opgevoed	66
▁kanonnen	66
▁Yo	66
▁GT	66
▁zwak	66
ske	66
▁Ch	66
▁Atlantic	66
▁Lyon	66
▁Mc	66
▁vijandelijk	66
enburg	66
geacht	66
▁serieus	66
▁admiraal	66
▁overblijfselen	66
▁satelliet	66
▁verhuisd	66
▁verre	66
▁Margaret	66
▁Health	66
▁kerst	66
▁gewelddadige	66
MA	66
▁mooie	66
yan	66
▁elders	66
▁stil	66
grafische	66
▁Syrische	66
New	66
▁lineaire	66
zy	66
▁Hamilton	66
▁cyclus	66
▁vee	66
▁zeiden	66
▁opeenvolgend	66
▁Girl	66
▁inderdaad	66
▁zie	66
▁vooraanstaande	66
materiaal	66
▁overwinningen	66
potentiële	66
▁magische	66
▁Guy	66
▁raken	66
▁Tien	66
▁This	66
til	66
▁Ernst	66
▁Rio	66
tis	66
tus	66
▁onderhandelen	66
Generaal	66
▁Railway	66
▁natuurkunde	66
niveau	66
▁geïntegreerd	66
regering	66
▁Ren	66
▁slaap	66
El	66
▁hel	66
vaart	65
▁Deutsche	65
riële	65
▁Hudson	65
▁geschilderd	65
dagen	65
abel	65
jan	65
▁Wil	65
▁Im	65
▁vergezeld	65
ama	65
▁tientallen	65
Æ	65
▁Zürich	65
▁weergave	65
▁Koran	65
▁daarentegen	65
SO	65
▁vermeend	65
methode	65
▁prinses	65
leg	65
less	65
▁zakelijke	65
▁Saoedi	65
▁Ke	65
▁gestolen	65
Le	65
▁gedachte	65
▁geacht	65
▁belegering	65
▁Price	65
▁zoektocht	65
▁zang	65
▁MTV	65
▁Church	65
▁verhogen	65
▁slot	65
lijst	65
lied	65
▁Express	65
▁gepleegd	65
ping	65
▁hoofdstukken	65
▁schulden	65
▁schoonheid	65
▁expliciet	65
▁beweringen	65
ray	65
set	65
▁Two	65
▁ontmoetten	65
▁expedities	65
▁Stalin	65
▁elektriciteit	65
▁Leon	65
▁Baby	65
▁beperkingen	65
▁docent	65
▁compilatie	65
▁geschonken	65
gemaakt	65
▁zilveren	65
▁vieren	65
▁Clinton	65
▁bevelhebber	65
▁gezondheidszorg	65
dal	65
▁bomen	65
▁African	65
analyse	65
▁percentage	65
▁Golden	65
▁Sar	65
▁aanleg	65
▁protestantse	65
▁velden	65
rock	65
▁Pruisen	65
▁overgang	65
heen	65
▁wortels	65
▁vrijlating	65
iden	65
boeken	65
lim	65
▁Now	65
▁Wilhelm	65
▁uiteen	65
▁ondergebracht	65
▁suggereerde	65
▁keuken	65
▁Wie	64
▁Victor	64
mos	64
▁niveaus	64
▁propaganda	64
▁Cultuur	64
▁ontbreken	64
▁hersenen	64
▁forten	64
▁huid	64
▁boos	64
▁RAF	64
▁bekroond	64
▁verkeerd	64
▁toegenomen	64
▁afspelen	64
▁pleitte	64
▁letterlijk	64
▁Stra	64
▁richtten	64
▁bezette	64
▁Battle	64
▁immigratie	64
▁psychologie	64
ok	64
▁verdwijnen	64
▁Nintendo	64
II	64
▁design	64
och	64
▁academie	64
▁Londens	64
▁gevoerd	64
▁Avenue	64
▁gevaarlijk	64
▁Wet	64
fen	64
▁ontvangst	64
▁Virginia	64
▁dreiging	64
▁Kroatisch	64
spelen	64
▁Justitie	64
od	64
▁weduwe	64
▁gelukkig	64
▁voertuig	64
▁export	64
▁vereiste	64
▁Nelson	64
▁overlevenden	64
top	64
▁stichter	64
▁Robin	64
▁impact	64
▁Var	64
▁Bou	64
▁kopie	64
▁apparaat	64
▁Carthago	64
wen	64
▁vergroten	64
▁Dream	64
del	64
ontwikkeling	64
▁bekeken	64
▁Frankfurt	64
▁jullie	64
▁brandstof	64
▁verlangen	64
onwaarschijnlijk	64
▁geslagen	64
▁identificeren	64
elli	64
▁invloedrijk	64
▁keten	64
▁ontvangt	63
▁meegenomen	63
▁vasteland	63
rich	63
▁agrarisch	63
Georgische	63
▁achtergelaten	63
▁socialistisch	63
▁Oekraïense	63
▁publiekelijk	63
ance	63
▁reguliere	63
▁Adams	63
▁benaderd	63
▁gevaarlijke	63
▁gestorven	63
▁Julianus	63
▁korter	63
kt	63
▁bewegen	63
▁trekt	63
▁doodstraf	63
▁Jr	63
mat	63
▁Sk	63
▁constante	63
▁dimensie	63
▁wetenschappen	63
▁marketing	63
economische	63
▁Area	63
è	63
▁platteland	63
▁adel	63
▁Board	63
▁correspondentie	63
▁welk	63
platform	63
▁Vooral	63
▁Twitter	63
▁gedacht	63
cat	63
▁trachtte	63
▁Ye	63
▁Macedonisch	63
▁gasten	63
▁variëren	63
▁Centrale	63
Or	63
▁havens	63
▁patroon	63
▁gebroken	63
▁berichten	63
▁liedje	63
▁Kent	63
ag	63
ice	63
▁moeite	63
▁vermelding	63
▁Kroatië	63
▁Kon	63
▁Moon	63
▁eindigen	63
▁interactie	63
▁Jordan	63
cle	63
▁zingt	63
▁orgel	63
▁duiden	63
pan	63
▁Win	63
zijn	63
basis	63
dorp	63
▁representatie	63
▁adellijk	63
▁Play	63
▁gevangenisstraf	63
▁corruptie	63
▁boodschap	63
▁Bal	63
▁Wind	63
▁Mann	63
▁zwanger	63
▁spanningen	63
▁Soul	63
▁stemming	63
▁Es	63
▁Nijmegen	63
▁Viking	63
orum	62
zaken	62
▁voltooien	62
▁England	62
▁consumptie	62
▁hoort	62
▁races	62
▁deelnam	62
▁mond	62
▁danken	62
sector	62
▁Zuidelijke	62
▁Systems	62
▁Bel	62
▁controleren	62
ence	62
▁Char	62
▁unie	62
centra	62
▁Roman	62
▁Tor	62
▁Boeing	62
ula	62
▁opinie	62
tter	62
▁spin	62
▁fragmenten	62
ks	62
▁produceert	62
▁publiceert	62
achtig	62
ianus	62
▁provinciale	62
▁verenigd	62
▁vreemde	62
▁dr	62
▁par	62
▁ontwerper	62
▁theologie	62
▁topologische	62
▁herzien	62
▁tunnel	62
▁herinnering	62
▁CEO	62
▁Gor	62
▁stoffen	62
▁Ci	62
bil	62
▁uiterlijk	62
mail	62
▁argumenten	62
▁omgebouwd	62
▁spirituele	62
house	62
▁snelweg	62
▁catalogus	62
▁scala	62
▁Was	62
▁onzeker	62
▁Rijks	62
▁Tokio	62
▁Ann	62
Men	62
▁korps	62
▁Darwin	62
▁bouwden	62
▁openlijk	62
▁Prince	62
▁aspect	62
lingen	62
ther	62
▁Reg	62
▁vlees	62
Bo	62
▁gelezen	62
▁kanker	62
pri	62
▁noord	62
jar	62
▁sloten	62
▁aldus	62
▁Girls	62
▁strip	62
ship	62
▁uitzending	62
▁it	62
▁Staat	62
inter	62
trent	62
su	62
Ha	62
▁Neu	62
▁daden	62
▁hoek	62
technieken	62
æ	62
▁Far	62
sprekende	62
▁blijkbaar	61
▁overleg	61
▁schonk	61
wan	61
comité	61
▁regiment	61
▁degene	61
▁Toronto	61
lli	61
▁acteurs	61
▁Symphony	61
▁Malta	61
stro	61
▁dwong	61
iv	61
▁varen	61
▁verdienen	61
▁journalisten	61
▁Ker	61
▁ambassade	61
▁beschikbare	61
list	61
▁monnik	61
▁regelmatige	61
▁vaker	61
▁musea	61
ont	61
▁discipline	61
contract	61
▁leeft	61
macht	61
eau	61
▁graafschap	61
ré	61
tocht	61
▁autobiografie	61
hun	61
▁gezonden	61
▁kroon	61
▁Rijn	61
▁Zeven	61
▁wit	61
fficiële	61
▁opmerkelijke	61
▁merken	61
▁wonnen	61
▁bijeenkomsten	61
vat	61
▁poly	61
▁Roemeense	61
uil	61
▁Harold	61
▁veldtocht	61
▁stations	61
opleiding	61
leiders	61
▁Sel	61
▁Woman	61
▁Run	61
nis	61
▁Kar	61
▁lijden	61
▁willekeurig	61
tius	61
▁Pakistan	61
▁Alliance	61
▁voert	61
▁Sarah	61
▁Barry	61
▁voorkomende	61
▁mijl	61
toeristische	61
▁Professor	61
sin	61
elle	61
▁motoren	61
veel	61
ïsche	61
ð	61
▁Voorbeelden	61
zin	61
▁AG	61
▁divisies	61
▁routes	61
▁straten	61
toren	60
▁onderling	60
▁volgelingen	60
▁Villa	60
▁DC	60
▁opgedragen	60
▁Stirner	60
▁implementatie	60
iseren	60
gem	60
▁zonne	60
dijk	60
standaard	60
▁paranormale	60
problemen	60
▁Houston	60
▁indirect	60
▁wensen	60
▁verbood	60
▁mm	60
▁Douglas	60
▁Ana	60
▁welvaart	60
▁plein	60
▁Brand	60
▁so	60
▁verbindingen	60
sz	60
▁bedreigd	60
▁Economische	60
▁gevechts	60
▁districten	60
▁Garde	60
▁zestien	60
▁orders	60
▁hierover	60
tenzij	60
▁realiteit	60
oloog	60
▁onge	60
▁hoogst	60
▁Friese	60
▁waarnemingen	60
roep	60
▁Plato	60
▁nogmaals	60
nd	60
▁territorial	60
▁partnerschap	60
▁zand	60
▁Filipijnen	60
▁achtste	60
▁Patrick	60
▁Public	60
▁Keulen	60
race	60
▁Azerbeidzjan	60
▁tuinen	60
▁Kou	60
dor	60
▁macro	60
ern	60
▁fan	60
▁minst	60
▁aardbeving	60
▁Argentijns	60
▁partners	60
▁moeilijkheden	60
▁Technology	60
ito	60
hoek	60
▁Blood	60
levisieprogramma	60
▁zeldzame	60
star	60
▁Julius	60
▁Carlos	60
▁inspiratie	60
▁Stanley	60
app	60
▁wraak	60
▁voorafgaand	60
mit	60
▁ontwikkelings	60
parlementaire	60
▁terugkerend	60
▁Anthony	60
▁bondgenoot	60
▁Head	60
hor	60
▁vergeten	60
lf	60
▁Sur	60
▁aangegeven	60
▁generaals	60
▁cellen	60
▁Dead	60
▁Sommigen	60
ell	59
oord	59
▁Russell	59
tegen	59
▁bent	59
▁temperatuur	59
▁typische	59
▁beetje	59
run	59
▁Camp	59
▁aldaar	59
▁contracten	59
▁ondersteunde	59
▁landgoed	59
▁regeerde	59
▁herhaaldelijk	59
▁essay	59
▁geavanceerde	59
ello	59
▁religieus	59
resterende	59
▁boeddhistisch	59
▁gekoppeld	59
▁Motor	59
▁erkennen	59
▁inscriptie	59
▁Manchester	59
▁steeg	59
nummers	59
▁Iron	59
▁Cohen	59
▁Hardy	59
▁regen	59
ters	59
▁symptomen	59
▁Ludwig	59
▁Lloyd	59
▁weergegeven	59
SL	59
▁Servië	59
▁typisch	59
ess	59
▁ingenieur	59
▁François	59
▁aangemoedigd	59
▁Silver	59
▁Ts	59
brand	59
▁Blues	59
▁voorkomt	59
▁herstelde	59
▁diepe	59
▁werkelijk	59
▁Rudolf	59
▁mentale	59
tica	59
laag	59
hoofd	59
gt	59
▁archief	59
▁bossen	59
▁weigert	59
▁sloeg	59
▁Del	59
▁Mensen	59
▁manschappen	59
▁beneden	59
▁negende	59
▁gezelschap	59
▁dagboek	59
▁Bon	59
▁Say	59
aert	59
▁Joan	59
▁handelingen	59
▁gevangenschap	59
▁Colombia	59
▁patent	59
▁Rights	59
▁kanalen	59
▁teruggekeerd	59
▁gecomponeerd	59
AM	59
RA	59
▁volgorde	59
▁vooruit	59
▁gedateerd	59
▁See	59
▁Muziek	59
▁vochten	59
▁Hope	59
▁Esperanto	59
lijnen	59
▁Take	59
▁Federal	59
▁koppel	59
▁Sierra	59
▁continu	59
▁medium	59
▁Orania	59
▁Hard	59
kaarten	59
ous	59
▁gebruikelijke	58
▁confrontatie	58
▁Werk	58
▁woningen	58
reis	58
ide	58
ink	58
▁nut	58
▁Ever	58
▁laatst	58
my	58
AF	58
ite	58
▁Jaar	58
lia	58
▁gesprekken	58
▁Danny	58
▁mechanische	58
aria	58
▁geclassificeerd	58
lov	58
hoeft	58
▁geroepen	58
vier	58
▁Stars	58
▁senior	58
pers	58
▁Mun	58
▁koninklijk	58
▁From	58
stroom	58
rivier	58
▁Lost	58
▁zone	58
▁dienden	58
▁pan	58
▁misdaden	58
▁duren	58
sha	58
▁investeerders	58
▁drinken	58
naar	58
_	58
▁schat	58
▁Challenge	58
▁Armenië	58
rijk	58
▁dokter	58
chu	58
▁Barbara	58
▁filosoof	58
▁Fi	58
▁Wolf	58
elijk	58
▁Pinkerton	58
▁normen	58
▁behoorden	58
▁moeilijke	58
▁precieze	58
zu	58
▁Cre	58
▁zwaard	58
▁Westerse	58
▁Bueno	58
▁Aires	58
▁Anders	58
but	58
▁Pla	58
▁gek	58
▁godin	58
▁deur	58
▁Letland	58
maker	58
▁Tre	58
▁Bobby	58
ensis	58
▁Child	58
▁raketten	58
▁piloot	58
▁nationaliteit	58
rica	58
▁Harvard	58
ă	58
▁pianist	58
▁last	58
▁renaissance	58
light	58
ien	58
▁Puerto	58
ima	58
▁Mario	58
▁educatieve	58
=	58
uni	58
boot	58
▁Trust	57
▁illustraties	57
vereniging	57
▁Tro	57
jaren	57
ars	57
▁zorgvuldig	57
rok	57
▁geloofden	57
▁für	57
ela	57
▁opgravingen	57
und	57
▁Fish	57
▁pakken	57
▁bevrijding	57
▁resten	57
▁wijzigingen	57
▁gewonden	57
▁formatie	57
▁verhoogde	57
▁Ed	57
▁Constantijn	57
▁maximal	57
geld	57
▁periodes	57
▁Kane	57
▁monumenten	57
Guinea	57
▁pp	57
test	57
▁omliggend	57
▁raket	57
▁Glasgow	57
▁gevolge	57
▁verkeerde	57
▁strikt	57
▁koffie	57
▁Spe	57
▁Roosevelt	57
ida	57
▁ecologische	57
▁Japanners	57
▁aanslagen	57
▁track	57
▁opvoeding	57
▁Wh	57
▁vredes	57
▁Terug	57
baan	57
▁gedetailleerde	57
▁Campbell	57
▁variatie	57
comp	57
▁doorbraak	57
▁master	57
▁dateren	57
▁pleegde	57
▁Final	57
▁pijn	57
▁Lawrence	57
▁varianten	57
▁strand	57
▁aanduiding	57
▁woning	57
aliteit	57
▁Angola	57
▁blog	57
▁bedekt	57
▁humanitaire	57
▁procedure	57
▁volume	57
▁Murray	57
▁optrad	57
zaak	57
▁Joegoslavië	57
landen	57
▁coach	57
▁machtige	57
▁Michigan	57
aux	57
prijzen	57
▁betekenen	57
▁dak	57
▁Pokémon	57
stellen	57
▁bekleedde	57
▁vecht	57
▁Renaissance	57
wo	57
▁sterkte	57
▁Freedom	57
▁oneindig	57
▁that	57
▁atelier	57
▁bereik	57
▁Mal	57
ción	57
▁prominent	57
▁gewaardeerd	56
▁intelligentie	56
stone	56
▁Down	56
ries	56
▁groen	56
▁Vladimir	56
▁bestuurlijk	56
▁ensemble	56
ington	56
▁laagst	56
▁Bra	56
▁Nord	56
eke	56
▁Daily	56
▁uitbrengen	56
▁Control	56
▁Tsjetsjeens	56
▁honden	56
▁wakker	56
▁Webb	56
▁woestijn	56
stre	56
▁geestelijke	56
▁Hermann	56
▁Vegas	56
▁lezing	56
▁Word	56
▁And	56
▁hoofdredacteur	56
par	56
Be	56
oku	56
▁interviews	56
bron	56
▁Marokkaans	56
▁Kings	56
▁dwingen	56
complex	56
▁Ak	56
pop	56
▁sterft	56
▁Pennsylvania	56
ett	56
▁stuurt	56
▁missies	56
▁Rooms	56
▁gelden	56
▁Rod	56
▁tank	56
▁overgeplaatst	56
halve	56
▁droegen	56
▁Sal	56
▁wacht	56
voorzitter	56
▁jij	56
▁Cooper	56
soorten	56
CS	56
▁Newton	56
▁mono	56
▁hervorming	56
▁Liga	56
▁verkrijgbaar	56
▁najaar	56
▁Hem	56
iek	56
TV	56
missie	56
▁Wild	56
▁equivalent	56
▁gelijkwaardig	56
▁sluiting	56
▁bescheiden	56
ction	56
▁overdracht	56
▁kleinzoon	56
▁nul	56
▁vallei	56
fonds	56
▁Morris	56
▁Edinburgh	56
▁terugtrekking	56
▁Cor	56
▁Theo	56
▁gemeenteraad	56
rische	56
▁opslag	56
▁Ger	56
▁Claude	56
▁spellen	56
▁Peace	56
feest	56
▁interieur	56
▁meetkunde	56
▁Onafhankelijk	56
▁wint	56
▁voerden	56
▁medicijnen	56
▁auditie	56
behoeve	55
ika	55
EC	55
▁Sz	55
▁Amber	55
▁opgesloten	55
▁noordoosten	55
▁bio	55
▁Collins	55
▁bedroeg	55
▁Ryan	55
▁burgerlijke	55
▁zonden	55
All	55
▁dergelijk	55
studio	55
▁functioneren	55
▁Christopher	55
▁bewoond	55
▁blind	55
▁Federation	55
qui	55
▁Watson	55
idae	55
▁Ptolemaeus	55
▁leeg	55
▁Empire	55
▁chemie	55
▁deuren	55
▁maandelijks	55
▁lezers	55
pagina	55
▁Age	55
▁UK	55
▁Philips	55
▁faculteit	55
▁groeps	55
▁aanvulling	55
▁Computer	55
nationalistische	55
zijde	55
▁tempels	55
▁vreedzame	55
▁Stewart	55
▁behandelt	55
▁toonden	55
▁Babylon	55
char	55
▁creatie	55
kar	55
▁Pu	55
merk	55
▁Volvo	55
▁folk	55
▁juridisch	55
▁failliet	55
▁Ras	55
▁plaatsgevonden	55
▁Review	55
▁onderverdeeld	55
▁administratie	55
▁Shu	55
▁Landbouw	55
▁inspireerde	55
▁constant	55
▁fenomeen	55
▁California	55
pak	55
▁beëindigde	55
▁bom	55
▁Groenland	55
▁verdragen	55
▁Pieter	55
▁Brigade	55
▁Napels	55
▁exemplaar	55
▁Glen	55
▁producenten	55
▁ru	55
nas	55
▁verklaringen	55
bin	55
▁metaal	55
▁Carthagers	55
▁Cook	55
▁{	55
▁christen	55
anda	55
▁extreme	55
Ierland	55
▁act	55
fin	55
ī	55
▁Palestina	55
▁ondernam	55
▁festivals	55
yo	55
Ro	55
▁trouwden	55
▁Carolina	55
▁zaten	55
▁insecten	55
▁gelijktijdig	55
▁industrieel	55
▁Metropolitan	55
▁roepen	54
ologische	54
▁Marshall	54
▁Arrow	54
West	54
▁aankoop	54
▁Caroline	54
▁benadrukken	54
▁homo	54
feld	54
ology	54
gu	54
▁Blake	54
▁Arnold	54
▁beïnvloeden	54
▁Wrestling	54
▁fictieve	54
▁essays	54
▁matrix	54
▁kunstwerken	54
▁regerings	54
sma	54
▁vergaderingen	54
▁stimuleren	54
rog	54
▁Michel	54
▁duurt	54
▁Major	54
▁Beethoven	54
lands	54
▁voorlopig	54
▁moed	54
▁bi	54
▁centra	54
▁kansen	54
ES	54
▁Page	54
Indische	54
▁verbinden	54
▁schilders	54
▁religies	54
DS	54
▁linkse	54
▁verwachtingen	54
▁Shaw	54
eenheden	54
▁Afro	54
▁uitmaakte	54
▁presentatie	54
▁Luc	54
more	54
kers	54
stand	54
▁That	54
▁Hell	54
gingen	54
dit	54
majoor	54
▁meet	54
▁levenslang	54
▁Gemeenschap	54
▁discussies	54
▁verricht	54
vliegtuigen	54
EA	54
▁allereerst	54
▁beschuldigde	54
▁persoonlijkheid	54
▁memoires	54
▁wateren	54
ox	54
▁klok	54
▁Germaans	54
▁Non	54
mmer	54
▁ringen	54
▁verklaart	54
rio	54
▁verdacht	54
▁bevrijden	54
punten	54
ort	54
▁vervolging	54
▁continue	54
▁potentieel	54
▁diversiteit	54
goed	54
▁Ty	54
▁Leden	54
▁Lin	54
▁Jerry	54
▁brood	54
▁verwerkt	54
seizoen	54
▁naburig	54
▁Tele	54
▁Servische	54
▁verlengd	54
pad	54
▁Airways	54
En	54
▁kwaad	54
▁vermelden	54
▁neo	54
▁senator	54
▁Mur	54
▁tevreden	54
▁koers	54
▁Bruce	54
▁Lissabon	54
▁Bat	54
▁Regional	54
▁Beweging	54
▁meende	54
▁artistiek	54
nom	53
▁visserij	53
▁richtlijnen	53
▁uitvoerend	53
aarmee	53
ving	53
▁zakenman	53
ques	53
▁UNESCO	53
▁Felix	53
▁controversiële	53
rea	53
▁draaide	53
▁dachten	53
▁Batavia	53
▁afgebroken	53
▁verwezen	53
▁ingenieurs	53
SD	53
graf	53
▁overigen	53
▁Coll	53
×	53
▁toon	53
gas	53
▁Alpen	53
▁Ste	53
genootschap	53
▁overtuiging	53
▁Future	53
▁Ring	53
label	53
▁oordeel	53
▁Jupiter	53
▁VII	53
kunde	53
▁É	53
▁bekritiseerde	53
dar	53
▁Pen	53
▁gelijkheid	53
▁mo	53
▁meesten	53
▁scheeps	53
▁Education	53
▁bepaalt	53
▁opstanden	53
▁achttien	53
▁slaagden	53
software	53
▁verbeteringen	53
zon	53
rick	53
▁belangrijker	53
▁trainings	53
▁voelt	53
▁vervolgd	53
▁Alexandrië	53
▁staatsgreep	53
oi	53
▁kwart	53
cc	53
▁gediend	53
▁zorgden	53
▁Potter	53
▁mysterieu	53
▁Nation	53
lm	53
▁concentreerde	53
iti	53
▁Southern	53
▁Dresden	53
▁IBM	53
effect	53
theater	53
▁langste	53
NA	53
▁botanisch	53
▁opzetten	53
▁Let	53
poort	53
▁patiënt	53
▁Manuel	53
SA	53
▁vlaggen	53
}}	53
▁liter	53
▁Georges	53
▁Secret	53
▁hypothese	53
▁nabijheid	53
▁erover	53
zelf	53
▁apparaten	53
▁zussen	53
▁presenteert	53
▁Fer	53
▁piraten	53
▁Aristoteles	53
▁verklaarden	53
▁Wi	53
ijs	53
▁café	53
▁Security	53
▁Sta	53
▁teruggetrokken	53
▁Tiger	53
roll	53
ssen	53
▁vervaardigd	53
▁Obama	53
▁Goede	53
▁gele	53
▁Hierme	53
▁dimensies	53
▁Beatles	53
▁uitvinder	53
▁economen	53
tiek	53
▁aanstelling	52
ial	52
shi	52
gaan	52
▁democratisch	52
—	52
▁veiling	52
slanden	52
▁medisch	52
▁gecontroleerd	52
▁Bosnië	52
PS	52
▁inscripties	52
▁USA	52
▁kijk	52
▁Ice	52
▁Va	52
▁bestrijden	52
▁wijdde	52
▁astronomie	52
▁sluit	52
▁las	52
▁notie	52
▁Fat	52
waaronder	52
▁redelijk	52
▁nachts	52
bl	52
▁Auto	52
▁hierna	52
dt	52
▁Koreaans	52
▁formaat	52
ppen	52
katholieke	52
▁archieven	52
▁reageren	52
▁typen	52
ssysteem	52
▁Singapore	52
ate	52
▁Cross	52
▁Country	52
gemeentelijke	52
▁spelling	52
▁omgezet	52
▁obesitas	52
▁territorium	52
▁herinnert	52
▁rooms	52
gin	52
▁fotografie	52
▁Curaçao	52
▁Bull	52
▁Wonder	52
▁onderliggend	52
▁overeenkomsten	52
▁Handel	52
▁uitdaging	52
▁back	52
▁Ian	52
gor	52
▁opstellen	52
link	52
▁civiele	52
▁seksueel	52
▁Zuidoost	52
▁hangt	52
▁Graham	52
▁Lisa	52
▁Hen	52
An	52
▁Com	52
▁Liverpool	52
▁Ocean	52
▁Evans	52
▁gezocht	52
▁verdelen	52
▁Tsjetsjenië	52
▁verraad	52
▁Hal	52
▁uitbreken	52
▁vergelijkingen	52
▁benadrukt	52
▁machten	52
▁Spanjaarden	52
tank	52
▁Fun	52
▁negatief	52
voudig	52
▁Terry	52
▁kruisvaarders	52
▁benadrukte	52
▁Au	52
▁Sara	52
▁Data	52
▁Buiten	52
▁vogel	52
▁Kai	52
▁FBI	52
▁demonstranten	52
▁dialect	52
Ver	52
▁score	52
▁Pont	52
▁veroordeling	52
▁Thompson	52
ili	52
▁zout	51
▁Tin	51
▁vertalingen	51
▁dierentuin	51
werkingsverband	51
AR	51
▁tsaar	51
▁Elisabeth	51
▁som	51
lkens	51
▁afzonderlijk	51
▁toonaangevend	51
▁Fall	51
▁kat	51
▁Pools	51
▁stopgezet	51
mannen	51
▁motto	51
▁Kam	51
▁Mid	51
point	51
▁simpelweg	51
▁morgen	51
▁Shin	51
row	51
▁uitgevonden	51
sher	51
▁Community	51
▁all	51
▁Soedan	51
▁toerisme	51
▁volkeren	51
▁soevereiniteit	51
▁activist	51
▁Susan	51
ör	51
▁zicht	51
winkel	51
zien	51
▁sfeer	51
▁bewaren	51
▁Race	51
ged	51
▁onderzoekt	51
▁linie	51
▁frequentie	51
ère	51
▁doorheen	51
▁Sahara	51
▁musici	51
▁Linux	51
▁feitelijk	51
▁Lex	51
▁mix	51
▁Oosten	51
romantische	51
▁ontstaat	51
▁Daardoor	51
▁Roy	51
▁Stein	51
▁schijnba	51
▁oplossen	51
ffer	51
▁Middeleeuwen	51
▁kerkelijke	51
cke	51
▁verkiezings	51
▁conventione	51
▁explosie	51
▁hebt	51
▁intellectuele	51
▁Abu	51
▁detail	51
▁Nero	51
▁opgevoerd	51
verkeer	51
lay	51
▁wederzijds	51
▁opge	51
▁tekort	51
▁Zu	51
▁metalen	51
▁leken	51
lor	51
▁bus	51
even	51
ras	51
▁hectare	51
▁Social	51
pas	51
iërs	51
▁illegaal	51
▁gereed	51
ïn	51
graaf	51
ado	51
spraak	51
▁Maarten	51
▁gastheer	51
boom	51
▁haat	51
▁Historic	51
week	51
à	51
▁Sydney	51
▁service	51
term	51
▁betrouwbare	51
ois	51
PA	51
▁standbeeld	51
▁vluchtten	51
▁Unit	51
▁hoeveel	51
▁Dur	51
▁opvolgers	50
▁oceaan	50
▁eraan	50
▁Cartman	50
▁Rats	50
▁diagnose	50
▁Ghost	50
Do	50
▁Carlo	50
minister	50
▁ruzie	50
▁Miles	50
▁steken	50
▁Tsjechische	50
▁betwist	50
bor	50
▁vervoeren	50
▁doodde	50
▁dominante	50
▁vullen	50
▁Scho	50
▁zuurstof	50
▁Mas	50
▁Jason	50
kol	50
zorg	50
ić	50
▁Hat	50
▁Children	50
▁Hoofd	50
wagen	50
▁historie	50
▁communiceren	50
ning	50
MO	50
$	50
▁filosofen	50
▁Mass	50
FM	50
▁Wang	50
rop	50
▁planeten	50
▁Medal	50
Pro	50
▁passie	50
▁allebei	50
▁Tokyo	50
▁daalde	50
▁affaire	50
▁afdelingen	50
▁criteria	50
ors	50
▁Hugh	50
▁Sc	50
î	50
▁Aruba	50
▁Noordzee	50
▁Steel	50
▁Rechten	50
▁organismen	50
▁betrof	50
▁waard	50
▁Storm	50
▁teruggevonden	50
EG	50
icus	50
zel	50
▁ontvingen	50
▁realiseren	50
▁Ol	50
▁hierboven	50
▁hevige	50
▁Gen	50
▁Vlaams	50
▁Rich	50
aga	50
sorganisatie	50
▁monetair	50
▁voltooiing	50
Je	50
▁legioenen	50
sol	50
▁onrust	50
bro	50
gewone	50
▁fysiek	50
▁Ac	50
▁Genootschap	50
▁Hebreeuws	50
▁essentieel	50
hard	50
▁noordelijk	50
ER	50
▁Seven	50
▁Ve	50
▁Bert	50
▁Niettemin	50
aren	50
▁Vincent	50
▁Elvis	50
▁kopieën	50
▁Cubaanse	50
▁artsen	50
▁rivaliteit	50
▁onthulde	50
pper	50
▁woon	50
▁Parijse	50
▁Action	50
▁Britannia	50
iya	50
lui	50
▁import	50
gemengde	50
▁mandaat	50
▁statistisch	50
▁Diego	50
bescherming	50
▁Irish	50
▁makkelijk	50
▁Julia	50
vrij	50
▁Medic	50
sproject	49
▁villa	49
eiland	49
probleem	49
PC	49
▁Shell	49
▁luxe	49
cent	49
▁Alaska	49
▁salaris	49
cker	49
▁geslaagd	49
▁geweigerd	49
▁Beste	49
▁Video	49
eigenaar	49
▁aanvaardde	49
▁plus	49
editie	49
▁Atheist	49
▁voorstelling	49
▁Kong	49
▁gereduceerd	49
▁oorzaken	49
eten	49
▁strikte	49
▁gebeuren	49
▁zinken	49
▁piloten	49
▁vracht	49
▁IJslands	49
tron	49
▁Ernest	49
▁proef	49
▁Julie	49
▁discriminatie	49
hin	49
▁Angel	49
▁situaties	49
▁Mercedes	49
machine	49
▁Raymond	49
▁besturen	49
▁ideaal	49
Ar	49
▁sceptisch	49
uch	49
▁stuks	49
iseerde	49
kon	49
▁bestemming	49
▁wier	49
phi	49
veronderstelling	49
▁zoekt	49
▁pionier	49
ney	49
▁verward	49
▁}	49
▁Television	49
▁Creek	49
▁schild	49
▁voorbereidingen	49
▁wiskundigen	49
ei	49
▁heuvels	49
erend	49
▁zeldzaam	49
▁schrijfster	49
economie	49
▁klas	49
▁verscheidenheid	49
▁Istanboel	49
▁Magic	49
▁Kiev	49
▁secundair	49
▁Walker	49
ille	49
▁Noords	49
▁Oslo	49
▁beschrijvingen	49
▁mark	49
fu	49
▁opzet	49
▁terugtrekken	49
▁virus	49
rad	49
bot	49
▁migratie	49
▁speel	49
adi	49
▁Jamaica	49
▁Euler	49
▁afschaffing	49
▁arme	49
▁geïllustreerd	49
▁Ei	49
▁pseudo	49
▁Straatsburg	49
▁Pedro	49
▁Melbourne	49
▁Ridge	49
Ze	49
▁signaal	49
Russische	49
▁René	49
▁Chan	49
illi	49
▁Kr	49
Ho	49
▁operatione	49
▁nuttig	49
▁effectieve	49
▁videoclip	49
St	49
▁monster	49
▁verspreidde	49
av	49
scommissie	49
▁modulair	49
lláh	49
▁stamt	49
▁CD	49
▁Riemann	49
▁By	49
▁gemeld	49
▁omringd	49
snelheid	49
▁klassiek	49
▁Marvel	49
▁Wing	49
▁Turken	49
▁Larry	48
▁FIFA	48
aba	48
▁uitmaakt	48
▁heropend	48
rill	48
▁Ward	48
▁Leipzig	48
▁huurlingen	48
positie	48
▁Kra	48
▁gedocumenteerd	48
▁verzorgde	48
▁Expo	48
▁Vrouwen	48
lam	48
▁autonom	48
▁uitgesteld	48
▁Masters	48
woord	48
▁aankwam	48
▁variëteit	48
▁vastgehouden	48
structurele	48
▁Franklin	48
▁handhaven	48
▁overleefd	48
▁Baker	48
▁Productions	48
▁kardinaal	48
▁erfenis	48
▁Casa	48
▁grootmoeder	48
▁huwelijks	48
▁Suzuki	48
AL	48
▁Wim	48
AS	48
▁delegatie	48
elementen	48
▁voorspellen	48
int	48
▁viool	48
▁universele	48
▁arriveerden	48
lis	48
▁aanpassingen	48
techniek	48
▁nadien	48
▁Our	48
sprogramma	48
▁Mess	48
bri	48
▁parken	48
▁gerealiseerd	48
ella	48
▁Francesco	48
video	48
onische	48
▁Under	48
▁veroordeelde	48
its	48
▁Software	48
regime	48
▁Teatr	48
ée	48
▁Anderen	48
tt	48
▁expressie	48
▁reizigers	48
DP	48
▁verhandeling	48
▁Sociale	48
▁crucia	48
▁vertoond	48
▁blauw	48
▁Perzië	48
▁August	48
▁standaarden	48
▁Geschiedenis	48
▁Want	48
Rusland	48
▁Bach	48
▁Code	48
▁Gustav	48
lem	48
▁aanwijzingen	48
lio	48
▁dode	48
▁geweten	48
langs	48
▁bisschoppen	48
▁Mobile	48
▁boerderijen	48
hij	48
▁verdieping	48
▁redactie	48
▁rots	48
▁Kyle	48
▁claimde	48
▁Cho	48
gli	48
▁advocaten	48
put	48
▁Keizer	48
▁geëxporteerd	48
▁spreker	48
▁voorzag	48
▁communisme	48
▁BMW	48
▁Gallery	48
▁grot	48
▁h	48
ky	48
gezet	48
▁warmte	48
mut	48
fase	48
auteur	48
▁significante	48
pra	48
bul	48
▁depressie	48
verhaal	48
tar	48
▁genen	48
igheid	48
▁Rico	48
▁zaal	48
ose	48
▁bevindingen	48
▁voorraden	48
▁Benjamin	48
▁blues	48
▁Taiwan	48
▁systematische	48
▁begeleid	48
▁betaling	48
▁Oil	48
▁verenigingen	48
▁Christ	48
▁organen	48
▁legendarische	48
▁profeet	47
▁uitstekend	47
▁oeuvre	47
▁uiterst	47
▁faciliteiten	47
▁Divisie	47
▁Lenin	47
▁Zelf	47
▁consensus	47
▁toestanden	47
▁arbeids	47
▁WWF	47
▁buren	47
▁correct	47
▁Chinezen	47
▁middag	47
▁verhuizen	47
▁consistent	47
▁apparatuur	47
▁Litouws	47
▁verbrand	47
▁vertaalde	47
ografie	47
▁Fighter	47
▁mini	47
▁luidt	47
▁bezitten	47
path	47
▁voortzetting	47
▁Clara	47
▁maat	47
▁defensieve	47
▁Gas	47
lyn	47
chen	47
▁Jin	47
brengen	47
▁staking	47
▁Korea	47
▁waarschuwing	47
▁katholieken	47
▁wenste	47
▁Fo	47
▁Conference	47
▁donker	47
▁Universal	47
▁verworven	47
▁Gallië	47
▁Joods	47
▁gesloopt	47
▁Zero	47
▁reconstructie	47
▁podcast	47
▁Dog	47
▁petitie	47
▁Hil	47
▁rapporteerde	47
▁Machine	47
▁uitleg	47
▁leraren	47
▁ci	47
▁combineren	47
▁beheren	47
▁bevestigen	47
samen	47
▁Kid	47
▁veroverden	47
▁afgezet	47
▁Ajax	47
sterren	47
uf	47
▁baai	47
▁Doctor	47
▁roept	47
▁Just	47
▁dansers	47
▁onderweg	47
col	47
▁Rail	47
leiding	47
▁kenmerk	47
▁Tal	47
oth	47
▁Like	47
bestuur	47
▁vertrekt	47
▁hotels	47
▁natuurkundige	47
tag	47
oso	47
▁beslissende	47
▁Gary	47
▁directie	47
▁His	47
▁mythologie	47
▁gevuld	47
▁gewassen	47
▁Ant	47
via	47
▁openings	47
▁vergroot	47
▁naties	47
ira	47
▁Westelijke	47
regels	47
▁aangedreven	47
▁Brugge	47
▁Rogers	47
▁ontsnapping	47
\	47
genen	47
▁valuta	47
▁pand	47
hop	47
▁aller	47
oog	47
▁verplaatsen	47
)"	47
▁afgevaardigden	47
▁vertoont	47
▁verzoening	47
▁Mil	47
az	47
▁mes	47
▁stijlen	47
▁astma	47
▁overwegen	47
▁uitgesloten	47
▁meningsuiting	47
Am	47
▁welzijn	47
▁antwoorden	47
▁experts	47
blok	47
▁Steven	47
stuk	47
▁publiceerden	47
beheer	47
kai	47
hen	47
eld	47
uka	47
▁zitting	47
▁pelgrims	47
▁bereiden	47
▁Koerdisch	47
▁vorsten	47
dale	47
ido	47
▁idealen	47
▁Dun	47
▁Baden	47
▁Classic	47
▁Liberty	47
▁Ahmad	47
▁waarschuwde	47
concentratiekamp	46
▁Nepal	46
Romeins	46
▁ingehuurd	46
▁overtuigde	46
▁ingediend	46
shows	46
EL	46
▁Fra	46
▁eigenschap	46
▁promoveerde	46
Br	46
▁vooraf	46
▁afkorting	46
▁Tha	46
▁zuidoosten	46
tour	46
reg	46
▁antiek	46
▁Cantillon	46
▁karakteristieke	46
▁Lou	46
▁republikeinse	46
verbindingen	46
▁Rom	46
▁Most	46
▁Japans	46
borg	46
▁WWE	46
▁Limburg	46
ğ	46
▁spoorwegen	46
▁besturings	46
lic	46
ees	46
▁besliste	46
▁rede	46
▁Warren	46
▁Sp	46
▁sciencefiction	46
▁orgaan	46
ress	46
▁vreemd	46
▁gerenoveerd	46
waarschijnlijk	46
▁Canterbury	46
▁wereldrecord	46
▁pour	46
volle	46
ora	46
▁Salvador	46
arm	46
day	46
▁Chief	46
zee	46
wind	46
▁Franco	46
▁Theory	46
▁Cornelis	46
wij	46
▁Middel	46
stuurden	46
▁opgetreden	46
▁achternaam	46
▁Ram	46
▁logische	46
▁Kevin	46
▁expert	46
verandering	46
▁Jong	46
▁Bali	46
▁Fisher	46
▁banen	46
kosten	46
brug	46
▁Justice	46
▁Gun	46
▁Scandinavië	46
▁omzet	46
▁Days	46
▁tennis	46
▁landschappen	46
▁herinneringen	46
▁verlenen	46
▁Mus	46
▁Premier	46
▁Dean	46
▁CBS	46
▁Spa	46
ever	46
▁ADE	46
▁Qu	46
▁belofte	46
▁afstammeling	46
▁claims	46
▁meningitis	46
▁geconcentreerd	46
▁blij	46
▁viering	46
▁eisten	46
▁eigenaren	46
▁lading	46
▁Arabieren	46
▁can	46
▁weigeren	46
▁Báb	46
▁plaatsvindt	46
▁Dominic	46
▁variaties	46
▁beschermde	46
DE	46
▁Mari	46
▁ruïnes	46
▁helikopter	46
▁Services	46
▁Cinelerra	46
komst	46
▁nodige	46
schi	46
▁echtpaar	46
▁Pascal	46
Duits	46
lach	46
▁perfecte	46
▁Fund	46
▁onderhield	46
▁Warner	46
▁Neil	46
▁geannuleerd	46
▁zusters	46
▁Deep	46
▁besteld	46
▁Carthaags	46
▁(...)	46
rechtvaardigheid	46
▁momenten	46
▁constitutione	46
▁radiostation	46
▁medeoprichter	46
▁Gran	46
▁Watch	46
▁Memphis	46
vormen	46
ua	46
maat	46
▁Vic	46
sberg	46
▁liepen	46
nda	46
▁gehuwd	46
▁deelstaat	46
▁snelste	46
▁wijzigen	45
▁verplichtingen	45
protocol	45
tv	45
collectie	45
uc	45
▁Politiek	45
exclusief	45
▁geleerde	45
tia	45
▁erachter	45
lot	45
▁geladen	45
▁beslist	45
▁Orleans	45
▁Vancouver	45
▁bibliotheken	45
▁Wal	45
▁getraind	45
vert	45
▁topologie	45
▁scherm	45
▁Rockefeller	45
▁Ang	45
back	45
▁hertogdom	45
▁Bonn	45
zame	45
▁geweldig	45
▁verwierp	45
▁aangetrokken	45
▁tegenstrijdig	45
▁munitie	45
▁vergelijken	45
▁Wo	45
▁exploitatie	45
▁minimal	45
▁autonomie	45
centrale	45
▁kwalificatie	45
▁stadje	45
▁rapporten	45
sar	45
Á	45
▁Guardian	45
▁Ethiopië	45
▁Gabriel	45
▁Venezuela	45
▁Isaac	45
divisie	45
▁naoorlogs	45
▁Sha	45
▁Tur	45
▁Ly	45
ness	45
▁GmbH	45
▁piek	45
▁Katholieke	45
▁gebruikmaken	45
▁definities	45
▁client	45
▁schriftelijk	45
▁sponsor	45
▁nodigde	45
▁legden	45
▁Tell	45
▁April	45
▁plekken	45
▁Helen	45
▁Bio	45
So	45
▁contra	45
jev	45
▁Edgar	45
▁vissen	45
▁Ontwikkeling	45
iswaar	45
▁expansie	45
▁dance	45
orthodoxe	45
To	45
▁Amy	45
▁transformatie	45
„	45
bou	45
▁one	45
▁Pra	45
formaat	45
▁schaduw	45
▁Mala	45
▁refereert	45
▁Sak	45
▁vierkante	45
▁bevorderd	45
▁achttiende	45
▁decreet	45
▁ontdekten	45
▁Hol	45
▁Shakespeare	45
pp	45
▁paspoort	45
DF	45
▁Palace	45
▁torens	45
NS	45
crisis	45
▁Carter	45
▁Civil	45
ő	45
▁aangekocht	45
▁zuid	45
▁heren	45
▁Sab	45
heer	45
▁herhaalde	45
ière	45
ob	45
▁Cer	45
rus	45
▁restaurants	45
’’	45
▁tante	45
▁Ferrari	45
▁Acht	45
tropische	45
wer	45
isse	45
ctor	45
▁Christelijk	45
Te	45
kwijl	45
▁Massachusetts	45
▁PC	45
BC	45
▁overtuigingen	45
mas	45
▁bevordering	45
▁straling	45
debuut	45
▁stabiele	45
▁Reed	45
▁melk	45
▁Damascus	45
▁progressieve	45
▁fondsen	45
▁handelaren	45
▁verschilt	45
▁Mission	45
▁Jay	45
▁Sant	45
▁oproep	45
wijk	45
steen	45
▁fluit	45
^	45
iën	45
▁ethische	44
▁essentiële	44
▁Bagdad	44
▁Chester	44
▁attractie	44
moto	44
▁Vin	44
▁gewoond	44
▁verlenging	44
▁Indo	44
▁Guard	44
bronnen	44
▁activisten	44
ön	44
▁regionaal	44
▁Dol	44
▁deelt	44
▁georganiseerde	44
▁Nathan	44
▁metingen	44
bond	44
wijten	44
▁Ul	44
▁nader	44
nieuw	44
chem	44
▁analytische	44
▁Side	44
▁ondertekende	44
▁Engelstalige	44
▁Armstrong	44
▁gevochten	44
▁heerste	44
Don	44
▁pest	44
▁Junior	44
rac	44
▁concurrent	44
▁fel	44
▁Nam	44
▁Limited	44
gre	44
assi	44
▁Had	44
▁Regiment	44
▁verdedigd	44
▁Dragon	44
vrije	44
▁ploeg	44
som	44
▁gat	44
▁plegen	44
▁radioactie	44
▁diploma	44
ringen	44
▁kra	44
ontwerp	44
▁uitwisseling	44
▁his	44
ieke	44
▁uitbracht	44
▁onderbroken	44
ziekte	44
transport	44
inclusief	44
▁boten	44
▁Bangkok	44
▁Algerije	44
▁Lucy	44
▁Marcel	44
llen	44
▁bredere	44
ava	44
▁award	44
▁Rain	44
▁Qua	44
▁Row	44
▁detective	44
▁biologie	44
ston	44
won	44
▁Sei	44
▁Son	44
▁Mitchell	44
▁harmonie	44
▁bruggen	44
▁campus	44
▁oudheid	44
▁Gibraltar	44
▁opvatting	44
uld	44
▁Islam	44
RI	44
▁Dou	44
▁schatten	44
▁samenzwering	44
▁sultan	44
ML	44
▁Stad	44
▁koste	44
rand	44
▁verval	44
▁duet	44
▁vampier	44
▁regelgeving	44
duc	44
▁mentor	44
▁au	44
▁Bergen	44
▁Wagner	44
hart	44
▁voorouders	44
▁impliceert	44
▁Pier	44
can	44
GA	44
▁begeleidde	44
ı	44
▁levend	44
hat	44
▁axioma	44
▁ogenblik	44
▁Macintosh	44
▁Charlotte	44
alis	44
▁medailles	44
▁toewijding	44
ise	44
▁lege	44
▁types	44
chin	44
mate	44
gegroeid	44
zuur	44
▁ingedeeld	44
▁handschrift	44
▁coördinatie	44
▁nogal	44
▁staal	44
▁Madagaskar	44
▁Zonder	44
▁Heinrich	44
▁fabrieken	44
▁Cape	44
Arabisch	44
▁emigratie	44
▁verzetten	44
Na	44
▁trainen	44
▁doelwit	44
nar	44
▁begeleiding	44
ichi	44
▁suggereren	44
▁blanke	44
▁Roberts	44
▁alfabet	44
▁Hong	44
▁neus	44
▁wagen	44
▁been	44
▁instructies	44
▁intern	44
▁Colorado	44
▁Missouri	44
▁suiker	44
▁criticus	44
▁presidentschap	44
▁Farm	44
ón	44
▁geregistreerde	43
▁methodes	43
broeders	43
▁minderheid	43
▁ondernemen	43
▁Comics	43
▁bekendstond	43
▁Letse	43
▁Norman	43
jet	43
▁aanpassing	43
▁registratie	43
eens	43
▁Main	43
▁Concert	43
▁zeventien	43
maken	43
▁wijziging	43
▁indrukwekkend	43
concert	43
▁limiet	43
▁Kasteel	43
▁uitvinding	43
bat	43
▁logistiek	43
▁Market	43
▁gemeten	43
▁technologische	43
gno	43
cca	43
▁vak	43
▁Lijst	43
por	43
▁klachten	43
▁afgevaardigde	43
▁emigreerde	43
▁Ober	43
▁kijkt	43
▁Afrikaans	43
▁doctoraat	43
eerden	43
▁Daarop	43
oom	43
▁dichters	43
▁Kerry	43
▁verliep	43
mand	43
pat	43
▁rivaal	43
▁Hour	43
▁kanten	43
▁Wetenschappen	43
▁scheepvaart	43
▁lof	43
▁ontsnapte	43
▁verminderde	43
▁verbouwd	43
▁bundel	43
▁voorstellingen	43
koning	43
▁Rat	43
▁Donau	43
▁Spartaans	43
▁Tommy	43
▁Sophie	43
▁vervoerd	43
▁Billboard	43
erij	43
▁verenigen	43
▁praktijken	43
▁vermoed	43
lucht	43
▁conferenties	43
▁staken	43
▁Ton	43
▁dam	43
▁bijbehorend	43
▁onverwacht	43
bur	43
▁astronomische	43
▁Planet	43
▁cent	43
IP	43
ité	43
▁tegenaanval	43
▁Caïro	43
beek	43
▁uitbrak	43
▁Cap	43
▁komeet	43
▁middels	43
▁Aviation	43
▁muzikant	43
▁Qui	43
▁Islamitische	43
▁technologieën	43
▁serieuze	43
▁grondlegger	43
▁bleken	43
▁staakt	43
▁Paulo	43
▁Rh	43
▁rangen	43
▁verkennen	43
▁component	43
▁Libanon	43
▁overlevende	43
pur	43
▁Hunt	43
▁creatieve	43
▁vervanger	43
Brien	43
▁manifest	43
▁inwoner	43
▁Kruistocht	43
▁moedigde	43
richting	43
IM	43
▁toetreding	43
▁kg	43
▁RTL	43
▁verwees	43
▁Have	43
▁minimum	43
last	43
▁Right	43
▁gelijkenis	43
IA	43
▁voelen	43
XX	43
baarheid	43
▁huurde	43
▁hersen	43
spellen	43
▁samengewerkt	43
▁verzekeren	43
▁plaatsvonden	43
▁Got	43
titel	43
..."	43
▁herkend	43
▁Palm	43
▁Xi	43
▁Zon	43
▁Opaia	43
ave	43
▁Fin	43
▁spectrum	43
▁opbrengst	43
▁toentertijd	43
▁geliefde	43
▁Baltisch	43
ief	43
▁verwerking	43
▁Bol	43
oprichter	43
heidsoorlog	43
▁onvoldoende	43
▁menigte	43
stel	43
▁overgeleverd	43
▁econoom	43
lag	43
▁Sciences	43
▁hardware	43
▁Mountains	43
▁gesuggereerd	43
▁Graaf	43
▁link	43
▁Smart	43
▁infectie	43
▁doelstelling	43
▁Scandinavische	43
reactie	43
▁helden	43
▁traject	43
▁Militaire	43
▁Agency	43
▁passage	43
▁Indian	43
▁garanderen	43
▁Fonds	43
kundig	43
▁repertoire	43
tos	43
▁herinneren	42
▁senatoren	42
kie	42
▁Herbert	42
▁Sovjets	42
▁fysische	42
lex	42
▁moeilijker	42
▁Zoo	42
▁ongebruikelijk	42
iseerd	42
▁oprichtte	42
”)	42
▁gezinnen	42
▁locomotief	42
producent	42
burger	42
▁protesteerde	42
▁Keltische	42
▁resulterend	42
schema	42
▁Convention	42
hout	42
▁Paleis	42
▁Financiën	42
▁voortaan	42
officier	42
una	42
▁uitge	42
cia	42
▁hyper	42
udi	42
▁bombardement	42
▁bad	42
Dit	42
▁controversieel	42
▁Command	42
▁gebouwde	42
tionele	42
▁abt	42
▁correspondent	42
▁tests	42
genoten	42
▁gedistribueerd	42
▁besteedde	42
▁variëteiten	42
▁Finn	42
▁ja	42
▁Cro	42
▁WK	42
▁gelijkaardige	42
▁karakters	42
▁Surinaams	42
sproblemen	42
▁misbruik	42
voorziening	42
komen	42
▁verzonden	42
view	42
▁verzorgd	42
▁belegerd	42
▁huwelijken	42
▁behoorlijk	42
rek	42
▁beleids	42
▁varieert	42
▁Berlin	42
▁financieren	42
ash	42
▁Cicero	42
teken	42
oud	42
▁oorlogsschepen	42
▁berekenen	42
▁not	42
▁Buck	42
▁Grammy	42
▁standpunten	42
▁veranderden	42
▁genoot	42
▁aanbevolen	42
▁veilige	42
▁Erasmus	42
▁tanden	42
▁conclusies	42
lich	42
▁hoeven	42
▁soeverein	42
▁trainer	42
▁Place	42
är	42
▁overstap	42
▁uitgewerkt	42
▁Kate	42
▁prioriteit	42
▁voorstelde	42
▁duivel	42
▁hierin	42
▁smaak	42
▁interventie	42
studies	42
▁hoofdpersoon	42
▁radicaal	42
vallen	42
▁falen	42
▁senaat	42
▁volkslied	42
▁torpedo	42
▁Justinianus	42
▁praktisch	42
▁Kill	42
mensen	42
▁woede	42
▁minderheden	42
▁vervulde	42
mal	42
num	42
CP	42
ijnse	42
▁Gilbert	42
▁eis	42
▁bezochten	42
grad	42
▁Fil	42
media	42
▁jonger	42
▁unit	42
▁Iedereen	42
▁Pyrrhus	42
▁bekijken	42
Engels	42
▁onthult	42
▁vulkaan	42
meenschappelijk	42
▁Mé	42
▁verdachte	42
▁duurzaamheid	42
▁bewerkt	42
▁vergezelde	42
▁Mini	42
▁Hero	42
▁Caribisch	42
▁benodigd	42
▁overheersing	42
▁optie	42
middel	42
▁Butler	42
iana	42
▁relatieve	42
goddelijke	42
▁Gay	42
▁terminal	42
ult	42
▁remix	42
▁gebed	42
▁Italianen	42
▁klinisch	42
▁Jade	42
etti	42
▁filmen	42
▁Hollandse	42
▁schapen	42
▁Kur	42
▁streng	42
▁moskeeën	42
▁Books	42
▁ongelijkheid	42
▁werkgelegenheid	42
▁vredesverdrag	42
▁Environment	42
▁verwerven	42
▁Artikel	42
▁graden	41
▁behandelde	41
▁gevaren	41
▁Haarlem	41
iff	41
▁Fan	41
▁ST	41
▁legioen	41
Australië	41
▁koel	41
▁bestemd	41
▁gesitueerd	41
gens	41
▁Parti	41
ongeluk	41
▁Here	41
osi	41
▁diameter	41
route	41
▁globale	41
▁organische	41
▁norm	41
▁stijging	41
▁uiteenlopend	41
▁halfbroer	41
▁verrassing	41
▁Hy	41
key	41
▁spraken	41
▁gerestaureerd	41
▁Ronald	41
kantoor	41
lever	41
Li	41
▁verdiende	41
stelsel	41
ongeveer	41
▁Stille	41
cor	41
formeerde	41
oro	41
ş	41
wapen	41
toernooi	41
▁SP	41
stop	41
▁geesten	41
▁akte	41
▁Turner	41
▁Gogh	41
Bulgaarse	41
▁erna	41
▁volken	41
▁Card	41
He	41
▁app	41
strijd	41
orn	41
▁gelaten	41
▁uitrusting	41
▁kijkers	41
▁subsidie	41
▁aanbevelingen	41
▁consortium	41
lichtingendienst	41
iviteit	41
▁zochten	41
▁dorpje	41
▁Small	41
wedstrijden	41
▁bezoekt	41
▁Tunesië	41
▁wettelijk	41
▁schema	41
▁Diana	41
▁Digital	41
▁Eddie	41
▁Brusselse	41
▁textiel	41
single	41
▁dieper	41
hill	41
▁beheert	41
▁aanmerking	41
▁greep	41
gericht	41
hond	41
▁Kn	41
▁verwijzingen	41
▁Mens	41
▁English	41
▁vloer	41
▁ondernomen	41
▁bruiloft	41
▁real	41
▁Fine	41
▁sterkste	41
vuren	41
▁Rem	41
lij	41
▁Cy	41
stam	41
▁regie	41
▁rook	41
▁melding	41
▁fundamenteel	41
▁dialecten	41
▁Vlak	41
▁Youth	41
edel	41
delen	41
▁donkere	41
▁gekroond	41
▁Ros	41
▁Roll	41
war	41
▁ideologie	41
▁koolstof	41
lle	41
verbinding	41
dd	41
▁kloosters	41
▁art	41
vlucht	41
boten	41
▁Capital	41
▁sneeuw	41
▁bestand	41
▁Nacional	41
controle	41
virtuele	41
▁Pet	41
gate	41
▁konvooi	41
NI	41
▁Venetiaanse	41
actie	41
▁Emma	41
▁onver	41
Ja	41
▁heelal	41
▁AM	41
▁Jar	41
▁concentratie	41
▁vergoeding	41
▁If	41
▁elektriciteits	41
▁koorts	41
▁uitbarsting	41
lap	41
Nederlands	41
▁Slim	41
broek	41
▁glazen	41
▁gelegenheden	41
▁afge	41
onne	41
▁aanvaarden	41
EN	41
▁websites	41
▁betoogde	41
▁schijnt	41
▁Peking	41
▁sprekers	41
▁Cam	41
▁aangeklaagd	41
▁Know	41
▁Rita	41
▁Waarschijnlijk	41
On	41
▁voorzieningen	41
ase	41
▁vervolgde	41
▁operationeel	41
lt	41
▁beroemdste	41
▁lobby	41
▁Maan	41
▁Phillips	41
▁eed	41
▁blik	41
instituut	41
▁gezondheids	41
▁Spartanen	41
teams	40
▁Nash	40
!)	40
▁verzen	40
▁Fame	40
▁Pur	40
▁zwangerschap	40
▁mislukking	40
oria	40
▁Field	40
▁verplaatste	40
▁woedend	40
bos	40
▁Lib	40
▁Sat	40
▁Bran	40
▁aangekomen	40
▁kunsten	40
rup	40
▁Joint	40
ële	40
▁beginnend	40
▁psycho	40
▁entiteit	40
nos	40
▁verzamelden	40
▁verdeelde	40
▁Arena	40
graven	40
▁ontdekkingen	40
ware	40
▁Harrison	40
▁DB	40
gespeeld	40
▁Forces	40
fan	40
▁Diamond	40
▁Voorafgaand	40
inger	40
▁concurreren	40
▁immers	40
▁deelgenomen	40
▁Greg	40
▁uitvoerde	40
▁mars	40
▁Merk	40
RC	40
▁moleculair	40
▁blok	40
toen	40
absoluut	40
wick	40
▁kantons	40
▁ongeval	40
▁numeriek	40
▁Maatschappij	40
▁parochie	40
ib	40
istisch	40
cri	40
▁epi	40
▁oneindige	40
▁bel	40
▁paste	40
▁pakket	40
▁ontwikkelt	40
▁blijken	40
▁straffen	40
▁uitgevers	40
chan	40
hem	40
▁Cantor	40
▁skeptisch	40
▁abstract	40
▁clan	40
▁binnenland	40
▁minimaal	40
▁zwaarder	40
IS	40
▁Libië	40
alai	40
▁doodt	40
studenten	40
slagen	40
ax	40
WA	40
▁vleugels	40
kr	40
▁Westminster	40
▁merknaam	40
▁verwachting	40
▁Energy	40
vliegtuig	40
▁benoemen	40
▁beroeps	40
▁grondstoffen	40
▁After	40
▁stabiel	40
▁Marco	40
▁identificatie	40
▁schoenen	40
▁Train	40
▁tracks	40
▁zover	40
▁omringen	40
▁oprichten	40
▁regeerperiode	40
▁publiciteit	40
old	40
▁herziening	40
OM	40
▁Helsinki	40
ali	40
▁Volksrepubliek	40
▁halver	40
▁Tennessee	40
tch	40
▁telescoop	40
emb	40
▁Turks	40
aki	40
▁Eli	40
staten	40
▁mechanisme	40
▁Mis	40
▁erfde	40
▁gegroeid	40
▁Europeanen	40
▁Kelly	40
▁Onze	40
▁voorziet	40
▁Thor	40
ati	40
olie	40
▁middernacht	40
▁lukte	40
▁Tijd	40
▁afwacht	40
▁scheepswerf	40
▁behaald	40
▁songwriter	40
jin	40
▁edelen	40
sung	40
▁voldoet	40
▁Walk	40
▁gegenereerd	40
▁teruggebracht	40
▁protocol	40
▁Picasso	40
For	40
▁privileges	40
▁Vader	40
▁ambtenaar	40
▁schrift	40
▁neuro	40
▁Birmingham	40
▁Gui	40
box	40
▁Welsh	40
▁genocide	40
▁voorwoord	40
▁Eerst	40
▁Banks	40
▁Sem	40
▁Language	40
▁woordvoerder	40
▁Edition	40
eeuwige	40
▁Constantius	40
▁Gott	40
▁mijnen	40
haus	40
▁Wilhelmina	40
▁Venus	40
▁Ny	40
▁Pir	40
▁Morning	40
▁Krim	40
▁Bod	40
▁toneelstukken	40
▁slapen	40
▁Beat	40
▁Off	40
agh	40
▁Nadien	40
opstand	40
▁Engineering	40
cept	40
book	40
rian	40
▁verblijven	40
▁Petrus	40
Hij	40
▁Kleine	40
▁Form	40
▁Roma	40
▁Broadcasting	40
▁initiatieven	40
lik	40
beelden	40
▁exclusie	40
she	40
▁Camillus	40
iets	40
▁dodelijk	39
▁gepubliceerde	39
▁Program	39
Wetenschappelijk	39
▁variabelen	39
staande	39
▁instanties	39
kop	39
▁takken	39
▁adviseerde	39
▁tiener	39
▁Groen	39
▁marcheerde	39
▁Cole	39
▁veelvuldig	39
▁genieten	39
ound	39
IT	39
tech	39
▁Plus	39
▁contrast	39
zag	39
product	39
oor	39
▁Lane	39
▁Conventie	39
▁Friends	39
́	39
gg	39
▁Grey	39
▁verlichting	39
▁slagveld	39
▁Dergelijke	39
▁Bro	39
▁bataljon	39
sey	39
▁opdrachten	39
▁atheïsten	39
▁aanwezige	39
▁Novgorod	39
led	39
▁ondergaan	39
▁beloond	39
▁Urban	39
▁Versailles	39
▁port	39
rollen	39
▁moordenaar	39
▁drastisch	39
▁Friesland	39
tijdschrift	39
▁Spencer	39
▁trend	39
AD	39
▁Isabella	39
eën	39
energie	39
▁Kaukasus	39
steden	39
▁Magnus	39
▁atheïsme	39
ket	39
▁Soe	39
▁gerekend	39
▁soortgelijk	39
▁École	39
▁Groene	39
▁Plant	39
▁Information	39
▁patrouille	39
phy	39
▁Jonathan	39
▁Glass	39
▁rijkste	39
▁Veronica	39
▁Scha	39
▁intact	39
▁omhoog	39
▁applicaties	39
ronde	39
▁Kennedy	39
nny	39
ami	39
▁zoons	39
mmel	39
▁Engelsen	39
▁Keith	39
Frans	39
▁gevangengezet	39
▁Por	39
▁gunste	39
▁onderwezen	39
▁Kids	39
▁Priestley	39
▁orkaan	39
▁versterking	39
▁beschikken	39
▁drank	39
▁optimal	39
▁Bremen	39
▁herkennen	39
▁rijdt	39
▁Mos	39
▁Reagan	39
▁aangevuld	39
▁Tai	39
▁plicht	39
▁uitkwam	39
lat	39
▁baas	39
▁speelgoed	39
alisme	39
▁vernield	39
▁sessie	39
kwam	39
▁stak	39
▁financiën	39
▁Georg	39
▁Hunter	39
▁instituten	39
hang	39
ood	39
▁fiets	39
▁Tel	39
▁vaderland	39
▁leert	39
game	39
loo	39
vermogen	39
CO	39
▁kiezers	39
▁bemanningsleden	39
▁aangrenzend	39
▁Holocaust	39
uro	39
bek	39
▁afgekort	39
Con	39
▁Technisch	39
▁Delta	39
▁machts	39
▁variabele	39
▁mijnbouw	39
▁Operation	39
▁demonstratie	39
▁zuidwesten	39
▁bijgewoond	39
▁dertiende	39
ake	39
▁interessant	39
▁zeventiende	39
cut	39
▁verwondingen	39
▁seculiere	39
▁labels	39
▁dj	39
▁doorgevoerd	39
▁populairste	39
▁uitbreiden	39
▁Verklaring	39
verhalen	39
▁genade	39
scholen	39
▁Hannover	39
▁Reserve	39
▁instrumental	39
▁Uruguay	39
rey	39
Sch	39
pu	39
Ta	39
▁combineerde	39
politiek	39
▁Pink	39
▁wekelijks	39
▁presenteren	39
Rocky	39
▁geologische	39
▁tabel	39
▁oever	39
▁uitgedrukt	39
▁Landen	39
▁Pers	39
▁psychiatrisch	39
CC	39
▁IX	39
▁wapenstilstand	39
▁uitgeven	39
▁omgeven	39
rust	39
dus	39
▁kindertijd	39
ming	39
▁Mason	39
▁noodzakelijke	39
▁animatie	39
PM	39
houden	38
▁conventie	38
▁Doel	38
▁Rutherford	38
▁Rot	38
▁Socialistisch	38
OS	38
▁werkplaats	38
▁relevant	38
▁AP	38
▁begrippen	38
▁naakt	38
bibliotheek	38
!,	38
▁scheidde	38
▁strenge	38
ps	38
▁altaar	38
▁Gy	38
▁Domitianus	38
▁Shanghai	38
▁games	38
▁herhaald	38
▁Kurt	38
garde	38
▁Duizend	38
▁slagen	38
▁uitgeschakeld	38
para	38
▁Jules	38
▁vleugel	38
▁stadium	38
▁Guerrero	38
amba	38
manager	38
▁geruchten	38
▁stadsbestuur	38
▁geschapen	38
▁eindig	38
EF	38
gl	38
▁Organization	38
▁trof	38
▁Turijn	38
▁Horse	38
▁regent	38
erwijs	38
▁openden	38
anus	38
▁Metal	38
▁Eva	38
▁vertalen	38
▁Anglo	38
▁vandaan	38
▁Zone	38
Com	38
betoon	38
▁Tiberius	38
▁geciteerd	38
tuur	38
▁referendum	38
▁leverden	38
▁jou	38
zar	38
▁beoordeeld	38
▁Nixon	38
▁Owen	38
lak	38
▁slaagt	38
Van	38
▁Football	38
▁toeschouwers	38
TU	38
training	38
▁rassen	38
▁verloop	38
▁west	38
▁geproduceerde	38
zicht	38
▁appartementen	38
gh	38
pakket	38
volg	38
gesch	38
▁gestegen	38
daagse	38
sburg	38
▁Trophy	38
verbod	38
▁machtigste	38
bara	38
▁regelen	38
▁Annie	38
▁symbolische	38
▁Kapitein	38
▁ontbinding	38
▁journalistiek	38
▁cap	38
▁Blair	38
▁Cab	38
▁irrigatie	38
▁Kansas	38
▁fabrikant	38
▁Iedere	38
dans	38
▁bedreigingen	38
▁regeling	38
▁meren	38
▁reg	38
▁Second	38
▁Hood	38
vervoer	38
▁scheiden	38
▁Pete	38
▁bovenste	38
▁Delft	38
ile	38
▁Hor	38
▁talenten	38
talen	38
fon	38
▁opgepakt	38
▁geldig	38
▁incidenten	38
play	38
vader	38
▁compacte	38
▁beton	38
ín	38
▁expositie	38
▁gewoonte	38
scentrum	38
architectuur	38
aten	38
sfeer	38
▁Stirling	38
▁documentatie	38
▁enkelvoudige	38
down	38
▁onderdak	38
▁schieten	38
▁Rau	38
▁christelijk	38
▁Res	38
▁eigendommen	38
ž	38
ool	38
▁Reynolds	38
▁pension	38
▁basketbal	38
▁aanvullend	38
▁long	38
▁Marx	38
▁volumes	38
▁Brabant	38
▁ontsnapt	38
▁Herm	38
▁dominantie	38
▁steek	38
▁integriteit	38
▁circuit	38
▁hulpbronnen	38
▁Harris	38
▁maandag	38
▁Bass	38
▁Kaap	38
gegaan	38
▁Salt	38
▁perfect	38
▁Report	38
▁verdenking	38
▁neoklassieke	38
▁Cleveland	38
zanger	38
▁chaos	38
▁fenomenen	38
▁verwante	38
▁Catherine	38
icht	38
▁uitvoeringen	38
▁opleverde	38
lé	38
▁ziekenhuizen	38
▁demonstraties	38
▁aanhanger	38
▁westelijk	38
ces	38
▁opmars	38
▁verkrachting	38
▁Cop	38
▁terroristisch	38
▁voorgangers	38
▁BB	38
▁Us	38
▁nakomelingen	38
▁Lilly	38
▁Israel	38
gest	38
▁essentie	38
▁bassist	38
▁strijden	37
▁observatie	37
▁beschikte	37
fri	37
▁tekens	37
▁twaalfde	37
▁drong	37
▁relevante	37
▁rechtszaken	37
▁gepromoveerd	37
Ra	37
▁Olympisch	37
▁vertraging	37
▁Divers	37
▁Lhasa	37
nk	37
▁fraude	37
pon	37
▁brouwerij	37
▁ga	37
ieten	37
▁zogenoemde	37
volk	37
▁gouvernement	37
▁gijzelaars	37
▁Hey	37
▁Fantasy	37
▁tram	37
zeer	37
▁Officer	37
▁Philippe	37
▁Crow	37
▁Stefan	37
▁NBC	37
tine	37
▁instructie	37
▁Luke	37
MI	37
▁gesponsord	37
▁gebeden	37
fr	37
▁ziekten	37
gevallen	37
bay	37
▁Sex	37
▁intentie	37
▁poorten	37
▁geschikte	37
▁gerecht	37
▁raam	37
▁emotione	37
▁neergeschoten	37
▁luisteren	37
▁buitengewoon	37
gat	37
▁doctrine	37
▁krediet	37
leen	37
▁Smit	37
schen	37
▁uitgekozen	37
▁aantrekkelijk	37
▁zuiver	37
▁Voetbal	37
TE	37
ijnen	37
bak	37
▁Railroad	37
▁herenigd	37
ones	37
▁gedetailleerd	37
▁elektronen	37
▁Jonge	37
▁compensatie	37
▁Folk	37
▁wekelijkse	37
cla	37
▁adres	37
▁ingewijd	37
▁Johanna	37
▁Chen	37
▁red	37
▁gedeporteerd	37
ios	37
▁vorst	37
nte	37
▁Antillen	37
▁maximum	37
▁Leuven	37
▁organist	37
bru	37
▁rechters	37
▁Administration	37
▁IRA	37
▁ac	37
▁Box	37
▁stoom	37
front	37
▁bezorgdheid	37
▁melden	37
ologen	37
competitie	37
▁ongewoon	37
gro	37
ions	37
▁vesting	37
▁geregeerd	37
▁neutraal	37
▁Spring	37
▁Adventures	37
▁breuk	37
▁omgekomen	37
▁Micro	37
cross	37
▁Works	37
meter	37
▁past	37
aflevering	37
radio	37
▁lijk	37
Italië	37
oy	37
▁spiegel	37
▁veteranen	37
▁Has	37
kom	37
onderdelen	37
tsj	37
▁koop	37
gegevens	37
▁breder	37
▁koninkrijken	37
▁Herald	37
és	37
▁fonds	37
yu	37
▁Century	37
▁onjuist	37
▁Carr	37
gracht	37
▁Pot	37
▁operator	37
▁maatschappelijk	37
▁linker	37
▁dreigde	37
▁bommen	37
mol	37
dos	37
▁genegeerd	37
▁country	37
▁Lola	37
had	37
▁testament	37
▁Friedman	37
▁Em	37
▁Dexter	37
▁Barbauld	37
▁liever	37
sam	37
▁fasen	37
▁lo	37
▁collectieve	37
▁Luigi	37
▁verworpen	37
▁Hi	37
▁Sunday	37
▁Luik	37
▁gunstig	37
▁verbergen	37
▁massal	37
hoff	37
▁Low	37
▁Louise	37
▁overeenkomstig	37
▁Snow	37
▁Diodorus	37
apparatuur	37
gebaseerde	37
▁jegens	37
▁meetkundige	37
▁commissaris	37
camera	37
▁weekend	37
▁dagblad	37
▁vervoegde	37
tions	37
▁omgevormd	37
▁grondig	37
▁tijdstip	37
▁Belfast	37
▁pen	37
▁Bibliotheek	37
trein	37
▁Kanaal	37
▁Republic	37
▁vicevoorzitter	37
▁verdedigers	37
schrift	37
pil	37
▁gezond	37
faciliteiten	37
osa	37
▁IWL	37
▁stop	37
▁Nature	37
dem	37
tekenden	37
▁kolonies	37
BL	37
▁fruit	37
▁noordwesten	37
▁Rama	37
▁Yale	37
Frankrijk	37
clan	37
dek	37
▁Negen	37
▁tocht	37
▁gen	37
▁DJ	37
▁Sherman	37
▁Dans	37
▁heks	37
▁VIII	37
▁vijandige	37
▁grap	37
▁Republikeinse	36
▁diner	36
bury	36
▁Kri	36
▁voeten	36
▁(#	36
▁Independent	36
▁kom	36
▁missen	36
▁OS	36
▁Stuart	36
▁replica	36
▁aanvang	36
▁verbleven	36
making	36
▁interessante	36
CH	36
genomen	36
▁bedreigde	36
ties	36
▁atmosfeer	36
BA	36
▁Metro	36
▁akoestisch	36
▁realistische	36
▁draaien	36
▁hielpen	36
therapie	36
▁Kenia	36
▁vraagstukken	36
▁Grande	36
▁sites	36
▁Oostzee	36
sproces	36
▁Helena	36
▁rivaliserend	36
MP	36
▁Knight	36
▁leuk	36
▁su	36
pha	36
▁Bologna	36
▁Factory	36
▁beloning	36
▁Bijbelse	36
eva	36
▁communisten	36
ities	36
▁Monument	36
▁keizerrijk	36
▁Jake	36
▁gepaard	36
Thaise	36
▁Pearl	36
hom	36
▁uitvoerende	36
tti	36
▁Edison	36
Marie	36
▁drijvend	36
▁wiskundig	36
▁inspectie	36
▁synthese	36
▁realisme	36
▁Giuseppe	36
unie	36
bet	36
▁Stones	36
▁Wu	36
oo	36
▁Keizerrijk	36
IC	36
▁installatie	36
American	36
▁theologische	36
▁Talpa	36
▁high	36
aanvallen	36
▁danseres	36
▁helder	36
▁omroep	36
▁agressieve	36
▁opbouw	36
ruimten	36
▁Tsjetsjenen	36
sraad	36
Californië	36
▁compromis	36
▁Route	36
▁Neo	36
▁Mali	36
▁voer	36
▁source	36
International	36
▁content	36
▁Matthew	36
▁Honor	36
▁Jeugd	36
▁Perry	36
▁Natuur	36
▁facto	36
▁informele	36
▁Coors	36
lust	36
geschreven	36
▁Hyman	36
wang	36
rina	36
▁markeerde	36
▁herkomst	36
LA	36
▁huur	36
▁proto	36
▁criminele	36
▁Ry	36
pal	36
stof	36
▁overleefden	36
aut	36
▁Baron	36
▁Kom	36
▁gecoördineerd	36
▁specimen	36
▁Balkan	36
▁hongersnood	36
▁herinnerd	36
▁Legend	36
▁Rwanda	36
▁bevolen	36
▁gezanten	36
▁verhoudingen	36
ruimtelijke	36
▁spanning	36
master	36
ashi	36
▁leef	36
Co	36
▁schandaal	36
▁Jaren	36
▁moreel	36
▁puur	36
▁Aero	36
▁Survey	36
▁onderdrukt	36
▁Boris	36
▁Gr	36
▁Sig	36
entie	36
San	36
ía	36
▁algoritme	36
▁verminderd	36
▁synoniem	36
▁grammatica	36
▁aanklacht	36
▁joint	36
▁daling	36
▁eventuele	36
anta	36
pla	36
▁schaak	36
middelen	36
▁Illinois	36
▁Mak	36
▁ontleend	36
▁Boven	36
▁varkens	36
▁Ron	36
▁Sor	36
▁Penn	36
▁beschouwden	36
▁Maleisië	36
▁Gre	36
▁resulteer	36
▁vrijdag	36
▁Name	36
sum	36
▁wijd	36
▁robot	36
stadt	36
▁Eindhoven	36
▁haalt	36
▁Horn	36
▁sin	36
lek	36
start	36
iet	36
▁Voice	36
moslims	36
▁domeinen	36
▁Rue	36
▁impuls	36
opname	36
▁citadel	36
▁Food	36
▁Mou	36
Mijn	36
▁olifanten	36
▁materie	36
▁Ellen	36
▁landing	36
▁makkelijker	36
▁kostuums	36
studie	36
▁Wallace	36
▁Sin	36
open	36
▁Jessica	36
iers	36
▁API	36
tl	36
▁Normandië	36
▁erfgenaam	36
▁verbieden	36
▁Az	36
genovergestelde	36
▁verrassend	36
▁ruwe	36
▁onderdrukking	36
▁tegemoet	36
▁observaties	36
▁uitdagingen	36
▁neiging	36
▁But	36
▁Dennis	36
▁kochten	36
vuur	36
▁onregelmatig	36
kapel	36
▁aannemen	36
ith	36
formatie	36
▁Week	36
▁kozen	36
▁Vision	36
▁hangen	36
▁volkomen	36
gaf	36
▁verzekerings	36
▁Mod	36
gui	36
▁gronden	35
ader	35
▁opvolging	35
▁Exchange	35
▁panel	35
veen	35
any	35
▁gedreven	35
▁Imperial	35
▁ID	35
ration	35
▁Wars	35
gaande	35
▁roken	35
▁Burton	35
▁verschijnsel	35
logie	35
staatssecretaris	35
isschien	35
ient	35
RT	35
▁Comp	35
▁Belgrado	35
▁Genua	35
▁kanon	35
gever	35
▁winnaars	35
▁secties	35
▁vergunning	35
analoge	35
▁Volk	35
▁faillissement	35
fabrikant	35
▁index	35
▁efficiëntie	35
kata	35
▁herhaling	35
▁rituelen	35
▁onderwijzen	35
lings	35
▁Cur	35
▁Poly	35
keten	35
▁Haags	35
legging	35
▁opnam	35
▁Wayne	35
▁rector	35
nationale	35
▁records	35
▁levensstijl	35
▁keizers	35
▁georiënteerd	35
machines	35
▁aankondiging	35
▁Bruno	35
▁special	35
Filipijnse	35
▁Holmes	35
▁gebonden	35
▁ontevreden	35
alle	35
▁Mensenrechten	35
▁berucht	35
▁Capitol	35
▁Cow	35
▁Nazi	35
▁toernooien	35
▁Toe	35
viel	35
koda	35
▁Veld	35
▁luidde	35
werking	35
▁coördinaten	35
bord	35
HA	35
gekomen	35
series	35
▁Vries	35
▁Eerder	35
▁illustrator	35
▁Christie	35
▁are	35
▁verstrekken	35
hed	35
omedy	35
erry	35
nacht	35
▁vervullen	35
ough	35
▁magie	35
▁justitie	35
▁Leeds	35
lar	35
▁Gezi	35
▁verwachten	35
▁Leeuw	35
ghe	35
▁woonplaats	35
bas	35
▁Naval	35
▁betrouwbaar	35
vorming	35
▁Conferentie	35
▁host	35
▁Jung	35
▁Rex	35
toon	35
▁Bib	35
▁geboorteplaats	35
▁acteren	35
▁presentator	35
▁Ahmed	35
Benz	35
▁muzikaal	35
▁Hoog	35
stijgende	35
▁anime	35
▁voeden	35
yon	35
▁vertraagd	35
bahn	35
uma	35
▁Order	35
▁Hay	35
NC	35
▁Wikipedia	35
▁gevlucht	35
▁feministische	35
▁Hills	35
▁Hooggerechtshof	35
teerd	35
▁schiet	35
▁Lab	35
▁Linda	35
▁Amerikaan	35
▁Industries	35
▁bereikbaar	35
god	35
▁genezen	35
▁Spirit	35
plaatsen	35
▁galerie	35
nning	35
▁Augusta	35
▁uitvoer	35
▁venture	35
aris	35
▁papieren	35
▁herhalen	35
▁Churchill	35
>	35
drama	35
▁Key	35
▁levering	35
shirt	35
▁heroveren	35
Mi	35
▁Paolo	35
▁items	35
▁overeengekomen	35
You	35
▁terrorisme	35
mun	35
▁eruit	35
▁radioprogramma	35
▁tegenstand	35
▁decoratie	35
▁Jud	35
▁PS	35
▁Arm	35
▁matrices	35
▁componeren	35
▁workshops	35
▁Wester	35
▁waarneming	35
▁moraal	35
▁prostitutie	35
▁politieagenten	35
▁uitspraken	35
▁integraal	35
avi	35
▁lijsten	35
zet	35
▁molen	35
relatie	35
▁parallel	35
▁Atlas	35
▁Avi	35
verzameling	35
▁vermeldde	35
▁verslaggever	35
▁flora	35
▁verleende	35
isi	35
nova	35
▁dis	35
▁fellow	35
▁buitenlands	35
▁Ammianus	35
▁kunt	35
▁Curtis	35
Wij	35
▁vangen	35
▁aanbood	35
schappelijke	35
▁wonder	35
▁Lar	35
▁VK	35
▁Ay	35
▁uitte	35
▁inspanning	35
▁Einstein	35
▁doe	35
voorheen	35
▁Hilbert	35
▁Direct	35
▁Source	35
orkest	35
somstandigheden	35
▁investerings	34
▁Sh	34
▁geo	34
cio	34
personeel	34
tuin	34
▁Flight	34
▁universitaire	34
▁gids	34
▁bestuurders	34
▁transcendent	34
▁fictie	34
aine	34
▁Jeff	34
▁arriveert	34
▁strijdmacht	34
▁bord	34
▁meesters	34
▁overeenkom	34
▁geëvacueerd	34
▁vereerd	34
▁gemengd	34
▁dodelijke	34
▁Lei	34
▁gebruikmaakt	34
ric	34
▁bende	34
stheorie	34
▁deelnemend	34
▁vaststellen	34
▁recentelijk	34
burgh	34
ines	34
taire	34
▁vervangt	34
▁simpele	34
▁Electronic	34
ianen	34
▁documentaires	34
bronzen	34
▁Gene	34
▁rotatie	34
▁verliest	34
▁Nashville	34
▁stadhuis	34
▁rapper	34
vragen	34
▁Bishop	34
▁Ji	34
▁dynamische	34
▁Meyer	34
▁Mambo	34
not	34
▁Today	34
▁Vo	34
vooral	34
▁Movement	34
activiteit	34
▁doorbracht	34
▁forum	34
▁mist	34
▁langzamer	34
▁voorspelde	34
belasting	34
▁Leonard	34
snaam	34
▁balans	34
▁gebleken	34
▁gevoelig	34
cum	34
evolutionaire	34
▁Even	34
etta	34
regisseur	34
horn	34
rice	34
▁Verdi	34
homoseksualiteit	34
▁Kat	34
▁Das	34
umi	34
wei	34
nevel	34
maak	34
▁nauwkeurige	34
pin	34
fanteriedivisie	34
▁steunden	34
▁procedures	34
▁tenor	34
▁nauwkeurig	34
▁inval	34
enstein	34
NG	34
▁oostelijk	34
▁Andy	34
▁Rosa	34
▁Village	34
▁True	34
▁bevoegdheden	34
hon	34
▁afgenomen	34
▁Ari	34
▁beïnvloedde	34
tewel	34
▁Franc	34
▁Oh	34
gevolg	34
▁ridders	34
ful	34
partijen	34
wetenschap	34
▁hieronder	34
▁Grace	34
echt	34
Zuid	34
▁overstromingen	34
court	34
▁engine	34
bridge	34
▁Carnegie	34
shan	34
▁Sharpless	34
▁coördineren	34
▁monumentale	34
▁monarch	34
▁Rad	34
igo	34
▁Chess	34
▁Voort	34
▁nasleep	34
▁hoedanig	34
▁machtig	34
▁Tree	34
▁Work	34
producer	34
▁verkeers	34
▁bandleden	34
Aziatische	34
▁free	34
▁Look	34
aanval	34
▁eskader	34
overeenkomst	34
▁bijgestaan	34
▁up	34
▁Departement	34
bergen	34
▁Gra	34
▁voorzichtig	34
▁deelnemer	34
gedeelte	34
▁zenden	34
▁tr	34
▁opent	34
▁bond	34
▁Claus	34
▁system	34
▁Building	34
▁flink	34
▁neutrale	34
laan	34
▁homoseksuele	34
quet	34
▁krijgsmacht	34
cin	34
▁samenhang	34
▁Kh	34
▁Mechelen	34
▁Amnesty	34
▁McG	34
▁katoen	34
▁bloeiend	34
▁atoom	34
▁voegt	34
cijfers	34
▁aangehouden	34
▁Toulouse	34
▁Bil	34
▁Part	34
▁dollars	34
▁bewaarde	34
arium	34
▁Care	34
“	34
nier	34
▁verwerken	34
Ste	34
▁Movie	34
▁ligging	34
▁Mohamed	34
▁gedoopt	34
▁bepalingen	34
▁behielden	34
▁gaten	34
▁toeval	34
▁rellen	34
▁Takeda	34
▁Laboratory	34
TO	34
▁kanton	34
▁Chávez	34
▁Mogelijk	34
▁Technic	34
tha	34
▁register	34
▁welvarende	34
▁gender	34
▁ondergang	34
▁Santiago	34
▁debatten	34
Holland	34
▁out	34
osaurus	34
▁uitgestorven	34
kern	34
▁fulltime	34
▁Justin	34
lopen	34
▁Protocol	34
cd	34
▁Denver	34
▁Vikingen	34
▁fabrikanten	34
▁ding	34
rah	34
▁Sing	34
CV	34
▁Stefanus	34
nit	34
▁trends	34
Op	34
▁About	34
▁werven	34
akker	34
▁bedraagt	34
▁Laat	34
▁detecteren	34
haal	34
▁moeders	34
laat	34
▁avonturen	34
▁samenlevingen	34
▁eerlijke	34
thema	34
▁stijgen	34
▁onbe	34
komt	34
▁go	34
▁Offa	34
▁Heine	34
▁baanbrekend	34
▁zangers	34
▁claim	34
▁ingeschreven	34
▁onenigheid	34
▁Mede	34
▁atlas	34
▁CEN	34
gemeenschappen	34
▁metal	34
▁Ballet	34
▁coup	34
eve	34
dorf	34
▁Sy	34
▁Gray	34
figuur	34
▁ambitieuze	34
cellen	34
lopend	34
▁prof	34
verdeling	34
shin	34
▁Montenegro	34
▁beslissen	34
▁Zwitsers	34
▁Brooklyn	33
▁Santo	33
▁Short	33
▁USB	33
▁HD	33
▁Alfons	33
▁Wei	33
▁vrouwenrechten	33
▁NBA	33
▁sur	33
▁consument	33
werkzaamheden	33
Ga	33
kal	33
fil	33
verzekering	33
▁gold	33
kind	33
▁Craig	33
▁vrouwelijk	33
▁godsdienstig	33
▁Temple	33
ular	33
lum	33
▁Wii	33
thor	33
bio	33
▁loon	33
▁Neumann	33
ieve	33
▁gerespecteerd	33
igh	33
US	33
▁bekeren	33
track	33
rai	33
▁synode	33
nl	33
▁Weg	33
site	33
▁omvangrijke	33
▁ontkende	33
▁ban	33
▁Keynes	33
▁afwijkend	33
▁Rie	33
▁Tang	33
▁Atlanta	33
▁piramide	33
▁Frederick	33
▁rijst	33
▁CIA	33
▁zaterdag	33
▁Bird	33
▁protestanten	33
▁Gru	33
▁Pol	33
▁gerenommeerd	33
sprijs	33
Vi	33
zender	33
▁uitzendingen	33
onderscheidingen	33
ON	33
tekens	33
▁Jozef	33
VA	33
▁Mach	33
▁sho	33
▁Mercury	33
▁geïnterpreteerd	33
▁koude	33
▁codex	33
toestand	33
geheten	33
norm	33
▁UN	33
▁waarschuwt	33
▁DFDS	33
▁Bas	33
▁rapporteren	33
dh	33
▁Montreal	33
▁kunstschilder	33
▁Bed	33
hold	33
▁Ap	33
▁Canal	33
▁Licht	33
▁karate	33
▁koloniën	33
▁waarnemers	33
▁baseerde	33
▁Kin	33
wy	33
▁ritueel	33
▁genoten	33
▁Dom	33
▁Krakau	33
▁bestuurder	33
▁volgend	33
▁Experience	33
▁keurde	33
ulu	33
▁schattingen	33
▁functione	33
▁There	33
versies	33
▁Vor	33
▁Indiana	33
▁Madison	33
liefhebber	33
hm	33
▁Jak	33
▁Bin	33
▁streeft	33
▁efficiënt	33
tim	33
zetting	33
mina	33
▁taalkundige	33
▁Severus	33
Over	33
▁Barr	33
▁skelet	33
▁aangevoerd	33
▁kenmerkend	33
▁verhaallijn	33
▁installaties	33
▁reisden	33
stations	33
▁etc	33
▁aandoening	33
▁Carmen	33
▁Sally	33
Franse	33
▁nieuwste	33
soort	33
are	33
▁ontwikkelaar	33
▁handschriften	33
▁Store	33
une	33
vluchten	33
▁Tsjechië	33
▁geïntegreerde	33
▁Record	33
▁Come	33
▁agentschap	33
▁leermeester	33
▁Lokal	33
▁codenaam	33
▁Cut	33
▁marmer	33
▁functionarissen	33
soldaten	33
▁Wan	33
▁Galliërs	33
▁tamelijk	33
▁parallelle	33
armate	33
▁Alliantie	33
geest	33
stream	33
wetgeving	33
▁commentaren	33
▁Sven	33
▁winstgevend	33
▁Bazel	33
▁Against	33
▁loyaliteit	33
▁stemden	33
▁muziekvideo	33
pter	33
uti	33
▁oosters	33
▁waarborgen	33
▁plot	33
▁logisch	33
▁nationalisme	33
▁Harbor	33
▁Ontario	33
▁binding	33
▁klaagde	33
▁Josh	33
▁Kirk	33
weleens	33
▁fossielen	33
▁fresco	33
▁humanistische	33
▁krijgsgevangen	33
▁Luther	33
▁radiostations	33
domein	33
▁toeren	33
▁geadopteerd	33
▁RT	33
ender	33
▁chocolade	33
etten	33
▁Dawn	33
▁variërend	33
vang	33
rig	33
nus	33
▁duurzaam	33
▁duistere	33
▁aanbieden	33
uri	33
▁Dylan	33
▁Stock	33
▁Harper	33
traditie	33
was	33
vaak	33
▁Markt	33
▁Economic	33
▁Peloponnesisch	33
BI	33
▁wou	33
▁Sand	33
▁bidden	33
drie	33
▁Antoine	33
▁schepping	33
▁Vir	33
▁coördinator	33
▁business	33
▁Christmas	33
deling	33
kit	33
▁Panama	33
▁bombardementen	33
▁AB	33
▁herinnerde	33
▁handeling	33
▁blokken	33
▁tussentijd	33
▁Baltimore	33
▁plastic	33
▁enz	33
▁Knox	33
metrische	33
▁keuzes	33
▁werkende	33
platen	33
lessen	33
▁Stern	33
▁uitgeput	33
▁Sho	33
core	33
Russisch	33
▁App	33
ech	33
tekst	33
▁persconferentie	33
▁Waarom	33
▁lanceren	33
▁onrechte	33
▁Manu	33
▁kristal	33
▁verschijnselen	33
uz	33
▁Nevada	33
▁Stories	33
▁privacy	33
▁definieert	33
▁Joachim	33
▁nest	33
sinds	33
order	33
▁Jamie	33
▁materieel	33
▁staart	33
MC	33
▁Clarke	33
Her	33
▁Where	33
▁paren	33
▁verkochten	33
▁predikant	33
▁federatie	32
▁Castro	32
▁uiting	32
▁Porter	32
▁Scientifi	32
▁erkent	32
▁felle	32
▁Study	32
▁cor	32
omstandigheden	32
bell	32
▁Institution	32
▁processor	32
▁bod	32
▁krachtig	32
▁entiteiten	32
▁herdenking	32
▁Compa	32
▁rechtse	32
▁Commissaris	32
▁rockband	32
▁opgetekend	32
▁Conservatorium	32
▁Too	32
▁Skeptical	32
ID	32
▁Gemenebest	32
▁baron	32
▁mysterie	32
▁Dia	32
▁Murder	32
▁Vera	32
▁research	32
▁Falcon	32
▁Yamaha	32
oma	32
▁Make	32
zj	32
ça	32
iva	32
▁Rachel	32
delijk	32
▁fauna	32
▁teleurgesteld	32
▁Porsche	32
▁Sanders	32
▁gerapporteerd	32
▁Ag	32
▁vierkant	32
▁praat	32
▁Tho	32
▁Federale	32
▁q	32
▁droge	32
▁Dé	32
eri	32
▁Gerrit	32
tten	32
▁Pad	32
pac	32
▁Reichs	32
▁factie	32
▁Asia	32
▁Cyber	32
expeditie	32
▁consultant	32
▁gezant	32
verlies	32
▁Ellis	32
NP	32
▁afloop	32
▁Ralph	32
kes	32
▁zelfstandige	32
▁Lan	32
▁finishte	32
pand	32
tum	32
▁voorkwam	32
▁Mack	32
PO	32
hai	32
▁radar	32
name	32
▁bevoegdheid	32
▁Kreta	32
▁Badawi	32
▁geplunderd	32
▁televisiezender	32
▁Happy	32
▁dames	32
▁werpen	32
▁onderzeeër	32
communicatie	32
▁BV	32
zonder	32
vu	32
sub	32
▁ho	32
genoot	32
▁breedte	32
▁bot	32
kte	32
▁Again	32
▁ruimtevaart	32
▁Born	32
▁registreren	32
opperbevelhebber	32
Nederlandse	32
▁Nij	32
▁Reich	32
▁like	32
▁Titan	32
▁wezenlijk	32
Spaans	32
yne	32
▁Sas	32
▁wisselen	32
▁Noether	32
▁lastig	32
▁kn	32
force	32
▁katholiek	32
▁Inuit	32
▁verwachte	32
▁perioden	32
▁Phoenix	32
▁genoteerd	32
▁Belisarius	32
▁Chin	32
worth	32
dische	32
stem	32
geleid	32
▁Zomer	32
arts	32
kok	32
▁Bangladesh	32
▁tegenhanger	32
right	32
▁Piano	32
▁Ottomanen	32
▁Hannah	32
ò	32
akkoord	32
▁García	32
▁uitkomst	32
zoon	32
▁Fellow	32
▁folklore	32
pool	32
mil	32
▁scherp	32
▁Sebastian	32
▁beschuldiging	32
▁daad	32
wisseling	32
figuren	32
▁Liu	32
▁bewerking	32
▁Hawaï	32
▁Opper	32
▁CR	32
▁Hel	32
ore	32
▁Oostenrijks	32
kri	32
zzi	32
▁humor	32
▁Late	32
▁steunt	32
sprojecten	32
nale	32
nov	32
▁geluiden	32
▁Ned	32
owski	32
Best	32
▁Maryland	32
▁satraap	32
▁geografie	32
▁prees	32
▁Daleks	32
▁opereren	32
▁Nassau	32
ugh	32
▁verheven	32
▁inspecteur	32
▁Sher	32
▁Bab	32
troffen	32
ld	32
▁programmering	32
▁medicijn	32
▁episode	32
▁vermist	32
gedachtenis	32
▁Website	32
alse	32
Zo	32
▁hernieuwde	32
▁ingetrokken	32
▁hertrouwde	32
▁projectieve	32
fried	32
▁vrijheden	32
▁kenden	32
▁bol	32
▁omstreden	32
▁Jam	32
ès	32
▁elektronica	32
rell	32
▁Korinthe	32
▁Change	32
delige	32
▁terreinen	32
terrein	32
wezen	32
houder	32
bla	32
script	32
▁Bauer	32
▁verkochte	32
▁Anno	32
▁ondertekenen	32
▁column	32
▁Sancho	32
▁droog	32
▁AC	32
▁beoordeling	32
cs	32
verdrag	32
▁Mul	32
▁bevelen	32
▁seksualiteit	32
▁UEFA	32
▁Fur	32
▁oppervlakken	32
Stad	32
▁gespeld	32
▁Burke	32
▁Northern	32
▁Maas	32
ergens	32
▁systematisch	32
▁waardering	32
▁kringen	32
▁warm	32
Nederland	31
▁Director	31
▁disc	31
▁deelnamen	31
▁toelating	31
▁gefascineerd	31
▁atletiek	31
gewisseld	31
▁Nicolas	31
▁veranderende	31
▁geschil	31
▁Jehova	31
▁Pisa	31
▁Tru	31
▁gewenste	31
▁vaardigheid	31
▁Faith	31
▁Dionysius	31
▁Beth	31
▁avant	31
vrijheid	31
hoven	31
▁syndroom	31
▁grondslag	31
▁verticale	31
▁elftal	31
illy	31
▁schedel	31
ET	31
paleis	31
My	31
▁oordeelde	31
iger	31
▁NV	31
▁Early	31
▁Herzegovina	31
ár	31
▁compagnie	31
▁besteed	31
WS	31
Star	31
non	31
liet	31
▁springen	31
▁CSI	31
vormige	31
▁Stand	31
▁specialiseerde	31
▁Bray	31
▁uitzenden	31
▁racisme	31
▁wetgevende	31
▁Nicolaas	31
licentie	31
▁Fleet	31
▁jagen	31
▁Thi	31
▁concrete	31
CB	31
▁boden	31
▁stichten	31
▁CA	31
twijfeld	31
hus	31
nin	31
redacteur	31
▁missionarissen	31
▁Test	31
spelers	31
sbeweging	31
▁Sejanus	31
▁overnam	31
onderwijs	31
▁beginselen	31
lier	31
▁opgeleverd	31
▁ei	31
▁Cou	31
▁Teresa	31
cas	31
▁Portugees	31
ded	31
▁metro	31
▁anonieme	31
▁Bru	31
kka	31
▁ontvanger	31
▁Drake	31
▁cast	31
▁Portugezen	31
▁kolom	31
cial	31
▁Wolff	31
▁Lijn	31
▁Kampioenschap	31
▁Marina	31
ather	31
▁Formula	31
artikel	31
▁warme	31
▁gede	31
▁aftreden	31
rekening	31
▁fractie	31
pec	31
tijdperk	31
▁wetenschaps	31
▁observatorium	31
gebouwde	31
vallei	31
kap	31
makers	31
erman	31
▁Claire	31
▁individueel	31
groei	31
▁improvisatie	31
▁toepassen	31
▁loyaal	31
▁hol	31
AE	31
action	31
▁tezamen	31
▁Pri	31
▁Lam	31
▁Antwerpse	31
▁kunstmatige	31
▁Adel	31
eng	31
escu	31
bis	31
▁stelsel	31
▁interpretaties	31
▁Mira	31
▁Emil	31
▁vakbonden	31
▁continenten	31
▁mislukt	31
▁kost	31
▁Online	31
▁Ensemble	31
▁grotten	31
▁vissers	31
▁verloofde	31
▁AS	31
▁etappe	31
▁Songs	31
▁ronden	31
▁doelpunten	31
▁periodiek	31
▁Nederlandsche	31
muzikant	31
▁kring	31
▁Verre	31
▁Kad	31
att	31
▁gedraaid	31
▁violist	31
▁fortuin	31
▁Desalniettemin	31
mechanisme	31
▁Rolling	31
oh	31
cta	31
▁hartaanval	31
▁Breda	31
▁Loo	31
▁Lind	31
▁Years	31
behalve	31
▁hydro	31
▁verdiepingen	31
▁Straat	31
▁Andreas	31
mid	31
▁Gua	31
▁schetsen	31
▁kelder	31
▁bin	31
▁Gauss	31
▁gehuisvest	31
gesteld	31
▁Cornell	31
▁geboortestad	31
▁symfonie	31
▁Zeegebied	31
ncia	31
▁eet	31
▁Stanford	31
▁gij	31
▁geëerd	31
▁rijtuigen	31
▁dronken	31
▁cabine	31
▁Edmund	31
twee	31
▁connectie	31
▁rechterflank	31
▁getuigenis	31
▁lab	31
▁ontwerpers	31
▁plaatst	31
▁belegerde	31
▁Agricola	31
▁troepenmacht	31
camp	31
▁stortte	31
anten	31
logic	31
welke	31
▁Mother	31
▁toevlucht	31
▁Bristol	31
schoon	31
Pierre	31
▁Guido	31
▁Dood	31
▁Vóór	31
pit	31
▁Ost	31
▁Case	31
▁overwinnen	31
▁sectoren	31
▁Laura	31
▁zeilde	31
▁ondervraagd	31
▁Base	31
▁hoofdplaats	31
▁toenmalig	31
▁Sue	31
▁buit	31
▁vreesde	31
▁groeit	31
▁toespraken	31
organ	31
▁opzichten	31
▁Color	31
▁Yoshi	31
▁semantisch	31
▁Keizerlijk	31
▁goedkope	31
▁Lau	31
avond	31
▁simpel	31
▁gletsjers	31
▁GP	31
▁rationele	31
velden	31
▁vereisen	31
▁tevergeefs	31
▁Ecuador	31
▁slogan	31
▁hekel	31
▁Sci	31
agi	31
gebonden	31
rk	31
▁tijdgenoten	31
uli	31
▁arena	31
?'	31
hall	31
▁mega	31
één	31
▁Ir	31
▁Serviërs	31
▁Moto	31
▁Circle	31
▁diplomaat	31
lok	31
ific	31
▁Gau	31
schrijver	31
ouwen	31
kwaliteit	31
▁thuisland	31
▁leg	31
▁class	31
▁level	31
▁duisternis	31
▁eiwitten	31
▁nachtclub	31
▁Quest	31
▁bloedbad	31
▁ridder	31
▁Rica	31
▁DVD	31
elt	31
▁bewaakt	31
element	31
TM	31
▁orthodoxe	31
▁elektro	31
Bahá	31
▁Ark	31
....	30
▁reëel	30
▁Grim	30
▁prefect	30
▁Olympic	30
▁Training	30
▁geschillen	30
▁Valencia	30
▁Essex	30
▁Maya	30
▁Motors	30
nard	30
▁kwantum	30
azar	30
eign	30
▁genootschap	30
▁patronen	30
▁kwetsbaar	30
▁huishoudens	30
schot	30
ride	30
▁Et	30
▁Norris	30
▁krachtiger	30
▁Tacitus	30
▁klacht	30
▁Lion	30
▁oor	30
cognitieve	30
▁plafond	30
▁worstelen	30
▁Claris	30
▁geschoten	30
▁Arch	30
▁schaars	30
▁Pal	30
kens	30
▁interim	30
▁gepromoot	30
▁Lindsay	30
concept	30
▁Montana	30
▁uitgangspunt	30
▁geografisch	30
▁Informatie	30
▁noordoostelijk	30
algebra	30
▁Techno	30
▁Flora	30
▁signalen	30
▁List	30
▁afscheid	30
▁Milo	30
UC	30
▁tellen	30
nan	30
▁reorganisatie	30
▁Papa	30
▁Multi	30
▁elektrisch	30
π	30
▁overlijdt	30
woorden	30
One	30
▁Woods	30
▁Nga	30
▁colleges	30
titels	30
▁overdreven	30
▁accent	30
gestuurd	30
CI	30
▁zones	30
Meestal	30
▁nek	30
▁notatie	30
TC	30
▁Arnhem	30
▁Police	30
▁blootgesteld	30
▁traag	30
▁Jackie	30
▁beveiliging	30
▁dichtstbij	30
zijnde	30
▁zitplaatsen	30
▁Socrates	30
▁Sav	30
▁aandeelhouders	30
▁Martina	30
▁Vriendschap	30
rail	30
▁verkoopt	30
▁applicatie	30
▁hiphop	30
▁donderdag	30
▁Fl	30
▁versierd	30
ania	30
▁hevig	30
▁Olaf	30
ś	30
▁recreatie	30
▁verstrekt	30
▁participatie	30
ène	30
kou	30
Din	30
▁tombe	30
plant	30
▁vertrouwde	30
▁plezier	30
▁Extra	30
▁regimenten	30
▁aanspraken	30
▁Gallisch	30
▁Perdiccas	30
▁Lud	30
▁Ran	30
▁Ronde	30
computer	30
▁overwogen	30
▁Hit	30
euze	30
capaciteit	30
▁pure	30
▁Sweet	30
Art	30
▁evacueren	30
▁Piet	30
▁dank	30
▁Av	30
▁make	30
▁Pass	30
▁Milieu	30
▁neergang	30
▁vijftiende	30
▁Libane	30
▁connecties	30
nieuwe	30
gezelschap	30
▁Isa	30
▁blazen	30
▁roem	30
pact	30
▁ramen	30
half	30
▁schoot	30
DO	30
▁Ted	30
▁Stuttgart	30
▁formulering	30
▁"...	30
▁Bolivia	30
▁uiteenval	30
▁Globe	30
Rock	30
▁adviseurs	30
▁Publishing	30
GM	30
▁IJ	30
▁Riga	30
▁play	30
operaties	30
▁boer	30
▁betrouwbaarheid	30
▁Collection	30
▁Chileen	30
▁ideale	30
▁cruise	30
heren	30
▁dom	30
▁Mei	30
▁Andrea	30
SW	30
▁bergachtig	30
▁zw	30
▁roep	30
▁oogst	30
▁Geo	30
▁Kun	30
▁Bron	30
ionen	30
SP	30
▁socialisme	30
▁boeddhisme	30
▁verrast	30
magnetische	30
▁Trio	30
rique	30
▁ernaar	30
▁heersend	30
kkel	30
▁Ibn	30
▁staatsburger	30
foto	30
▁off	30
hak	30
▁arrondissement	30
burn	30
zeg	30
dge	30
▁Historia	30
▁Fen	30
literatuur	30
▁Cox	30
▁middenklasse	30
▁Maagd	30
▁Auschwitz	30
▁schok	30
▁opgedeeld	30
▁wijken	30
▁getaltheorie	30
ē	30
▁Familie	30
ted	30
▁Cambodja	30
▁Norfolk	30
cam	30
▁Airbus	30
▁geboekt	30
sters	30
ijk	30
▁Indië	30
▁Chart	30
werkers	30
rent	30
▁Columbus	30
vid	30
▁Chu	30
▁Foster	30
▁aandoeningen	30
▁geconstrueerd	30
daal	30
▁unaniem	30
▁trap	30
▁gevel	30
▁intuïtie	30
▁geïnformeerd	30
▁Other	30
▁Sean	30
▁mi	30
▁annexatie	30
▁suggestie	30
▁Margaretha	30
trek	30
▁train	30
volging	30
▁aanklachten	30
▁uitbraak	30
▁Neurenberg	30
quin	30
iër	30
Si	30
▁voornaam	30
mission	30
▁Mare	30
▁waardigheid	30
▁weerspiegelt	30
rod	30
▁linkerflank	30
▁Reis	30
▁Alles	30
▁samenwerkte	30
▁geheten	30
▁kruistocht	30
▁concurrenten	30
▁gekleed	30
▁Panorama	30
▁uitbreidingen	30
ides	30
kus	30
▁groeperingen	30
▁lama	30
▁Belle	30
▁invoer	30
▁hospitaal	30
▁cocaïne	30
▁Ah	30
▁Dai	30
▁bezaten	30
wijn	30
▁VOC	30
▁world	30
▁Gij	30
▁Jakarta	30
▁Edwards	30
▁vrijwillig	30
▁Fran	30
▁opgegraven	30
cyclus	30
▁kortstondig	30
▁jouw	30
▁investeren	30
regel	30
▁Humanist	30
adel	30
▁astronoom	30
boy	30
▁medio	30
▁blijvende	30
▁Sud	30
sius	30
▁opsluiting	30
▁Think	30
▁sessies	30
persoon	30
bloed	30
▁Nicaragua	30
▁woordenboek	30
▁Tyr	30
▁boog	30
▁interacties	30
▁Kosovo	30
▁output	30
▁Bi	30
yama	30
omi	30
▁bestrijding	30
strategie	30
▁overvallen	30
▁uitzicht	30
voet	30
▁modernisering	30
▁Easy	30
▁melodie	30
▁inbegrepen	30
▁Rey	30
▁vertoonde	30
CA	30
▁Havana	30
▁sporten	30
eurs	30
▁dwergen	30
▁parlementslid	30
xt	30
▁Angelsaksische	30
hoorn	30
agent	30
▁symmetrie	30
▁paradox	30
▁Simpson	30
▁Ming	30
▁slaapkamer	29
korps	29
▁onthullen	29
▁Fri	29
▁lichamelijke	29
▁doos	29
▁Boedapest	29
dr	29
bekend	29
▁Need	29
pot	29
anne	29
▁Bis	29
▁Mead	29
▁eerlijk	29
▁intellectuelen	29
gn	29
oude	29
▁Than	29
▁plat	29
World	29
▁tevoren	29
▁stress	29
▁dramatische	29
▁Vertegenwoordig	29
▁toevallig	29
▁Rand	29
gebergte	29
▁Sumatra	29
▁order	29
richt	29
▁bewuste	29
ians	29
▁pk	29
hara	29
▁bondgenootschap	29
▁Regering	29
Dat	29
▁diamant	29
CF	29
▁resulteren	29
Jo	29
▁geleefd	29
▁Lorenzo	29
▁complexiteit	29
▁komedie	29
dict	29
achtereenvolgens	29
▁Labour	29
▁Afgevaardigden	29
loog	29
▁hoorn	29
vloed	29
▁instituties	29
▁tolerantie	29
brief	29
gul	29
▁Afhankelijk	29
▁psychische	29
AC	29
duizend	29
▁haast	29
▁statuten	29
▁mu	29
▁Plaza	29
▁filter	29
▁docenten	29
gun	29
ibi	29
▁moleculen	29
▁Mozarts	29
AV	29
▁prachtige	29
▁vocale	29
▁beheersen	29
▁opmerkingen	29
▁gameplay	29
▁dromen	29
▁Uniface	29
▁tieners	29
öl	29
banden	29
▁batterij	29
▁Eye	29
▁Rembrandt	29
▁Private	29
▁verhandelingen	29
▁aardgas	29
uele	29
factor	29
ald	29
otti	29
mart	29
▁Maurice	29
▁klei	29
▁ingericht	29
▁AT	29
▁verdachten	29
▁thans	29
▁Own	29
▁landde	29
▁heilig	29
meerd	29
kwa	29
sit	29
▁Bir	29
▁elfde	29
▁zestiende	29
▁conservatief	29
▁Dienst	29
▁Sultan	29
él	29
isco	29
▁gespannen	29
▁eigentijds	29
▁afwezig	29
iba	29
▁Flash	29
▁Verscheiden	29
▁criminaliteit	29
liefde	29
leur	29
▁bovenstaande	29
▁kastelen	29
▁gelovigen	29
GS	29
▁Bretagne	29
doen	29
▁minuut	29
▁vind	29
▁Contra	29
▁helium	29
▁daaraan	29
▁Hua	29
▁verdiensten	29
▁stel	29
▁Index	29
▁eeuwig	29
▁fysica	29
▁Pub	29
Di	29
▁Choice	29
▁berekeningen	29
▁Lotus	29
▁check	29
▁advertentie	29
▁crash	29
▁strategieën	29
motoren	29
▁klokken	29
lde	29
▁Observatory	29
▁gehoor	29
▁Thebe	29
▁creëert	29
▁Gibson	29
▁engel	29
hua	29
informatie	29
SU	29
py	29
▁Nobu	29
▁Zagreb	29
TH	29
held	29
▁zwemmen	29
▁Regio	29
▁Ars	29
aantal	29
▁erger	29
grepen	29
beurs	29
zing	29
▁grand	29
▁Vietname	29
▁gereedschap	29
▁Medici	29
tai	29
▁reist	29
▁erbij	29
▁begrensd	29
▁tweeling	29
▁danser	29
wacht	29
▁woud	29
▁Vichy	29
▁Achter	29
OR	29
▁interface	29
▁ITV	29
▁Leone	29
▁Oak	29
Bu	29
▁origine	29
▁(‘	29
▁Taka	29
bia	29
▁postuum	29
▁vondsten	29
▁honger	29
shu	29
Fi	29
▁Claudius	29
▁Track	29
ondernemingen	29
▁produceerden	29
oost	29
▁prefectuur	29
schadevergoeding	29
▁Franken	29
tape	29
▁branden	29
▁Pin	29
▁Ou	29
▁DDR	29
▁Kil	29
▁Stadium	29
▁Riley	29
eeuws	29
▁Henderson	29
▁Antarctica	29
tegenwoordig	29
▁overschot	29
▁Gouverneur	29
Net	29
ezel	29
▁enthousiast	29
▁‘’	29
rapport	29
▁Alpha	29
▁Brain	29
▁draag	29
▁offer	29
▁Duncan	29
▁bloei	29
▁Aba	29
▁riepen	29
▁initië	29
▁SE	29
▁besteden	29
▁Dio	29
▁Interactive	29
▁indeling	29
▁Tag	29
acteur	29
▁Alfa	29
▁Kart	29
▁Miranda	29
▁hybride	29
▁motieven	29
▁Cold	29
▁Stop	29
▁hal	29
▁Mongolië	29
▁XII	29
▁opzettelijk	29
▁stadhouder	29
▁kroniek	29
▁achteruit	29
rone	29
▁onsuccesvol	29
▁authenticiteit	29
▁Maps	29
▁bemachtigen	29
▁Nissan	29
ades	29
Jan	29
stromen	29
▁hemzelf	29
▁langst	29
▁Cry	29
▁Alma	29
glo	29
▁Clare	29
MB	29
cyclo	29
▁Gang	29
▁Allah	29
▁Wig	29
yang	29
▁Ieder	29
▁wereldkampioen	29
▁geformuleerd	29
▁Ace	29
▁Amen	29
▁Gate	29
▁Brun	29
grond	29
▁tienduizend	29
▁Lor	29
▁Talk	29
CM	29
→	29
▁Professional	29
▁Beatrice	29
iri	29
▁kromme	29
▁Himalaya	29
▁Spelers	29
▁weekblad	29
▁Leibniz	29
oever	29
▁Zen	29
▁Lucia	29
▁Versie	29
Da	29
▁ogenschijnlijk	29
reizen	29
▁Liber	29
Koreaans	29
▁tu	29
▁fortificaties	29
▁bezwaren	29
▁CH	29
▁oefenen	29
▁Nacht	29
▁proza	29
▁scheppen	29
▁oriëntatie	29
CENELEC	29
▁regelde	29
▁ideologisch	29
▁rekenen	29
▁Crime	29
vrouwen	29
▁Flying	29
▁Nine	29
▁reünie	29
winnaar	29
▁Yama	29
▁gemonteerd	29
▁Catalaanse	29
▁bacteriën	29
▁gedrukte	29
▁hou	29
▁your	29
sei	29
▁sets	29
neemt	29
▁Schmidt	29
kort	29
▁Noch	29
▁regeren	29
own	29
▁Rick	29
▁bepaling	29
ppel	28
▁onderdrukken	28
sworth	28
▁Save	28
rel	28
▁onderhandelde	28
▁Northwest	28
hut	28
▁Bit	28
▁Bang	28
▁charter	28
UB	28
▁uitzonderingen	28
▁Quartet	28
▁Ebony	28
▁Abel	28
▁Dame	28
▁Miguel	28
▁Half	28
▁fungeerde	28
ulf	28
▁Siberië	28
▁Institut	28
▁Bosnisch	28
wald	28
▁Mik	28
▁ambities	28
▁Cir	28
slav	28
▁wolven	28
nel	28
uze	28
▁jagers	28
▁Fernando	28
▁complot	28
klassen	28
▁Canon	28
▁exponent	28
▁gematigde	28
principe	28
▁blokkeren	28
▁cc	28
▁verwachtte	28
▁Mississippi	28
▁CNN	28
▁kubus	28
▁empirische	28
rith	28
Deze	28
▁Timoleon	28
▁verplichte	28
▁terugkeert	28
▁Archimedes	28
vé	28
▁Aragón	28
▁olifant	28
procedure	28
optredens	28
▁perceptie	28
▁Tr	28
arbeiders	28
▁Anderzijds	28
▁tracé	28
▁meningen	28
▁Kath	28
▁gaande	28
▁Venezolaans	28
▁lit	28
▁Geest	28
▁betalingen	28
▁download	28
▁Kaiser	28
▁Société	28
rond	28
nor	28
zaal	28
▁Kunsten	28
▁AR	28
golf	28
▁Tsjecho	28
▁Princeton	28
hield	28
tier	28
▁opbouwen	28
▁noten	28
kh	28
▁differentiaal	28
oorspronkelijk	28
▁meent	28
▁Zulk	28
gard	28
▁gram	28
▁Py	28
▁passages	28
▁omsingeld	28
kke	28
▁avontuur	28
▁Enschede	28
▁Campaign	28
▁Historisch	28
▁volwaardig	28
▁Only	28
kleding	28
eth	28
mel	28
▁Sri	28
▁Jeanne	28
▁kooplieden	28
▁veertiende	28
▁Pell	28
under	28
▁Sisters	28
logisch	28
▁Tata	28
wetten	28
▁Financi	28
▁verdediger	28
▁fungeert	28
▁huishouden	28
▁Policy	28
▁overwonnen	28
Sa	28
▁Match	28
▁Wegen	28
▁Jarrah	28
oto	28
illo	28
▁Mir	28
▁respons	28
raket	28
▁Wereldbank	28
▁Philippos	28
▁wijnen	28
▁bonus	28
▁zaden	28
DL	28
oppervlak	28
moeder	28
▁Princess	28
▁Gwen	28
▁blootstelling	28
▁Twente	28
aap	28
▁Superman	28
▁doneerde	28
▁lijdt	28
gehele	28
▁aantonen	28
▁combinaties	28
▁monsters	28
gehalte	28
▁Revolution	28
▁paramilitaire	28
▁Object	28
▁Byron	28
▁Antiochië	28
▁Michiel	28
▁Rosas	28
▁millennium	28
▁burgerrechten	28
raz	28
▁national	28
▁fa	28
▁oefeningen	28
ew	28
▁Physic	28
▁CP	28
▁particulier	28
▁Eyes	28
▁literair	28
▁Industrie	28
▁paviljoen	28
▁gerucht	28
nell	28
▁aanvraag	28
▁besefte	28
▁Wachttoren	28
▁aanviel	28
geloof	28
▁Architect	28
▁Vietnamoorlog	28
▁Student	28
▁Putnam	28
afstand	28
▁wijdverbreid	28
▁Ky	28
▁eindigden	28
teelt	28
▁Normandische	28
long	28
▁drijven	28
▁verwelkomd	28
▁onverwachte	28
▁geïmporteerd	28
▁beantwoorden	28
▁voorraad	28
▁Bath	28
▁stoel	28
unt	28
▁kapitalisme	28
gangen	28
▁doorgebracht	28
▁Kenny	28
▁Kenneth	28
▁geestelijken	28
▁gerekruteerd	28
▁voorafgaande	28
▁Lamb	28
▁Mai	28
▁rap	28
▁tracht	28
▁Solomon	28
▁verlaagd	28
▁stage	28
▁Hoorn	28
Cha	28
▁gyre	28
▁hiërarchie	28
▁Vall	28
BD	28
▁Montgomery	28
▁bloem	28
▁Dmitri	28
▁groeiden	28
▁Duke	28
▁vulkanische	28
▁Benedict	28
▁aantekeningen	28
gesloten	28
▁Bour	28
▁AD	28
▁Voormalig	28
bed	28
brook	28
▁subjectie	28
▁kusten	28
▁vergiftigd	28
▁prinsen	28
matig	28
▁Some	28
▁stormen	28
▁raden	28
roy	28
▁bussen	28
tsu	28
iso	28
▁Corn	28
▁driehoek	28
oon	28
▁Heaven	28
▁Nicholas	28
sessie	28
▁Bernhard	28
▁blokkade	28
▁Poetin	28
▁asiel	28
▁Why	28
▁Mathematica	28
▁definieerde	28
▁Hayes	28
▁Emmy	28
▁elementaire	28
▁Sloveens	28
meestal	28
▁subsidies	28
▁sc	28
▁tag	28
▁Liberia	28
▁Ai	28
▁Roe	28
stoffen	28
▁Ege	28
▁waarschuwen	28
eken	28
▁verrichtte	28
▁archeologen	28
▁heldere	28
▁power	28
▁cruciaal	28
▁primitieve	28
▁anoniem	28
uck	28
▁buitenwereld	28
▁stopten	28
▁Haïti	28
▁overgangs	28
▁coöperatie	28
▁Aaron	28
▁geluids	28
hoe	28
▁parodie	28
▁Laurent	28
▁Earl	28
▁verenigde	28
▁fo	28
▁acteer	28
rine	28
▁schijf	28
▁Hawk	28
▁Murphy	28
haar	28
▁belooft	28
▁bezwaar	28
α	28
von	28
eisen	28
▁onderbreking	28
monument	28
▁sprong	28
ciën	28
ezen	28
▁Parks	28
▁goedkoop	28
▁worstel	28
▁Discovery	28
▁temperaturen	28
▁but	28
▁Senegal	28
▁Haas	28
gebruikers	28
▁feestdag	28
▁Sullivan	28
▁beschavingen	28
itt	28
▁Philippine	28
▁Harvey	28
▁Tyson	28
▁vj	28
igen	28
▁Logan	28
▁regerend	28
▁verhuizing	28
▁Singh	28
▁fles	28
▁gerechtelijk	28
▁Shelley	28
▁Toledo	28
▁inleiding	28
▁Cent	28
▁Malco	28
▁Solo	28
▁luchthavens	28
instellingen	28
▁Fry	28
▁landschaps	28
▁realiseert	28
▁bevordert	28
datum	28
▁dwang	28
▁Minor	28
▁format	28
sloeg	28
ario	28
handelaar	28
telecommunicatie	28
mac	28
▁Cody	28
▁geschenk	28
▁holomorf	28
▁PV	28
té	28
mir	28
▁Springs	28
▁trajectdeel	28
PE	28
▁XI	28
SC	28
bon	28
▁Wisconsin	28
fl	28
schrijvers	28
▁Korte	28
▁liefdadigheids	27
skosten	27
▁ondernemer	27
▁informeren	27
▁san	27
▁recensies	27
erik	27
▁Nice	27
▁vergelijkend	27
▁gemak	27
▁Philosophy	27
arrow	27
▁evaluatie	27
▁marktaandeel	27
▁Eagle	27
Kan	27
▁Jakob	27
ël	27
▁wijden	27
▁geologie	27
▁financier	27
leggen	27
▁miniserie	27
▁atheïstische	27
▁Detroit	27
kleine	27
▁Paradise	27
▁Orange	27
▁Seattle	27
▁vrijwilliger	27
▁curator	27
▁Seg	27
itch	27
▁verzoeken	27
▁voldaan	27
IL	27
▁aanhang	27
▁Catalonië	27
▁Rocket	27
▁Spi	27
▁Staff	27
▁keerpunt	27
▁enerzijds	27
▁Ibrahim	27
▁helikopters	27
horizontale	27
▁Sax	27
▁rente	27
▁onzekerheid	27
▁Patricia	27
▁bekering	27
Ō	27
▁emissie	27
vergelijkingen	27
▁Kawa	27
▁input	27
▁Mozart	27
▁kloof	27
bei	27
▁Ests	27
▁tempo	27
vet	27
▁meneer	27
▁genereren	27
ated	27
▁Jos	27
▁gestoken	27
▁ineenstorting	27
▁Jennifer	27
▁staatshoofd	27
▁tand	27
rob	27
▁Wasp	27
▁jager	27
▁Zeeland	27
riet	27
▁solidariteit	27
▁Jet	27
▁sociologie	27
▁Congolese	27
rü	27
fest	27
merken	27
▁verzette	27
▁schilderkunst	27
▁gezonde	27
▁Heavy	27
▁vereisten	27
▁Jesse	27
▁mythe	27
unk	27
yi	27
▁verbroken	27
▁Pl	27
▁tumor	27
▁Walt	27
▁Kiss	27
▁rustig	27
▁Siena	27
▁Blind	27
▁Bataafs	27
▁Inquiry	27
eraard	27
▁Bestuur	27
▁Mae	27
▁Highway	27
▁expliciete	27
▁Bacon	27
▁verwoestte	27
▁Culture	27
▁Drive	27
▁westkust	27
▁love	27
▁Koe	27
▁Martha	27
▁Thessalië	27
▁codes	27
▁uitvindingen	27
cie	27
▁Bartók	27
Die	27
Hu	27
▁boete	27
▁Andr	27
▁Opel	27
▁ju	27
▁Return	27
lix	27
▁Ved	27
▁Mauritanië	27
ork	27
▁Xavier	27
▁Tale	27
▁Waterloo	27
▁omschrijft	27
delta	27
⁄	27
▁mengsel	27
▁mindere	27
▁Deng	27
adviseur	27
▁Zwart	27
▁Hits	27
▁puzzel	27
▁SmackDown	27
▁explosieven	27
▁agenda	27
▁sloop	27
▁NGO	27
▁Alt	27
▁Tech	27
▁volkstelling	27
▁deelden	27
▁kerkhof	27
▁toevoegen	27
▁lood	27
▁wijsheid	27
▁Mau	27
▁meermaal	27
okken	27
shire	27
▁Fr	27
▁splitste	27
▁Constant	27
▁Silva	27
▁smalle	27
▁stelen	27
kundige	27
▁Tam	27
trip	27
▁Salzburg	27
▁grondwettelijk	27
▁duidt	27
▁CE	27
▁jezuïeten	27
▁reflectie	27
▁Swan	27
▁fotografisch	27
▁Gerald	27
▁wal	27
▁opgegeven	27
▁verhuurd	27
eff	27
▁worstelde	27
▁papers	27
▁Cas	27
▁Perth	27
▁exotisch	27
▁Oregon	27
▁Money	27
▁verschaffen	27
▁Mainz	27
aanstaande	27
▁Set	27
▁laser	27
▁satire	27
▁meldt	27
▁galerij	27
And	27
fort	27
▁betoog	27
▁Inside	27
▁Stella	27
imus	27
ocht	27
Go	27
mode	27
▁Dante	27
getal	27
▁verkoper	27
state	27
ares	27
▁grafisch	27
▁Lot	27
about	27
▁María	27
▁Muse	27
▁Goud	27
▁crimineel	27
▁Player	27
▁Tyler	27
▁Racer	27
▁meedoen	27
▁XIV	27
▁transacties	27
▁openbaring	27
lidstaten	27
▁Prime	27
▁gezorgd	27
▁indertijd	27
▁dichtbij	27
▁Epirus	27
▁verhoging	27
▁gecontroleerde	27
▁iPhone	27
ui	27
▁redde	27
▁Eastern	27
▁IPF	27
▁Locke	27
▁bestseller	27
missies	27
mori	27
▁MD	27
ramp	27
▁engelen	27
▁Granada	27
status	27
cover	27
▁samenvatting	27
▁Fre	27
▁startten	27
▁Psycho	27
intensief	27
▁Syn	27
▁fragment	27
▁Astro	27
▁first	27
service	27
denk	27
▁monopolie	27
▁bestempeld	27
boven	27
bracht	27
▁Flag	27
vlag	27
▁botten	27
bits	27
▁Fantastic	27
▁lief	27
▁Que	27
▁faalde	27
▁transformaties	27
▁Beieren	27
▁verantwoording	27
vit	27
▁Core	27
▁meningsverschil	27
▁Cast	27
▁primair	27
▁intense	27
▁Göttingen	27
Mer	27
▁begaan	27
▁Mongoolse	27
ives	27
ouw	27
▁basisschool	27
▁aangebracht	27
▁Zoon	27
▁bataljons	27
▁satellieten	27
gram	27
▁uitvoerig	27
▁gevangene	27
▁productieve	27
▁patriarch	27
Is	27
▁doodgeschoten	27
▁aanvoerder	27
▁March	27
▁Duitstalige	27
ijen	27
▁ambitie	27
prim	27
▁gebundeld	27
▁minnaar	27
▁fuseerde	27
oer	27
▁eiwit	27
augh	27
▁wachtte	27
▁batterijen	27
▁MP	27
▁Frey	27
▁waardevol	27
rechts	27
phon	27
tien	27
▁Gis	27
▁Pho	27
▁Michail	27
▁Theodor	27
▁Well	27
▁geannexeerd	27
▁beeldhouwer	27
record	27
beide	27
▁multinational	27
▁concessies	27
▁Jeremy	27
▁Iers	27
▁installeren	27
nivers	27
▁Germania	27
▁Burzynski	27
▁SF	27
▁bewijsmateriaal	27
uitzendingen	27
sgebieden	27
bovennatuurlijke	27
▁Bonaparte	27
▁bewakers	27
▁Baldwin	27
▁Algemeen	27
staan	27
▁Antiochus	27
ement	27
▁LP	27
▁vertrouwd	27
FI	27
▁academisch	27
ün	27
▁tegengehouden	27
▁registreerde	27
▁spook	27
|	27
▁Bag	27
▁streefde	27
▁administratief	27
▁instabiliteit	27
▁vrijwillige	27
▁Habsburgse	27
▁Eumenes	27
▁Mrs	27
▁stroomt	27
▁BASIC	27
▁landelijk	27
▁transmissie	27
▁Living	27
▁gelijkaardig	27
▁Gong	27
▁Britain	27
▁plande	27
ault	27
heel	27
RM	27
song	27
▁update	27
▁stopt	27
▁Mix	27
▁ESF	27
▁supporters	27
rim	27
▁FF	27
▁sympathie	27
FC	27
▁goedkoper	27
CAP	27
▁Gödel	27
▁schetst	27
▁aanpassen	27
▁music	27
▁synthetisch	27
▁Frankisch	27
God	26
▁commissies	26
▁Hoop	26
▁Kru	26
▁evalueren	26
▁Oostenrijkers	26
▁biograaf	26
life	26
▁Energie	26
▁handelsmerk	26
spanning	26
▁heiligen	26
▁compatibel	26
▁Middle	26
ibus	26
▁euclidische	26
▁lichten	26
▁Qing	26
elo	26
▁tactische	26
▁dierlijk	26
▁koepel	26
▁continuïteit	26
wie	26
aks	26
erden	26
thische	26
dieren	26
▁gene	26
▁Cesare	26
▁coma	26
▁bak	26
formule	26
bom	26
coach	26
▁verlopen	26
▁boodschapper	26
bod	26
LI	26
▁Pos	26
▁citaat	26
▁Prof	26
DC	26
▁oversteek	26
▁tuberculose	26
rag	26
▁Vergennes	26
▁gecodeerd	26
▁marteling	26
▁begroting	26
▁significant	26
▁bruggenhoofd	26
▁economieën	26
▁arresteren	26
▁rechterhand	26
▁Agnes	26
▁Pres	26
▁concurrerende	26
▁drukker	26
▁Wave	26
It	26
▁Speed	26
▁werelden	26
▁Kel	26
▁competities	26
▁Monaco	26
▁atomen	26
tempel	26
▁manipuleren	26
Cl	26
▁dik	26
secretaris	26
▁uitbarstingen	26
▁geschiedschrijv	26
▁wekken	26
▁Ridder	26
▁verstoren	26
▁Tempel	26
▁Jesus	26
liggend	26
▁Rally	26
▁Cra	26
▁voldeed	26
▁Yellow	26
quit	26
▁gooien	26
get	26
▁Through	26
▁dreigt	26
▁wandel	26
litz	26
lip	26
▁krijgs	26
plaatsvervangend	26
▁Might	26
▁duel	26
▁nalatenschap	26
▁tragisch	26
▁Ey	26
▁organiseerden	26
onia	26
▁Assyrisch	26
standaarden	26
▁Kwa	26
▁kleren	26
vil	26
▁enthousiasme	26
▁Rhein	26
▁beoogde	26
▁Els	26
▁miste	26
▁afgestudeerd	26
▁verbaasd	26
▁jurisdictie	26
emann	26
scherm	26
▁levendig	26
▁wi	26
▁Government	26
rou	26
▁theoretisch	26
▁Jun	26
▁Robertson	26
▁filmmaker	26
bestemming	26
ndi	26
▁kometen	26
▁Hopkins	26
TP	26
▁Christine	26
▁Palmer	26
leer	26
▁degelijk	26
▁profiel	26
▁Veiligheids	26
▁herdrukt	26
Ch	26
▁county	26
groot	26
▁Vid	26
▁zuidoostelijk	26
▁mystiek	26
▁Hanze	26
▁onvermijdelijk	26
Day	26
weer	26
▁Voedsel	26
▁mineralen	26
▁atleten	26
▁Renz	26
▁bestuurslid	26
▁football	26
▁Pel	26
▁stal	26
▁burgemeesters	26
▁Verona	26
▁misbruikt	26
▁life	26
gids	26
hei	26
▁pilot	26
VV	26
▁anarchistische	26
▁Teheran	26
face	26
bili	26
▁Admiraal	26
▁Strong	26
▁Volkspartij	26
▁Rib	26
roman	26
▁Tribe	26
▁selecteren	26
▁Tat	26
▁avonds	26
▁Ada	26
▁kwaliteiten	26
▁Boe	26
▁Gol	26
FR	26
▁zwaartekracht	26
stig	26
▁vakgebied	26
Hongarije	26
christelijke	26
▁antwoordt	26
▁verdwijning	26
▁posten	26
Om	26
▁Cru	26
▁Intel	26
▁Gaius	26
▁archeologie	26
▁Artyom	26
▁opgehangen	26
houd	26
▁Albanië	26
▁Okinawa	26
elukkig	26
▁Auguste	26
Nederlandstalige	26
ists	26
▁bespreek	26
▁radiozender	26
▁Léon	26
▁protectoraat	26
gangers	26
▁Cunningham	26
▁bekwaam	26
sem	26
▁Visser	26
Land	26
▁Hub	26
sverdrag	26
▁octrooi	26
▁gecast	26
▁Irene	26
▁Emily	26
▁gestaakt	26
▁Monster	26
▁Rüdiger	26
▁twijfels	26
mba	26
▁waarnaar	26
▁Novella	26
▁vorstendom	26
▁Cel	26
sbibliotheek	26
sgebied	26
▁nagelaten	26
▁smeekt	26
▁Budd	26
▁voortgang	26
▁stoffelijk	26
▁Hess	26
▁Fermat	26
▁cursussen	26
▁aandeelhouder	26
▁ambtstermijn	26
▁zu	26
hausen	26
▁vernietigde	26
▁oefende	26
▁SCI	26
dheid	26
pé	26
▁Valk	26
▁Saw	26
▁sneuvelde	26
▁MC	26
neming	26
kwartier	26
▁kwantitatie	26
nai	26
▁Bouw	26
▁verschuiving	26
ivi	26
▁Uni	26
▁Foot	26
teau	26
▁Powell	26
▁negeren	26
▁astronomen	26
▁kwik	26
▁terroristen	26
gift	26
▁omgaan	26
▁Gesellschaft	26
▁Hippo	26
▁Rosen	26
▁Andorra	26
▁Adventure	26
▁Kreuz	26
fgezien	26
standers	26
▁Werken	26
▁veldslagen	26
▁sound	26
politie	26
▁excuses	26
sniveau	26
▁verzekerd	26
▁Total	26
▁stichtten	26
ș	26
▁gevlogen	26
▁kunstwerk	26
modus	26
schaal	26
▁Gross	26
▁Quebec	26
▁farao	26
bouwers	26
▁EX	26
▁treffen	26
▁demon	26
▁rijen	26
▁uitoefenen	26
▁Loch	26
▁ambassadeurs	26
data	26
▁Bros	26
soms	26
WF	26
filosofie	26
▁voedings	26
screen	26
▁efficiënte	26
▁have	26
▁vulkanen	26
straling	26
▁neutraliteit	26
▁Kle	26
▁claimt	26
▁Kant	26
▁aanmoedigde	26
eraadpleegd	26
▁weigering	26
▁orkesten	26
▁planetoïde	26
▁vijandig	26
▁dame	26
▁Dirk	26
innen	26
▁digitaal	26
Voor	26
locaties	26
▁Lage	26
aceae	26
▁versloegen	26
▁Davies	26
verenigingen	26
▁attracties	26
aangaande	26
▁feesten	26
▁IS	26
▁sporadisch	26
▁benen	26
▁Nickelodeon	26
▁Manfred	26
▁PSP	26
▁intellectueel	26
▁Gregorius	26
▁Arn	26
▁omgang	26
aci	26
▁conservatorium	26
▁fascistische	26
▁Michaels	26
▁Rise	26
▁strips	26
▁statistieken	26
▁Frei	26
Cola	26
schilder	26
▁oogpunt	26
▁facties	26
▁geloofwaardig	26
▁HTML	26
raw	26
▁Iberisch	26
▁Caz	26
byte	26
▁Pilot	26
▁dictatuur	26
▁Links	26
▁Directeur	26
▁klant	26
▁Gates	26
▁Swa	26
▁klap	26
▁Alba	26
▁Lip	26
▁republikein	26
genre	26
lant	26
▁langetermijn	26
▁eco	25
VS	25
▁anno	25
▁spionage	25
▁gemarteld	25
▁Weimar	25
▁synagoge	25
kolonel	25
▁Lyceum	25
▁Font	25
▁Vilnius	25
▁Huntington	25
▁verwond	25
▁grootouders	25
▁Brook	25
▁Twin	25
▁Peak	25
▁huisvesting	25
▁biografieën	25
▁Hoover	25
grens	25
▁CC	25
stru	25
iving	25
▁inlichtingen	25
binnen	25
Ba	25
▁Heritage	25
▁beweegt	25
▁professionals	25
dicht	25
▁Pala	25
▁Robbie	25
▁kaas	25
▁Poincaré	25
vertegenwoordig	25
▁lening	25
▁XIII	25
▁gecompliceerd	25
▁winden	25
▁Blauwe	25
kam	25
▁Spr	25
▁Andrews	25
sme	25
▁executies	25
▁dienstplicht	25
▁bevroren	25
try	25
beck	25
▁Euclides	25
▁Guinness	25
▁choreografie	25
▁pub	25
▁Eusebius	25
▁gecoverd	25
▁Letter	25
scene	25
▁Heli	25
▁Circuit	25
▁schouder	25
tek	25
▁belandde	25
▁November	25
▁Communications	25
moedig	25
▁nicht	25
▁Stel	25
▁Mog	25
vak	25
▁louter	25
▁hervatten	25
▁teruggestuurd	25
▁mal	25
▁gereserveerd	25
▁Mans	25
▁Ob	25
Č	25
▁opgelopen	25
▁Hampton	25
▁waarnemer	25
▁lettertype	25
▁stadsmuren	25
▁squadron	25
mund	25
▁Hos	25
gé	25
▁geïnvesteerd	25
▁teruggegeven	25
Abdu	25
▁voice	25
▁Apo	25
▁hitte	25
nium	25
▁gratie	25
akt	25
stadion	25
▁Arizona	25
▁Vloot	25
▁jongeman	25
▁activa	25
BE	25
▁Jose	25
▁bezorgde	25
IV	25
issa	25
▁cross	25
▁getto	25
▁Tunnel	25
▁Shot	25
▁Zhang	25
parti	25
tafel	25
bau	25
▁mechanismen	25
formeel	25
▁Alexanders	25
▁Gebruikers	25
ijl	25
ervaring	25
▁French	25
CD	25
▁Sociaal	25
▁Tibetan	25
▁zinnen	25
▁gereorganiseerd	25
▁Spin	25
▁Vrijheid	25
▁Made	25
▁Plat	25
dine	25
▁omgekeerd	25
▁dure	25
▁staande	25
▁aangeeft	25
apparaat	25
▁Goodman	25
mogelijkheden	25
▁Jacobs	25
▁Herr	25
▁herbergt	25
▁Drug	25
▁weerstaan	25
?".	25
▁Att	25
▁plichten	25
▁Beck	25
GG	25
▁gezichten	25
▁scherpe	25
▁Cherokee	25
▁organisator	25
▁Jensen	25
▁afstuderen	25
▁vals	25
▁geel	25
lev	25
opnames	25
▁haalden	25
schal	25
▁functionaal	25
akte	25
▁Smolensk	25
▁innemen	25
jam	25
▁verg	25
▁combineert	25
▁verontschuldig	25
website	25
▁Reid	25
▁Pictures	25
gevend	25
▁Floris	25
▁Album	25
▁eenmalig	25
▁Roth	25
AT	25
▁iTunes	25
▁plechtig	25
gers	25
▁decor	25
▁hervat	25
▁Next	25
▁beoordelen	25
▁leeuwen	25
▁Maximiliaan	25
▁tragedie	25
▁drinkwater	25
▁indianen	25
▁Innocenti	25
▁olympisch	25
▁Stadion	25
bericht	25
sim	25
▁Egyptenaren	25
▁patriotten	25
▁zend	25
▁gerangschikt	25
▁Saksen	25
steun	25
▁onwettig	25
▁Queens	25
▁wolf	25
▁minor	25
▁zul	25
▁terughoudend	25
ais	25
▁ceremoniële	25
▁Paltserwoud	25
▁Noah	25
▁slechter	25
ssi	25
▁standbeelden	25
ole	25
▁Kaapstad	25
▁Roch	25
▁Str	25
▁voorzitterschap	25
▁nature	25
▁herdacht	25
schouw	25
▁masker	25
▁Ivy	25
CE	25
UP	25
▁IJzer	25
▁strenger	25
▁aangehaald	25
Académie	25
▁terreur	25
▁kenmerkt	25
ral	25
▁correcte	25
KA	25
▁voorspelling	25
Part	25
▁zak	25
▁Ultra	25
▁onderscheidt	25
▁dominee	25
▁columns	25
circuit	25
illon	25
cks	25
▁gereconstrueerd	25
ock	25
▁Belangrijke	25
▁Stilicho	25
▁servers	25
▁German	25
▁transfer	25
stond	25
▁Luchtmacht	25
thans	25
ebaseerd	25
▁Avengers	25
staf	25
▁tellende	25
EU	25
▁Method	25
▁vernieuwd	25
▁brachytherapie	25
ain	25
▁vergeven	25
▁daartoe	25
▁Camille	25
Mu	25
ulatie	25
▁verkoos	25
▁Willems	25
▁Edwin	25
▁aanhoudend	25
▁bruid	25
▁Henk	25
▁naartoe	25
student	25
▁Connecticut	25
▁Epp	25
▁mythologisch	25
atieve	25
▁Shirley	25
rijze	25
▁Saar	25
▁director	25
▁verscheept	25
Accademi	25
▁Sugar	25
slid	25
▁uitgeoefend	25
nic	25
▁onbepaald	25
▁sl	25
▁Creative	25
▁zichtbare	25
▁stoelen	25
▁adem	25
processen	25
▁holding	25
▁lp	25
special	25
▁Cass	25
khan	25
▁zonk	25
▁Hemingway	25
▁Jenny	25
koming	25
artikelen	25
▁stranden	25
▁Enig	25
▁Bak	25
writer	25
▁Sevilla	25
▁Rouge	25
▁stijgt	25
▁eeuwenlang	25
▁gegeten	25
talige	25
albums	25
▁Antonius	25
▁chassis	25
▁Ooster	25
▁Ala	25
urg	25
vliegende	25
▁Khmer	25
▁punk	25
▁analyses	25
Hara	25
hel	25
▁Echols	25
▁schoon	25
▁depot	25
Zweeds	25
▁buitenaardse	25
▁Aerospace	25
BS	25
▁advertenties	25
▁Karen	25
▁Salon	25
▁mobiliteit	25
▁Gam	25
▁vloek	25
▁gemarkeerd	25
▁veralgemening	25
lian	25
kanalen	25
▁grootmeester	25
▁actuele	25
▁Gregory	25
▁formeerde	25
▁Beatrix	25
▁Male	25
▁Enix	25
▁navigatie	25
@	25
▁Moeder	25
▁Aspasia	25
▁fossiele	25
▁elliptische	25
▁kapittel	25
presentator	25
▁onderste	25
▁Pieces	25
▁Kris	25
concerten	25
▁overvloed	25
▁Jump	25
▁Kei	25
▁neven	25
▁opgegroeid	25
restrictie	25
ionisme	25
dur	25
▁Acc	25
▁Pac	25
Oost	25
▁verzorgt	25
▁poëtische	25
RV	25
▁referenties	25
▁oost	25
▁dekken	25
VT	25
▁beperking	25
oid	25
▁aanrak	25
▁Sieg	25
▁huren	25
voorbeeld	25
▁herontdekt	25
▁Lucius	25
?”	25
immer	25
▁krater	25
▁elimineren	25
▁afwijzing	25
▁aria	25
▁partijleider	25
▁kruisers	25
▁Eliza	25
▁Beauregard	24
▁Ladislaus	24
kleur	24
▁EC	24
▁Domingo	24
▁kronieken	24
▁Fly	24
▁tweedelig	24
▁mantel	24
▁functionaliteit	24
▁voeding	24
▁Left	24
▁beschadigde	24
▁afhankelijkheid	24
▁uitverkocht	24
tem	24
▁overtuig	24
▁voorspeld	24
▁wijzigde	24
▁Goten	24
▁Sham	24
▁opties	24
▁Beer	24
▁biodiversiteit	24
▁Cash	24
▁omgevingen	24
▁Katumbi	24
▁verdrijven	24
essen	24
▁zuivering	24
▁rechtbanken	24
▁ongewone	24
▁klassieker	24
▁reageert	24
▁Much	24
▁Tram	24
▁liberalen	24
hood	24
▁Schwarz	24
▁Lazarsfeld	24
▁Tank	24
▁vertaler	24
▁Kol	24
▁farmaceutisch	24
▁afgeleverd	24
▁fun	24
dik	24
▁productiviteit	24
führer	24
▁vonnis	24
▁Vogel	24
▁performance	24
▁opheffing	24
▁Jac	24
▁Sophia	24
▁prostituees	24
laten	24
▁collectief	24
▁begreep	24
▁nationalisten	24
doeleinden	24
▁rukte	24
▁beheerst	24
▁Films	24
▁synthesizers	24
▁innovaties	24
▁prototypes	24
▁politieagent	24
▁Excel	24
▁Sharp	24
▁seconde	24
▁Jor	24
fictie	24
▁Tales	24
oren	24
▁fabrieks	24
▁Turn	24
▁humoristische	24
▁onthoofd	24
lau	24
▁schending	24
▁Suite	24
▁demonen	24
▁Expeditie	24
▁geuit	24
▁Cau	24
▁afgedrukt	24
▁Rep	24
svoorzitter	24
some	24
▁Combat	24
▁container	24
▁Bright	24
▁house	24
▁Petersburg	24
▁Rein	24
parameter	24
Wh	24
▁Face	24
▁wantrouwen	24
▁groepering	24
▁Ireland	24
▁hopen	24
rmate	24
▁gestaan	24
▁Kells	24
▁alweer	24
▁Everett	24
▁Opus	24
morfisme	24
▁ruime	24
wak	24
▁Simons	24
▁Armeniërs	24
▁Gall	24
▁noordwestelijk	24
▁Azteeks	24
▁vruchten	24
hulp	24
▁corrupt	24
groeve	24
▁Recht	24
gitaar	24
▁Plutarchus	24
▁profiteren	24
vas	24
Alejandro	24
▁fundament	24
▁hoofddoel	24
`	24
▁orden	24
▁Audi	24
▁gegooid	24
DD	24
▁sancties	24
▁bioscoop	24
been	24
▁inzichten	24
▁gotisch	24
▁adjunct	24
▁driemaal	24
▁nabije	24
▁achterkant	24
▁werknemer	24
ëren	24
▁Mussolini	24
▁pauze	24
▁gedenkteken	24
▁verdwijnt	24
ej	24
▁rivalen	24
Orthodox	24
▁Medina	24
tig	24
dist	24
▁geometrische	24
▁hymne	24
▁bewapening	24
▁Trial	24
▁Galaxy	24
▁Cecilia	24
▁Indiaans	24
▁aandringen	24
▁opbrengsten	24
▁Kay	24
Wi	24
▁verlengde	24
▁gespecificeerd	24
▁motief	24
▁Jordanië	24
▁wolken	24
▁Hayles	24
elaas	24
vy	24
▁Samenwerking	24
▁levels	24
▁sto	24
▁veelbelovend	24
▁configuratie	24
constructie	24
▁Bailey	24
▁columnist	24
▁Mail	24
▁Carol	24
▁cluster	24
▁opmerking	24
▁Philipp	24
▁Meester	24
▁Culturel	24
▁Roberto	24
▁constructies	24
charts	24
rí	24
▁zwager	24
▁Amstel	24
▁pauselijk	24
▁naleving	24
▁Berkeley	24
▁schatkist	24
▁Cornelius	24
▁Dale	24
▁jurk	24
trouw	24
▁beveiligings	24
▁onderhoudt	24
stichting	24
▁gooide	24
▁Crisis	24
▁intensieve	24
▁stimuleerde	24
▁wild	24
▁zachte	24
hou	24
▁vector	24
religieuze	24
▁Slowaaks	24
▁chirurg	24
▁Mekka	24
▁capaciteiten	24
▁gewenst	24
▁nominatie	24
▁hiv	24
▁Ride	24
▁verzenden	24
▁Saoedisch	24
▁Experiment	24
▁meldden	24
▁Aragon	24
▁vet	24
herstructurering	24
▁Flu	24
oka	24
▁Bai	24
▁slang	24
oek	24
ME	24
▁drums	24
gezonden	24
▁kubi	24
▁flashback	24
▁Kla	24
▁grijpen	24
▁schuil	24
▁afgeleide	24
enne	24
▁hoofden	24
▁Chem	24
▁Blok	24
▁opleveren	24
▁artefacten	24
▁geb	24
▁marathon	24
▁Wen	24
vre	24
▁inrichting	24
zia	24
▁Seat	24
ór	24
▁Sed	24
▁behoudt	24
▁Advanced	24
▁zegen	24
▁comeback	24
waardig	24
▁meditatie	24
▁Angkor	24
▁smal	24
▁plaatsje	24
▁Stre	24
▁herdenken	24
▁genie	24
▁Trudy	24
logische	24
▁segment	24
Azerbeidzjaanse	24
▁Mago	24
▁Vis	24
▁boekte	24
normen	24
▁entertainment	24
▁tactiek	24
▁speech	24
minus	24
▁Merc	24
▁formuleerde	24
raden	24
ilius	24
▁Yang	24
tunnel	24
▁disciplines	24
baas	24
▁Mot	24
▁televisiefilm	24
▁human	24
▁who	24
▁geschrapt	24
▁uitgelegd	24
▁Cannon	24
▁Porto	24
▁Tonight	24
▁dorpelingen	24
▁parade	24
▁vernieuwing	24
▁covers	24
▁nauwkeurigheid	24
getallen	24
▁Tol	24
▁amper	24
▁Beijing	24
situatie	24
▁afwisselend	24
▁doodden	24
▁domineren	24
▁Economics	24
ballen	24
▁RNA	24
▁McCormick	24
▁Med	24
architect	24
▁alledaagse	24
▁cadeau	24
▁luid	24
▁Klöckner	24
▁begraafplaatsen	24
bewegingen	24
congres	24
▁veronderstelde	24
acties	24
▁Programma	24
▁transactie	24
▁Kha	24
▁pin	24
effen	24
fontein	24
▁betreden	24
▁divers	24
▁integreren	24
▁verstand	24
▁Mick	24
▁Cancer	24
▁commandanten	24
will	24
▁gehuurd	24
▁Did	24
publiek	24
▁Eilanden	24
▁Ladies	24
▁dominant	24
▁gezeten	24
▁voorafgegaan	24
▁Tau	24
▁gestudeerd	24
▁introduceert	24
kle	24
goederen	24
▁will	24
tang	24
▁toenemen	24
pression	24
▁Programme	24
▁hut	24
▁evacuatie	24
▁vestigingen	24
▁hobby	24
▁Dertig	24
▁fundamenten	24
cup	24
▁magnitude	24
▁benaderde	24
mari	24
▁gedeelten	24
▁Athletic	24
▁Irving	24
▁triomf	24
▁experimenteel	24
▁middelpunt	24
▁rechtvaardigen	24
▁line	24
▁Chaucer	24
▁pantser	24
▁Zack	24
▁Fernández	24
bevel	24
loper	24
▁Thorn	24
▁zaad	24
▁Glo	24
▁berekend	24
▁Magn	24
▁consequent	24
treft	24
base	24
module	24
▁briljant	24
▁lib	24
▁homeopathie	24
▁chauffeur	24
▁blz	24
▁Devil	24
▁Faust	24
▁biologisch	24
draai	24
▁Schw	24
▁freelance	24
▁eenvoudiger	24
▁Amor	24
itische	24
vloot	24
pseudowetenschap	24
▁gereden	24
▁psycholoog	24
▁ethiek	24
▁Todd	24
▁associatie	24
μ	24
▁Protection	24
▁MSX	24
derhand	24
▁Motorsport	24
▁opensource	24
▁Bourgondisch	24
▁transcriptie	24
warm	24
▁punkband	24
▁kolen	24
▁Boh	24
uan	24
bruine	24
▁negentien	24
▁besluitvorming	24
bad	24
▁aanklager	24
▁Supreme	24
▁schatte	24
ingham	24
iu	24
▁Johns	24
▁binnenvallen	24
▁Animal	24
▁heksen	24
letter	24
▁Ultimate	24
▁Double	24
▁Fjodor	24
▁CPTED	24
assistent	24
▁Authority	24
nh	24
▁langeafstands	24
▁Him	23
▁ultra	23
▁Dub	23
▁Rufus	23
▁reproductie	23
halen	23
▁Crew	23
▁symbolisch	23
▁Nikola	23
dou	23
▁Mile	23
beat	23
▁ontbreekt	23
▁Register	23
neur	23
▁intro	23
▁bit	23
▁Mao	23
▁Engel	23
▁voortzetten	23
aya	23
▁Pr	23
igna	23
ridge	23
▁Goes	23
▁bass	23
spositie	23
▁superieure	23
▁bo	23
▁Vice	23
gevende	23
▁ecosysteem	23
▁tussenkomst	23
▁doof	23
▁ab	23
▁organisme	23
▁Fritz	23
▁kliniek	23
bevolking	23
VB	23
▁Mama	23
OL	23
▁zwaarst	23
▁scan	23
metal	23
geluid	23
▁Ravenna	23
zèta	23
▁rit	23
▁afspraken	23
▁Contempora	23
kleuren	23
▁Effect	23
amine	23
▁leeuw	23
▁Sterren	23
▁Ein	23
pier	23
families	23
▁Sou	23
▁Father	23
▁ICA	23
▁Marsh	23
▁aanbeveling	23
oda	23
▁Pride	23
▁verbeelding	23
▁jubileum	23
▁Braun	23
▁verspreidden	23
▁ongewenste	23
▁socio	23
▁stadia	23
▁authentiek	23
main	23
kader	23
▁Marker	23
flag	23
▁expertise	23
▁Bevrijding	23
▁opgestart	23
▁Oklahoma	23
vlieg	23
▁voorspellingen	23
▁bewerkstelligen	23
▁Thing	23
patr	23
Trent	23
Free	23
Po	23
▁experimenteerde	23
▁mat	23
magazine	23
▁Third	23
jongen	23
igan	23
LC	23
▁Winchester	23
▁Oudere	23
▁alternatieven	23
Londen	23
ization	23
▁ECW	23
▁kromming	23
Wie	23
ontwerpen	23
▁Atari	23
▁Rak	23
polis	23
▁refereren	23
▁tol	23
gelden	23
▁evolueerde	23
rome	23
▁convergentie	23
▁Grove	23
drive	23
▁Opstand	23
▁krijgers	23
▁koud	23
▁onschuld	23
▁identificeerde	23
▁brigades	23
Leg	23
▁scheepsbouw	23
▁Twain	23
▁jaloers	23
▁Secular	23
▁Ellie	23
▁Raven	23
waren	23
▁Boyd	23
▁tenminste	23
▁kwartet	23
▁Detective	23
enza	23
▁aardewerk	23
ienne	23
▁tournees	23
▁omver	23
linie	23
▁overzees	23
▁choreograaf	23
uitgever	23
▁Béla	23
Nieuw	23
vanaf	23
geschilderd	23
etz	23
cyclische	23
▁verwoesting	23
▁dirigeerde	23
▁beroepen	23
▁Chil	23
Will	23
locatie	23
▁Burger	23
▁Stage	23
▁oceanen	23
▁scheidden	23
hotel	23
eira	23
▁Cinema	23
▁Ara	23
▁Gebruik	23
▁Arco	23
▁interpreteren	23
▁Tsu	23
▁wagens	23
▁cello	23
▁pool	23
▁Guitar	23
▁Sheridan	23
än	23
Zeelands	23
▁vegetatie	23
▁Opéra	23
▁producers	23
▁prestige	23
gawa	23
itatie	23
▁Bundes	23
▁gri	23
▁Senior	23
▁Julian	23
▁Córdoba	23
bewegende	23
▁sketch	23
▁Klasse	23
▁Panther	23
▁Liefde	23
▁Brandenburg	23
▁Johnston	23
▁begeleiden	23
▁conditie	23
▁Paramaribo	23
Wereldgezondheid	23
▁liberaal	23
▁Eugène	23
▁schakelen	23
▁keizerlijk	23
cock	23
▁stevig	23
ovski	23
▁editor	23
▁Mit	23
▁vruchtba	23
▁feestje	23
▁vroegtijdig	23
▁licenties	23
match	23
▁Dana	23
▁openlucht	23
▁eigenaars	23
▁Gill	23
▁sopraan	23
dun	23
▁Meeting	23
▁oversteken	23
▁Geographic	23
ooi	23
▁geëvolueerd	23
autoriteiten	23
tent	23
▁verzoenen	23
▁compilatiealbum	23
RL	23
▁Yan	23
▁nagenoeg	23
▁IP	23
▁time	23
▁va	23
▁verslechterde	23
▁antisemitisme	23
▁onschuldige	23
▁Cove	23
professor	23
artiesten	23
▁citaten	23
▁Bundesliga	23
▁if	23
▁Natal	23
compositie	23
▁aristocratisch	23
▁Trinidad	23
MG	23
▁professional	23
lagen	23
▁reikt	23
▁Katsu	23
▁Pavel	23
▁menu	23
riz	23
▁gruwelijk	23
academie	23
▁Winston	23
▁zuivere	23
▁afrond	23
▁Slavische	23
▁Shop	23
▁PvdA	23
kade	23
▁Hop	23
banen	23
▁Ricardo	23
▁heerlijkheid	23
▁terugtocht	23
▁Ume	23
▁geïmplementeerd	23
▁artikels	23
▁Fuji	23
▁kwijt	23
politieke	23
▁rechte	23
mora	23
hotep	23
▁Peters	23
▁bloemlezing	23
▁gitaren	23
alia	23
▁Argos	23
▁beschermt	23
▁Artist	23
▁Mesopotamië	23
▁zeg	23
varen	23
axi	23
▁welkom	23
▁afgezien	23
▁Moss	23
▁Miracle	23
▁Pul	23
▁onderscheidde	23
▁shotgun	23
▁paniek	23
kno	23
▁Universel	23
▁Beast	23
▁Amazon	23
▁Vos	23
▁Operations	23
▁hervormde	23
▁voordien	23
▁eist	23
Ex	23
▁Luna	23
▁oevers	23
▁encyclopedie	23
Lo	23
▁Kanto	23
▁Autoriteit	23
▁Phantom	23
▁Cheetah	23
▁Bey	23
beschikbaarheid	23
winkels	23
▁opriep	23
▁anderzijds	23
▁Militar	23
▁Vu	23
▁oefen	23
▁afgewerkt	23
▁MHz	23
▁Hanna	23
▁buurlanden	23
▁recensie	23
▁Hab	23
▁Industry	23
]	23
▁dichtst	23
▁Room	23
sporen	23
▁innerlijk	23
revolutie	23
▁McMahon	23
▁runen	23
▁Werd	23
▁regisseren	23
▁vervuiling	23
politi	23
▁Strike	23
▁rebellie	23
ingenieur	23
istic	23
▁charts	23
treinen	23
▁meubels	23
▁verhandeld	23
▁patriot	23
▁acteerde	23
▁promotor	23
▁Poz	23
televisie	23
▁parameters	23
▁dringen	23
ugu	23
▁vijfentwintig	23
▁venster	23
dingen	23
▁Radboud	23
gedaan	23
deren	23
▁prima	23
▁account	23
▁noem	23
oj	23
▁Hack	23
▁Michelangelo	23
▁benzine	23
▁Darts	23
▁inspiratiebron	23
▁oordelen	23
Hoe	23
▁landhuis	23
▁carnaval	23
▁Bernoulli	23
▁opgesplitst	23
▁Tab	23
wijze	23
▁afscheids	23
▁PBS	23
▁appel	23
▁vertolkt	23
▁containers	23
▁Industriële	23
▁majoor	23
▁this	23
▁niettemin	23
▁Goethe	23
▁geslachten	23
spoor	23
▁congressen	23
▁bijgewerkt	23
▁Bram	23
gd	23
▁bruikbaar	23
▁Branch	23
uta	23
▁Wis	23
▁Nanninga	23
▁Centro	23
rede	23
▁Ship	23
▁Step	23
▁Stedelijk	23
▁Tuin	23
xx	23
▁Lockheed	23
lichting	23
▁Admiraliteit	23
▁Honorius	23
▁bezighouden	23
▁Logic	23
▁Arab	23
▁welgestelde	23
▁Imp	23
PU	23
iale	23
rijn	23
▁eieren	23
▁Gandhi	23
▁niks	23
▁clip	23
▁faculteiten	23
▁onroerend	23
▁keek	23
▁Rud	23
▁Astronom	23
NAS	23
▁Rec	23
▁Pittsburgh	23
molen	23
▁opzicht	23
voerder	23
▁Singer	23
▁bouwt	23
▁brons	23
▁Vroege	23
beste	23
▁besprak	23
▁opstandelingen	23
IX	23
▁ondernemers	23
▁Competition	23
▁reparatie	23
▁interesses	23
▁mutanten	23
kill	23
netwerken	23
▁gedecoreerd	23
▁Comic	23
doende	23
▁douane	23
▁grondslagen	23
▁Franstalige	23
drukken	23
enko	23
schriften	23
▁Shan	23
▁Marianne	23
cast	23
Î	23
▁dankt	23
▁Française	23
▁Wehrmacht	23
▁Cao	23
▁Richmond	23
live	23
▁Luftwaffe	23
▁Geert	23
rius	23
▁Bourgondië	23
▁Highland	23
▁Gestapo	23
▁vrachtwagens	23
▁Partners	23
▁Bee	23
▁uiterste	23
▁Communicatie	23
▁bijwonen	23
▁dengue	23
awa	23
▁Randi	23
▁Kali	23
iro	23
▁cursus	23
▁ontkomen	23
▁intelligente	23
▁censuur	23
scènes	23
▁lukt	23
▁leningen	23
naast	23
planten	23
▁Proto	23
gouvernemente	23
▁Morgen	22
▁donaties	22
▁vermenigvuldig	22
▁onsterfelijk	22
hoge	22
▁Hank	22
▁opgeven	22
MT	22
▁testte	22
▁iOS	22
behandeling	22
uurzame	22
ENA	22
letterlijk	22
▁Chat	22
▁Vas	22
▁Ling	22
▁veiliger	22
▁taboe	22
uva	22
▁geactiveerd	22
▁beseft	22
▁Toyota	22
▁Cell	22
▁diagnostisch	22
▁explosieve	22
▁Moltke	22
▁rent	22
▁demonstreren	22
▁Squadron	22
▁onthouden	22
▁aardbevingen	22
▁teweeg	22
▁verkracht	22
▁inname	22
iano	22
ç	22
▁zakken	22
▁Task	22
▁schrijf	22
▁public	22
▁onszelf	22
loopbaan	22
▁Maritime	22
ST	22
▁zeilen	22
▁herkenbaar	22
▁voorbehouden	22
▁fundering	22
▁Strange	22
▁mondiale	22
▁Giuli	22
▁komische	22
icum	22
exploit	22
▁laatstgenoemde	22
▁FSMA	22
▁Liang	22
▁Miro	22
▁dikke	22
▁FIA	22
▁spraak	22
plannen	22
effecten	22
▁Sharon	22
▁Soedane	22
▁Search	22
▁bedrijfsleven	22
▁Hassan	22
trap	22
IE	22
▁onschuldig	22
▁Ref	22
▁strijders	22
▁Betty	22
▁Fest	22
▁Haw	22
▁resident	22
▁Jur	22
▁plunderen	22
▁Tara	22
torpedobootjager	22
▁Ave	22
ché	22
▁knopen	22
sonderzoek	22
▁Find	22
abba	22
▁Voorbeeld	22
▁Welt	22
▁bevorderde	22
▁Tolkien	22
▁Fla	22
czy	22
▁afname	22
▁gelegerd	22
duin	22
▁fantasy	22
hervorming	22
songfestival	22
ijns	22
plaat	22
▁gewapend	22
overwinning	22
▁sol	22
▁fabricage	22
▁Travel	22
▁Commodore	22
▁gekleurde	22
oxy	22
▁kaak	22
▁beschouwing	22
▁Grass	22
▁concessie	22
songwriter	22
▁Both	22
▁observeren	22
▁assisteerde	22
producties	22
▁RCA	22
▁grafste	22
▁vaccin	22
▁verteller	22
▁erfgenamen	22
▁draai	22
▁Scar	22
▁bijstand	22
▁Fay	22
▁luisteraars	22
▁Carus	22
▁beloofd	22
▁Jongere	22
▁woonachtig	22
▁onveranderd	22
▁weefsels	22
▁bloeide	22
▁verzamelt	22
▁Luis	22
▁Original	22
glia	22
▁modul	22
klooster	22
▁Matthias	22
▁Tomorrow	22
▁Mika	22
kampioen	22
▁enzym	22
▁televisieseries	22
▁analyseren	22
▁Pool	22
lob	22
▁autonoom	22
▁afstanden	22
▁aanvragen	22
▁voetballers	22
▁doorgang	22
▁Alexi	22
▁Kok	22
▁dia	22
room	22
▁bonds	22
▁Bul	22
▁uniform	22
▁toegewijd	22
NF	22
▁Poli	22
krant	22
▁Hobbes	22
▁body	22
▁meenemen	22
▁Vita	22
EV	22
ières	22
schrijven	22
Volume	22
▁yards	22
▁zendt	22
opnamen	22
ddy	22
barbaarse	22
Arabische	22
▁prioriteiten	22
▁vitamine	22
▁Bourbon	22
vleugel	22
▁Igor	22
▁Palazz	22
banken	22
▁Isle	22
▁Duck	22
▁ondertekening	22
▁Read	22
▁vinyl	22
▁onderdanen	22
▁Meet	22
▁Nikolaj	22
▁reiziger	22
▁Critici	22
▁besloeg	22
Nassau	22
▁focussen	22
▁Trip	22
▁novelle	22
▁Ministers	22
▁Eeuw	22
▁Neder	22
▁Document	22
▁Elena	22
▁Nancy	22
zan	22
▁Lynn	22
▁zielen	22
schaft	22
▁Sil	22
▁Boeddhistisch	22
artiest	22
▁Mana	22
▁dialogen	22
fractie	22
▁gevoelige	22
▁Maxim	22
stap	22
▁bedragen	22
rance	22
▁kruising	22
▁Fins	22
▁Mk	22
▁Foy	22
voy	22
▁veldtochten	22
▁Agathocles	22
▁Luxemburgs	22
vrede	22
▁Audio	22
▁legaal	22
▁katholicisme	22
▁vertolkte	22
▁Hon	22
▁betrekkelijk	22
▁medewerking	22
▁wederopbouw	22
▁stalen	22
rico	22
▁kwartfinale	22
▁beker	22
▁hervormings	22
gri	22
▁Ruth	22
erijen	22
▁vergeleek	22
curve	22
▁Volkswagen	22
Baptiste	22
▁Hongaren	22
▁Hillary	22
▁Tul	22
▁Monica	22
▁kast	22
▁verkennings	22
▁periodieke	22
grootte	22
mag	22
gesproken	22
▁zoogdieren	22
▁handelde	22
zangeres	22
loc	22
▁Pale	22
dige	22
▁concentreert	22
▁voorkant	22
card	22
▁Alberto	22
!”	22
wing	22
▁Steen	22
▁conventies	22
olium	22
LL	22
ucci	22
▁koopvaardij	22
Timor	22
▁consequenties	22
▁illustreren	22
▁grondige	22
▁Campus	22
▁Zoologi	22
koppig	22
▁chronologisch	22
▁Explorer	22
▁nieuwere	22
▁maten	22
▁kijker	22
▁Theodore	22
DH	22
▁bladen	22
▁Galerie	22
instrumenten	22
body	22
▁Hus	22
▁Steiner	22
▁Medicine	22
bundel	22
▁verdriet	22
▁diagram	22
▁analoog	22
drager	22
▁terminologie	22
▁NL	22
▁bommenwerpers	22
▁Joel	22
▁computerspel	22
architectonische	22
▁opgetrokken	22
trans	22
▁stemrecht	22
tende	22
▁revolutionairen	22
▁Janeiro	22
▁kolonisatie	22
▁Holly	22
▁Yard	22
Let	22
▁beslaat	22
▁Sofia	22
▁specialist	22
▁vreedzaam	22
▁Baai	22
▁superior	22
▁matig	22
▁Terminal	22
▁operatoren	22
▁Kaye	22
▁NPC	22
▁Burundi	22
MM	22
▁Yorker	22
hoor	22
jen	22
▁geopenbaard	22
geslagen	22
▁Zach	22
▁desondanks	22
▁Eco	22
percentage	22
▁Manga	22
stemmen	22
Gra	22
ota	22
mura	22
▁efficiënter	22
▁vervolgen	22
▁Secretaris	22
▁trivia	22
▁vermoordde	22
▁cyber	22
▁doceerde	22
▁speelfilm	22
▁tovenaar	22
▁Sergej	22
▁Jefferson	22
▁pijnlijk	22
raag	22
▁aangetast	22
▁lesgeven	22
▁Perzen	22
▁Münster	22
▁Medisch	22
▁kussen	22
▁bediende	22
▁Halver	22
▁kunstmatig	22
▁Political	22
chester	22
▁oprukken	22
▁liberalisme	22
▁Schrift	22
▁vertelden	22
ites	22
ability	22
▁specificatie	22
Connor	22
▁hydraulisch	22
gevangenis	22
rei	22
▁Indianen	22
▁differentieerba	22
▁Cruz	22
oxide	22
▁elektronisch	22
bestand	22
▁Nur	22
▁meubel	22
▁Trek	22
▁Luitenant	22
kust	22
▁kilogram	22
▁geïnitieerd	22
▁Thé	22
ume	22
▁Townshend	22
LM	22
▁Dijk	22
aro	22
GB	22
gren	22
▁Asian	22
▁rechtmatig	22
▁gunst	22
▁Dover	22
▁Worcester	22
▁intensiteit	22
zette	22
▁sigaretten	22
berger	22
▁Hin	22
▁behorend	22
patiënten	22
▁handtekening	22
▁respecteren	22
▁beleefde	22
▁lesbisch	22
bben	22
aja	22
▁behandelingen	22
Neill	22
▁thermische	22
▁sprint	22
▁Prinse	22
▁Thomson	22
dance	22
▁onderhandeld	22
inck	22
▁Kind	22
▁Less	22
▁Dimitri	22
▁Brouwer	22
lett	22
▁Noordwest	22
kanker	22
▁departementen	22
▁Quevedo	22
trekken	22
gebaseerd	22
▁ingrijpend	22
persoonlijkheden	22
▁Lac	22
▁Pablo	22
▁magisch	22
truck	22
moedigt	22
▁Around	22
amp	22
vraag	22
▁Led	22
verkoper	22
buch	22
▁Person	22
▁Augustinus	22
▁Mystery	22
▁vlogen	22
▁Divi	22
docent	22
▁poster	22
▁focust	22
hab	22
zat	22
▁vergissing	22
▁marien	22
▁educatie	22
▁Bahrein	22
stat	22
▁Pacifisch	22
▁vinger	22
▁XVI	22
gewicht	22
▁vindplaats	22
wegen	22
▁Bretons	22
▁Faculteit	22
▁Arno	22
▁guerrilla	22
▁Rij	22
zes	22
▁Cube	22
hartig	22
▁Hulk	22
▁weggelaten	22
▁Kamakura	22
▁Chronicle	22
▁comedy	22
▁Abbey	22
▁Maro	22
▁Conservati	22
▁ruimtes	22
▁linies	22
▁Chemical	22
▁deskundigen	22
eck	22
▁Galileo	22
▁overleving	22
▁anatomie	22
▁Falun	22
▁horror	22
▁verlagen	22
ances	22
Big	22
▁diamanten	22
rode	22
▁Parade	22
▁Pepijn	22
▁lanceerden	22
▁mondeling	22
▁maarschalk	22
adres	22
BB	22
▁Wol	22
rationale	22
▁Rubens	22
▁Fraser	22
text	22
▁Sidney	22
▁Intelligence	22
▁slaat	22
gezworen	22
▁Richards	22
▁investeerde	22
▁harder	22
▁Dome	22
▁verouderd	22
▁Cave	22
ović	22
▁cultus	22
▁Edge	22
▁Torre	22
▁buitenkant	22
▁seminarie	22
▁Bryan	22
▁Chrysler	22
▁bereidde	22
▁gangbare	22
▁pleit	22
▁Clo	22
▁Democracy	22
▁burgerschap	22
▁herbouwen	22
▁uniformen	22
▁gunstige	22
▁Kentucky	22
▁Boekarest	22
iga	22
▁Niemand	22
Black	22
▁gecon	22
▁verdiend	22
auspi	22
gedrag	22
▁Rosalie	22
Å	22
▁profeten	22
▁psychiater	22
▁wrak	22
▁koningschap	22
gevechten	22
▁Lands	22
krijgsgevangenen	22
▁ingeblazen	21
▁Rou	21
▁verpleegster	21
▁Panzer	21
PG	21
▁Aircraft	21
duo	21
▁Albrecht	21
watch	21
▁Jacobus	21
super	21
▁bladeren	21
▁Aleppo	21
bewust	21
ador	21
▁verplaatsing	21
▁vrachtschip	21
▁Cool	21
▁omgekeerde	21
▁Macau	21
▁Whitman	21
arum	21
erc	21
zei	21
▁Bug	21
Paul	21
▁Percy	21
▁Brooks	21
volgende	21
▁Broek	21
▁restricties	21
saurus	21
▁kip	21
▁durend	21
▁beroerte	21
▁Mein	21
▁KDE	21
mak	21
▁wisselde	21
▁Gotische	21
musical	21
▁Leslie	21
jas	21
▁das	21
sturen	21
bbi	21
▁offensieve	21
gou	21
▁rechterlijk	21
▁fantastisch	21
houdende	21
▁rijken	21
▁rusten	21
▁schakel	21
eizoen	21
class	21
▁Algerijns	21
▁gemix	21
▁Adobe	21
most	21
▁Hastings	21
▁tweehonderd	21
▁Cycl	21
▁Noorden	21
▁rubber	21
▁conver	21
▁Taal	21
▁bijbel	21
▁Bau	21
atsu	21
▁Orkest	21
▁pamflet	21
▁voorouder	21
▁berekening	21
bbe	21
rès	21
▁fatal	21
▁Regina	21
▁Floyd	21
▁Boelgakov	21
vision	21
▁twijfelen	21
ucht	21
▁nieuwbouw	21
▁Hicks	21
▁capitulatie	21
▁Hurritisch	21
gekarakteriseerd	21
▁Site	21
zig	21
▁Beautiful	21
▁afwijkingen	21
evenwicht	21
▁Hubert	21
dio	21
▁ingewikkelde	21
cott	21
▁lift	21
▁Burn	21
▁Beau	21
▁Tezuka	21
▁bedreven	21
▁sparen	21
schoten	21
▁Mina	21
▁Juliana	21
▁Denis	21
gouverneur	21
▁Parma	21
yō	21
▁spijt	21
▁Nicole	21
▁Minnesota	21
▁(=	21
▁pleidooi	21
▁Eer	21
▁patenten	21
optreden	21
▁McClellan	21
▁Lil	21
▁Haus	21
▁stilistisch	21
lick	21
▁sommen	21
▁Peithon	21
oofd	21
streed	21
coureur	21
▁SK	21
▁Commander	21
▁Maximus	21
▁verzwakt	21
Su	21
Columbia	21
▁implicaties	21
▁schenking	21
▁Alabama	21
commissaris	21
▁Soccer	21
▁ondermijnd	21
▁Doom	21
▁eindproduct	21
Ord	21
▁bewapend	21
▁mainstream	21
▁Nabij	21
host	21
▁bolsjewieken	21
taken	21
▁Grabar	21
▁Bry	21
▁Poet	21
▁experimenteren	21
craft	21
▁onderzeeboot	21
▁Christiaan	21
▁hervormen	21
▁gebombardeerd	21
▁bevolkingsgroep	21
▁Boss	21
▁landden	21
▁canon	21
papier	21
Louis	21
▁longkanker	21
▁eventue	21
▁verhinderd	21
law	21
▁terugkeerden	21
OP	21
▁Goro	21
▁Bess	21
▁Oss	21
▁preventie	21
rá	21
▁Weil	21
▁vervaardigde	21
splan	21
▁fiscal	21
voegden	21
work	21
▁now	21
Onze	21
atus	21
▁Cons	21
▁Continental	21
gent	21
▁Moldavië	21
fabrieken	21
▁Bik	21
pomp	21
▁vaart	21
▁Havilland	21
▁Weekend	21
▁hoorden	21
andvest	21
▁herkozen	21
TF	21
▁overstroming	21
▁plattelands	21
storm	21
chef	21
▁Shadow	21
▁Haven	21
▁Metz	21
▁Leven	21
sell	21
▁adoptie	21
MD	21
▁gelijksoortig	21
▁FP	21
brengt	21
▁multiplayer	21
infrastructuur	21
roos	21
▁kritieken	21
▁gemakkelijker	21
VP	21
▁Archive	21
▁levensonderhoud	21
▁inverse	21
▁gevangenissen	21
stok	21
▁weergeven	21
▁Nabis	21
ritten	21
▁Kroon	21
▁Korps	21
▁Ré	21
▁heroverd	21
▁drukte	21
▁Kolonel	21
▁Studenten	21
▁cricket	21
▁Boer	21
▁Dubai	21
▁Angela	21
▁Messina	21
▁Maurits	21
▁Langs	21
cht	21
mbo	21
▁majeur	21
▁Tours	21
▁Fiction	21
muur	21
categorie	21
kelijk	21
types	21
▁hamer	21
Club	21
▁Dy	21
▁Musik	21
wijzen	21
▁cr	21
operator	21
▁reserves	21
EP	21
▁gekopieerd	21
brieven	21
werd	21
▁onderstaand	21
She	21
voorstel	21
▁gelopen	21
▁Jes	21
▁daarover	21
▁Kern	21
▁universeel	21
hol	21
▁Vorarlberg	21
▁verrichten	21
▁zuidwestelijk	21
▁protocollen	21
▁Josef	21
▁Keep	21
hoog	21
▁Defense	21
moon	21
▁Mono	21
▁Confederatie	21
▁barok	21
▁wonderen	21
▁Alive	21
▁blinde	21
kowski	21
érie	21
▁uitstrekt	21
▁Quinn	21
▁Manager	21
rem	21
doel	21
▁institutionele	21
▁gerund	21
▁Muur	21
▁coureurs	21
▁Buch	21
lichaam	21
Love	21
▁maffia	21
▁Fischer	21
NO	21
▁kiest	21
overschrijdend	21
▁gedaald	21
▁Fro	21
▁Job	21
active	21
▁muiterij	21
dell	21
aeus	21
toepassingen	21
▁architecturale	21
▁Leonardo	21
gekeken	21
▁beer	21
▁Cameron	21
frequentie	21
▁TR	21
▁onderwees	21
▁Franck	21
isha	21
mei	21
ART	21
hits	21
▁oranje	21
▁Lies	21
▁Mull	21
termin	21
ticus	21
▁netto	21
▁snijden	21
▁Addis	21
▁vermindert	21
ovitsj	21
▁Jagger	21
▁Lü	21
▁stukje	21
▁onderschept	21
▁bedoelingen	21
▁Bald	21
▁Bent	21
▁Pius	21
▁Bl	21
▁Saul	21
▁Antipater	21
▁discrete	21
Amerikaans	21
▁zeelieden	21
▁Meijer	21
rant	21
▁halte	21
officieren	21
▁wetboek	21
▁achteruitgang	21
▁kanselier	21
▁dramatisch	21
▁Bethlehem	21
▁gereguleerd	21
▁Ans	21
▁voetbalbond	21
▁heffen	21
raat	21
▁beïnvloedt	21
▁Squad	21
fax	21
▁sieraden	21
▁voorgelegd	21
pleiten	21
▁Babylonische	21
▁Jenna	21
▁stimuleert	21
▁enzovoort	21
▁plunderden	21
▁Stigand	21
▁Elf	21
▁CvdR	21
▁fijn	21
gevoerd	21
▁Patrol	21
▁daalt	21
▁stevige	21
gebed	21
▁Traditione	21
netten	21
▁invasies	21
▁Wellington	21
▁moeilijkheid	21
▁new	21
▁Nieuws	21
stijds	21
▁Disco	21
Latijn	21
▁Marin	21
tests	21
▁Guatemala	21
gr	21
lit	21
▁Donna	21
dwongen	21
▁solist	21
▁duik	21
▁Guillaume	21
▁koopt	21
▁transparant	21
▁toer	21
ghi	21
streken	21
▁geveild	21
▁Mons	21
▁Marion	21
▁kist	21
▁Resort	21
▁Transformers	21
▁bestemmingen	21
moderne	21
▁dinsdag	21
▁overhand	21
▁verlichten	21
▁zeil	21
▁SOMO	21
bereik	21
▁Holdings	21
▁geleend	21
▁precisie	21
▁Ric	21
torens	21
▁hoefde	21
ouche	21
▁gesp	21
▁miniaturen	21
SE	21
▁Madonna	21
▁wijdverspreide	21
pul	21
▁doorkruist	21
▁Naka	21
▁denkers	21
▁Brad	21
▁deportatie	21
▁Cors	21
▁Leidse	21
▁kruispunt	21
▁bagage	21
▁Assembly	21
▁winkelcentrum	21
▁Sank	21
ESS	21
▁Link	21
▁indicatie	21
▁rampen	21
▁vastbesloten	21
▁NS	21
AZ	21
▁beklimmen	21
zwe	21
oïden	21
▁aansloot	21
▁geï	21
▁state	21
▁doorbreken	21
▁uitgekomen	21
▁Bomb	21
▁Hessen	21
▁Generale	21
▁Stat	21
▁Democrati	21
erie	21
▁Generation	21
▁Willy	21
▁territoria	21
▁Tanzania	21
itat	21
▁Castilië	21
▁Wilde	21
wal	21
▁Anth	21
smaatregelen	21
pher	21
▁Nie	21
▁Virtual	21
▁Aston	21
verkoop	21
jon	21
▁Mercia	21
variant	21
▁bedreigen	21
▁Serie	21
▁Jemen	21
▁lyrisch	21
volgens	21
▁vermindering	21
▁Circus	21
▁Ulster	21
▁substantie	21
▁Mimi	21
▁Veiligheid	21
▁Sheen	21
atio	21
▁telescopen	21
▁aangelegenheden	21
blijvende	21
▁geleidelijke	21
computers	21
▁bacterië	21
▁Cloud	21
▁Eve	21
vra	21
▁Fifth	21
▁motivatie	21
▁touw	21
▁stromen	21
▁Colon	21
▁theaters	21
district	21
▁begroet	21
▁rijks	21
▁Fé	21
second	21
▁kolommen	21
bir	21
▁correspondeerde	21
▁nier	21
▁heiligdom	21
▁elektromagne	21
▁Wiki	21
▁dekking	21
▁antropologie	21
away	21
karakteristieken	21
▁passeren	21
▁monografie	21
rechtenactivist	21
▁Gretel	21
▁Basic	21
▁bieren	21
apa	21
{\	21
▁Stads	21
▁vloten	21
▁Hellenis	21
Fassi	21
▁gravin	21
▁Chor	21
▁Thu	21
vaardig	21
▁buitenlanders	21
▁Polit	21
operatie	21
▁Padua	21
▁gespaard	21
▁Religion	21
▁Meg	21
▁Pompeius	21
▁ambassades	21
▁bijdroeg	21
▁heropbouw	21
▁XP	21
Holstein	21
▁Initiative	21
▁aanvaarding	21
▁evenwichts	21
▁cijfer	21
▁Chang	21
doelen	21
shima	21
▁opleidingen	21
▁schenken	21
▁steelt	21
▁conc	21
▁spits	21
▁Janet	21
▁Justinus	21
▁Sul	21
▁Support	21
activisten	21
▁verbouwing	21
ITE	21
▁Belg	21
▁Border	21
▁crypte	21
Ç	21
▁dos	21
agina	21
Sin	21
▁Ster	21
▁Prote	21
▁humanist	21
▁afnemen	21
▁ple	21
▁MacArthur	21
▁Pratt	21
relaties	21
puls	21
zeker	21
▁Lauren	20
▁Belgian	20
instelling	20
telling	20
COM	20
eerbaar	20
Time	20
▁woonhuis	20
▁bolwerk	20
anking	20
▁Schi	20
▁Rafael	20
▁katten	20
trekt	20
telescoop	20
▁Affairs	20
▁AV	20
▁Skip	20
sfunctie	20
▁vlakte	20
▁USSR	20
▁tegengestelde	20
esse	20
▁kruiser	20
▁rijp	20
▁Saga	20
▁Gan	20
▁werf	20
commandant	20
▁hijzelf	20
▁spion	20
genaamd	20
human	20
arme	20
▁oostkust	20
cale	20
▁Rus	20
▁Natuurlijk	20
▁Bohemen	20
vijandelijkheden	20
▁Koch	20
productiebedrijf	20
▁geïn	20
▁Benoit	20
▁Lok	20
▁verkorte	20
▁bibliothecaris	20
▁samoerai	20
gane	20
satelliet	20
▁SC	20
▁Dax	20
▁chaotisch	20
▁Satan	20
▁ruiters	20
▁Sarajevo	20
▁Angle	20
leraar	20
▁versneld	20
kha	20
▁Cri	20
▁stier	20
tijden	20
▁Local	20
▁Rhythm	20
▁marcheerden	20
▁Exposition	20
lange	20
China	20
▁Mills	20
▁criminelen	20
▁Nobel	20
▁compiler	20
▁Chosen	20
▁domineerde	20
▁overtuigend	20
▁secretaresse	20
ize	20
▁Sheffield	20
▁Senator	20
onderzoekers	20
▁koeien	20
praktijken	20
▁Eurovisie	20
▁regelt	20
drongen	20
▁bankbiljetten	20
Brabant	20
▁gefrustreerd	20
procedures	20
▁eenvoud	20
▁harmonische	20
▁dynastiek	20
▁gave	20
▁Molly	20
▁Olympia	20
▁Gem	20
▁Brahms	20
▁vingers	20
▁Epi	20
▁kar	20
▁binnenste	20
▁broeders	20
kast	20
▁brandweer	20
▁Communication	20
schat	20
▁onthulling	20
▁borst	20
weight	20
▁zenders	20
▁Alain	20
eigen	20
▁Marseille	20
▁drum	20
nton	20
▁programmeertaal	20
plantages	20
▁vermogens	20
▁Nico	20
▁Math	20
▁Atlantis	20
▁Universe	20
▁vloeiend	20
▁Paper	20
▁commentator	20
▁Luchtvaart	20
▁informeert	20
▁verhinderen	20
▁segmenten	20
▁Abe	20
sdorf	20
▁leende	20
Bar	20
▁Mongolen	20
▁Perfect	20
rg	20
▁Canyon	20
▁vriendje	20
gevat	20
▁ziektes	20
elles	20
▁bezighield	20
▁vrees	20
▁ondersteunden	20
▁aansluiten	20
▁achtervolgd	20
▁onderwater	20
nother	20
maakte	20
▁Joegoslavisch	20
▁Göteborg	20
▁Agentschap	20
▁Caesars	20
▁dusdanig	20
flot	20
▁puin	20
▁manipulatie	20
vlak	20
valt	20
▁clans	20
▁contemporain	20
▁Hei	20
gezien	20
▁kaliber	20
▁Still	20
ega	20
▁suite	20
▁harp	20
ccio	20
▁formules	20
▁reparaties	20
componist	20
▁Jero	20
▁verzeker	20
▁vertaal	20
▁frank	20
▁IC	20
▁Hamas	20
▁wanhopig	20
▁Pack	20
max	20
eeuw	20
▁moderniseren	20
▁beheerder	20
archief	20
▁scheidsrechter	20
▁Kinder	20
▁Pun	20
press	20
initiatief	20
▁chip	20
▁tekortkomingen	20
▁richtingen	20
▁voorgoed	20
▁aankwamen	20
▁stemt	20
▁Problem	20
▁graphics	20
aker	20
verklaring	20
▁Islands	20
▁afgemaakt	20
dochter	20
lets	20
▁Telegraph	20
legale	20
acher	20
▁Kop	20
▁Birds	20
anna	20
▁Beleg	20
▁Wells	20
▁vondst	20
▁circus	20
▁Juni	20
▁landbouwgrond	20
aea	20
▁bestelde	20
terdisciplinair	20
▁Orient	20
▁verzekerde	20
marginale	20
▁Factor	20
step	20
▁gecertificeerd	20
▁passagier	20
▁Newcastle	20
▁Bing	20
▁Soldier	20
▁Vampire	20
▁GNU	20
figur	20
anza	20
▁Jaguar	20
▁"(	20
▁Betti	20
▁interactieve	20
▁verstoord	20
!'	20
▁dader	20
▁aankopen	20
▁daarbuiten	20
▁bedenken	20
▁Tak	20
▁aardappel	20
▁Wereldwijd	20
▁Eugen	20
inner	20
▁Gear	20
▁bevolkt	20
▁herberg	20
▁Wide	20
wave	20
paard	20
plat	20
▁modus	20
▁trouwt	20
▁Lena	20
svermogen	20
▁weefsel	20
▁vernam	20
▁Personal	20
▁Constitution	20
▁Sauer	20
LR	20
▁zoet	20
▁Ahmose	20
▁Ske	20
▁lachen	20
zodoende	20
WE	20
RP	20
▁vat	20
Up	20
Parijs	20
▁rubriek	20
▁MB	20
utovía	20
thal	20
▁vermoedde	20
▁taxi	20
▁raid	20
▁Stevi	20
gol	20
▁ontploffing	20
▁bestudeert	20
▁Defence	20
georiënteerd	20
▁trailer	20
▁Cyrus	20
▁visioen	20
▁König	20
▁CT	20
▁Crown	20
▁bevestig	20
toestellen	20
▁Sang	20
▁beëindig	20
▁Dixon	20
▁AW	20
lijkheid	20
idea	20
▁Hoofdstuk	20
▁aangeven	20
▁Block	20
▁voorgezeten	20
dubbel	20
▁klinken	20
▁Erich	20
▁duurder	20
ruwweg	20
▁Mia	20
▁Mozes	20
gestemd	20
▁notities	20
▁braken	20
▁gastoptreden	20
▁oproer	20
enbach	20
▁Phelps	20
▁Jewish	20
▁waarnemend	20
▁Technologie	20
▁bewoning	20
▁Holt	20
▁alom	20
kijk	20
▁Kham	20
vloer	20
tol	20
fire	20
▁uitgezonderd	20
ambtenaren	20
vecht	20
yuan	20
▁miniatuur	20
▁omkwamen	20
bestanden	20
▁Weer	20
▁Poker	20
asil	20
verschil	20
kennis	20
drang	20
▁multimedia	20
▁Musk	20
▁Sergeant	20
▁vermoedens	20
lp	20
sbeleid	20
▁privaat	20
▁voorvechter	20
▁ernst	20
verslagen	20
▁correlatie	20
▁Rousseau	20
▁soloalbum	20
spin	20
▁Rit	20
motion	20
▁Má	20
▁Beiers	20
▁kruisen	20
▁Onderzoeker	20
▁demografisch	20
etto	20
anisme	20
aagd	20
unc	20
▁Mona	20
▁Uno	20
▁Benelux	20
▁machtsstrijd	20
▁Colin	20
▁Verlichting	20
▁Romeo	20
waarden	20
▁legendes	20
graad	20
▁Latin	20
▁plots	20
▁don	20
▁Castiliaans	20
▁klim	20
▁zieke	20
▁road	20
▁Giant	20
ussen	20
▁Gemeente	20
ISS	20
▁precedent	20
gau	20
epaalde	20
▁Archi	20
▁junior	20
▁klank	20
▁Ass	20
▁Tribune	20
▁Eck	20
medewerker	20
▁schendingen	20
myth	20
▁fervent	20
massa	20
▁vastgoed	20
ups	20
bier	20
bezoek	20
itis	20
Super	20
NET	20
management	20
hash	20
hypothese	20
▁drempel	20
▁koken	20
fiction	20
▁barrière	20
▁tetra	20
ometrie	20
▁vergelijkt	20
samenwerking	20
▁getransporteerd	20
▁berichtte	20
▁erotisch	20
▁Joy	20
▁SV	20
▁verbrak	20
▁Bouterse	20
beschermings	20
liss	20
▁Savoye	20
aq	20
ificatie	20
▁Rene	20
▁vroegst	20
▁Honda	20
▁Newman	20
▁browser	20
ème	20
kampen	20
▁Bordeaux	20
chor	20
▁bewonderaar	20
▁Macro	20
▁diplomaten	20
▁lezer	20
▁eentje	20
rap	20
▁bruto	20
▁Louvre	20
▁voogdij	20
▁gesplitst	20
▁Hold	20
▁Simpsons	20
▁Dru	20
▁behaalden	20
loosheid	20
▁Nou	20
roc	20
▁Cruise	20
▁gestemd	20
▁admiraliteit	20
▁negeerde	20
Sha	20
IBA	20
▁Petro	20
iyya	20
▁Conservatieve	20
▁vergeving	20
▁Jorge	20
▁dronk	20
▁getalenteerde	20
▁Isis	20
opolis	20
▁gefotografeerd	20
▁Kool	20
▁vechter	20
▁Dutroux	20
▁Champion	20
▁voorwerp	20
▁geringe	20
▁forensisch	20
munt	20
▁Organisation	20
case	20
▁Willie	20
gave	20
▁Amazing	20
▁gemoderniseerd	20
▁Peel	20
▁stapel	20
▁Corsica	20
▁Colombiaans	20
▁heidense	20
▁vlaggenschip	20
▁Misskelley	20
▁vrijgesproken	20
iller	20
world	20
▁tactieken	20
▁komiek	20
▁Sche	20
gevecht	20
tou	20
▁after	20
▁grof	20
streek	20
▁jungle	20
toernooien	20
▁Zimbabwe	20
▁Sé	20
▁Escher	20
▁achterhalen	20
▁Brother	20
▁paneel	20
▁trofee	20
▁Greene	20
aard	20
▁beeldende	20
pid	20
▁Brit	20
▁Scotland	20
▁Slaven	20
orthodox	20
▁geschut	20
▁Vista	20
▁consulaat	20
▁mixtape	20
vriend	20
▁Hale	20
erg	20
GT	20
Lieve	20
▁Burroughs	20
▁gestructureerd	20
▁geboortedatum	20
▁kronen	20
▁Hughes	20
▁sein	20
▁Halifax	20
▁Kinderen	20
▁Stark	20
▁Joey	20
▁totstand	20
▁Siam	20
▁December	20
▁psychiatrie	20
▁gereedschappen	20
▁aanwijzing	20
▁verwijderde	20
pedia	20
▁kilo	20
▁uitgevaardigd	20
▁Joris	20
▁spectaculair	20
▁Muscle	20
criteria	20
▁Bible	20
▁gestraft	20
▁herschreven	20
▁separatistisch	20
▁verzorgen	20
▁claimen	20
▁beklimming	20
▁splitsing	20
▁Fed	20
▁Luzern	20
hur	20
pont	20
▁acceptatie	20
journalist	20
▁Tanger	20
vriendelijke	20
▁giftige	20
▁Thessaloniki	20
▁drug	20
▁vierkanten	20
üs	20
spiegel	20
Amsterdam	20
technicus	20
▁Iz	20
▁koppeling	20
▁Burnside	20
▁word	20
▁vreselijk	20
▁Lanka	20
daags	20
▁bekentenis	20
Marc	20
▁WIC	20
▁voorgeschreven	20
▁continuüm	20
gio	20
▁voorwaarts	20
drome	20
▁stamde	20
▁Bennett	20
weken	20
▁restanten	20
▁opgehaald	20
▁ongebruikelijke	20
▁Schwarzenberg	20
▁Away	20
▁social	20
▁Cort	20
▁bekendstaan	20
wand	20
▁Marino	20
▁geheimhouding	20
zang	20
▁Cleopatra	20
▁gematigd	20
▁Brok	20
vergemakkelijken	20
▁Arms	20
tical	20
▁Trier	20
▁alarm	20
Hur	20
▁verplichting	20
▁transitie	20
▁Lombard	20
▁Lars	20
plicht	20
ondersteuning	20
▁teleurstelling	20
▁Teen	20
▁programmeren	20
▁mislukkingen	20
inch	20
▁Loftus	20
▁Gardens	20
What	20
ög	20
▁zwembad	20
▁Savannah	20
paren	20
cl	20
▁icoon	20
▁Forbes	20
▁getuigde	20
▁Turbo	20
▁monding	20
SV	20
▁Openbar	20
▁Boat	20
▁pornografisch	20
NL	19
vallende	19
▁Provinciale	19
▁opper	19
continentale	19
dalen	19
▁Lima	19
▁Spira	19
▁geselecteerde	19
▁León	19
▁filmmakers	19
tuig	19
▁Lambert	19
▁sculpturen	19
▁intrede	19
▁franchise	19
▁kritieke	19
nius	19
▁vurig	19
▁stafchef	19
provider	19
sonic	19
▁kok	19
▁Midnight	19
nder	19
▁Aer	19
▁Truth	19
▁bits	19
▁intrinsiek	19
marine	19
▁Heidelberg	19
▁oblast	19
▁assistentie	19
É	19
▁Shane	19
verschillen	19
PH	19
▁Diane	19
NATO	19
▁benaderingen	19
▁recreatieve	19
LP	19
▁politiebureau	19
▁Wizard	19
▁schizofrenie	19
teksten	19
year	19
▁opwarming	19
meisje	19
gle	19
▁symmetrisch	19
dragen	19
taka	19
▁wolk	19
▁Motion	19
ërs	19
▁Arkansas	19
▁supervisie	19
▁Hume	19
▁persone	19
▁enthousiaste	19
▁Before	19
▁hoofdpersonage	19
▁sou	19
▁redelijke	19
gemaakte	19
▁Dakota	19
▁Voorlopig	19
▁Adrian	19
SF	19
▁overhandigd	19
▁baseren	19
▁Voorheen	19
▁MI	19
▁remake	19
▁Cirkel	19
tekort	19
▁entree	19
ilia	19
▁Merton	19
▁Body	19
▁Tilburg	19
▁Albanese	19
▁Upper	19
▁doctor	19
▁verbranden	19
▁besef	19
rouw	19
▁geslachts	19
▁Praetoriaans	19
▁uitgemaakt	19
vergadering	19
▁schikking	19
avia	19
▁poppen	19
▁SSR	19
▁Recordings	19
▁mijnwerkers	19
▁archeoloog	19
poleontische	19
gerichte	19
▁Vince	19
▁golven	19
▁hulpmiddelen	19
▁vel	19
▁Peugeot	19
vormig	19
▁Raw	19
▁Weiss	19
▁beantwoord	19
liteit	19
forum	19
▁productief	19
Cu	19
▁Huxley	19
▁isolatie	19
▁binden	19
▁EMI	19
▁academici	19
▁registers	19
▁ambitieus	19
appel	19
kil	19
▁dé	19
▁libretto	19
▁Sleep	19
▁gravures	19
elius	19
▁voordoen	19
▁Orlando	19
▁leadzanger	19
gepaste	19
LT	19
mile	19
km	19
▁emigreren	19
▁Oda	19
<	19
▁Angels	19
▁huishoudelijk	19
▁voetballer	19
▁PP	19
▁Veen	19
verontreiniging	19
aardig	19
iyah	19
▁Guinee	19
▁Sons	19
▁Emb	19
▁CFI	19
▁Bow	19
▁Recente	19
▁Meso	19
Luc	19
▁missionaris	19
srecht	19
▁stukjes	19
▁pakketten	19
▁stiefvader	19
▁burgerlijk	19
▁Revolutionair	19
▁Tripoli	19
War	19
▁belicht	19
▁beargumenteerd	19
cot	19
▁Clio	19
liberal	19
▁vete	19
▁Clan	19
hot	19
usa	19
▁methodologie	19
▁Troll	19
stell	19
liga	19
uitvoering	19
officiële	19
▁boycot	19
▁Federa	19
▁theoloog	19
▁adopteerde	19
verspilling	19
▁steenkool	19
ift	19
Dan	19
▁Ground	19
▁saga	19
▁Afghaans	19
rijke	19
▁Thrac	19
goth	19
▁geliefd	19
jn	19
icon	19
▁Kato	19
Grieks	19
gebracht	19
▁Commonwealth	19
▁Bismarck	19
▁cat	19
▁gewaarschuwd	19
▁Bear	19
▁Journey	19
▁frequent	19
Cyprioten	19
▁Pearson	19
▁geniet	19
▁XML	19
▁klarinet	19
psy	19
▁Roslavets	19
▁fra	19
▁Pré	19
▁vloeistof	19
▁Collectie	19
▁snellere	19
voorlichting	19
▁dossier	19
▁massaproductie	19
▁Somalië	19
▁Moren	19
▁identificeert	19
▁construeren	19
evenementen	19
▁Cairn	19
itia	19
▁secretariaat	19
zones	19
▁Assemblee	19
zh	19
visie	19
▁Salva	19
fabrikanten	19
▁Elsa	19
▁richtlijn	19
hia	19
borough	19
▁reality	19
▁Publi	19
▁McDonald	19
rava	19
▁Cos	19
▁gevoegd	19
▁besprekingen	19
▁Patti	19
▁Hirsch	19
▁Sneeuw	19
lengte	19
rui	19
ontwikkeld	19
oct	19
▁casino	19
▁verbiedt	19
▁geaardheid	19
condition	19
Noord	19
▁Yuan	19
▁Rivier	19
▁Silk	19
signaal	19
Qu	19
▁initieerde	19
▁Networks	19
▁samenvoegen	19
finiti	19
nita	19
▁Kassel	19
▁vita	19
▁Ach	19
▁Dordrecht	19
▁ondertitel	19
aarde	19
jana	19
▁Wallonië	19
▁Concilie	19
offs	19
▁hertogen	19
SAT	19
▁Hag	19
▁Zand	19
voeging	19
gebouwen	19
golven	19
▁bouwwerk	19
RU	19
sgeschiedenis	19
▁landgoederen	19
▁gedachtegoed	19
▁Dirty	19
▁aankomen	19
▁geboden	19
▁Geoffrey	19
soft	19
▁Swing	19
position	19
▁Chro	19
▁analist	19
▁Dav	19
▁Ceres	19
▁dalen	19
▁ingewikkeld	19
▁Rotterdams	19
▁Shiva	19
▁aanwezigen	19
▁handelaar	19
▁Myanmar	19
▁ontbinden	19
▁Boon	19
spannen	19
▁flank	19
▁scout	19
▁Rag	19
▁Reformatie	19
▁Standards	19
trekking	19
microfoon	19
bé	19
horse	19
ekker	19
▁Egyptisch	19
▁Cambodjaans	19
islamitische	19
▁Help	19
west	19
▁Adriaan	19
▁Velsius	19
▁Ricci	19
▁Millennium	19
▁scene	19
issen	19
▁initialen	19
▁verkort	19
▁Anatolië	19
▁portefeuille	19
▁Taj	19
▁schone	19
evenement	19
▁achtervolging	19
▁Burg	19
▁Dreams	19
▁Hein	19
AB	19
▁Mayo	19
Pri	19
▁proclamatie	19
▁hooggeplaatst	19
uis	19
▁atheïst	19
mogelijk	19
▁journaliste	19
▁Economie	19
▁gemodificeerd	19
▁vervreemd	19
▁Italiaan	19
▁Sm	19
▁Eveneens	19
▁Preston	19
getreden	19
▁Kas	19
▁ceremonies	19
▁Augsburg	19
▁bewaken	19
▁derden	19
▁muurschildering	19
▁gepatenteerd	19
LB	19
▁therapie	19
▁Normal	19
▁spelcomputer	19
▁Parque	19
Este	19
▁Yorkshire	19
▁Kerstmis	19
▁tiran	19
Pap	19
▁kart	19
▁investering	19
▁vriendelijk	19
▁kwaliteits	19
▁Foto	19
works	19
conflict	19
▁Bog	19
▁Vale	19
▁Boudewijn	19
▁Vaticaan	19
trekkingskracht	19
▁Ramsey	19
houding	19
▁Rams	19
straal	19
▁Season	19
▁infrarood	19
▁ongelijk	19
▁Schwartz	19
▁Odin	19
▁satirische	19
▁rendement	19
▁voorts	19
▁Hyp	19
bomen	19
▁Stadt	19
▁Beta	19
SM	19
▁aartsbisdom	19
▁Manser	19
▁gevreesd	19
▁Ding	19
▁franc	19
▁Meerder	19
▁professoren	19
print	19
▁NES	19
clubs	19
▁intelligent	19
▁tong	19
offers	19
▁sovjet	19
▁Tess	19
hana	19
▁huisarrest	19
▁adviezen	19
▁Kathedraal	19
disc	19
▁Cleo	19
▁holotype	19
mix	19
▁Cloe	19
▁afzetting	19
▁knie	19
▁hereniging	19
▁print	19
▁genoom	19
▁Cla	19
experiment	19
▁Denen	19
▁gepantserde	19
▁Molson	19
▁bunker	19
▁paper	19
▁kernwapens	19
instrument	19
▁arresteerde	19
▁betaalden	19
▁hecht	19
▁vlammen	19
▁uitreiking	19
▁ontmanteld	19
▁maker	19
▁Feyenoord	19
▁berecht	19
▁overschaduwd	19
▁part	19
▁international	19
▁assortiment	19
sect	19
▁Estate	19
party	19
▁Milton	19
agentschap	19
skaja	19
▁Executive	19
▁Kub	19
▁full	19
▁Moskous	19
▁beschermer	19
▁Politie	19
▁TI	19
▁knoop	19
▁Triple	19
▁soortaanduiding	19
ibn	19
▁skepticisme	19
MX	19
speeld	19
▁kustlijn	19
▁Boeren	19
▁Koer	19
▁Rangers	19
stralen	19
▁Aid	19
▁Heroes	19
▁geduld	19
▁Vytautas	19
▁gekwalificeerd	19
pische	19
lein	19
▁intimidatie	19
asco	19
▁Spoorwegen	19
▁Punk	19
▁SON	19
▁Hayek	19
Amerikanen	19
▁Path	19
▁Staf	19
▁tunnels	19
▁Unter	19
scontrole	19
lah	19
verhouding	19
guan	19
▁Kita	19
specifieke	19
echte	19
hui	19
▁Sale	19
▁onderwereld	19
▁sloegen	19
aud	19
kwadratisch	19
▁Banque	19
chips	19
holm	19
kocht	19
▁Bradley	19
▁vergelding	19
▁brein	19
▁danste	19
bey	19
▁Procopius	19
werkt	19
▁Standaard	19
▁View	19
▁BA	19
▁pakte	19
▁Dudley	19
▁aankondigde	19
▁Manilla	19
▁vaardigde	19
▁fascinatie	19
▁Bosch	19
▁schoen	19
▁lever	19
▁Siciliaans	19
markten	19
▁toestaan	19
▁Nishi	19
▁integreer	19
▁Pick	19
▁sociaaldemocrat	19
▁grappen	19
▁Secrets	19
verslaving	19
▁overkoepelend	19
▁emigreerden	19
▁Nuclea	19
▁Blo	19
orst	19
▁dringend	19
▁Fried	19
▁onderscheppen	19
▁gedownload	19
▁Transit	19
▁symboliseert	19
SEA	19
▁Garfield	19
hurst	19
sneden	19
▁voorschriften	19
▁Lear	19
programmeur	19
vergelijking	19
▁mengen	19
▁Pentagon	19
▁Gallen	19
▁vermiste	19
▁Dami	19
▁focuste	19
▁romp	19
▁Flo	19
lineaire	19
▁ruimteschip	19
printer	19
▁Mauritius	19
▁gehandhaafd	19
▁vuurtoren	19
Samawah	19
▁doelpunt	19
▁Armand	19
▁verdubbeld	19
▁bioscopen	19
▁regenwoud	19
▁Robot	19
▁Zich	19
▁Spy	19
▁noordwaarts	19
▁Virgin	19
nio	19
▁Scheveningen	19
waarts	19
igd	19
spoed	19
▁gevoeligheid	19
geheugen	19
▁Vermont	19
▁Lita	19
▁Hyper	19
bands	19
▁objectieve	19
Canada	19
▁substitutie	19
rium	19
▁illusie	19
▁verbranding	19
kering	19
UK	19
board	19
▁Sign	19
▁Winn	19
▁wenden	19
▁Vrouw	19
▁Vinci	19
geheim	19
▁Tomas	19
▁Jasenovac	19
▁grootse	19
▁Ferry	19
▁tranen	19
▁intens	19
▁onderzeeërs	19
▁September	19
liter	19
▁Matteüs	19
▁actoren	19
▁bankier	19
hoeve	19
▁stadstaten	19
▁bekent	19
▁verkenning	19
▁Theodosius	19
▁stilte	19
▁roze	19
▁Somerville	19
medaille	19
bine	19
▁jurist	19
▁Minder	19
▁reddings	19
▁Kemp	19
apparaten	19
Ü	19
▁Hoogland	19
▁verwantschap	19
gemeente	19
▁deskundige	19
lager	19
▁raadgever	19
▁toekenning	19
▁realisatie	19
▁schoten	19
cilinder	19
▁Casimir	19
▁gedrags	19
▁Yak	19
berry	19
▁afkeer	19
orni	19
▁Burnham	19
▁kwade	19
▁SLAM	19
▁mijlpaal	19
▁Server	19
▁Ski	19
▁Touch	19
▁LEGO	19
opera	19
gediagnosticeerd	19
▁Hutcherson	19
▁lonen	19
BG	19
▁Hagen	19
▁beschoten	19
▁Dogg	19
▁ou	19
▁Mora	19
▁plantage	19
▁Shar	19
▁Chance	19
▁detachement	19
▁conceptuele	19
▁cycli	19
cula	19
▁Feng	19
objecten	19
▁reductie	19
▁goedkopere	19
▁creativiteit	19
▁Pain	19
▁base	19
▁priemgetal	19
▁Kiel	19
▁SU	19
▁Thunder	19
gag	19
▁basale	19
▁Uppsala	19
haft	19
▁familia	19
▁acroniem	19
ström	19
▁terugtrok	19
▁Taliban	19
Bla	19
▁Nina	19
▁exposities	19
▁Note	19
▁Aurora	19
▁dwerg	19
▁Slowakije	19
▁beheerste	19
nica	19
▁mengel	19
ssystemen	19
▁Corr	19
▁offshore	19
▁Aberdeen	19
▁minderheids	19
incident	19
▁letterlijke	19
▁ob	19
inga	19
▁Tina	19
▁blijk	19
▁managers	19
jer	19
▁genoodzaakt	19
▁Veteran	19
▁kostbare	19
▁zwoer	19
▁reeksen	18
▁obstakels	18
▁Achievement	18
voetbal	18
▁Slot	18
▁kostuum	18
CR	18
Whitney	18
▁Coalitie	18
utz	18
gif	18
▁wilt	18
veranderingen	18
▁Terra	18
▁ondertekenaars	18
algoritme	18
▁Ferguson	18
▁Chamber	18
▁tribe	18
gehouden	18
▁mezelf	18
▁Mystic	18
▁platina	18
Mon	18
éra	18
▁schoonvader	18
▁Gore	18
▁Homo	18
▁graftombe	18
▁Rover	18
▁moedigen	18
▁Nottingham	18
▁wortel	18
klas	18
▁cinema	18
▁Shah	18
▁trompet	18
ACA	18
▁tijger	18
▁shogunaat	18
▁plateau	18
▁Russia	18
▁onbewoond	18
Vlaanderen	18
▁Advance	18
▁filmfestival	18
▁ongekend	18
▁Monde	18
▁Domini	18
▁manifestatie	18
▁Puerta	18
vast	18
▁beschadiging	18
▁animator	18
dekkingsreiziger	18
routes	18
▁Kasp	18
▁betrekken	18
chip	18
▁Champions	18
▁Poort	18
▁Windsor	18
▁Artists	18
▁Dakar	18
▁Fear	18
▁bestanden	18
▁worstelaars	18
▁dienstverlening	18
▁Leeuwarden	18
▁Harm	18
stenen	18
John	18
Phoebus	18
▁Samoa	18
▁klinkt	18
▁Fast	18
▁koopman	18
▁verschilde	18
schr	18
▁Cotton	18
▁Derby	18
▁recenter	18
▁secularisme	18
▁emoties	18
▁confronteer	18
agenten	18
▁HP	18
▁Lock	18
▁more	18
▁Deeyah	18
▁stapt	18
▁rally	18
▁Brett	18
ý	18
▁Medio	18
▁feestelijk	18
▁Ole	18
▁Gret	18
▁verf	18
▁Hansen	18
▁Robespierre	18
▁geëlimineerd	18
Oekraïens	18
ě	18
▁tabellen	18
▁klus	18
▁opgeschort	18
▁Starr	18
tallen	18
lamp	18
▁Mordrel	18
nieuws	18
▁salon	18
▁IJssel	18
▁concilie	18
generator	18
▁Herz	18
▁oorlogsvoering	18
bezit	18
▁protagonist	18
▁BP	18
▁vereenvoudigde	18
▁Qatar	18
▁Ethiopische	18
▁Cara	18
tium	18
voertuigen	18
▁merkwaardig	18
Slowakije	18
▁Lyc	18
▁Chase	18
Maar	18
▁Between	18
▁low	18
verschuiving	18
▁ophield	18
kenmerken	18
▁verbreding	18
▁kazerne	18
▁Amiga	18
▁Lat	18
RS	18
Oosterse	18
▁Ludwigsfelde	18
rov	18
bestellingen	18
▁Rei	18
▁Jaarlijks	18
Pools	18
vitri	18
gaila	18
MU	18
▁handicap	18
▁Koo	18
▁ruïne	18
▁handig	18
▁plaatsten	18
▁stroming	18
▁Tobago	18
▁toelaat	18
▁verraden	18
▁priemgetallen	18
▁ellende	18
▁Oro	18
▁toeneemt	18
▁tabaks	18
▁Cultureel	18
▁rouw	18
▁Rhodos	18
▁rende	18
▁spot	18
▁Sandra	18
patroon	18
▁Rechts	18
ppy	18
▁commentatoren	18
ría	18
▁Moor	18
nick	18
▁genezing	18
▁verwerpen	18
▁Graf	18
▁Janssen	18
clear	18
farm	18
▁standaardisatie	18
▁Malouma	18
▁terugtrokken	18
telli	18
▁Singers	18
▁detectie	18
▁Telescope	18
▁markeert	18
▁Lead	18
▁gewelddadig	18
▁verblijfplaats	18
▁bezighoudt	18
Music	18
shaw	18
▁selecteerde	18
▁Zeus	18
▁keramiek	18
▁Etruskisch	18
▁Cornwall	18
▁Australiërs	18
▁Maxwell	18
▁crew	18
▁schermen	18
▁archipel	18
▁conform	18
▁verstopt	18
gehaald	18
▁Break	18
onderzoeksgebied	18
▁naaste	18
▁Milk	18
dracht	18
▁Tennis	18
rtigjarige	18
▁representeert	18
FK	18
▁Carey	18
▁Petrarca	18
▁fil	18
▁migranten	18
İ	18
▁Marty	18
maten	18
tial	18
▁Palestijnen	18
▁gewezen	18
▁Paint	18
▁bewoonde	18
▁tevoorschijn	18
▁Pay	18
UT	18
▁Musical	18
▁Instrument	18
▁projectie	18
Laten	18
▁Dawkins	18
DM	18
▁Ath	18
codon	18
▁NU	18
▁Mine	18
▁blue	18
doneerd	18
▁Schelling	18
▁Katniss	18
▁Capitool	18
▁Maritiem	18
voorwaarden	18
▁activisme	18
verwarming	18
▁Frankie	18
▁Clock	18
▁veroorzaakten	18
▁Devon	18
▁VVD	18
▁creëerden	18
▁geteld	18
idas	18
▁filmregisseur	18
▁beheerde	18
▁filiaal	18
▁stille	18
▁gehoopt	18
▁stationsgebouw	18
▁Popp	18
▁Merit	18
▁Million	18
▁kinderboeken	18
ggs	18
▁kleurstelling	18
▁geconstateerd	18
▁opereert	18
▁Duivel	18
▁Titanic	18
▁trakta	18
▁Mada	18
▁bon	18
rende	18
▁evangeliën	18
▁hergebruikt	18
▁afgesneden	18
▁cult	18
▁Depressie	18
▁tegenslagen	18
▁bestuurde	18
▁Erdo	18
#	18
▁Vila	18
▁Kung	18
▁illustreerde	18
▁bevoegd	18
▁DARE	18
▁zwakker	18
brigade	18
▁algebraïsch	18
werktuigen	18
▁Gab	18
fus	18
Þ	18
▁Count	18
corporatie	18
▁Must	18
medewerkers	18
▁emotioneel	18
▁teruggaat	18
termijn	18
▁landeigenaren	18
▁ouderdom	18
ahir	18
▁nou	18
▁Duitser	18
▁Enric	18
▁Wade	18
mouth	18
Tr	18
▁Dexia	18
▁leidinggevende	18
▁Oka	18
opslag	18
Au	18
▁Arc	18
CT	18
rockband	18
▁Cord	18
Turkse	18
▁geschokt	18
▁weeshuis	18
▁overtredingen	18
slot	18
▁voldeden	18
▁Ankara	18
▁Scala	18
▁verleent	18
▁geërfd	18
▁Geheim	18
interview	18
tekeningen	18
▁Notre	18
▁studeerden	18
munten	18
▁Graphics	18
▁Simone	18
perste	18
▁huiselijk	18
▁zeggenschap	18
▁Vogue	18
▁Chiang	18
▁Alban	18
▁Bock	18
sdag	18
Ab	18
▁onderricht	18
▁Oriental	18
▁singer	18
wil	18
▁bisdom	18
Ó	18
▁tijdgenoot	18
▁misdrijven	18
prak	18
lass	18
ory	18
OT	18
▁Brussels	18
nette	18
▁keyboard	18
big	18
▁Mirror	18
▁oppervlakkig	18
▁Isabel	18
▁Hoessein	18
▁proteïne	18
waarvan	18
▁NT	18
▁aanname	18
▁Luca	18
sneed	18
▁kwaadaardig	18
▁beslaan	18
boog	18
▁Cock	18
▁oudst	18
▁kroning	18
▁Freeman	18
▁Helicopter	18
erson	18
▁Jansen	18
▁Rider	18
▁opgraving	18
▁beslecht	18
eaux	18
▁modules	18
▁waarderen	18
▁gefuseerd	18
gische	18
▁Saturday	18
▁Production	18
▁Mean	18
European	18
▁Augustine	18
▁Dieren	18
▁Android	18
▁telefoons	18
▁bewonderd	18
▁Slam	18
▁Norwich	18
▁desktop	18
mot	18
▁Himera	18
aardse	18
leringen	18
▁arrangeerde	18
▁dwangarbeid	18
arbeid	18
▁ultiem	18
▁Marius	18
rex	18
▁Qi	18
▁gemist	18
▁luister	18
▁werkgever	18
scampagne	18
▁keus	18
▁symmetrieën	18
zijdig	18
▁Leave	18
▁toestond	18
▁uitgeleend	18
▁Elliot	18
▁regenten	18
▁ontvluchten	18
▁Nijl	18
▁Enterprise	18
▁vriendinnen	18
iciteit	18
rush	18
virus	18
ontdekker	18
hier	18
▁Kees	18
▁Johannesburg	18
▁Palts	18
ishi	18
▁wenselijk	18
▁Grothendieck	18
▁Werner	18
▁Tade	18
▁Sonic	18
▁lijf	18
▁Provincie	18
amo	18
GE	18
▁bekken	18
▁Brady	18
krijg	18
abelse	18
▁Byers	18
▁Gere	18
▁Lausanne	18
▁great	18
▁Istanbul	18
▁Delhi	18
▁Present	18
aannemer	18
▁gewonde	18
▁verslaat	18
producenten	18
▁verdedigt	18
breng	18
▁lost	18
▁gekant	18
▁extensie	18
▁overlevering	18
▁fin	18
tung	18
kritische	18
groen	18
sinstellingen	18
▁kapot	18
▁Reno	18
▁mozaïek	18
▁Romanov	18
▁overwegingen	18
pag	18
▁parlementen	18
▁onpartijdig	18
trainer	18
▁never	18
▁agressie	18
▁Maru	18
▁onvoltooid	18
▁teruggeroepen	18
▁ooms	18
▁stralings	18
▁Kuhn	18
▁abortus	18
industrialisatie	18
▁vrezen	18
▁hervormd	18
▁bevechten	18
ller	18
▁Niger	18
▁ministeries	18
▁weerspiegeld	18
▁Kerr	18
▁druiven	18
methyl	18
nemen	18
▁vitale	18
▁Jacqueline	18
bang	18
▁gepasseerd	18
▁buurman	18
▁Chuck	18
▁feodal	18
▁rooster	18
▁Frost	18
▁César	18
▁Attack	18
▁Hancock	18
▁breekt	18
▁Cruy	18
wicht	18
slotte	18
▁ondertekenden	18
▁betrad	18
speelster	18
OW	18
▁gecontracteerd	18
▁nachten	18
cq	18
▁pornografie	18
▁windmolen	18
▁wanhoop	18
klassieke	18
▁Hettitisch	18
▁Poe	18
▁Elliott	18
▁Hom	18
gordel	18
▁ergste	18
▁doodsbedreiging	18
▁exposeerde	18
schafte	18
omys	18
▁Gram	18
▁ingekort	18
▁Clean	18
▁gegarandeerd	18
▁zegel	18
juni	18
▁Iowa	18
▁AVR	18
geving	18
▁ploegen	18
▁bedenker	18
▁Associate	18
▁MAN	18
▁afgesproken	18
OH	18
▁Valens	18
▁horloge	18
▁Voorzitter	18
▁Crocker	18
▁binnenstad	18
RIS	18
▁Masa	18
Bahn	18
▁Dallas	18
▁hing	18
UN	18
▁uitgroeien	18
▁rechterkant	18
▁reactor	18
▁Libre	18
▁Fit	18
▁quasi	18
proliferatie	18
▁patrouilles	18
▁verwanten	18
dirigent	18
▁Demosthenes	18
▁vrijdenkers	18
admiraal	18
▁Cher	18
▁afsluiting	18
▁voetbalclub	18
▁achtte	18
fel	18
û	18
▁musicus	18
▁Wir	18
▁Arbeiders	18
▁Electronics	18
ikt	18
▁Wallis	18
▁vlot	18
▁Jef	18
▁geneesmiddelen	18
▁Put	18
inspecteur	18
▁Beyond	18
▁Tunesisch	18
▁SBS	18
principes	18
eind	18
vogels	18
▁Legio	18
▁luchtverkeer	18
▁Openbaar	18
▁Oorlogen	18
▁Wise	18
▁stilgelegd	18
▁comités	18
▁Republikeins	18
expert	18
raketten	18
poging	18
▁Pitt	18
lenzen	18
▁toevoegingen	18
ahn	18
OB	18
▁Toll	18
▁Wheel	18
▁Emanuel	18
▁touch	18
▁neergezet	18
▁terugkomst	18
terminal	18
▁getransformeerd	18
nië	18
▁vervallen	18
▁echtscheiding	18
▁Autonom	18
▁Curie	18
▁Birma	18
▁liturgisch	18
geweld	18
plek	18
▁bevolkingsgroei	18
SAS	18
▁Zeit	18
▁Animals	18
▁gigantische	18
▁Ammon	18
▁Olivier	18
▁fascisme	18
▁Span	18
▁emigranten	18
▁vergader	18
gni	18
▁circulatie	18
▁Falls	18
sund	18
▁overeenkomen	18
sheet	18
kei	18
▁Select	18
▁afspeelt	18
▁Oostelijke	18
▁sportieve	18
buurt	18
mars	18
▁Casino	18
▁Gardner	18
▁succesvolste	18
▁Kirby	18
▁keizerin	18
▁atmosferisch	18
▁apen	18
▁universiteits	18
▁mislukten	18
▁afgesplitst	18
▁werkgevers	18
▁Delaware	18
financiering	18
▁Harding	18
▁kies	18
▁Seel	18
▁Vil	18
▁flessen	18
▁GWUP	18
▁bestaand	18
provincie	18
▁omloop	18
▁Bier	18
▁Things	18
▁Mint	18
▁optreedt	18
▁fuseerden	18
dog	18
▁Poll	18
mails	18
▁elektron	18
▁voortbestaan	18
teller	18
▁Associatie	18
▁Mori	18
▁Merlin	18
dak	18
▁Frontier	18
RF	18
▁Delphi	18
overdracht	18
▁prostituee	18
▁oorlogsmisdaden	18
▁slachting	18
▁rechtssysteem	18
▁Guthrie	18
▁Kazachstan	18
▁pleitbezorger	18
thon	18
▁toevertrouwd	18
▁quarks	18
▁Rossi	18
▁aanbiedt	18
▁Verbond	18
▁Mathilde	18
▁maaltijd	18
▁bevoorrading	18
loch	18
▁oren	18
▁Tani	18
▁Draad	18
▁Canadees	18
bewustwording	18
lating	18
conventie	18
▁kanunnik	18
▁computatione	18
moed	18
▁GB	18
▁Volsci	18
▁kennelijk	18
college	18
▁levensstandaard	18
▁Whit	18
▁schadelijke	18
smogelijkheden	18
▁Fal	18
▁gemotiveerd	18
▁Brave	18
▁Lights	18
▁virussen	18
▁Courant	18
atta	18
▁Trotski	18
▁Kameroen	18
▁Pakista	18
▁bezienswaardig	18
▁opengesteld	18
▁Giles	18
hitlijst	18
▁pastoor	18
olen	18
Ben	18
logen	18
▁maïs	18
▁Simeon	18
foon	18
▁stigma	18
▁Griffith	18
block	18
▁overeenkwam	18
▁begrijpt	18
▁Archief	18
▁verwoord	18
typen	18
schakelde	18
distributie	18
▁noden	18
▁gekweekt	17
▁Excellence	17
▁saxofoon	17
▁Shog	17
rew	17
▁Kensington	17
componenten	17
▁Complex	17
▁Lantern	17
▁Wife	17
gia	17
▁Graves	17
uitgebracht	17
▁Rochelle	17
enden	17
▁dispuut	17
▁functioneert	17
▁Burgemeester	17
kut	17
▁Workman	17
▁formaties	17
▁gedemonstreerd	17
▁Azteken	17
▁observeerde	17
kalender	17
▁Memory	17
▁nm	17
▁Farr	17
▁bloedige	17
▁(“	17
▁Gideon	17
leigh	17
▁beat	17
▁gr	17
▁tsunami	17
▁URL	17
Ž	17
▁Thracië	17
Saint	17
▁Legacy	17
slaan	17
▁tweeën	17
▁mutant	17
shot	17
▁repetitie	17
Very	17
▁Abbas	17
documenten	17
▁flexibel	17
▁volwassenheid	17
▁str	17
▁Fab	17
▁AI	17
▁opvang	17
▁Skepsis	17
▁uitsprak	17
▁box	17
uba	17
rna	17
▁Berger	17
categorietheorie	17
▁isomorf	17
▁aanbid	17
undamentaalgroep	17
▁Picture	17
ower	17
▁radicalen	17
▁functor	17
▁stromingen	17
arra	17
▁fotografen	17
▁dissertatie	17
▁Huygens	17
▁rechtvaardiging	17
▁ooggetuigen	17
▁kunstenares	17
▁onterecht	17
▁exporteren	17
▁sensatie	17
▁duidelijker	17
▁Cassie	17
romans	17
▁zomers	17
▁Singles	17
▁Williamson	17
▁LGBT	17
ampa	17
▁voortkwam	17
▁voornemen	17
▁Bid	17
▁FA	17
▁Productie	17
iki	17
jacht	17
▁Huiswoud	17
▁McLaren	17
▁assembl	17
maakt	17
▁afgevoerd	17
▁bewonderde	17
▁moedertaal	17
▁passeerde	17
synthese	17
▁Vlag	17
▁RS	17
▁wol	17
▁Dragons	17
▁avonden	17
▁wekte	17
▁tekening	17
▁heropleving	17
▁adequa	17
▁Bella	17
▁vernieuwde	17
▁mechanisch	17
▁bekwaamheid	17
fly	17
▁verlof	17
▁snelheden	17
▁Classics	17
▁Survivor	17
▁Rho	17
▁winters	17
▁Tbilisi	17
▁lunch	17
kuru	17
▁Kirch	17
▁dusver	17
▁congregatie	17
Met	17
gedragen	17
▁Sali	17
▁Volledig	17
culaire	17
▁Bé	17
onvoorwaardelijk	17
▁relativiteit	17
succes	17
▁Smits	17
▁familiebedrijf	17
▁Emergenc	17
▁Victory	17
▁TNA	17
spion	17
▁Legends	17
▁Namazie	17
▁good	17
▁Ninja	17
dora	17
▁Spear	17
grenzen	17
▁geweer	17
gaven	17
▁trip	17
▁aangegaan	17
▁rotsen	17
▁inwendige	17
▁Nights	17
tekening	17
▁Doc	17
▁Breton	17
▁jeugdige	17
▁Sec	17
▁verzamel	17
▁gelimiteerd	17
▁Dow	17
▁Uw	17
▁Independence	17
▁helm	17
▁samengevat	17
▁Stargate	17
ć	17
▁Kooten	17
uru	17
historicus	17
▁Ores	17
▁tar	17
▁Decker	17
▁vliegt	17
▁down	17
EE	17
ERA	17
▁Hoger	17
▁Gla	17
▁tabletten	17
▁Octavianus	17
▁Saba	17
▁quo	17
▁epidemie	17
▁motie	17
▁tijdperken	17
▁Elagabalus	17
dier	17
Ł	17
▁continentaal	17
rechtelijk	17
▁persbericht	17
▁Parc	17
tà	17
▁use	17
▁war	17
wagens	17
▁Pit	17
▁gemodelleerd	17
▁Leng	17
▁Berk	17
▁Gusta	17
▁bekendst	17
▁Abd	17
▁verstandig	17
▁Clemens	17
▁slimme	17
▁slacht	17
▁Martini	17
ograph	17
▁Expedition	17
▁Toy	17
▁acceptabel	17
buiten	17
gezind	17
▁nomaden	17
orgel	17
▁IMF	17
▁belegeren	17
▁kerkgebouw	17
▁Elementen	17
▁futuristisch	17
▁loge	17
partner	17
▁terugkomen	17
▁bilaterale	17
▁handelaars	17
▁Ones	17
▁arbeidsmarkt	17
netje	17
Something	17
federatie	17
▁vrijgesteld	17
▁achtervolgen	17
▁Pretoria	17
▁klanken	17
OD	17
▁scholing	17
▁Writers	17
▁wettige	17
historische	17
native	17
stoel	17
▁daagde	17
▁Chronicon	17
▁staatsman	17
voorstellingen	17
▁sediment	17
▁wand	17
▁Edo	17
sias	17
▁Zak	17
Can	17
▁romance	17
▁Schul	17
▁Ancient	17
▁bewogen	17
▁Emile	17
▁Liz	17
▁Hasbro	17
▁Hip	17
[...]
