<unk>	0
<s>	0
</s>	0
▁the	-3.06047
.	-3.23014
,	-3.28025
▁	-3.43904
▁of	-3.6311
▁and	-3.8882
▁in	-3.98286
1	-4.03024
▁to	-4.15813
0	-4.19495
▁a	-4.23951
s	-4.27033
9	-4.5209
▁was	-4.55512
2	-4.64197
▁The	-4.80334
▁is	-4.98078
-	-5.00585
▁for	-5.11016
'	-5.16901
▁by	-5.22557
▁on	-5.26443
▁as	-5.26606
8	-5.28674
▁with	-5.2942
▁that	-5.31758
▁(	-5.33608
5	-5.36738
3	-5.42333
▁his	-5.43333
▁In	-5.436
7	-5.4729
6	-5.47422
▁he	-5.52004
4	-5.52343
▁"	-5.61628
ing	-5.68104
▁from	-5.68951
▁at	-5.79529
▁were	-5.8002
)	-5.91078
▁an	-5.92934
"	-6.02881
▁are	-6.05713
▁He	-6.07068
▁be	-6.08089
▁which	-6.09831
▁had	-6.09839
▁it	-6.11713
▁also	-6.13663
ed	-6.16103
▁first	-6.28029
▁not	-6.29369
:	-6.33642
▁has	-6.34387
▁this	-6.41741
▁but	-6.42282
▁or	-6.45186
▁her	-6.46597
▁their	-6.47721
e	-6.48328
▁one	-6.55618
▁A	-6.56933
▁have	-6.58532
▁It	-6.59112
▁been	-6.62259
▁who	-6.65135
▁its	-6.68955
).	-6.70704
▁two	-6.75076
▁she	-6.75699
▁they	-6.7697
▁other	-6.84902
▁after	-6.86661
d	-6.87304
▁time	-6.88127
▁This	-6.90486
▁years	-6.92552
ly	-6.93592
▁more	-6.96053
a	-6.96243
▁all	-6.96512
▁would	-7.01873
▁new	-7.0486
▁between	-7.05432
▁only	-7.06178
▁On	-7.06366
▁him	-7.06568
▁into	-7.07335
th	-7.10006
▁about	-7.10935
),	-7.11588
▁I	-7.12904
▁later	-7.13664
▁de	-7.13991
▁became	-7.14356
t	-7.15227
y	-7.17272
▁can	-7.17679
▁most	-7.18578
".	-7.19455
▁where	-7.20971
▁than	-7.21867
▁when	-7.22145
▁work	-7.2255
▁used	-7.24554
▁over	-7.24718
;	-7.26487
▁She	-7.27261
▁there	-7.27505
▁part	-7.28054
▁known	-7.28145
n	-7.28809
▁made	-7.31078
▁during	-7.32526
▁After	-7.32918
▁many	-7.33134
▁year	-7.33674
▁name	-7.3371
▁such	-7.35703
al	-7.35794
▁some	-7.36309
▁under	-7.36736
▁His	-7.38065
▁three	-7.3895
er	-7.39917
o	-7.40891
▁no	-7.44171
▁then	-7.44481
▁up	-7.44533
."	-7.4792
▁people	-7.48037
–	-7.48055
▁them	-7.50909
▁out	-7.53045
▁until	-7.54009
i	-7.56995
▁same	-7.58141
▁these	-7.58634
▁called	-7.58682
▁well	-7.60835
▁several	-7.61235
▁number	-7.62387
▁group	-7.63037
▁both	-7.6448
▁United	-7.65254
▁published	-7.6648
▁New	-7.66599
▁They	-7.66732
▁before	-7.69071
▁could	-7.69111
/	-7.6965
▁so	-7.69711
▁because	-7.6979
▁At	-7.70341
▁released	-7.70574
▁against	-7.70922
▁began	-7.71181
▁second	-7.7168
▁will	-7.72702
▁European	-7.73116
▁As	-7.74073
▁world	-7.74237
▁own	-7.74312
▁World	-7.75423
▁city	-7.76181
▁century	-7.76815
▁Dutch	-7.76922
▁did	-7.77636
▁including	-7.78107
▁through	-7.78194
▁Dur	-7.7986
▁since	-7.8045
▁series	-7.80599
▁early	-7.80915
▁government	-7.81996
▁being	-7.8203
in	-7.8249
▁De	-7.83006
▁album	-7.83627
▁May	-7.83722
▁end	-7.8381
en	-7.84738
▁French	-7.84747
▁film	-7.85417
▁use	-7.85442
▁War	-7.85924
▁life	-7.8615
▁S	-7.86321
took	-7.87455
▁family	-7.87907
S	-7.88158
l	-7.8851
%	-7.88675
▁American	-7.89073
▁found	-7.90028
▁death	-7.91528
▁company	-7.91816
▁States	-7.92995
▁four	-7.93543
▁still	-7.94279
▁There	-7.94838
▁music	-7.95076
▁last	-7.95878
▁place	-7.95984
▁March	-7.96693
▁now	-7.96852
▁German	-7.97187
▁may	-7.97853
▁while	-7.97957
▁book	-7.98352
▁band	-7.98618
▁From	-7.98757
▁–	-7.98809
▁father	-7.98878
▁September	-7.98916
▁However	-7.99191
es	-7.99308
▁June	-8.00049
▁November	-8.00051
▁October	-8.00143
▁left	-8.00176
▁British	-8.00364
▁For	-8.00703
▁E	-8.01256
▁named	-8.02078
▁January	-8.02849
▁April	-8.02921
▁very	-8.02961
▁died	-8.03073
▁around	-8.03336
▁Europe	-8.0352
▁war	-8.03882
▁often	-8.04412
▁any	-8.04594
▁built	-8.05632
▁played	-8.05715
▁important	-8.06104
▁system	-8.06322
▁July	-8.07105
▁December	-8.08272
▁wrote	-8.08429
▁August	-8.08657
ic	-8.09063
▁period	-8.09667
▁worked	-8.0988
’	-8.10348
m	-8.10365
an	-8.1045
▁founded	-8.10839
▁C	-8.11205
▁area	-8.1142
▁large	-8.11492
▁started	-8.11863
▁said	-8.12096
▁each	-8.12097
▁When	-8.12386
▁received	-8.12552
▁member	-8.12648
the	-8.12867
r	-8.13271
▁again	-8.13369
▁political	-8.1361
▁if	-8.13707
▁members	-8.14037
▁different	-8.14053
▁back	-8.14594
▁led	-8.14798
on	-8.14844
A	-8.16316
us	-8.16358
▁day	-8.16407
▁van	-8.1661
▁high	-8.1671
▁Netherlands	-8.16723
▁based	-8.16973
▁University	-8.17417
▁U	-8.18056
▁II	-8.18396
▁like	-8.18903
▁won	-8.18952
▁held	-8.19011
▁February	-8.19523
▁came	-8.20434
▁much	-8.20853
▁public	-8.21107
▁what	-8.2146
▁set	-8.21558
▁version	-8.2175
▁small	-8.21836
▁do	-8.21843
▁long	-8.23081
▁son	-8.23158
▁major	-8.23754
▁state	-8.23987
▁One	-8.2442
▁France	-8.24459
▁returned	-8.24736
▁role	-8.2476
▁international	-8.25681
▁military	-8.26002
▁main	-8.26194
▁few	-8.26202
▁works	-8.26513
▁support	-8.26617
▁John	-8.26856
▁National	-8.269
▁moved	-8.26956
▁local	-8.26957
▁national	-8.2739
st	-8.27418
I	-8.27457
▁five	-8.27479
▁even	-8.27916
▁B	-8.28091
▁children	-8.2814
▁D	-8.28159
The	-8.29513
▁country	-8.30155
▁By	-8.30282
▁million	-8.30478
▁become	-8.30491
▁history	-8.30583
▁form	-8.30999
▁single	-8.3109
▁production	-8.31101
▁following	-8.31109
▁International	-8.3146
▁another	-8.32088
▁written	-8.32346
▁order	-8.32648
▁among	-8.33248
or	-8.33514
▁men	-8.34049
▁'	-8.34132
▁women	-8.34701
▁Since	-8.34789
▁development	-8.34802
▁produced	-8.35161
▁way	-8.35567
▁These	-8.35681
▁original	-8.36008
▁York	-8.36023
▁however	-8.36288
▁those	-8.36628
▁re	-8.36864
▁power	-8.36919
▁himself	-8.36927
▁T	-8.37137
▁result	-8.37285
▁According	-8.37366
▁within	-8.37797
▁established	-8.3829
▁team	-8.3831
▁example	-8.38421
▁various	-8.38454
▁former	-8.38983
▁best	-8.39027
▁school	-8.39234
▁countries	-8.3945
▁given	-8.39727
▁show	-8.40276
▁developed	-8.40698
▁third	-8.40901
▁you	-8.41409
▁building	-8.41741
▁London	-8.42004
▁P	-8.42098
▁late	-8.42118
▁appeared	-8.42238
▁together	-8.42312
▁married	-8.42629
▁considered	-8.43366
▁age	-8.43535
▁days	-8.43641
▁army	-8.43674
▁created	-8.43736
▁Germany	-8.4384
▁make	-8.44005
c	-8.44151
▁project	-8.44364
▁never	-8.44374
▁non	-8.44394
▁research	-8.44631
▁South	-8.4469
▁without	-8.45188
▁sent	-8.45413
▁home	-8.46156
▁game	-8.46206
▁due	-8.46339
▁song	-8.46449
▁M	-8.46819
▁&	-8.4761
▁take	-8.47813
▁went	-8.48374
▁next	-8.48677
▁old	-8.48822
▁Her	-8.50073
▁With	-8.50119
▁should	-8.50164
▁announced	-8.50257
▁un	-8.50896
▁social	-8.51544
▁O	-8.51826
▁theory	-8.53236
▁general	-8.53239
▁continued	-8.5342
▁All	-8.53884
▁we	-8.54156
▁house	-8.54238
▁Union	-8.54383
▁An	-8.54542
▁groups	-8.54592
▁great	-8.55394
man	-8.55692
▁six	-8.5626
▁Paris	-8.56351
▁title	-8.56396
▁Russian	-8.56602
▁months	-8.56748
▁remained	-8.56845
▁formed	-8.57246
▁town	-8.57891
▁human	-8.57927
▁North	-8.58018
re	-8.58231
▁followed	-8.58291
▁help	-8.58617
▁just	-8.58694
▁man	-8.59026
▁further	-8.59035
▁L	-8.59063
▁language	-8.59136
▁Council	-8.59201
")	-8.59446
▁City	-8.59546
▁population	-8.5958
▁La	-8.5963
▁English	-8.59764
▁mother	-8.59767
▁wife	-8.59939
▁decided	-8.60007
▁region	-8.60814
▁near	-8.61867
▁career	-8.62205
▁co	-8.62322
▁To	-8.62353
▁Van	-8.62446
▁born	-8.62594
▁times	-8.62897
C	-8.62979
▁along	-8.63063
▁modern	-8.63089
▁Although	-8.63319
▁working	-8.64478
▁Some	-8.64519
▁described	-8.6466
▁lost	-8.64937
▁recorded	-8.64996
▁position	-8.65257
▁study	-8.65283
▁every	-8.65836
▁taken	-8.66035
▁young	-8.66162
▁line	-8.66506
▁R	-8.66926
▁art	-8.6732
u	-8.67374
—	-8.67375
▁Roman	-8.67614
gave	-8.67663
▁King	-8.67893
▁service	-8.68105
▁sold	-8.68112
▁how	-8.68126
▁F	-8.68365
▁return	-8.68534
▁short	-8.68708
▁included	-8.68788
▁Italian	-8.69056
▁control	-8.69113
▁largest	-8.69125
▁possible	-8.69143
h	-8.69993
▁right	-8.70049
▁law	-8.70344
▁must	-8.70795
to	-8.71024
▁killed	-8.71296
▁K	-8.71609
able	-8.71636
▁term	-8.71639
▁opened	-8.71835
▁water	-8.72144
▁economic	-8.72181
▁does	-8.72467
▁season	-8.72964
▁Amsterdam	-8.73022
▁seen	-8.73153
▁joined	-8.7322
▁God	-8.73435
▁forces	-8.73684
▁play	-8.73771
▁brother	-8.73813
▁introduced	-8.73841
▁G	-8.73957
spite	-8.74039
▁General	-8.74058
▁("	-8.74176
▁point	-8.74308
▁television	-8.7439
▁program	-8.74422
▁although	-8.74536
▁half	-8.74631
▁director	-8.74853
▁similar	-8.75092
▁final	-8.75144
▁West	-8.75369
g	-8.75522
▁V	-8.75621
▁official	-8.7565
as	-8.75684
▁America	-8.75752
▁served	-8.75832
▁H	-8.75946
▁books	-8.76088
▁president	-8.76193
k	-8.76268
▁rights	-8.76463
▁down	-8.76503
▁President	-8.76615
▁information	-8.76661
▁present	-8.76704
▁success	-8.76819
?	-8.76924
▁especially	-8.77414
▁live	-8.77895
▁using	-8.78023
▁almost	-8.78036
!	-8.78144
▁total	-8.78383
▁party	-8.7852
▁full	-8.7856
▁attack	-8.78576
▁less	-8.78999
▁popular	-8.79187
▁model	-8.79572
▁design	-8.79726
▁already	-8.80024
▁East	-8.80071
▁free	-8.80197
▁others	-8.80313
▁N	-8.80318
▁replaced	-8.80412
▁good	-8.8042
▁performed	-8.80437
▁collection	-8.80471
is	-8.80562
▁consist	-8.80691
▁king	-8.80831
▁church	-8.8103
▁Africa	-8.81392
▁addition	-8.81481
▁Republic	-8.81611
▁Minister	-8.817
▁start	-8.82036
▁J	-8.82098
▁record	-8.82185
▁station	-8.82383
▁met	-8.82651
▁construction	-8.82705
▁appointed	-8.82839
▁able	-8.82921
▁case	-8.8308
▁lived	-8.83184
▁give	-8.83219
▁Party	-8.83436
▁capital	-8.83593
▁designed	-8.83906
D	-8.84247
▁provide	-8.84256
▁Royal	-8.84346
▁least	-8.84983
▁Society	-8.85021
▁ships	-8.85031
▁land	-8.85123
▁US	-8.85181
▁Army	-8.85358
▁special	-8.85376
▁off	-8.85389
▁eventually	-8.85527
▁Japan	-8.8555
▁Many	-8.8592
▁island	-8.85987
▁available	-8.86226
▁located	-8.86257
▁market	-8.86745
▁St	-8.86747
year	-8.86762
▁states	-8.86926
▁beginning	-8.87297
▁changed	-8.87736
▁Belgian	-8.87938
▁Whil	-8.87957
▁England	-8.88008
▁No	-8.8804
▁battle	-8.88228
▁style	-8.88451
▁Rome	-8.88733
▁involved	-8.88768
B	-8.88876
having	-8.88974
▁successful	-8.89186
▁my	-8.90033
▁force	-8.90152
ers	-8.90158
▁soon	-8.90235
▁influence	-8.9025
▁troops	-8.908
▁story	-8.91048
▁open	-8.91295
▁Spanish	-8.91884
▁Soviet	-8.91921
▁originally	-8.92007
▁movement	-8.92025
z	-8.92117
▁though	-8.9233
▁Christian	-8.92455
T	-8.92579
▁Japanese	-8.92952
▁campaign	-8.92971
▁include	-8.93029
um	-8.93112
▁Greek	-8.93492
▁field	-8.93838
▁House	-8.93857
▁once	-8.93999
▁head	-8.94071
▁trade	-8.94184
▁studied	-8.94733
▁ship	-8.94756
▁space	-8.94878
▁signed	-8.95099
▁Italy	-8.95144
▁character	-8.95194
▁Al	-8.95233
▁business	-8.95509
▁common	-8.95853
▁daughter	-8.95956
▁Belgium	-8.95974
▁areas	-8.96134
▁probably	-8.96233
▁active	-8.96752
▁religious	-8.96998
ve	-8.97557
▁real	-8.97572
▁radio	-8.98149
▁side	-8.9843
▁Russia	-8.98479
▁traditional	-8.98678
le	-8.98712
▁State	-8.98775
▁Later	-8.98898
▁itself	-8.9929
▁video	-8.99374
▁means	-8.99622
▁David	-8.99722
▁discovered	-8.99813
▁Museum	-8.99939
▁fact	-9.00024
▁organization	-9.0039
▁Paul	-9.00458
usually	-9.0058
el	-9.00729
P	-9.00783
▁interest	-9.00875
▁club	-9.01062
▁thought	-9.0107
de	-9.01114
▁stated	-9.01136
▁community	-9.01339
▁per	-9.01552
▁W	-9.01824
▁car	-9.0185
▁species	-9.02189
▁outside	-9.02816
▁body	-9.02935
▁brought	-9.02987
▁Le	-9.02992
▁William	-9.03103
▁too	-9.033
▁Records	-9.03321
▁culture	-9.03471
▁put	-9.03543
ach	-9.03699
▁change	-9.03899
▁events	-9.03956
▁$	-9.03977
▁Chinese	-9.03981
▁money	-9.04067
▁release	-9.0407
▁asked	-9.04318
▁Most	-9.04476
▁night	-9.04486
▁independent	-9.04557
▁Group	-9.04793
▁close	-9.0494
▁famous	-9.05004
▁Two	-9.05019
▁friend	-9.05113
▁particular	-9.05227
▁class	-9.05327
▁throughout	-9.0535
▁Great	-9.05498
▁data	-9.05503
▁rather	-9.05577
▁process	-9.05635
▁allowed	-9.05648
▁strong	-9.05667
▁natural	-9.0577
▁find	-9.05804
▁But	-9.05806
▁hand	-9.0595
▁police	-9.05968
▁China	-9.06054
▁Western	-9.0607
b	-9.06138
▁education	-9.06162
▁reached	-9.0627
▁seven	-9.06673
▁whom	-9.06741
▁private	-9.06808
▁cities	-9.0687
▁our	-9.0703
▁School	-9.07036
▁policy	-9.07081
▁see	-9.07131
▁me	-9.0726
▁themselves	-9.07291
▁tour	-9.07307
p	-9.07317
▁sometimes	-9.07329
▁Robert	-9.07436
▁certain	-9.07457
▁That	-9.07573
▁You	-9.07697
▁go	-9.07924
▁responsible	-9.07934
▁companies	-9.0796
▁come	-9.07961
▁We	-9.08166
▁Institute	-9.08176
▁songs	-9.08212
▁Me	-9.08436
▁If	-9.08794
▁parts	-9.08862
▁site	-9.08995
▁society	-9.09046
▁current	-9.09113
▁saw	-9.09203
▁Park	-9.09248
▁Kingdom	-9.09268
▁“	-9.0933
▁awarded	-9.094
▁magazine	-9.09466
▁village	-9.09562
▁summer	-9.09647
▁court	-9.10004
te	-9.10021
▁problems	-9.10027
▁systems	-9.10045
▁little	-9.10062
▁peace	-9.10407
▁Latin	-9.10885
▁fire	-9.10899
▁Association	-9.11005
▁d	-9.11171
▁presented	-9.11403
▁longer	-9.11446
▁scientific	-9.11447
▁love	-9.11522
▁activities	-9.11755
▁Jewish	-9.11926
▁always	-9.12011
▁First	-9.12017
▁Both	-9.12063
M	-9.12181
▁entire	-9.12593
▁la	-9.1269
▁level	-9.12715
▁Spain	-9.12722
▁instead	-9.12942
and	-9.12944
▁upon	-9.12985
▁ten	-9.13075
▁Between	-9.13166
▁eight	-9.13222
▁Their	-9.13244
▁soldiers	-9.1341
▁thus	-9.13511
▁making	-9.13591
▁students	-9.13614
▁leader	-9.13728
E	-9.13845
▁far	-9.13858
▁San	-9.13875
▁Battle	-9.13909
▁reported	-9.13911
ist	-9.1394
▁spent	-9.14073
▁relationship	-9.14336
▁attempt	-9.14346
▁Charles	-9.14579
▁industry	-9.14586
▁completed	-9.14762
▁services	-9.15116
▁woman	-9.15241
▁Air	-9.15286
▁person	-9.15595
▁earlier	-9.15727
ia	-9.15748
▁science	-9.15855
▁clear	-9.15946
▁aircraft	-9.1605
▁north	-9.16064
▁financial	-9.16127
▁rest	-9.16453
▁central	-9.16681
▁studies	-9.16687
▁living	-9.1673
▁Award	-9.1675
▁X	-9.16795
▁travel	-9.16902
▁BC	-9.17152
▁toward	-9.172
▁Peter	-9.17281
▁complete	-9.17379
▁provided	-9.17611
▁wanted	-9.17651
ation	-9.17815
▁away	-9.17861
▁plan	-9.17927
▁south	-9.17975
ar	-9.17989
▁George	-9.18082
mainly	-9.18137
▁Company	-9.18642
▁added	-9.18681
▁media	-9.18686
ism	-9.18715
▁personal	-9.18731
▁today	-9.18739
▁particularly	-9.18884
▁future	-9.18937
▁office	-9.18946
▁Man	-9.19024
up	-9.19045
▁African	-9.19052
▁training	-9.19064
▁debut	-9.19172
▁III	-9.19308
▁numbers	-9.19639
forced	-9.19704
▁cultural	-9.1975
▁significant	-9.19788
▁believed	-9.20214
▁either	-9.20447
▁light	-9.20612
▁event	-9.2092
▁husband	-9.20951
▁launched	-9.21097
▁idea	-9.21115
▁lead	-9.2112
▁sources	-9.21189
▁Jan	-9.21392
▁Music	-9.21528
▁post	-9.21641
F	-9.21656
▁Swedish	-9.21816
▁shows	-9.21988
▁Church	-9.22099
▁supported	-9.22245
▁evidence	-9.22657
▁museum	-9.22749
G	-9.22862
▁foreign	-9.22954
▁arrived	-9.23168
▁therefore	-9.23169
▁previous	-9.23565
▁TV	-9.23595
▁contains	-9.23661
ion	-9.23776
▁word	-9.23777
ian	-9.23779
▁label	-9.2395
▁child	-9.23984
▁friends	-9.24052
▁Other	-9.24113
▁ever	-9.24143
▁food	-9.24236
f	-9.24491
▁elected	-9.24772
▁player	-9.248
▁get	-9.2502
R	-9.25165
▁Because	-9.25279
▁der	-9.25653
ne	-9.25736
▁James	-9.25742
▁complex	-9.25778
▁novel	-9.2589
▁anti	-9.2592
▁source	-9.25963
▁function	-9.26327
▁destroyed	-9.26342
▁better	-9.2635
▁leading	-9.2642
K	-9.26473
▁nature	-9.26574
▁ended	-9.26627
▁studio	-9.26694
▁whole	-9.26727
▁air	-9.26867
old	-9.26946
▁structure	-9.26954
▁performance	-9.27071
▁center	-9.2714
▁Earth	-9.27147
▁Brussels	-9.27293
▁action	-9.2733
▁Red	-9.27361
▁whose	-9.27566
H	-9.27673
▁Second	-9.28029
▁subject	-9.28126
▁m	-9.2818
land	-9.28248
▁Central	-9.28323
▁standard	-9.28464
▁writing	-9.28473
▁claimed	-9.28585
na	-9.2863
▁Un	-9.2884
▁via	-9.28924
▁River	-9.29064
▁according	-9.29077
▁Sea	-9.29091
▁films	-9.29106
▁names	-9.29713
▁generally	-9.29757
▁closed	-9.29989
▁Canada	-9.30153
▁El	-9.30206
▁UK	-9.3027
▁artists	-9.30538
▁parents	-9.30554
▁legal	-9.30601
▁conflict	-9.30615
▁edition	-9.30666
▁caused	-9.30767
ta	-9.30914
▁referred	-9.3098
x	-9.30991
▁mid	-9.3101
▁officially	-9.31097
▁Radio	-9.31109
▁top	-9.3116
▁Empire	-9.31195
▁leave	-9.31198
▁low	-9.31205
▁placed	-9.31307
L	-9.31337
▁network	-9.31391
▁command	-9.31446
▁km	-9.31632
▁historical	-9.31776
▁Foundation	-9.31791
▁increased	-9.31803
▁Committee	-9.32042
▁Dr	-9.32466
▁Black	-9.32549
▁told	-9.32758
▁higher	-9.32758
▁text	-9.32801
O	-9.32845
▁Center	-9.32921
▁meeting	-9.33142
▁My	-9.3323
▁takes	-9.33285
▁commercial	-9.33357
▁type	-9.3363
▁need	-9.33638
▁initially	-9.33787
▁carried	-9.33983
▁letter	-9.34131
▁marriage	-9.34385
▁across	-9.34435
▁knowledge	-9.34591
▁whether	-9.3461
▁musical	-9.34787
est	-9.3486
▁India	-9.34871
▁run	-9.34913
▁date	-9.3497
at	-9.35048
▁Britain	-9.35168
▁professional	-9.35171
▁website	-9.35175
▁report	-9.35207
▁energy	-9.35255
▁mentioned	-9.35399
▁projects	-9.35409
▁Philip	-9.35437
▁concept	-9.35447
▁fleet	-9.35493
▁Commission	-9.35541
▁hit	-9.35715
et	-9.36074
▁author	-9.36292
▁appears	-9.36371
▁finally	-9.36479
▁Berlin	-9.36632
▁proposed	-9.36639
▁elements	-9.36891
▁remains	-9.36924
▁terms	-9.36928
▁self	-9.37044
▁Catholic	-9.37049
▁got	-9.37159
▁numerous	-9.37182
▁ordered	-9.37191
▁separate	-9.37276
▁artist	-9.37276
▁turn	-9.37408
▁And	-9.37426
▁attention	-9.37477
▁Also	-9.37483
▁Follow	-9.37512
▁features	-9.37582
▁forms	-9.37708
▁southern	-9.37775
▁managed	-9.3787
▁en	-9.37874
▁failed	-9.38089
▁location	-9.38269
▁Congress	-9.38396
▁Another	-9.38695
▁adopted	-9.38719
▁tried	-9.39
▁race	-9.39093
▁board	-9.39177
▁related	-9.39388
▁Richard	-9.39439
▁value	-9.39445
▁list	-9.39469
▁material	-9.39535
▁know	-9.39576
▁directed	-9.3959
▁individual	-9.39628
ra	-9.4017
▁featured	-9.4032
▁camp	-9.40357
▁centre	-9.40502
▁owned	-9.40541
▁issues	-9.4074
▁So	-9.40743
▁Parliament	-9.4079
▁Sweden	-9.40793
▁quickly	-9.40807
▁Australia	-9.40816
ity	-9.40902
▁view	-9.40929
▁mostly	-9.40958
▁lives	-9.40959
▁Its	-9.41092
▁ancient	-9.41407
▁Michael	-9.41749
▁turned	-9.41934
la	-9.41935
▁basis	-9.42025
▁Jean	-9.42095
▁health	-9.42301
▁previously	-9.4255
▁park	-9.42589
▁pre	-9.42612
▁status	-9.42646
▁rule	-9.4283
▁Nations	-9.42933
▁College	-9.42974
co	-9.43328
▁buildings	-9.43361
▁behind	-9.43612
▁visited	-9.43751
like	-9.43824
▁enough	-9.43902
▁Day	-9.43959
ie	-9.44163
▁stage	-9.44217
▁done	-9.44339
▁competition	-9.44428
▁problem	-9.44457
ch	-9.44825
▁League	-9.44933
▁Thomas	-9.44966
▁hours	-9.45038
▁agreement	-9.45074
▁weeks	-9.45277
it	-9.45397
▁fourth	-9.45631
▁Research	-9.458
▁grew	-9.45816
based	-9.45838
▁coast	-9.45926
▁create	-9.45957
▁situation	-9.46039
▁rock	-9.46041
▁contract	-9.46112
▁Alexander	-9.46262
▁finished	-9.46288
▁effect	-9.46322
▁economy	-9.46462
▁territory	-9.46462
▁authorities	-9.46464
▁includes	-9.46573
▁northern	-9.46804
▁intended	-9.46961
▁What	-9.47038
▁results	-9.47053
▁Grand	-9.47067
▁sister	-9.47181
▁range	-9.47368
▁section	-9.47441
▁refused	-9.47464
▁gold	-9.47493
▁required	-9.4752
▁languages	-9.47548
ca	-9.47587
▁currently	-9.47652
▁front	-9.47657
out	-9.47678
time	-9.47718
▁appear	-9.47784
▁majority	-9.47888
▁accepted	-9.47911
▁security	-9.47925
day	-9.47969
▁Asia	-9.48023
▁Re	-9.48141
▁above	-9.48442
▁larger	-9.48541
▁organized	-9.48606
▁points	-9.48715
▁computer	-9.48737
▁products	-9.48742
▁offered	-9.48895
▁lack	-9.48977
▁cases	-9.49128
▁words	-9.49226
▁things	-9.49371
one	-9.49548
▁White	-9.49691
▁past	-9.49762
▁difficult	-9.50048
son	-9.50066
▁might	-9.50073
▁captured	-9.50168
▁immediately	-9.50465
▁Henry	-9.50512
▁Prince	-9.50554
▁completely	-9.50565
▁medical	-9.50588
▁changes	-9.50629
▁sea	-9.5074
▁religion	-9.50745
▁operations	-9.50799
▁writer	-9.50854
▁producer	-9.50904
▁models	-9.50906
▁deal	-9.50972
▁Festival	-9.51157
▁Academy	-9.51168
nearly	-9.51296
ton	-9.51348
▁smaller	-9.51369
▁route	-9.51469
less	-9.51518
▁oil	-9.51577
ary	-9.51767
▁remain	-9.51889
▁Love	-9.51997
▁playing	-9.52014
▁management	-9.52184
▁declared	-9.5219
▁operation	-9.52238
▁reason	-9.52259
▁election	-9.52345
▁Polish	-9.52353
▁freedom	-9.52459
▁Court	-9.52475
N	-9.52489
▁royal	-9.52499
se	-9.5253
▁claim	-9.5259
▁helped	-9.52669
▁experience	-9.52752
▁concert	-9.52796
▁claims	-9.52835
▁largely	-9.52873
▁Art	-9.52873
▁student	-9.5288
(	-9.52881
▁succeeded	-9.52885
▁black	-9.52985
é	-9.5308
▁People	-9.53252
▁course	-9.53257
▁arrested	-9.53316
▁border	-9.53355
▁episode	-9.53493
▁division	-9.53503
▁California	-9.53575
▁regard	-9.53643
▁older	-9.53689
▁road	-9.53769
▁Egypt	-9.53887
▁acquired	-9.539
▁Saint	-9.53938
no	-9.53975
▁contain	-9.53982
nd	-9.54095
▁practice	-9.54103
▁mission	-9.54151
▁regional	-9.54347
▁shown	-9.54424
▁albums	-9.54531
ial	-9.54573
▁technology	-9.54578
▁singer	-9.54585
▁composed	-9.54622
▁Canadian	-9.5466
▁true	-9.54782
W	-9.54782
▁civil	-9.54788
▁Cup	-9.54847
▁cause	-9.54856
ive	-9.54929
▁dance	-9.54968
▁bring	-9.55005
▁Co	-9.55069
▁limited	-9.55077
▁move	-9.55084
▁taking	-9.55106
▁direct	-9.55231
▁award	-9.55321
▁participated	-9.55333
▁divided	-9.55572
▁engine	-9.55667
▁High	-9.55717
▁primary	-9.55721
ry	-9.55758
▁families	-9.55978
▁elections	-9.56001
▁independence	-9.56018
▁associat	-9.56066
▁relations	-9.56157
▁uses	-9.56205
▁focus	-9.56418
approximately	-9.5646
▁likely	-9.56722
▁agreed	-9.56729
▁Book	-9.56837
ma	-9.57039
▁Los	-9.57104
▁month	-9.57107
▁female	-9.57484
▁believe	-9.57686
▁Queen	-9.57767
▁oldest	-9.57802
▁philosophy	-9.57805
▁attended	-9.57904
ized	-9.57959
▁Over	-9.5796
▁units	-9.58036
von	-9.58151
▁Middle	-9.5816
▁Championship	-9.58194
▁entered	-9.58342
▁Lord	-9.58397
▁base	-9.58399
▁software	-9.58534
ka	-9.58553
▁planned	-9.5856
▁recording	-9.58561
▁code	-9.58615
▁river	-9.58627
▁paper	-9.58629
▁castle	-9.58688
▁‘	-9.59065
▁ideas	-9.59071
▁specific	-9.59202
▁annual	-9.59219
▁bought	-9.59238
▁additional	-9.59275
▁decision	-9.59368
▁Only	-9.59469
▁Club	-9.59506
▁letters	-9.59561
▁prison	-9.59577
▁Of	-9.59594
▁Street	-9.59639
▁powerful	-9.59677
▁Ireland	-9.59723
▁treatment	-9.59797
▁cannot	-9.60012
▁parties	-9.60038
▁Three	-9.60094
by	-9.60354
▁movie	-9.60492
▁product	-9.60544
▁Indian	-9.60631
▁Like	-9.60795
da	-9.6098
▁recent	-9.61001
▁becomes	-9.61011
▁Louis	-9.61119
▁BBC	-9.61144
▁cover	-9.61146
▁newspaper	-9.61199
▁brothers	-9.61442
▁centuries	-9.61472
▁unit	-9.61505
▁Island	-9.6158
▁directly	-9.61621
▁Smith	-9.6163
▁plans	-9.6175
▁victory	-9.61854
▁cost	-9.61958
▁foundation	-9.62063
▁access	-9.62098
▁houses	-9.6218
▁physical	-9.62241
▁continue	-9.62246
▁conditions	-9.62304
▁act	-9.62418
▁Z	-9.6247
▁defined	-9.62518
▁western	-9.62568
▁kept	-9.62678
▁Israel	-9.62685
▁proved	-9.62759
▁EU	-9.62829
ness	-9.62988
▁literature	-9.6299
▁conducted	-9.63083
▁Bank	-9.63127
▁needed	-9.63274
▁size	-9.6337
▁Prize	-9.63497
▁festival	-9.63583
▁dead	-9.63607
▁p	-9.63641
▁Don	-9.63679
▁stories	-9.63758
▁university	-9.64228
▁industrial	-9.6425
w	-9.64263
▁existence	-9.64265
▁lines	-9.64403
▁remaining	-9.64531
▁dedicated	-9.64541
▁want	-9.64544
▁Under	-9.64576
▁build	-9.64657
▁key	-9.64665
▁prevent	-9.64732
▁represented	-9.64734
▁schools	-9.64758
▁inspired	-9.6482
▁question	-9.64889
▁football	-9.6489
▁creation	-9.65027
▁activity	-9.65038
▁article	-9.65118
▁increase	-9.65167
▁Life	-9.65189
▁widely	-9.65392
V	-9.6545
▁province	-9.65541
▁tradition	-9.65614
▁Jews	-9.6564
▁pay	-9.65845
▁expedition	-9.65876
▁account	-9.65894
ally	-9.65921
▁Before	-9.66156
▁citizens	-9.66167
▁suggested	-9.6621
▁response	-9.66287
▁fight	-9.66328
▁Mark	-9.66382
▁match	-9.66383
▁nine	-9.66399
▁district	-9.66455
▁actually	-9.66546
▁inhabitants	-9.6655
▁carry	-9.66566
▁Mary	-9.66626
”	-9.66803
▁c	-9.66806
▁reign	-9.66839
▁Department	-9.66889
▁Hall	-9.66932
▁animals	-9.6706
▁players	-9.67066
▁method	-9.6714
▁lower	-9.67194
ine	-9.67259
▁port	-9.67371
▁gained	-9.6741
▁painting	-9.6757
▁functions	-9.67706
▁Division	-9.67735
▁unknown	-9.67768
▁Moscow	-9.67788
▁join	-9.67847
▁successor	-9.67945
influenced	-9.67951
▁think	-9.68019
▁—	-9.68034
▁visit	-9.68123
▁press	-9.68172
▁meaning	-9.68208
▁yet	-9.68297
?"	-9.68301
▁games	-9.68343
▁importance	-9.68493
▁subsequently	-9.6856
▁Green	-9.68652
▁Irish	-9.68689
▁west	-9.68721
▁room	-9.6881
▁approach	-9.68887
▁leaders	-9.68911
▁factory	-9.68942
▁highest	-9.69053
▁defeated	-9.69181
▁meet	-9.69206
▁Frank	-9.69215
▁regular	-9.69299
▁fought	-9.69304
▁says	-9.69376
ro	-9.69522
▁quality	-9.6961
▁opening	-9.69644
▁entitled	-9.69714
J	-9.69727
▁defeat	-9.69739
▁Force	-9.69756
▁primarily	-9.6976
▁...	-9.69781
▁growth	-9.69795
▁share	-9.69849
▁here	-9.6997
▁attacks	-9.70027
▁protect	-9.70138
▁Poland	-9.70189
▁Prime	-9.70414
▁titled	-9.70516
▁birth	-9.70525
▁versions	-9.70528
▁makes	-9.70532
▁Act	-9.70547
▁Up	-9.70559
▁issue	-9.7067
▁amount	-9.70698
▁institutions	-9.70714
ten	-9.70737
▁association	-9.70831
▁Hague	-9.70947
▁east	-9.71036
▁showed	-9.71314
▁care	-9.71369
▁develop	-9.71389
▁interview	-9.71407
▁middle	-9.7145
called	-9.71476
▁hard	-9.71488
▁opera	-9.71623
▁occupied	-9.71626
▁issued	-9.71657
▁prize	-9.71675
▁white	-9.71728
▁percent	-9.71773
▁Mexico	-9.71778
▁Ministry	-9.71799
▁Internet	-9.71824
▁except	-9.71855
▁chief	-9.71899
ko	-9.72006
▁fall	-9.72044
▁organisation	-9.72118
▁Navy	-9.72199
▁fully	-9.72236
▁History	-9.72267
▁mass	-9.72375
▁paintings	-9.72402
▁poor	-9.72403
▁feature	-9.72441
▁documentary	-9.72622
▁passed	-9.72703
style	-9.72706
▁recognized	-9.72738
▁staff	-9.72772
▁articles	-9.7286
▁week	-9.72867
▁keep	-9.72967
▁flag	-9.73027
▁necessary	-9.73039
▁regions	-9.73098
▁types	-9.73108
▁refers	-9.73111
▁stars	-9.73124
▁establish	-9.73311
▁airport	-9.73326
▁Australian	-9.73391
▁ground	-9.73481
▁analysis	-9.73527
▁characters	-9.73537
▁Northern	-9.73558
▁comes	-9.73613
known	-9.73622
▁Time	-9.73697
▁Martin	-9.73706
▁track	-9.73733
▁write	-9.73796
▁occurred	-9.7389
▁Angeles	-9.73896
▁records	-9.7397
▁your	-9.74023
▁extended	-9.74026
▁heavy	-9.74028
▁test	-9.74034
▁du	-9.74093
▁Be	-9.74322
▁Joseph	-9.74403
▁resulted	-9.74719
▁treaty	-9.74771
▁fighting	-9.74822
▁raised	-9.74867
▁attacked	-9.74867
ment	-9.75193
▁suffered	-9.752
ies	-9.75356
▁noted	-9.75474
▁professor	-9.75526
▁property	-9.7561
▁Revolution	-9.75638
▁Do	-9.75801
▁invasion	-9.75921
▁plant	-9.75986
▁call	-9.76026
▁minister	-9.76035
▁category	-9.76049
▁Is	-9.76071
ur	-9.76132
li	-9.76209
▁master	-9.76223
▁regarded	-9.76344
relatively	-9.76399
▁chosen	-9.76527
▁invited	-9.76536
▁Switzerland	-9.76589
ce	-9.76592
▁Times	-9.76622
ni	-9.76647
▁classical	-9.76648
▁des	-9.76743
▁price	-9.7679
▁connection	-9.76838
▁Land	-9.7684
▁sense	-9.76931
▁twenty	-9.7697
▁Centre	-9.76972
▁star	-9.77184
▁say	-9.77189
▁rank	-9.77267
▁exhibition	-9.77293
▁promote	-9.77317
▁plays	-9.77326
▁solo	-9.77358
ous	-9.77401
▁goal	-9.77414
▁extreme	-9.77484
▁al	-9.77541
▁Washington	-9.77838
▁revealed	-9.77905
v	-9.78004
▁greater	-9.7801
▁focused	-9.7813
men	-9.78198
▁Rock	-9.78237
▁twice	-9.78246
▁latter	-9.78248
▁identified	-9.78313
▁simple	-9.78321
▁estimated	-9.78323
▁expanded	-9.78326
▁taught	-9.78342
▁regularly	-9.78353
▁fell	-9.78387
▁seems	-9.78419
▁contact	-9.78526
▁train	-9.78636
▁ran	-9.7865
▁founder	-9.78724
▁frequently	-9.78728
▁Antwerp	-9.78733
▁paid	-9.78886
▁follow	-9.78991
▁prominent	-9.79041
com	-9.79051
▁transferred	-9.7915
▁contemporary	-9.79194
▁Secretary	-9.79196
▁workers	-9.79371
▁More	-9.79453
▁collaboration	-9.79506
▁Turkish	-9.79523
▁conference	-9.7954
am	-9.7955
▁goes	-9.79668
▁basic	-9.79681
▁hands	-9.79774
os	-9.79799
▁consider	-9.79804
▁Open	-9.79804
▁theme	-9.79812
▁us	-9.79856
ke	-9.79865
▁shortly	-9.79887
▁produce	-9.79929
▁allow	-9.7999
▁exist	-9.80002
▁appearance	-9.8001
▁global	-9.80024
▁Government	-9.80044
▁voice	-9.80079
▁multiple	-9.80093
▁win	-9.80119
▁existing	-9.80137
▁constructed	-9.80155
il	-9.80191
▁Security	-9.80538
▁Women	-9.80614
▁effects	-9.80679
▁places	-9.8068
▁Human	-9.80897
be	-9.80918
▁broke	-9.80938
▁presence	-9.80955
▁buried	-9.80955
▁Tour	-9.81112
▁commander	-9.81163
▁efforts	-9.81468
▁capacity	-9.81468
▁editor	-9.81614
▁minutes	-9.81678
▁organizations	-9.81796
▁worldwide	-9.81882
▁herself	-9.81887
▁Thus	-9.81935
▁supply	-9.81944
▁technical	-9.81953
▁laws	-9.81999
▁origin	-9.82012
▁gas	-9.82128
▁Li	-9.82229
▁objects	-9.82388
▁protection	-9.82406
▁Star	-9.82417
▁Sun	-9.82454
▁et	-9.82624
▁Mo	-9.82632
▁Maria	-9.82686
▁officers	-9.82767
▁describes	-9.82772
▁enemy	-9.82803
▁Greece	-9.82826
▁reasons	-9.82834
▁something	-9.8286
▁applied	-9.8295
▁obtained	-9.82952
▁di	-9.83234
▁unique	-9.83269
▁mathematics	-9.8327
▁resistance	-9.83271
▁authority	-9.83283
▁transport	-9.83294
▁argued	-9.83304
▁news	-9.83306
▁winter	-9.83396
▁inter	-9.83417
▁Austrian	-9.83424
▁Through	-9.83505
▁Old	-9.83532
em	-9.83632
▁cross	-9.83744
▁scene	-9.83745
▁sought	-9.83746
▁secret	-9.83761
▁aid	-9.83777
▁environment	-9.83806
▁purchased	-9.83813
▁tell	-9.83973
▁figure	-9.84111
▁Holland	-9.84118
ter	-9.84161
me	-9.84203
▁meant	-9.84265
age	-9.84265
▁wide	-9.84277
▁Islam	-9.84289
▁Sir	-9.8437
▁IV	-9.84393
▁purpose	-9.84535
▁read	-9.84557
▁architecture	-9.84711
▁administration	-9.84736
▁going	-9.84746
▁murder	-9.84787
▁publication	-9.84806
▁arms	-9.84959
▁granted	-9.85236
ba	-9.8524
▁Danish	-9.85298
j	-9.85322
▁critical	-9.8538
ge	-9.85386
!"	-9.85425
▁Sever	-9.8557
▁Austria	-9.85656
▁politics	-9.85696
▁officer	-9.85808
▁Eastern	-9.85816
▁Go	-9.85835
▁request	-9.85943
▁owner	-9.85951
▁attempted	-9.86071
▁sub	-9.86081
▁job	-9.86167
▁Brazil	-9.86178
▁teacher	-9.86189
▁couple	-9.86283
▁firm	-9.86549
▁Best	-9.86563
▁contributed	-9.86683
▁Not	-9.86735
▁degree	-9.86774
▁face	-9.87011
▁escape	-9.87029
▁exchange	-9.87081
▁Turkey	-9.8709
▁Muslim	-9.87092
▁heart	-9.87119
▁content	-9.87124
▁charge	-9.87134
▁stop	-9.87135
▁Emperor	-9.87146
▁selected	-9.87148
▁positive	-9.87208
▁bank	-9.87224
▁programs	-9.87506
▁leaving	-9.87577
▁Denmark	-9.87578
▁online	-9.87589
▁renamed	-9.8759
for	-9.87624
▁kind	-9.87634
▁council	-9.87677
▁disease	-9.87692
▁actions	-9.87692
▁assistant	-9.87706
▁trial	-9.87732
▁Arab	-9.87779
▁average	-9.87921
▁Bahá	-9.88041
▁initial	-9.88058
▁Pope	-9.88123
▁Super	-9.88123
▁architect	-9.88136
▁Today	-9.88151
▁nothing	-9.88155
▁connected	-9.88214
▁confirmed	-9.88217
▁Film	-9.88237
▁shot	-9.88354
▁heard	-9.88447
▁variety	-9.8856
▁round	-9.88702
▁Service	-9.8873
&	-9.88815
▁teams	-9.88906
▁library	-9.89055
▁simply	-9.89057
ti	-9.89061
▁cooperation	-9.89062
▁Lee	-9.89083
ri	-9.89118
▁red	-9.89142
▁younger	-9.89264
▁committee	-9.89278
▁Hill	-9.89351
▁Even	-9.89372
▁alone	-9.89377
▁big	-9.89466
▁Islamic	-9.89472
▁Law	-9.89767
▁rules	-9.89789
▁earliest	-9.90052
▁felt	-9.90053
go	-9.90058
▁crew	-9.90142
▁Treaty	-9.90146
▁stay	-9.90191
▁spread	-9.90247
▁Director	-9.90276
▁methods	-9.90306
▁Due	-9.90367
▁developing	-9.90465
▁era	-9.90477
▁pro	-9.90543
▁send	-9.90546
▁identity	-9.90555
▁leadership	-9.90562
▁permanent	-9.90583
▁expansion	-9.90587
▁Blue	-9.907
▁channel	-9.90859
▁Norway	-9.91137
▁introduction	-9.91153
rd	-9.91169
▁Then	-9.91184
line	-9.91522
▁begins	-9.91563
▁concluded	-9.91583
▁Short	-9.91597
▁alternative	-9.91697
▁recently	-9.91725
▁direction	-9.9182
he	-9.91858
▁decades	-9.91906
▁manager	-9.92
▁attempts	-9.92046
▁Development	-9.92087
▁learn	-9.92095
▁split	-9.92121
▁generation	-9.92127
▁documents	-9.92235
▁goods	-9.92255
▁offer	-9.92305
▁Year	-9.92516
▁potential	-9.92569
▁serious	-9.92621
▁combined	-9.9267
▁Jack	-9.92704
▁loss	-9.92738
▁historian	-9.92739
▁Atlantic	-9.92772
▁entirely	-9.92807
▁broadcast	-9.92824
▁length	-9.9296
▁covered	-9.93009
▁powers	-9.93046
▁growing	-9.93056
▁traffic	-9.93131
▁billion	-9.9317
▁fellow	-9.9322
▁Tom	-9.93287
í	-9.93295
▁tax	-9.93501
▁saying	-9.93509
▁Ma	-9.93594
▁figures	-9.93607
▁damage	-9.93653
▁levels	-9.93659
▁promoted	-9.93827
▁determined	-9.93828
▁temple	-9.93858
▁maintain	-9.94094
▁formal	-9.94139
▁fled	-9.94157
▁jazz	-9.94199
▁follows	-9.94205
▁composer	-9.94316
▁kingdom	-9.94352
▁orders	-9.94409
▁federal	-9.94421
▁Science	-9.94428
berg	-9.94557
▁extensive	-9.94571
▁image	-9.94573
▁contained	-9.94574
▁opposition	-9.94669
▁nearby	-9.94694
▁am	-9.94701
▁literary	-9.94712
▁pieces	-9.9473
▁opposed	-9.94731
▁reduced	-9.94742
▁Swiss	-9.94747
▁Show	-9.94781
▁administrative	-9.94782
▁Edward	-9.94829
▁railway	-9.94834
▁painted	-9.94846
▁composition	-9.94856
▁expected	-9.95252
▁hundred	-9.95479
▁mountain	-9.95571
▁rate	-9.95653
of	-9.95709
▁interested	-9.95739
▁respectively	-9.95754
▁Vienna	-9.95768
▁reference	-9.95809
▁programme	-9.95851
▁distance	-9.95867
do	-9.95917
▁SS	-9.9593
▁cut	-9.95931
▁maintained	-9.95939
▁Project	-9.95963
▁officials	-9.96123
▁girl	-9.96123
▁cars	-9.96137
ling	-9.9624
▁Library	-9.96256
▁Together	-9.96256
▁youth	-9.96279
▁weapons	-9.96285
▁Among	-9.96302
▁influential	-9.96332
▁closely	-9.96499
▁Egyptian	-9.96517
Z	-9.9655
quite	-9.96649
▁pressure	-9.96725
▁Formula	-9.96844
▁look	-9.96846
▁morning	-9.96853
▁hold	-9.9686
▁applications	-9.96975
▁perhaps	-9.97049
▁questions	-9.97104
▁reach	-9.97338
▁executed	-9.97345
ler	-9.97357
ov	-9.9736
▁removed	-9.97367
▁Theatre	-9.97378
▁Pacific	-9.97416
▁Office	-9.97466
▁investigation	-9.9755
▁possibly	-9.97649
▁costs	-9.97708
▁sound	-9.97829
▁planning	-9.97873
▁nor	-9.98019
▁prisoners	-9.98049
▁formation	-9.983
▁reports	-9.98317
▁towns	-9.98347
▁needs	-9.98357
▁why	-9.98412
▁settled	-9.98467
▁victims	-9.98489
▁require	-9.9851
den	-9.98514
▁Four	-9.98521
▁eastern	-9.98525
▁collected	-9.98527
▁shared	-9.98551
sen	-9.98614
▁del	-9.9863
▁minor	-9.98795
▁texts	-9.98931
▁bridge	-9.99003
▁achieved	-9.99036
▁Around	-9.99037
▁nuclear	-9.99077
▁piano	-9.99078
ll	-9.99102
▁Mr	-9.99126
▁perform	-9.99169
▁defend	-9.9922
▁normal	-9.99303
▁improve	-9.99462
▁Meanwhile	-9.99508
▁violence	-9.99508
▁sons	-9.99514
▁Pan	-9.99567
▁Class	-9.99624
▁Line	-9.99645
id	-9.99667
▁principle	-9.9978
▁ex	-9.9994
▁Albert	-10
▁digital	-10.0003
▁municipality	-10.0006
tic	-10.0014
▁break	-10.0016
General	-10.0018
▁Portuguese	-10.0022
▁hospital	-10.0024
▁stayed	-10.0029
▁establishment	-10.0032
▁matter	-10.0033
▁seat	-10.0043
▁Civil	-10.0062
ner	-10.0062
▁principal	-10.0065
▁blood	-10.0072
▁Daniel	-10.0072
▁Social	-10.0072
▁notable	-10.0074
century	-10.0075
▁Captain	-10.0076
▁artistic	-10.0079
▁theatre	-10.0086
▁determine	-10.0086
▁task	-10.0089
ley	-10.0092
De	-10.0101
U	-10.0103
▁ensure	-10.0111
▁County	-10.0122
▁marked	-10.0127
▁headquarters	-10.0143
▁native	-10.0157
▁translation	-10.0158
▁dates	-10.0165
▁Apple	-10.0173
ical	-10.0178
▁Bay	-10.0179
▁equal	-10.019
▁resources	-10.0197
ir	-10.0198
▁operated	-10.0198
▁sign	-10.0202
▁enter	-10.0203
▁audience	-10.0204
▁fields	-10.0212
▁communication	-10.0214
▁interests	-10.0219
▁Rights	-10.022
▁flight	-10.0228
▁Athens	-10.023
▁Ben	-10.0232
▁abandoned	-10.0242
▁=	-10.0244
▁Road	-10.0245
▁fifth	-10.0246
▁Ver	-10.0252
▁serve	-10.0255
▁lot	-10.0257
▁tournament	-10.026
▁Mac	-10.0267
▁contributions	-10.0274
ul	-10.0283
▁search	-10.0284
▁Furthermore	-10.0287
▁bodies	-10.0287
▁economics	-10.029
▁joint	-10.0295
▁advanced	-10.0295
▁cast	-10.0304
▁Can	-10.0308
▁Democrat	-10.0319
ard	-10.0323
▁CD	-10.0324
▁l	-10.0331
un	-10.0343
▁/	-10.035
▁Rotterdam	-10.0351
▁techniques	-10.0351
▁rejected	-10.0352
▁thousands	-10.0356
▁Order	-10.0361
▁sites	-10.0362
▁prior	-10.0362
▁sexual	-10.0367
▁context	-10.0372
▁animal	-10.0382
▁partner	-10.0383
▁Trump	-10.0386
▁Car	-10.0386
▁restaurant	-10.039
ance	-10.0391
▁speed	-10.0396
▁publications	-10.0399
▁increasing	-10.04
▁survived	-10.0407
▁mind	-10.0411
▁Chicago	-10.0412
▁expressed	-10.0413
▁plants	-10.0415
▁discovery	-10.0416
▁surface	-10.0423
▁coming	-10.0426
▁alliance	-10.0432
▁sports	-10.0435
▁individuals	-10.0437
▁EP	-10.0442
▁Little	-10.0454
▁equipment	-10.0459
ish	-10.0467
▁rise	-10.0472
▁greatest	-10.0472
off	-10.0477
▁newly	-10.0481
▁tracks	-10.0494
▁subsequent	-10.0509
▁speak	-10.0515
▁Utrecht	-10.0518
▁Board	-10.0518
▁memory	-10.0521
▁crisis	-10.0522
▁classes	-10.0527
▁giving	-10.053
▁Young	-10.0536
▁nation	-10.0547
▁academic	-10.055
▁provinces	-10.055
ak	-10.0555
▁Iraq	-10.0555
▁arrival	-10.0576
▁accompani	-10.0577
▁ability	-10.0605
▁views	-10.061
▁prime	-10.0613
▁speech	-10.0631
▁daily	-10.0635
▁properties	-10.0635
▁stopped	-10.0635
▁Airport	-10.0635
▁compared	-10.064
▁accept	-10.0647
ha	-10.0652
▁urban	-10.0653
▁chairman	-10.0656
▁participate	-10.066
▁debate	-10.0661
▁agricultural	-10.0666
▁orchestra	-10.0666
▁examples	-10.0676
io	-10.069
▁male	-10.0693
▁Bo	-10.0698
▁b	-10.07
▁restored	-10.07
▁trip	-10.0706
▁alongside	-10.0707
▁Good	-10.071
▁translated	-10.0724
▁application	-10.0736
▁{\	-10.0738
▁Communist	-10.0738
ant	-10.0748
▁discover	-10.0749
▁platform	-10.0753
que	-10.0756
▁Portugal	-10.0757
▁Scotland	-10.0761
▁standards	-10.0763
▁receive	-10.0779
▁roles	-10.0786
▁painter	-10.0795
▁Federal	-10.0806
▁safety	-10.082
▁launch	-10.0821
In	-10.0823
▁Night	-10.0829
tells	-10.0829
with	-10.0839
▁Band	-10.0842
▁Di	-10.0842
im	-10.0842
ad	-10.0849
ization	-10.0851
▁department	-10.0854
▁distribution	-10.0867
▁phase	-10.0874
▁users	-10.0875
ty	-10.0876
▁inside	-10.0882
▁Games	-10.0883
▁combat	-10.0888
▁double	-10.0888
▁improved	-10.0893
▁derived	-10.0894
):	-10.0897
▁existed	-10.0902
▁document	-10.0904
ham	-10.0908
▁threat	-10.091
▁sex	-10.0912
▁Here	-10.0913
▁Brown	-10.0918
▁stone	-10.0927
▁seek	-10.0927
▁demand	-10.0932
▁medicine	-10.0934
▁poetry	-10.0935
▁core	-10.0936
▁Wilson	-10.0944
▁learned	-10.0959
▁Jones	-10.0961
▁values	-10.0973
▁risk	-10.0989
▁internal	-10.0995
▁compete	-10.0995
▁Corporation	-10.0995
▁committed	-10.0995
▁Federation	-10.0998
der	-10.1007
▁replace	-10.1007
ga	-10.1021
▁#	-10.1021
▁operate	-10.103
▁vehicles	-10.1031
▁mathematical	-10.1046
▁hotel	-10.1055
▁communities	-10.1057
▁Southern	-10.1057
▁acting	-10.1064
▁depend	-10.1066
▁stations	-10.1068
▁contrast	-10.1083
▁principles	-10.1089
▁successfully	-10.109
▁Top	-10.1094
▁controlled	-10.1106
▁Te	-10.111
▁bands	-10.1112
▁Peace	-10.1122
▁Johnson	-10.1129
▁Flemish	-10.113
▁moving	-10.113
▁Bill	-10.113
▁Max	-10.113
▁Carl	-10.1132
▁environmental	-10.1134
ki	-10.1153
▁journey	-10.1163
▁choice	-10.1173
▁twelve	-10.118
▁facilities	-10.118
▁operating	-10.1181
▁System	-10.119
▁scale	-10.1197
▁impact	-10.1202
born	-10.1207
▁Pro	-10.121
▁page	-10.1221
wa	-10.1222
▁represent	-10.1235
▁Post	-10.1244
▁Hitler	-10.1248
▁Jackson	-10.1249
▁medieval	-10.125
▁titles	-10.1258
▁concerning	-10.1264
▁actor	-10.1265
▁ways	-10.1269
▁preserved	-10.1269
now	-10.1269
▁ring	-10.1278
▁guitar	-10.1298
▁honor	-10.13
▁Orchestra	-10.1302
▁responsibility	-10.1306
▁suicide	-10.1306
ological	-10.1307
▁considerable	-10.1308
▁recognition	-10.1309
▁Presley	-10.1313
▁negative	-10.1318
▁Corps	-10.1318
X	-10.1318
▁machine	-10.1318
▁islands	-10.1321
▁faith	-10.1321
side	-10.1335
▁finds	-10.1336
▁metal	-10.1347
ok	-10.1349
▁doing	-10.135
▁running	-10.1351
▁settlement	-10.1356
▁thousand	-10.1356
▁coins	-10.136
▁sector	-10.1365
▁guest	-10.1374
▁street	-10.1374
▁Convention	-10.1375
▁delivered	-10.1378
▁Education	-10.1379
▁condition	-10.138
▁increasingly	-10.138
▁Windows	-10.1384
▁democratic	-10.1389
▁Five	-10.1393
▁ill	-10.1398
▁journalist	-10.1405
▁avoid	-10.1422
▁chose	-10.1426
display	-10.143
▁cavalry	-10.1432
American	-10.1433
▁Bible	-10.1434
▁volume	-10.1435
▁observed	-10.1439
▁Castle	-10.144
▁musicians	-10.1459
▁prepared	-10.146
▁registered	-10.1465
ting	-10.1473
ck	-10.1479
▁residents	-10.1482
mo	-10.1487
▁struggle	-10.1488
▁refer	-10.1489
▁Indonesia	-10.1489
ja	-10.1496
▁Assembly	-10.1497
▁effective	-10.15
▁walls	-10.1503
▁domestic	-10.1503
▁Early	-10.1509
▁Anna	-10.1509
▁Special	-10.1514
It	-10.1522
▁Hungarian	-10.1525
▁ago	-10.1525
▁strongly	-10.1526
▁Christ	-10.1531
▁description	-10.155
▁Olympic	-10.1551
▁regime	-10.1552
▁Long	-10.1552
▁Coast	-10.1557
ey	-10.1558
ya	-10.156
▁About	-10.1562
▁retired	-10.1563
▁respect	-10.1572
▁tower	-10.1574
pe	-10.1577
▁vice	-10.1582
▁organised	-10.1585
▁Media	-10.1588
led	-10.1595
▁armed	-10.1604
▁Hungary	-10.1612
▁Though	-10.1612
▁solution	-10.1616
▁surrounding	-10.162
▁emperor	-10.1622
▁Awards	-10.1626
▁occupation	-10.1626
▁District	-10.1626
▁policies	-10.1626
▁reality	-10.1629
▁climate	-10.1632
▁Affairs	-10.1637
▁Series	-10.1637
▁negotiations	-10.164
▁Arts	-10.1642
▁measures	-10.1645
▁kill	-10.1652
▁visitors	-10.1654
▁Space	-10.1657
▁images	-10.167
▁boy	-10.1686
▁leaves	-10.1693
▁square	-10.1707
▁truth	-10.1709
▁behavior	-10.171
▁college	-10.1711
▁sides	-10.1715
pa	-10.1729
▁obtain	-10.174
▁union	-10.1745
▁effort	-10.1749
▁technique	-10.1756
▁spring	-10.1757
▁assistance	-10.1758
We	-10.1765
▁concerned	-10.1772
lin	-10.1772
also	-10.1774
▁Back	-10.1784
▁Port	-10.1786
ek	-10.1792
▁historians	-10.1805
▁display	-10.1805
▁object	-10.1805
▁clubs	-10.181
▁reaction	-10.1816
▁crime	-10.1816
▁piece	-10.1817
▁capture	-10.1821
▁stand	-10.1821
▁heavily	-10.1824
▁copies	-10.1824
▁Francisco	-10.1824
▁license	-10.1826
▁accused	-10.1827
▁employed	-10.1834
▁goals	-10.1835
which	-10.1836
▁calls	-10.1838
▁don	-10.1839
▁Who	-10.1848
▁singles	-10.1867
▁parliament	-10.1868
▁Age	-10.1876
▁slaves	-10.1876
▁accident	-10.1878
▁markets	-10.188
▁den	-10.1882
▁Romans	-10.1882
▁color	-10.1891
▁multi	-10.1891
▁assumed	-10.1897
▁wall	-10.1914
ina	-10.1924
▁employees	-10.1925
▁Simon	-10.1925
▁brand	-10.1932
▁Sam	-10.1932
▁combination	-10.1951
▁statement	-10.1956
▁map	-10.1957
▁gradually	-10.1959
▁founding	-10.1961
▁concerts	-10.1961
▁Professor	-10.1968
▁Within	-10.1979
▁income	-10.1988
▁wants	-10.1998
▁positions	-10.2006
▁opportunity	-10.2025
▁Conference	-10.2025
▁merged	-10.2027
▁episodes	-10.2027
ists	-10.2027
▁silver	-10.2035
▁everything	-10.204
lo	-10.2053
▁finish	-10.2066
▁Am	-10.2072
▁trained	-10.2082
▁recordings	-10.2083
▁criticism	-10.2085
▁Leiden	-10.2101
▁Mediterranean	-10.2106
▁teaching	-10.2106
▁Master	-10.2112
$	-10.2114
▁Moon	-10.2122
▁hosted	-10.2132
▁ruled	-10.2133
▁Georgia	-10.215
▁monastery	-10.2162
▁knew	-10.217
▁writers	-10.2171
▁Finland	-10.2172
▁aim	-10.2173
▁notes	-10.2173
▁die	-10.2175
▁i	-10.2181
▁Arabic	-10.2184
▁Adam	-10.2188
▁Live	-10.2189
Y	-10.2195
di	-10.2198
▁protest	-10.2205
▁continues	-10.2209
▁UN	-10.2226
▁theorem	-10.2227
▁element	-10.2229
▁reform	-10.2229
▁gain	-10.223
▁Justice	-10.2231
▁Duke	-10.2231
▁ultimately	-10.2233
▁senior	-10.2234
▁Asian	-10.2235
▁Norwegian	-10.2236
▁abroad	-10.2236
▁Venice	-10.2236
▁Press	-10.2237
▁branch	-10.2237
▁boat	-10.2237
▁Barcelona	-10.2239
▁difference	-10.224
▁Nazi	-10.2241
▁deep	-10.2242
▁let	-10.2243
▁churches	-10.2245
▁structures	-10.2247
▁really	-10.2269
▁op	-10.2278
▁rich	-10.2283
▁moral	-10.2287
▁News	-10.2288
+	-10.2291
▁f	-10.2291
▁palace	-10.2295
ate	-10.2298
▁occur	-10.2299
▁Senate	-10.23
▁sang	-10.2306
▁happened	-10.2307
▁earned	-10.231
▁subjects	-10.2313
▁step	-10.2322
▁printed	-10.2324
▁Free	-10.233
▁trying	-10.2332
▁march	-10.234
▁Q	-10.2341
▁everyone	-10.2374
▁begin	-10.2375
formerly	-10.2378
▁doctor	-10.2378
▁below	-10.2378
▁winning	-10.2384
▁strength	-10.2386
▁specifically	-10.2386
▁travell	-10.2386
▁assigned	-10.2386
▁Big	-10.2406
▁authors	-10.2425
а	-10.244
▁Organization	-10.244
▁approved	-10.2442
▁Health	-10.2451
▁looking	-10.2452
▁Public	-10.2452
▁scientists	-10.2454
▁converted	-10.2457
▁performances	-10.2457
▁returning	-10.2462
▁mountains	-10.2471
▁poems	-10.2488
▁acts	-10.249
▁Lake	-10.2494
▁forest	-10.2498
▁fear	-10.2505
▁Part	-10.2509
▁theories	-10.2512
ver	-10.2513
▁affairs	-10.2522
ville	-10.2526
▁manner	-10.2529
▁missing	-10.2529
▁understanding	-10.2542
▁horse	-10.2543
▁Operation	-10.2543
▁constitution	-10.2548
▁Chris	-10.2551
▁discuss	-10.2557
mer	-10.2557
bo	-10.256
▁commonly	-10.256
▁performing	-10.2562
▁Islands	-10.2562
▁counter	-10.2565
▁Hans	-10.2572
▁Korea	-10.2574
▁sales	-10.2576
ship	-10.2581
▁actual	-10.2581
▁siege	-10.2583
▁Unti	-10.2584
▁manuscript	-10.2586
▁allows	-10.2589
▁candidate	-10.259
▁promotion	-10.2609
▁sole	-10.2611
▁symbol	-10.2612
▁ethnic	-10.2614
▁lies	-10.2618
▁Bob	-10.263
▁earth	-10.2637
▁prove	-10.2639
▁describe	-10.2649
▁anything	-10.2655
▁biggest	-10.2658
▁Christmas	-10.2658
▁sale	-10.2661
▁governor	-10.2665
▁villages	-10.2672
▁Opera	-10.2672
▁charged	-10.2673
way	-10.2674
▁Iran	-10.2674
▁Hotel	-10.2678
}	-10.2678
ius	-10.2681
▁god	-10.2688
▁instruments	-10.2711
▁Ten	-10.2715
▁brief	-10.2717
▁spaces	-10.2719
▁vote	-10.2719
▁aspects	-10.272
▁strategy	-10.2727
▁creating	-10.2727
▁Foreign	-10.2732
▁exists	-10.2734
▁writings	-10.2739
▁user	-10.2741
▁allies	-10.2744
▁Hamburg	-10.2744
▁target	-10.2755
ah	-10.2762
▁defense	-10.2763
▁materials	-10.2773
▁Cape	-10.2773
▁sell	-10.2775
▁Six	-10.2781
▁arrest	-10.2782
▁spoke	-10.2793
rs	-10.2799
▁Elizabeth	-10.28
▁Valley	-10.2801
▁recognised	-10.2803
▁moment	-10.2804
▁processes	-10.2812
za	-10.2814
▁singing	-10.2823
▁residence	-10.2825
▁g	-10.2829
▁Euro	-10.283
▁link	-10.283
▁cycle	-10.2833
á	-10.2852
coming	-10.2853
▁severe	-10.2853
▁suggest	-10.2859
▁achieve	-10.2863
ese	-10.2865
▁Con	-10.2869
▁host	-10.287
▁Arthur	-10.2874
▁save	-10.2879
ol	-10.2879
▁encouraged	-10.288
naval	-10.2887
▁commission	-10.2889
▁Scottish	-10.289
▁Home	-10.2891
▁nations	-10.2903
▁nominated	-10.2904
▁Cross	-10.2909
▁afterwards	-10.2916
jo	-10.2922
▁progress	-10.2923
▁offers	-10.2936
▁incident	-10.2937
▁weight	-10.2938
▁Nevertheless	-10.2948
▁Community	-10.2948
▁attributed	-10.2954
▁stands	-10.2956
▁secretary	-10.2958
▁intelligence	-10.2959
▁instance	-10.296
▁democracy	-10.2964
chi	-10.2966
▁laid	-10.2967
▁educational	-10.2969
▁pilot	-10.2974
▁Light	-10.2981
▁transfer	-10.299
▁becom	-10.3002
▁greatly	-10.3004
▁neither	-10.3022
▁reputation	-10.3022
▁forward	-10.3025
▁Pierre	-10.3026
▁sets	-10.3028
▁rapidly	-10.303
▁advance	-10.303
▁lawyer	-10.3031
▁device	-10.3033
▁someone	-10.3037
▁fuel	-10.304
▁try	-10.3046
▁collections	-10.3048
▁Santa	-10.3049
▁definition	-10.305
mi	-10.3055
▁offices	-10.3073
▁Your	-10.3076
▁Palace	-10.3098
▁electric	-10.3104
▁briefly	-10.3108
▁initiative	-10.3108
▁equivalent	-10.3109
q	-10.3111
▁Germans	-10.3111
see	-10.3113
▁starts	-10.3114
▁budget	-10.3116
sa	-10.3118
▁Once	-10.3124
▁Lady	-10.3128
▁electronic	-10.3133
▁thing	-10.3137
▁Power	-10.3141
▁Soon	-10.3152
▁Bar	-10.3161
▁reflect	-10.3161
▁scholars	-10.3163
▁reduce	-10.3163
wards	-10.3164
▁Ho	-10.3171
▁Florida	-10.3173
▁infantry	-10.3173
▁shall	-10.3174
▁poet	-10.3176
▁universe	-10.318
▁initiated	-10.3186
▁labor	-10.3189
▁anniversary	-10.319
▁extension	-10.319
▁representative	-10.3197
▁Fort	-10.3203
▁asks	-10.3208
▁hope	-10.3211
▁Anne	-10.3223
including	-10.3235
ever	-10.3239
▁scenes	-10.3247
▁Jerusalem	-10.325
▁Jesus	-10.325
▁Finally	-10.3256
▁background	-10.3261
▁opinion	-10.3263
▁faced	-10.3266
▁installed	-10.3269
▁Ottoman	-10.3272
▁Water	-10.3281
▁manage	-10.3288
▁bad	-10.3292
▁store	-10.3297
▁Caesar	-10.3299
▁coach	-10.3308
▁fundamental	-10.3308
▁papers	-10.3313
▁Sicily	-10.3333
▁£	-10.3333
▁benefit	-10.3341
▁Sunday	-10.3341
▁monument	-10.3343
▁passenger	-10.3345
▁publishing	-10.335
▁pure	-10.336
per	-10.3361
▁ice	-10.337
▁semi	-10.3375
war	-10.3376
▁blue	-10.339
▁horses	-10.3401
▁agency	-10.3407
▁Joe	-10.3409
▁distributed	-10.3421
▁designated	-10.3424
ski	-10.3424
▁pages	-10.3425
▁Finnish	-10.3426
▁conservative	-10.3426
ier	-10.3428
▁organisations	-10.3431
▁demanded	-10.3431
▁Team	-10.3438
▁winner	-10.3439
▁liberal	-10.3453
▁chemical	-10.3462
▁patients	-10.3467
▁persons	-10.3474
▁Constitution	-10.3476
▁Therefore	-10.3482
▁Zealand	-10.3482
▁ceremony	-10.3482
▁trading	-10.3482
▁wounded	-10.3485
▁Such	-10.3486
▁Allied	-10.3491
▁apparently	-10.3498
▁instrument	-10.35
▁Jacob	-10.3505
▁Golden	-10.3507
▁Israeli	-10.3516
▁seats	-10.3524
▁holds	-10.353
▁locations	-10.3536
▁refugees	-10.3537
▁green	-10.3555
▁Gold	-10.3556
▁Out	-10.3557
▁exact	-10.3559
▁Suriname	-10.356
▁Argentina	-10.3562
▁table	-10.3567
▁false	-10.3568
▁Brazilian	-10.357
▁Microsoft	-10.3573
▁Flanders	-10.3578
▁investment	-10.3579
▁contribution	-10.358
▁Every	-10.3583
▁Mountain	-10.3583
▁floor	-10.3585
▁drive	-10.3587
▁commissioned	-10.3598
▁meters	-10.3605
▁revolution	-10.3625
▁mention	-10.364
▁sport	-10.3641
▁Ford	-10.3643
▁popularity	-10.3644
▁Forest	-10.3656
▁mixed	-10.366
▁transform	-10.3661
▁planet	-10.3672
▁resolution	-10.3673
▁Boy	-10.3685
▁listed	-10.3696
▁Les	-10.3697
▁Y	-10.3707
▁details	-10.3709
▁purposes	-10.3717
▁territories	-10.372
▁classification	-10.3721
▁rebuilt	-10.3721
▁Google	-10.3724
▁Taylor	-10.3724
▁anyone	-10.3728
▁Roland	-10.3731
▁Prix	-10.3733
▁disappeared	-10.3733
▁interior	-10.3735
▁Ka	-10.375
▁humans	-10.3758
ung	-10.3758
ised	-10.3771
▁evening	-10.3771
not	-10.378
▁testing	-10.3785
▁Wood	-10.3788
sch	-10.3802
▁Imperial	-10.3804
▁manufactured	-10.3805
▁Fund	-10.3807
▁Much	-10.3808
▁Ages	-10.3815
▁damaged	-10.3819
▁explained	-10.3821
▁advantage	-10.3821
▁visual	-10.3822
▁Muslims	-10.3824
ut	-10.3825
▁nickname	-10.383
▁mental	-10.3835
▁belief	-10.3838
▁experienced	-10.3842
▁Tu	-10.3851
▁exception	-10.386
▁hits	-10.3867
wing	-10.3877
▁easily	-10.3882
▁Tokyo	-10.3882
▁imprisoned	-10.3883
vi	-10.3886
▁abstract	-10.3889
▁factor	-10.3889
▁Bernard	-10.3891
▁components	-10.3896
▁champion	-10.3903
▁didn	-10.3904
▁How	-10.3909
▁executive	-10.3911
▁Tibetan	-10.3917
▁colonial	-10.3921
▁marry	-10.393
so	-10.3953
▁witness	-10.3961
▁distinct	-10.3962
▁Seleucus	-10.3964
▁childhood	-10.3964
▁Afghanistan	-10.3966
▁differences	-10.3966
▁Third	-10.3971
▁imperial	-10.3972
▁celebrated	-10.3973
▁weak	-10.3974
ts	-10.3975
▁implementation	-10.3987
Man	-10.3988
▁possession	-10.3989
▁separated	-10.3994
▁objective	-10.3997
▁Seven	-10.4002
if	-10.4003
▁chain	-10.4009
▁Marie	-10.4012
▁Game	-10.4017
▁Natural	-10.4021
▁Hu	-10.4024
▁formally	-10.4026
▁Du	-10.4028
▁talk	-10.4036
La	-10.4037
▁practical	-10.4037
▁mean	-10.4042
▁meetings	-10.4042
▁gods	-10.4043
▁extent	-10.4047
▁universities	-10.4047
▁advice	-10.4047
▁empire	-10.4047
▁Police	-10.4047
▁armies	-10.4047
▁Will	-10.4048
▁hired	-10.4049
▁protests	-10.4049
▁collaborated	-10.405
▁sentenced	-10.4053
▁wealthy	-10.4054
▁Kong	-10.4056
▁physics	-10.4057
▁Trade	-10.4061
▁Wales	-10.4066
▁drama	-10.4066
▁eyes	-10.4068
▁Tower	-10.4068
▁address	-10.407
▁failure	-10.4071
▁novels	-10.4072
▁Scott	-10.4073
▁publisher	-10.4079
▁miles	-10.4079
▁movements	-10.4083
tries	-10.4084
▁Chief	-10.4084
all	-10.4088
▁protected	-10.409
▁Economic	-10.4094
▁copy	-10.4096
▁girls	-10.4099
▁Or	-10.4103
▁passengers	-10.4114
▁Sky	-10.4127
▁membership	-10.4134
▁portion	-10.4136
▁Indies	-10.4139
▁producing	-10.4144
▁prices	-10.4146
▁selection	-10.4149
▁typically	-10.4152
▁slave	-10.4158
▁poem	-10.4159
tra	-10.4161
▁tools	-10.4162
▁treated	-10.4162
law	-10.4167
kin	-10.4168
▁decade	-10.4175
▁journal	-10.418
aimed	-10.4185
▁understand	-10.4203
▁k	-10.4213
е	-10.4214
▁agriculture	-10.4214
▁surviving	-10.4214
▁Lewis	-10.4219
▁Miller	-10.4219
▁Stephen	-10.422
▁Square	-10.4224
▁Inter	-10.4225
▁Family	-10.4227
▁Journal	-10.4227
▁Nick	-10.4236
▁chance	-10.4237
▁Wall	-10.4239
▁Now	-10.424
▁shares	-10.4249
▁defence	-10.425
ted	-10.4254
▁folk	-10.4255
▁assault	-10.4261
▁Die	-10.4273
ster	-10.4276
▁suggests	-10.429
▁Victoria	-10.4293
ang	-10.4294
и	-10.4298
▁Eventually	-10.4299
▁Instead	-10.4299
▁enemies	-10.4299
▁throne	-10.4299
long	-10.4299
▁Football	-10.4303
▁restoration	-10.4304
ns	-10.4304
▁funds	-10.4304
▁cancer	-10.4306
▁Children	-10.4309
lu	-10.4323
▁governments	-10.4323
▁fast	-10.433
▁virtual	-10.4333
▁experiment	-10.434
▁lands	-10.435
▁hundreds	-10.4354
▁viewed	-10.4358
▁zone	-10.4388
▁publicly	-10.4389
%)	-10.439
ite	-10.439
▁Station	-10.439
▁Bishop	-10.4392
▁constant	-10.4393
▁Walter	-10.4394
▁Stone	-10.4394
▁Front	-10.4396
▁represents	-10.4404
▁notably	-10.4407
mar	-10.4408
No	-10.4415
▁gets	-10.4416
▁appointment	-10.4418
▁returns	-10.4419
▁Network	-10.4424
▁serves	-10.4424
▁historic	-10.4437
▁explain	-10.4447
credited	-10.445
▁Play	-10.445
▁concepts	-10.4455
▁path	-10.4464
ho	-10.4468
▁illness	-10.4468
о	-10.447
▁Culture	-10.4471
▁dynasty	-10.4472
▁surrounded	-10.4475
▁controversial	-10.4478
▁threatened	-10.4479
▁trains	-10.4479
▁Morocco	-10.4481
▁web	-10.4483
▁finite	-10.4483
▁engineer	-10.4484
▁offensive	-10.4489
▁Harry	-10.449
▁estate	-10.4503
▁eye	-10.4505
▁dated	-10.4505
▁fish	-10.4514
▁acted	-10.4519
▁theater	-10.4525
▁Sports	-10.4532
▁raise	-10.4547
à	-10.4556
▁Real	-10.4557
▁thirty	-10.4558
▁visible	-10.4558
▁matches	-10.4566
▁Just	-10.4573
▁Besides	-10.4573
▁captain	-10.4577
ger	-10.4581
▁linked	-10.4583
▁boys	-10.4586
▁Along	-10.4588
▁compilation	-10.4593
▁Mars	-10.4593
▁discussion	-10.4594
▁advisor	-10.4598
▁pick	-10.46
era	-10.4601
▁conduct	-10.4602
ium	-10.4603
che	-10.461
▁Jim	-10.4626
▁und	-10.463
▁Count	-10.4631
▁fashion	-10.4634
▁Initially	-10.4646
▁dropped	-10.4647
▁dark	-10.465
▁voted	-10.4658
▁guitarist	-10.4658
▁retained	-10.4662
ber	-10.4663
▁Pre	-10.4663
▁Williams	-10.4667
▁Ni	-10.467
class	-10.4673
▁affected	-10.4675
▁criminal	-10.4678
▁Columbia	-10.4679
▁championship	-10.4682
▁session	-10.4682
▁occasion	-10.4682
▁vehicle	-10.4682
▁interpretation	-10.4685
▁format	-10.4685
▁participants	-10.4686
gi	-10.4689
▁spirit	-10.47
▁sixth	-10.4701
▁experiments	-10.4702
▁storm	-10.4703
▁domain	-10.4704
▁classic	-10.4705
▁factors	-10.471
mon	-10.471
▁quarter	-10.4714
▁extend	-10.4719
▁huge	-10.4723
gen	-10.4724
▁rare	-10.4724
▁ends	-10.4728
scale	-10.4728
▁Na	-10.4729
▁relationships	-10.4729
▁favor	-10.4733
▁Town	-10.4734
▁banned	-10.4735
ji	-10.4737
▁Texas	-10.4738
▁typical	-10.4739
▁burned	-10.4739
▁devoted	-10.4741
▁maximum	-10.4744
▁spiritual	-10.4747
▁Ba	-10.4753
▁dispute	-10.4761
▁discussed	-10.4765
▁Freedom	-10.4768
▁designs	-10.477
▁shift	-10.477
▁Song	-10.4773
▁broken	-10.4781
nt	-10.4784
▁Matt	-10.4793
▁commanded	-10.4801
▁plane	-10.4803
▁duo	-10.4804
▁evolution	-10.4813
▁manuscripts	-10.4819
▁wealth	-10.4823
▁Tibet	-10.4825
▁Christianity	-10.4827
▁experiences	-10.4828
▁accessible	-10.4831
▁conquered	-10.4833
▁impossible	-10.4837
▁arranged	-10.4839
▁Dark	-10.484
▁annually	-10.4847
▁Bush	-10.4847
▁Indonesian	-10.486
speaking	-10.4861
▁message	-10.4867
▁Ne	-10.4869
▁Studio	-10.4876
▁hour	-10.4876
istic	-10.4878
▁drug	-10.4887
▁Men	-10.4887
▁tree	-10.4891
▁overall	-10.4892
▁extra	-10.4899
▁videos	-10.4905
▁situated	-10.4913
▁duty	-10.4914
▁spoken	-10.4917
▁Syria	-10.4919
▁Renaissance	-10.4921
▁focuses	-10.4922
▁Morgan	-10.4924
▁Oxford	-10.493
ik	-10.493
▁queen	-10.4936
▁studying	-10.4948
▁reveal	-10.4948
▁wedding	-10.4949
term	-10.4956
▁flights	-10.4956
ae	-10.4957
▁dominated	-10.4961
▁Standard	-10.4961
▁accounts	-10.4963
▁Mi	-10.4965
om	-10.4992
▁runs	-10.4993
▁Design	-10.4994
▁immediate	-10.4994
op	-10.4995
▁votes	-10.4997
▁Luxembourg	-10.5
▁awards	-10.5003
▁Madrid	-10.5004
▁Movement	-10.5004
▁cabinet	-10.5004
▁Additionally	-10.5006
▁pop	-10.5008
▁Su	-10.5008
▁supporters	-10.5009
▁Mount	-10.5012
▁apply	-10.5012
▁routes	-10.5014
▁medium	-10.5015
▁realized	-10.5015
▁Global	-10.5021
▁sections	-10.5029
▁themes	-10.5035
▁glass	-10.5038
▁Guard	-10.504
▁lay	-10.5042
▁radical	-10.5044
ured	-10.5047
▁proof	-10.5047
▁proposal	-10.5047
▁expression	-10.5051
ot	-10.5057
▁uncle	-10.5057
▁ruler	-10.5067
▁designer	-10.508
▁contribute	-10.5085
ino	-10.5088
ão	-10.5096
▁Frederick	-10.5096
▁personnel	-10.5096
▁Originally	-10.5099
▁Eric	-10.5101
▁possibility	-10.5101
▁provid	-10.5101
▁showing	-10.5101
▁begun	-10.5102
▁Boston	-10.5104
▁Forum	-10.5113
ij	-10.5115
▁motion	-10.5116
▁funding	-10.512
▁significantly	-10.5132
▁requested	-10.5136
▁shop	-10.5146
▁wing	-10.5148
▁relation	-10.5152
▁races	-10.5156
au	-10.5157
▁Sciences	-10.5158
sk	-10.516
▁Years	-10.5164
▁organ	-10.5164
▁Den	-10.5166
pi	-10.5168
▁farm	-10.5168
▁thinking	-10.5175
▁Cuba	-10.5182
▁Bell	-10.5184
▁tribes	-10.5187
▁expensive	-10.5188
▁internationally	-10.5189
▁infrastructure	-10.519
▁beyond	-10.5193
▁Milan	-10.5194
▁partially	-10.5194
▁VI	-10.5196
▁gathered	-10.5197
▁none	-10.5202
▁attracted	-10.5202
▁secure	-10.5203
▁Vietnam	-10.5205
▁block	-10.5207
▁NATO	-10.5209
▁define	-10.5212
▁Modern	-10.5212
▁Holy	-10.5221
▁owners	-10.5224
▁Youth	-10.5224
▁murdered	-10.523
▁grandfather	-10.523
▁genetic	-10.5232
house	-10.5233
▁partnership	-10.5233
▁Railway	-10.5234
▁edited	-10.5236
▁driver	-10.5238
▁Ocean	-10.5243
▁variant	-10.5246
▁See	-10.5272
▁fifteen	-10.5273
▁Magazine	-10.5282
▁stood	-10.5282
▁justice	-10.5283
▁replacement	-10.5283
▁Geneva	-10.5284
▁concentrated	-10.5286
▁diplomatic	-10.5287
▁engaged	-10.5288
▁aims	-10.5288
over	-10.5289
▁Channel	-10.529
▁resigned	-10.529
▁belonged	-10.5294
▁Summer	-10.5299
▁integrated	-10.5304
▁wine	-10.5308
▁metres	-10.5309
▁landscape	-10.533
You	-10.5334
▁compositions	-10.5344
▁rival	-10.5354
convinced	-10.5355
▁devices	-10.5364
▁answer	-10.5367
▁Otto	-10.5375
▁killing	-10.5378
▁monarchy	-10.538
▁Leopold	-10.5381
▁Il	-10.5381
▁soundtrack	-10.5381
▁dog	-10.5384
▁safe	-10.5385
▁Saudi	-10.5388
▁logic	-10.539
▁balance	-10.5391
▁Story	-10.5391
▁exactly	-10.5393
▁hall	-10.5394
▁escaped	-10.5397
▁portrayed	-10.5399
▁Dance	-10.5402
▁holding	-10.5408
▁drawn	-10.5416
▁airline	-10.5418
▁mere	-10.5419
▁formula	-10.5422
▁choose	-10.5422
▁sees	-10.5423
α	-10.543
▁contest	-10.5449
▁surrender	-10.545
▁brain	-10.545
ze	-10.5452
▁Clark	-10.5456
▁charges	-10.546
▁mayor	-10.5463
▁engines	-10.5466
ful	-10.5466
▁Plan	-10.5468
▁camps	-10.5468
▁waste	-10.547
▁stadium	-10.5472
▁Studies	-10.5472
▁dangerous	-10.5473
▁Hong	-10.5473
▁birthday	-10.5473
▁Willem	-10.5475
▁Francis	-10.5476
▁Lo	-10.5479
▁Athenians	-10.548
▁mode	-10.5486
▁Major	-10.5491
▁roughly	-10.5492
▁sun	-10.5493
▁weekly	-10.5494
▁review	-10.5494
▁kings	-10.5505
▁Forces	-10.5513
▁statue	-10.5523
▁Member	-10.5524
je	-10.5527
▁Are	-10.5527
▁algebraic	-10.5531
▁Ali	-10.554
▁Last	-10.5542
part	-10.5558
zi	-10.5564
▁controversy	-10.5568
▁employment	-10.5568
▁grow	-10.5568
▁Nobel	-10.5569
▁unclear	-10.5569
▁vary	-10.5569
▁scored	-10.5577
▁headed	-10.5578
▁detailed	-10.558
▁onwards	-10.558
▁Ken	-10.5587
▁correct	-10.5592
▁portraits	-10.5593
▁Garden	-10.5596
▁v	-10.5602
▁trust	-10.5606
ng	-10.5607
▁transition	-10.5612
▁End	-10.5612
▁Miss	-10.5614
ac	-10.5617
▁matters	-10.5618
▁height	-10.5618
▁capable	-10.5625
▁Mar	-10.5626
▁correspond	-10.563
▁chapter	-10.5633
▁DVD	-10.5634
▁institution	-10.5634
red	-10.5639
▁covers	-10.5639
les	-10.5642
car	-10.5645
▁Vice	-10.5646
▁magic	-10.5647
▁column	-10.5647
▁representatives	-10.5649
▁argues	-10.5661
▁limit	-10.5662
▁export	-10.5662
who	-10.5663
▁identical	-10.5665
▁receiving	-10.5665
▁Alliance	-10.5665
▁explanation	-10.5665
▁departure	-10.5665
▁Pa	-10.5665
▁occurs	-10.5666
▁Winter	-10.5666
▁strategic	-10.5669
▁Supreme	-10.5676
▁chair	-10.5679
▁Death	-10.5688
▁entry	-10.5688
▁Fire	-10.569
▁serving	-10.5692
net	-10.5695
▁specialize	-10.5706
▁stages	-10.5706
▁judge	-10.5708
ent	-10.571
▁republic	-10.5712
▁drugs	-10.5715
▁purchase	-10.5718
wood	-10.572
▁argument	-10.572
▁switch	-10.5724
▁setting	-10.5741
▁fiction	-10.5751
▁topics	-10.5752
▁illegal	-10.5753
▁locomotives	-10.5753
▁causes	-10.5762
▁framework	-10.5763
▁AD	-10.5765
▁thereafter	-10.5766
▁Prior	-10.5766
▁programming	-10.5768
▁continuous	-10.577
▁survey	-10.5773
▁ready	-10.5779
▁somewhat	-10.5779
▁volumes	-10.5783
▁cell	-10.5793
▁campaigns	-10.5799
▁desire	-10.5807
▁priest	-10.5811
▁challenge	-10.5818
▁enable	-10.5819
▁Jo	-10.5823
▁ambassador	-10.5824
▁Sport	-10.5827
▁shape	-10.5832
▁Ha	-10.5835
▁Karl	-10.5837
▁bishop	-10.5841
▁affect	-10.5843
▁widespread	-10.5862
▁Moreover	-10.5862
▁stable	-10.5864
▁networks	-10.5864
▁concern	-10.5866
▁Davis	-10.5866
ijn	-10.5867
▁criticized	-10.5868
▁destruction	-10.587
▁Business	-10.587
▁participation	-10.587
▁Grant	-10.5871
▁Tony	-10.5878
▁Iron	-10.5878
▁Juan	-10.5879
▁bomb	-10.588
▁wind	-10.5882
▁agents	-10.5884
▁machines	-10.5884
▁upper	-10.5889
▁assisted	-10.5893
▁Han	-10.5898
▁garden	-10.5899
▁Ge	-10.5901
▁Da	-10.5904
▁withdrew	-10.5906
▁collect	-10.5913
▁script	-10.592
▁apartment	-10.5921
▁cultures	-10.5925
we	-10.5934
▁musician	-10.5936
▁homes	-10.5938
▁decisions	-10.5941
from	-10.5943
▁flee	-10.5953
▁Napoleon	-10.5959
▁Technology	-10.5962
▁colony	-10.5962
▁absence	-10.5967
▁circumstances	-10.5969
▁demonstrated	-10.5973
▁researchers	-10.5974
ities	-10.5976
▁Head	-10.5977
ura	-10.5978
▁seem	-10.5982
▁voor	-10.5983
▁DNA	-10.5985
▁secondary	-10.599
ini	-10.5991
▁classified	-10.5991
sh	-10.5991
▁violent	-10.5993
▁grown	-10.5994
▁Brothers	-10.5996
▁Lu	-10.6001
▁steps	-10.6005
▁Iraqi	-10.602
▁featur	-10.6026
▁requirements	-10.6033
▁Marine	-10.604
▁ask	-10.6051
▁substantial	-10.6053
▁rapid	-10.6053
▁teachers	-10.6054
▁Alfred	-10.6057
▁Sa	-10.606
▁stock	-10.6061
▁Julian	-10.6061
▁entrance	-10.6063
▁provincial	-10.6063
▁Ross	-10.6063
▁permission	-10.6063
▁reforms	-10.6065
▁editions	-10.6069
▁Princess	-10.6075
▁Abraham	-10.6078
▁supports	-10.6079
ana	-10.6095
▁alive	-10.6095
▁Fair	-10.6101
▁concerns	-10.6104
▁farmers	-10.6111
▁dream	-10.6114
▁Protestant	-10.6119
▁traditions	-10.612
▁exile	-10.6121
▁disaster	-10.6124
▁legend	-10.6125
▁characteristic	-10.6129
▁concentration	-10.6129
▁chapel	-10.6133
▁execution	-10.6133
▁Roger	-10.6135
▁activist	-10.6135
ica	-10.6146
▁observations	-10.6155
▁Hospital	-10.6155
▁fly	-10.6157
▁supplies	-10.6165
▁Munich	-10.6165
▁submitted	-10.6166
▁otherwise	-10.6167
▁Buddhist	-10.617
▁PlayStation	-10.617
▁understood	-10.6173
▁incorporated	-10.6179
▁filled	-10.6179
▁beautiful	-10.618
▁injured	-10.6181
▁Inc	-10.6182
ker	-10.6182
▁Cambridge	-10.6183
▁Governor	-10.6184
▁seriously	-10.6184
▁distinguished	-10.6186
▁maps	-10.6195
▁da	-10.6199
▁fired	-10.6213
▁notion	-10.6216
▁agree	-10.6219
▁reserve	-10.6221
▁calendar	-10.6226
end	-10.623
du	-10.6233
▁circle	-10.6235
▁Per	-10.6241
▁door	-10.6244
▁Persian	-10.6245
▁calling	-10.6246
▁selling	-10.6256
▁involve	-10.6257
▁broad	-10.6266
▁heritage	-10.6268
▁subsidiary	-10.6268
▁coalition	-10.6268
▁retirement	-10.6268
▁Bowie	-10.6268
▁denied	-10.6269
▁isolated	-10.6271
▁FM	-10.6271
▁fans	-10.6272
▁promised	-10.6273
▁opposite	-10.6277
▁strict	-10.628
▁Fiat	-10.6284
▁essential	-10.6284
▁ban	-10.6286
▁Ph	-10.6308
▁defended	-10.6308
▁fishing	-10.6309
▁informed	-10.632
ay	-10.6321
ai	-10.6322
▁photographs	-10.6328
▁wrong	-10.633
▁Province	-10.6333
▁predecessor	-10.6335
▁medal	-10.6336
▁pass	-10.634
▁Way	-10.6343
▁express	-10.6343
▁representation	-10.6353
▁believes	-10.6357
▁favour	-10.6361
▁Ro	-10.6367
▁Mexican	-10.6372
▁inspiration	-10.6372
▁Petersburg	-10.6372
▁Antonio	-10.6373
▁massive	-10.6374
▁Gen	-10.6375
▁ceased	-10.6376
▁conductor	-10.6376
▁praised	-10.6379
▁currency	-10.6381
▁Transport	-10.6383
▁Hollywood	-10.6385
▁critics	-10.6386
▁watch	-10.6387
▁Caribbean	-10.6388
▁daughters	-10.6388
▁implemented	-10.6391
▁hoped	-10.64
▁emerged	-10.6401
bit	-10.6406
▁Admiral	-10.6408
air	-10.641
ory	-10.6417
▁rooms	-10.6422
▁USA	-10.6422
▁Alan	-10.6426
▁Leo	-10.6427
▁arts	-10.6431
▁rebellion	-10.6439
tre	-10.6439
▁reading	-10.6445
▁Steve	-10.6454
▁score	-10.6464
water	-10.6467
▁Sparta	-10.647
▁wars	-10.6474
▁unusual	-10.6476
▁Entertainment	-10.6477
▁Nigeria	-10.6478
▁involvement	-10.6478
▁internet	-10.6479
▁recognize	-10.6479
such	-10.6481
▁exclusively	-10.6482
▁Facebook	-10.6483
▁youngest	-10.6484
▁suffering	-10.6487
MS	-10.6487
▁ownership	-10.6489
▁Jordan	-10.649
▁easy	-10.649
▁enjoyed	-10.6496
▁lyrics	-10.6498
▁associate	-10.65
▁landed	-10.6502
▁Cor	-10.6503
▁writes	-10.6508
▁Rose	-10.6514
▁attend	-10.6524
▁camera	-10.6525
▁signal	-10.6527
▁photo	-10.6535
▁Ca	-10.6537
▁decide	-10.6544
▁photographer	-10.655
▁prototype	-10.6552
▁newspapers	-10.6555
▁ending	-10.6557
▁FC	-10.6559
▁Andrew	-10.656
▁Bridge	-10.6564
ise	-10.6565
ken	-10.6567
▁Americans	-10.6568
▁relative	-10.6571
▁seasons	-10.6585
▁friendship	-10.6585
▁slightly	-10.6586
▁divisions	-10.6586
▁Beach	-10.6599
▁Czech	-10.66
▁output	-10.6602
▁exhibitions	-10.6602
▁solutions	-10.6605
▁streets	-10.6606
▁Mike	-10.6608
▁lessons	-10.6611
▁note	-10.6616
▁Parker	-10.6618
▁Republican	-10.6623
ven	-10.6627
ap	-10.6641
▁experimental	-10.6642
▁leads	-10.6644
mann	-10.6649
▁Bad	-10.6652
▁intention	-10.6657
▁Dan	-10.6657
▁aired	-10.6671
▁prisoner	-10.6677
▁banks	-10.6681
▁theoretical	-10.6681
▁expert	-10.6682
▁Arabia	-10.6685
▁mine	-10.6689
▁biological	-10.669
▁Jersey	-10.6691
▁Cyprus	-10.6693
▁indeed	-10.6693
▁Warsaw	-10.6694
▁evolved	-10.6694
▁Military	-10.6697
▁distinguish	-10.6702
▁crimes	-10.6703
▁suspected	-10.6704
▁Korean	-10.6704
▁Lie	-10.6705
▁weather	-10.6707
▁Mer	-10.6708
▁businesses	-10.6711
▁noble	-10.6711
▁arm	-10.6712
▁tests	-10.6723
▁Greeks	-10.6728
▁immigrants	-10.6735
▁destroy	-10.6737
▁tomb	-10.6739
▁meets	-10.674
▁succeed	-10.6744
▁revolt	-10.6745
▁talent	-10.6746
con	-10.6748
▁Vol	-10.6752
▁colour	-10.6754
▁institute	-10.6755
stra	-10.6762
▁aware	-10.6763
▁accord	-10.6765
▁spend	-10.6766
cha	-10.6767
▁cable	-10.677
▁learning	-10.678
▁linear	-10.6783
▁visiting	-10.6784
ez	-10.679
▁picture	-10.6792
▁measure	-10.6796
▁wish	-10.6799
▁Further	-10.68
▁Constantinople	-10.68
▁artillery	-10.68
▁Wolfgang	-10.68
▁suitable	-10.6801
▁Java	-10.6802
▁introduce	-10.6804
▁conflicts	-10.6807
ci	-10.6807
▁consumption	-10.6809
▁statements	-10.681
▁Iceland	-10.681
▁exhibited	-10.6812
▁useful	-10.6812
▁temporary	-10.6813
dimensional	-10.6814
▁En	-10.6818
▁bear	-10.6819
▁connections	-10.6821
▁sufficient	-10.6822
▁fixed	-10.6824
▁logo	-10.6827
▁warn	-10.683
ud	-10.6846
▁n	-10.6853
▁Code	-10.6854
He	-10.6858
▁trees	-10.6861
bi	-10.6867
▁rail	-10.6872
▁+	-10.6875
▁productions	-10.6875
▁genre	-10.6878
▁civilian	-10.6883
▁Jane	-10.6886
▁retain	-10.6887
▁corps	-10.6891
▁Ko	-10.6905
▁Management	-10.691
▁modified	-10.691
▁Agency	-10.691
▁philosophical	-10.691
▁missions	-10.6911
▁simultaneously	-10.6912
▁dating	-10.6915
vo	-10.6921
European	-10.6922
▁ideal	-10.6923
▁Butterfly	-10.693
▁beer	-10.6933
▁publish	-10.6933
▁Anti	-10.6934
▁flow	-10.6941
▁draw	-10.6949
▁Christians	-10.6952
▁Heart	-10.6957
▁Ar	-10.696
▁items	-10.6961
▁tons	-10.6977
▁tested	-10.6982
▁absolute	-10.6982
va	-10.6984
▁landing	-10.6985
▁talks	-10.6987
▁merger	-10.6988
▁charter	-10.6991
▁mosque	-10.6991
handed	-10.6993
▁conquest	-10.7007
tu	-10.701
▁perfect	-10.7012
▁satellite	-10.7015
volving	-10.702
▁repeated	-10.7021
▁phenomenon	-10.7021
▁duties	-10.7021
hi	-10.7024
▁slow	-10.7028
▁responded	-10.703
▁Si	-10.703
▁Baltic	-10.7031
▁Jazz	-10.7034
▁portrait	-10.7036
Dutch	-10.7036
▁drawing	-10.7036
ii	-10.7038
▁bus	-10.7047
▁Information	-10.705
▁honour	-10.7053
▁grounds	-10.7056
▁mining	-10.7067
▁tank	-10.7087
▁Het	-10.7089
isation	-10.7091
▁lecture	-10.7098
▁database	-10.7101
▁adult	-10.7106
▁depict	-10.7107
▁Area	-10.7115
▁Anglo	-10.7123
▁parallel	-10.7126
▁external	-10.7131
▁Florence	-10.7133
▁Bureau	-10.7133
▁Thailand	-10.7134
▁graduated	-10.7137
▁originated	-10.714
▁taxes	-10.7141
▁appearances	-10.7143
▁coup	-10.7149
▁hair	-10.715
▁donat	-10.7152
▁Fox	-10.7154
▁Mall	-10.7158
▁Renault	-10.7165
▁Ray	-10.7172
▁founders	-10.7176
yn	-10.7178
▁independently	-10.7185
▁Er	-10.7187
▁feel	-10.7187
▁retreat	-10.719
drew	-10.7193
▁buy	-10.7203
most	-10.7207
art	-10.7208
▁passage	-10.7218
▁mentions	-10.722
▁procedure	-10.7221
▁volunteers	-10.7239
▁emphasis	-10.7242
▁YouTube	-10.7244
po	-10.7245
▁narrow	-10.7245
▁Margaret	-10.7246
▁obvious	-10.7247
▁categories	-10.7247
▁Price	-10.7247
▁storage	-10.7247
▁soul	-10.7249
▁behalf	-10.7253
▁Byzantine	-10.726
▁integration	-10.7263
run	-10.7269
▁computers	-10.7273
▁convince	-10.7273
▁Stockholm	-10.7276
▁drawings	-10.7276
▁Billy	-10.7277
▁alleged	-10.7281
▁adapted	-10.7281
▁demands	-10.7282
▁printing	-10.729
▁actively	-10.7304
▁sessions	-10.7314
▁occasions	-10.7314
▁t	-10.7328
▁beliefs	-10.733
▁indicate	-10.7334
▁Jacques	-10.7336
▁cousin	-10.7337
▁housed	-10.7341
▁consumer	-10.7343
▁periods	-10.7352
▁candidates	-10.7357
▁autumn	-10.7362
▁municipalities	-10.7362
▁comedy	-10.7363
▁electricity	-10.7363
▁Market	-10.7364
▁difficulties	-10.7364
▁origins	-10.7365
▁Symphony	-10.7368
▁Dublin	-10.737
▁con	-10.7373
▁agent	-10.7375
▁invented	-10.7379
German	-10.7379
▁Sony	-10.7382
▁Jr	-10.7382
What	-10.7388
▁cold	-10.7389
▁indicated	-10.7389
▁filmed	-10.7393
▁Prussian	-10.7397
▁educated	-10.7401
▁losing	-10.7403
later	-10.7405
▁Our	-10.7409
▁Se	-10.741
▁doesn	-10.7414
▁flying	-10.7422
▁wood	-10.7436
▁composers	-10.7441
▁operational	-10.7447
▁gone	-10.7452
▁Web	-10.7467
▁micro	-10.7467
▁Production	-10.7468
▁supposed	-10.7471
▁Ja	-10.7472
▁actress	-10.7475
▁Groningen	-10.7478
▁hydrogen	-10.7478
▁assembly	-10.7479
▁worth	-10.7479
▁Orange	-10.748
▁photography	-10.7482
▁Ukraine	-10.7484
▁clothing	-10.7485
▁county	-10.7485
▁losses	-10.7487
▁Howard	-10.749
▁secured	-10.7494
▁saved	-10.7495
▁Samuel	-10.7496
▁carbon	-10.7497
▁fair	-10.7504
▁followers	-10.7506
▁expand	-10.7511
▁threats	-10.7515
▁Call	-10.7521
▁pair	-10.7528
▁Mu	-10.7533
▁card	-10.7539
▁constitutional	-10.7541
▁fate	-10.7541
▁Studios	-10.7543
ire	-10.7551
ola	-10.7554
▁survive	-10.7562
▁chart	-10.7562
▁skills	-10.7566
▁consequence	-10.7574
▁Ki	-10.7578
▁opponents	-10.7579
set	-10.7586
▁strike	-10.7587
ab	-10.7589
▁realize	-10.7594
▁Chi	-10.7595
▁Antigonus	-10.7596
▁poverty	-10.7596
▁Ghent	-10.7596
▁societies	-10.7596
▁Construction	-10.7596
▁José	-10.7596
▁NASA	-10.7596
▁else	-10.7597
▁underground	-10.7598
▁Ltd	-10.7598
▁admitted	-10.7598
▁approval	-10.76
▁coat	-10.7601
field	-10.7601
▁developers	-10.7606
▁ISO	-10.7607
▁declined	-10.7607
▁Child	-10.7612
▁effectively	-10.7614
▁generated	-10.762
▁baby	-10.7621
ís	-10.7626
▁addressed	-10.7626
▁tanks	-10.7626
tel	-10.7628
▁Sudan	-10.7631
▁finding	-10.7642
▁sing	-10.7645
▁hill	-10.7647
▁Georgian	-10.7647
▁Type	-10.7661
▁peak	-10.7667
▁Mega	-10.767
▁roots	-10.7673
▁regulations	-10.7673
▁roads	-10.7674
▁box	-10.7676
▁patent	-10.7681
▁ocean	-10.7682
▁gun	-10.7683
▁lose	-10.7687
▁manufacturer	-10.7698
▁Shi	-10.7699
▁Tri	-10.77
▁component	-10.77
getting	-10.7703
▁celebrate	-10.7704
ated	-10.7705
▁solve	-10.7706
▁marketing	-10.7706
▁vessels	-10.7707
looked	-10.7709
▁appropriate	-10.7713
▁Fleet	-10.7715
▁Memorial	-10.7715
▁steel	-10.7715
▁elsewhere	-10.7715
▁practices	-10.7715
▁CEO	-10.7715
▁Armenian	-10.7716
▁Local	-10.7719
▁Moore	-10.7719
▁borders	-10.7719
▁trio	-10.772
▁functional	-10.7721
▁Copenhagen	-10.7725
▁pull	-10.7725
▁secular	-10.7725
▁birds	-10.773
▁guns	-10.7736
▁Tim	-10.7742
ford	-10.7744
▁deaths	-10.7746
partly	-10.7747
▁mobile	-10.7749
▁pictures	-10.7749
If	-10.775
▁grand	-10.7752
parliamentary	-10.7753
▁Ta	-10.7758
▁characteristics	-10.7759
▁Po	-10.7771
▁customers	-10.7775
▁engineering	-10.7777
▁tourist	-10.7781
hu	-10.779
▁Mor	-10.7798
▁plot	-10.7814
▁affair	-10.7816
▁surprise	-10.7825
▁pursue	-10.7825
▁comic	-10.7825
▁apparent	-10.7826
till	-10.7834
▁Testament	-10.7835
▁beauty	-10.7835
▁hidden	-10.7835
▁summit	-10.7836
▁drummer	-10.7836
▁departed	-10.7837
▁Mission	-10.7838
▁Near	-10.7843
▁bit	-10.7844
▁illustrated	-10.7845
▁Airlines	-10.7845
▁Ku	-10.7847
▁municipal	-10.7853
▁Nederland	-10.7865
▁Alex	-10.7868
▁changing	-10.7879
)"	-10.788
▁Fu	-10.7883
▁socialist	-10.7892
▁rebels	-10.7893
▁Hell	-10.7896
qui	-10.7897
▁districts	-10.7902
▁knows	-10.7912
ray	-10.7916
▁Khan	-10.7919
▁frequent	-10.7925
burg	-10.7928
▁Point	-10.793
▁enjoy	-10.7934
▁perspective	-10.7935
▁stores	-10.7936
▁victim	-10.794
▁panel	-10.7944
▁covering	-10.7947
▁decline	-10.7948
▁Romanian	-10.7949
▁rescue	-10.7949
▁Congo	-10.7954
▁doubt	-10.7956
▁facility	-10.7957
▁valuable	-10.7957
▁Pericles	-10.7957
▁fireworks	-10.7957
▁Jimmy	-10.7958
▁fame	-10.7958
▁Palestinian	-10.7959
▁willing	-10.796
▁participating	-10.796
▁abolished	-10.7963
▁proper	-10.7964
▁Guinea	-10.7964
▁Spider	-10.7964
▁Ukrainian	-10.7965
▁Guide	-10.7968
ny	-10.7968
▁recovered	-10.797
▁Brigade	-10.7976
▁Anderson	-10.7976
ron	-10.7977
▁critic	-10.7986
▁equilibrium	-10.7988
▁magazines	-10.7989
▁Father	-10.7991
▁racing	-10.7992
▁decides	-10.7997
▁Henri	-10.8005
▁bar	-10.8008
▁lake	-10.801
▁partners	-10.8011
▁communist	-10.8012
ble	-10.8012
ria	-10.8015
▁Anton	-10.8019
▁approached	-10.8022
▁x	-10.8028
▁Gu	-10.8029
▁rates	-10.8038
▁voyage	-10.8051
▁neighbour	-10.8063
▁citizen	-10.8064
▁politician	-10.8065
▁friendly	-10.8065
si	-10.8066
▁collapse	-10.807
▁unsuccessful	-10.8071
▁Ra	-10.8073
▁Where	-10.8075
▁merchant	-10.8078
▁relevant	-10.8081
▁unemployment	-10.8081
▁eldest	-10.8081
▁architectural	-10.8081
▁legislation	-10.8081
▁genus	-10.8081
▁Gordon	-10.8081
▁vast	-10.8081
▁Lieutenant	-10.8083
▁structural	-10.8083
▁Johnny	-10.8083
▁occasionally	-10.8085
▁seized	-10.8085
▁assembled	-10.8085
▁Regional	-10.8086
but	-10.8087
▁Iranian	-10.8094
ren	-10.8095
▁ha	-10.8096
hose	-10.8098
▁Canal	-10.81
▁fine	-10.8101
▁guard	-10.8102
sky	-10.8106
▁frequency	-10.8108
▁kilometers	-10.8108
▁surrendered	-10.8108
▁inform	-10.8109
▁Medic	-10.811
▁Systems	-10.8112
▁equipped	-10.8112
▁Der	-10.8113
▁trans	-10.8121
▁displayed	-10.8122
▁credit	-10.8122
▁Pop	-10.8126
▁Far	-10.813
▁corresponding	-10.8131
▁reportedly	-10.8133
▁cells	-10.8134
▁familiar	-10.8139
▁visits	-10.814
her	-10.8144
▁Non	-10.8147
▁prevented	-10.8149
▁het	-10.8163
▁List	-10.8167
▁representing	-10.8168
ology	-10.8178
wi	-10.818
▁crash	-10.8181
▁Wars	-10.8181
▁debt	-10.8186
tal	-10.8186
▁vocal	-10.8188
▁colleagues	-10.8188
▁conclusion	-10.819
▁differ	-10.819
▁instrumental	-10.8191
▁soldier	-10.8195
▁encourage	-10.8195
▁labour	-10.8198
▁motor	-10.8199
▁Nietzsche	-10.8206
▁Scientific	-10.8206
▁Philadelphia	-10.8206
▁treat	-10.8211
▁Works	-10.8211
▁Disney	-10.8211
▁branches	-10.8212
▁Independence	-10.8212
▁dominant	-10.822
▁etc	-10.822
▁politicians	-10.8222
▁Electric	-10.8224
▁renowned	-10.8226
▁stored	-10.8227
▁Hart	-10.8227
▁developments	-10.8228
▁Colonel	-10.8229
▁ministers	-10.8233
uk	-10.8235
▁actors	-10.8236
▁solar	-10.8238
ure	-10.8241
▁wear	-10.8256
▁crossed	-10.8263
▁revolutionary	-10.8264
This	-10.8265
▁driven	-10.8274
▁Woman	-10.8276
▁characterize	-10.8279
▁electrical	-10.828
▁mm	-10.8283
▁Frans	-10.8292
ö	-10.8301
▁channels	-10.8304
tro	-10.8308
▁guide	-10.8309
▁exercise	-10.8319
▁decisive	-10.8324
▁Sound	-10.8329
▁efficient	-10.8329
▁intellectual	-10.833
▁Miami	-10.8333
▁transportation	-10.8335
▁Johannes	-10.8335
▁league	-10.8338
▁Small	-10.8343
▁Defense	-10.8343
▁Defence	-10.8347
▁Broadway	-10.8347
▁lifetime	-10.8347
▁scheduled	-10.8351
▁Energy	-10.8351
▁Wolf	-10.8353
▁seemed	-10.8359
▁lectures	-10.8364
▁Wild	-10.8371
▁certainly	-10.8389
▁apart	-10.8397
▁Son	-10.84
▁foot	-10.8403
▁crossing	-10.8406
sur	-10.8407
▁iron	-10.8414
van	-10.8419
▁Col	-10.8419
▁Model	-10.8431
▁Ber	-10.8432
▁adopt	-10.8438
▁arrive	-10.8439
▁Cha	-10.8449
▁Herman	-10.845
▁eleven	-10.8452
▁peaceful	-10.8452
▁Athenian	-10.8456
”.	-10.8457
▁algebra	-10.8458
▁administer	-10.8461
▁cathedral	-10.8461
▁cemetery	-10.8461
▁crucial	-10.8461
▁prestigious	-10.8461
▁TMF	-10.8461
▁defensive	-10.8461
▁Cultural	-10.8461
▁shipping	-10.8461
▁stake	-10.8463
cy	-10.8463
▁distinction	-10.8463
▁Romania	-10.8465
▁Ball	-10.847
▁ongoing	-10.8473
▁humanitarian	-10.8476
▁Orthodox	-10.8476
▁Oliver	-10.8478
han	-10.8479
▁Sint	-10.848
▁Mont	-10.8481
▁Final	-10.8482
star	-10.8485
▁vision	-10.8486
▁marine	-10.8491
▁sustainable	-10.8493
▁reaching	-10.8493
▁indigenous	-10.8496
▁sisters	-10.8499
▁Universal	-10.85
▁personally	-10.8516
▁Dream	-10.8518
▁convention	-10.8519
▁Days	-10.8519
▁transported	-10.8519
▁Members	-10.852
▁screen	-10.8533
▁offering	-10.8534
▁influences	-10.8536
▁references	-10.8543
▁festivals	-10.8544
allowing	-10.8548
tor	-10.8558
▁premiere	-10.8568
▁universal	-10.8574
▁explosion	-10.8579
▁psychological	-10.858
▁prepare	-10.858
▁euro	-10.8581
▁scientist	-10.8581
rat	-10.8582
▁Manhattan	-10.859
▁fourteen	-10.859
▁maintenance	-10.859
▁pianist	-10.859
▁rural	-10.859
▁Official	-10.8591
▁continuing	-10.8592
let	-10.8592
▁remainder	-10.8593
▁soil	-10.8593
▁Charlie	-10.8594
▁feet	-10.8595
▁manga	-10.8595
▁operator	-10.8596
▁temporarily	-10.8597
▁recruited	-10.8601
▁Century	-10.8606
▁speaking	-10.8613
▁mechanical	-10.8613
▁sailed	-10.8614
▁depicted	-10.8615
▁caus	-10.8617
▁settlements	-10.8618
nes	-10.8621
ig	-10.8624
▁Action	-10.8628
▁standing	-10.863
▁Girl	-10.8635
▁cm	-10.8637
▁Program	-10.8638
▁Bern	-10.8643
fa	-10.8643
▁Skeptics	-10.8645
ā	-10.8645
▁Control	-10.8648
▁signs	-10.8654
ex	-10.8662
▁particles	-10.8665
right	-10.8676
▁Work	-10.8682
▁waiting	-10.8695
▁register	-10.8697
▁audio	-10.8699
my	-10.8702
▁joining	-10.8703
▁jobs	-10.871
▁acquisition	-10.8711
▁Pat	-10.8711
▁terminal	-10.8712
ow	-10.8713
▁amateur	-10.8719
llied	-10.872
.”	-10.8722
▁Chile	-10.8722
▁advertising	-10.8722
▁Executive	-10.8722
▁happy	-10.8722
▁radiation	-10.8722
▁Ohio	-10.8722
▁Friday	-10.8722
▁Donald	-10.8722
▁reconstruction	-10.8723
▁tool	-10.8723
▁Wright	-10.8723
▁tunnel	-10.8723
▁dissolved	-10.8724
▁temperature	-10.8724
▁Bulgaria	-10.8726
▁Bre	-10.8728
ei	-10.8728
▁tend	-10.8732
▁insurance	-10.8733
▁weapon	-10.8734
▁progressive	-10.8734
▁fund	-10.8735
▁rose	-10.8738
▁severely	-10.874
▁politically	-10.8741
▁speakers	-10.8744
▁evil	-10.8745
▁extensively	-10.8747
▁imposed	-10.8747
▁ball	-10.8748
▁succession	-10.8749
Madame	-10.8749
▁adults	-10.8754
▁dependent	-10.8761
▁ABC	-10.8762
▁relatives	-10.8763
▁receives	-10.8767
▁count	-10.8771
har	-10.8784
▁Ju	-10.8785
▁assist	-10.8793
▁Ex	-10.8794
▁Command	-10.8805
bel	-10.8806
▁super	-10.881
▁implement	-10.8819
sche	-10.8833
▁inner	-10.8837
▁continent	-10.8842
▁Pakistan	-10.8842
▁Viking	-10.885
▁cargo	-10.8855
▁colonies	-10.8855
▁opportunities	-10.8855
▁reduction	-10.8855
▁Infantry	-10.8855
▁considerably	-10.8856
▁commentary	-10.8856
▁eighteen	-10.8856
▁completion	-10.8856
▁dimension	-10.8857
▁diverse	-10.8857
▁error	-10.886
▁Medal	-10.8861
▁Estonia	-10.8861
▁Ferdinand	-10.8862
▁biography	-10.8867
▁slowly	-10.8867
▁essentially	-10.8868
ō	-10.887
▁straight	-10.8871
▁Norman	-10.8871
▁Del	-10.8873
▁Adolf	-10.8876
▁producers	-10.8876
od	-10.8878
▁Dead	-10.8878
▁blind	-10.8879
▁latest	-10.8887
ep	-10.8888
▁restrictions	-10.8895
▁server	-10.8898
▁empty	-10.8903
▁Cold	-10.8907
▁Pe	-10.8907
▁priests	-10.8911
▁thesis	-10.8919
▁pp	-10.8925
▁Virginia	-10.8925
▁grant	-10.8927
▁documented	-10.8927
inus	-10.8932
▁infinite	-10.8935
▁Mrs	-10.8936
▁Commissioner	-10.8936
▁MS	-10.8938
▁Philippines	-10.8939
French	-10.894
▁Start	-10.8951
▁Costa	-10.8953
▁Low	-10.8953
▁battles	-10.8954
ara	-10.8955
fer	-10.8957
▁sleep	-10.8958
▁Dam	-10.8963
▁Sub	-10.8974
dy	-10.8976
▁links	-10.8979
▁grain	-10.898
ari	-10.8981
▁fan	-10.8982
▁dialogue	-10.8982
▁Kim	-10.8982
▁danger	-10.8984
▁philosopher	-10.8988
▁confront	-10.8989
▁Las	-10.8989
▁casualties	-10.899
▁geometry	-10.899
▁housing	-10.899
▁gallery	-10.899
▁convicted	-10.8991
▁residential	-10.8991
▁Theater	-10.8991
▁Country	-10.8992
▁favorite	-10.8992
▁Declaration	-10.8993
▁suddenly	-10.8996
▁acknowledged	-10.8996
▁Franz	-10.8999
▁arrives	-10.9003
▁slavery	-10.9003
▁longest	-10.9003
▁Secret	-10.9003
▁reinforcements	-10.9005
▁heat	-10.9006
▁Television	-10.9006
▁Heritage	-10.9006
▁Review	-10.9011
▁bill	-10.9014
▁solid	-10.9019
▁derive	-10.9019
▁chemistry	-10.902
▁Data	-10.9023
▁cited	-10.9027
▁civilians	-10.9028
head	-10.9031
▁Watch	-10.9032
My	-10.9034
▁gender	-10.9035
▁Sch	-10.9041
▁memorial	-10.9053
elle	-10.9056
▁zero	-10.9056
▁phone	-10.906
life	-10.9069
▁Vi	-10.907
▁demo	-10.9081
▁lists	-10.9081
founder	-10.9083
▁Boys	-10.9094
ku	-10.9097
▁employ	-10.9098
▁strengthen	-10.9114
straat	-10.9114
▁aged	-10.9114
▁Hot	-10.9115
▁Lithuania	-10.9118
▁profit	-10.9121
▁Joan	-10.9127
▁Observatory	-10.9127
▁criteria	-10.9127
▁phenomena	-10.9127
▁confusion	-10.9127
▁Metropolitan	-10.9128
▁expelled	-10.9128
▁le	-10.9129
▁correspondence	-10.913
▁Naval	-10.9132
▁Was	-10.9134
▁preserve	-10.9134
▁dancer	-10.9136
ju	-10.9139
▁commented	-10.914
▁promot	-10.9141
▁girlfriend	-10.9144
▁waters	-10.9144
▁inscription	-10.9145
▁closer	-10.9146
▁charts	-10.9154
▁Dick	-10.9159
▁Marc	-10.9162
▁fit	-10.9168
ran	-10.9172
▁forming	-10.9182
▁amounts	-10.9182
▁onto	-10.9184
▁replac	-10.9209
▁hot	-10.9211
▁Har	-10.9215
▁sure	-10.9219
▁teach	-10.9223
▁falls	-10.9228
ret	-10.9228
free	-10.9229
▁Johan	-10.9245
▁precise	-10.9256
▁Val	-10.9259
▁sentence	-10.9262
▁advocate	-10.9263
▁parish	-10.9263
▁preparation	-10.9265
▁mechanism	-10.9265
▁Cathedral	-10.9266
▁Syracuse	-10.9266
▁minimum	-10.9266
▁psychology	-10.9266
▁cancelled	-10.9266
▁caught	-10.9266
▁arose	-10.9267
▁consultant	-10.9267
▁Rio	-10.9269
▁ensemble	-10.927
▁personality	-10.9271
▁condemned	-10.9272
▁Apollo	-10.9274
▁investigated	-10.9276
▁euros	-10.9277
▁Hope	-10.9277
▁Food	-10.9279
▁rarely	-10.9282
▁driving	-10.9283
▁skin	-10.9299
▁{	-10.9304
▁explore	-10.9304
▁Brian	-10.9308
▁experts	-10.9309
▁Express	-10.9309
ors	-10.9314
Ma	-10.9315
▁Camp	-10.9319
▁Blood	-10.9321
▁associations	-10.9322
▁Bur	-10.9335
▁researcher	-10.934
▁relat	-10.9349
▁bed	-10.9353
▁SA	-10.9359
▁hero	-10.9369
▁Ivan	-10.937
▁generations	-10.9372
▁belongs	-10.9386
ney	-10.9388
▁rising	-10.9401
▁Op	-10.9402
▁elite	-10.9404
▁thirteen	-10.9406
▁earthquake	-10.9407
▁Carthage	-10.9407
▁technologies	-10.9407
▁Dewey	-10.9407
▁cattle	-10.9407
▁stating	-10.9407
▁funeral	-10.9408
▁Temple	-10.9408
▁settlers	-10.9408
▁Gerard	-10.9408
▁Codex	-10.9409
▁guilty	-10.9409
▁MTV	-10.9409
▁minority	-10.9409
▁preferred	-10.9411
▁emergency	-10.9411
▁attached	-10.9412
▁dismissed	-10.9413
▁Allies	-10.9414
▁BCE	-10.9414
▁Future	-10.9419
yan	-10.9421
▁Ri	-10.9425
▁Spring	-10.9426
▁tribe	-10.9426
▁Never	-10.9427
▁sum	-10.9429
▁shut	-10.9431
▁relief	-10.9434
▁journalists	-10.9437
▁awareness	-10.9441
▁Dave	-10.9447
▁Rob	-10.9451
state	-10.9452
{	-10.9453
rove	-10.9455
eur	-10.9459
▁Gil	-10.9468
▁arguments	-10.9468
▁Pi	-10.9468
Q	-10.9472
▁shops	-10.948
▁ports	-10.9483
▁grave	-10.9484
▁expeditions	-10.9487
▁Franco	-10.9491
▁appeal	-10.9491
▁discussions	-10.9493
bar	-10.9497
▁Russians	-10.95
=	-10.9515
▁Win	-10.9519
▁attract	-10.9527
level	-10.9528
▁convert	-10.9528
▁boats	-10.9529
▁directors	-10.9529
▁neutral	-10.9533
▁remove	-10.954
▁Fish	-10.9541
▁Latvia	-10.9542
▁comparison	-10.9548
▁Page	-10.9549
▁collective	-10.9549
▁Hamilton	-10.955
▁fifty	-10.955
▁Avenue	-10.955
▁flank	-10.955
▁Nelson	-10.955
▁Aviation	-10.955
▁outbreak	-10.9551
▁stolen	-10.9551
▁Crown	-10.9554
▁erected	-10.9555
▁recommended	-10.9556
▁propaganda	-10.9557
▁Guy	-10.9559
▁fictional	-10.9559
▁Maastricht	-10.9562
▁repeatedly	-10.9563
fi	-10.9563
ev	-10.9563
▁prince	-10.9563
▁finance	-10.9563
▁atmosphere	-10.9563
▁concrete	-10.9567
▁increases	-10.9567
▁dies	-10.9574
To	-10.9576
▁discipline	-10.9578
▁remembered	-10.958
▁Silver	-10.9582
▁variable	-10.9583
cho	-10.9586
▁walk	-10.959
▁hear	-10.9591
ix	-10.9593
ring	-10.9595
▁mines	-10.9596
▁spending	-10.9596
▁Stars	-10.9598
▁thanks	-10.9603
▁flat	-10.9609
▁chapters	-10.9614
▁reviews	-10.9617
▁Mayor	-10.9617
ano	-10.962
▁tasks	-10.9624
ft	-10.9625
▁funded	-10.9633
▁processing	-10.9636
▁investigations	-10.9636
ru	-10.9639
▁looks	-10.9639
▁wave	-10.964
▁explains	-10.964
ans	-10.9644
▁Chamber	-10.9647
use	-10.9649
▁presents	-10.9649
▁foundations	-10.9654
▁united	-10.9655
rum	-10.966
▁drink	-10.9662
▁Ban	-10.9667
▁benefits	-10.9668
▁trials	-10.9675
res	-10.9679
ability	-10.968
▁murders	-10.9688
▁deliver	-10.9688
▁salt	-10.9689
▁argue	-10.969
▁fortress	-10.9691
▁Clinton	-10.9695
▁Protection	-10.9695
▁stability	-10.9695
▁sovereignty	-10.9695
▁Labour	-10.9695
▁gay	-10.9696
▁Frisian	-10.9697
▁protocol	-10.9699
▁gift	-10.97
▁consistent	-10.97
▁appearing	-10.9702
▁Oil	-10.9702
▁Campaign	-10.9702
▁deployed	-10.9703
▁wider	-10.9704
▁fallen	-10.9709
▁Alice	-10.9717
▁Fred	-10.9717
▁meat	-10.9718
▁tourists	-10.9722
▁consequences	-10.9722
▁Bi	-10.973
▁hearing	-10.9732
▁speaker	-10.9734
▁Base	-10.9737
▁contracts	-10.9745
▁activists	-10.975
▁bombing	-10.975
▁Motor	-10.9751
▁speaks	-10.9755
▁conventional	-10.9763
town	-10.9764
▁flowers	-10.9765
▁mill	-10.9765
▁faction	-10.9772
▁rulers	-10.9774
▁starred	-10.9777
▁Bas	-10.9785
▁Mother	-10.9788
▁asking	-10.979
related	-10.9793
▁Get	-10.9793
▁seconds	-10.9793
▁sort	-10.9803
general	-10.9806
▁identify	-10.9807
▁detect	-10.9816
▁rivers	-10.9817
▁beat	-10.982
▁listen	-10.9822
▁loyal	-10.9838
▁Pennsylvania	-10.9842
▁agencies	-10.9842
▁competing	-10.9842
▁describing	-10.9842
▁tribute	-10.9842
▁matrix	-10.9842
▁Austin	-10.9842
▁navy	-10.9842
▁roof	-10.9842
▁romantic	-10.9842
▁reliable	-10.9843
▁behaviour	-10.9845
▁relocated	-10.9845
There	-10.9845
▁skeptical	-10.9848
š	-10.9848
▁interaction	-10.9849
▁Palestine	-10.985
▁catalogue	-10.985
▁faster	-10.9853
▁Nijmegen	-10.9854
▁premiered	-10.9859
▁lieutenant	-10.9859
▁merchants	-10.9862
▁contacts	-10.9863
▁Trans	-10.9867
▁corruption	-10.987
▁Robin	-10.9873
▁Brabant	-10.9874
hour	-10.9878
cal	-10.9878
▁survivors	-10.9879
▁stronger	-10.9884
▁Doctor	-10.9887
▁bears	-10.9899
ize	-10.9903
▁Baby	-10.9903
▁gate	-10.9904
▁Plato	-10.9905
▁Lost	-10.9907
▁Late	-10.9909
well	-10.9914
▁rational	-10.9923
▁Mad	-10.9956
▁eat	-10.9956
▁Mountains	-10.9957
ou	-10.9965
▁styles	-10.9966
▁bound	-10.9968
operation	-10.9968
stein	-10.9973
▁Monte	-10.9973
▁symbols	-10.9984
▁moves	-10.9987
▁Friedrich	-10.999
▁Policy	-10.9991
▁Michel	-10.9991
▁Gallery	-10.9991
▁Spirit	-10.9991
▁Authority	-10.9991
▁Julius	-10.9992
▁Flagler	-10.9992
▁copper	-10.9992
▁Robinson	-10.9992
▁Gulf	-10.9993
▁usage	-10.9993
▁Lincoln	-10.9994
▁wooden	-10.9997
▁corner	-10.9997
▁Racing	-10.9999
▁vessel	-11.0002
ene	-11.0003
▁hunting	-11.0004
▁creative	-11.0004
▁Syrian	-11.0005
▁delayed	-11.0005
▁smallest	-11.0006
▁colors	-11.0007
▁Wilhelm	-11.0008
▁constantly	-11.0008
▁presentation	-11.0009
▁astronomy	-11.0009
▁yellow	-11.0009
▁jury	-11.0009
▁volunteer	-11.0009
▁household	-11.0011
▁partial	-11.0011
▁Lyon	-11.0012
▁Macedonian	-11.0013
SS	-11.0014
▁towers	-11.0017
▁permanently	-11.0021
▁stationed	-11.0028
▁restore	-11.0034
▁depth	-11.0034
ball	-11.0038
▁Nor	-11.0041
▁Lion	-11.0041
ill	-11.0042
light	-11.0042
yl	-11.0055
ning	-11.0056
▁fill	-11.006
ec	-11.006
▁file	-11.0098
▁Bel	-11.0118
New	-11.0128
▁print	-11.0128
▁monks	-11.013
stone	-11.0131
▁enormous	-11.0132
▁Political	-11.0133
▁row	-11.0134
▁investigate	-11.014
▁widow	-11.0141
▁FIFA	-11.0143
▁Nintendo	-11.0143
▁fresh	-11.0143
▁replied	-11.0143
▁ruling	-11.0143
▁flew	-11.0143
▁comprehensive	-11.0143
▁guidance	-11.0143
▁territorial	-11.0143
▁RAF	-11.0144
▁Flight	-11.0145
▁demolished	-11.0145
▁dozen	-11.0145
▁Daily	-11.0147
▁assassination	-11.0148
▁forty	-11.015
▁Giovanni	-11.0151
▁Article	-11.0151
▁adaptation	-11.0152
▁valley	-11.0153
▁neighbor	-11.0154
▁circuit	-11.0155
▁clan	-11.0155
▁monk	-11.0155
▁attraction	-11.0155
▁attitude	-11.0155
▁highway	-11.0159
▁Nation	-11.0159
▁struck	-11.0161
▁inflation	-11.0161
▁inherited	-11.0162
▁Croatian	-11.0163
▁Yugoslavia	-11.0163
▁Field	-11.0165
▁consciousness	-11.0165
▁manufacturers	-11.017
mont	-11.017
▁normally	-11.017
▁Ice	-11.0171
▁Lucas	-11.0172
▁te	-11.0175
▁Isaac	-11.0175
▁successes	-11.0177
▁drinking	-11.0179
▁curve	-11.0191
gives	-11.0201
▁seventh	-11.0201
▁Programme	-11.0206
don	-11.0207
▁Jon	-11.0211
▁columns	-11.0211
▁Say	-11.0217
▁coal	-11.023
▁fewer	-11.024
▁namely	-11.0248
▁Mon	-11.0249
▁earn	-11.0252
▁supporter	-11.0252
▁equations	-11.0255
ada	-11.0257
▁Sol	-11.0266
ong	-11.0277
▁raid	-11.028
▁conservation	-11.0281
▁whil	-11.0281
two	-11.0283
▁marks	-11.0284
language	-11.0285
▁Victor	-11.0287
Russian	-11.0287
that	-11.0292
▁Race	-11.0294
▁locally	-11.0296
▁Anthony	-11.0297
▁coffee	-11.0297
▁aviation	-11.0297
▁entity	-11.0297
▁laboratory	-11.0297
▁immigration	-11.0297
▁Croatia	-11.0297
▁suspended	-11.03
▁Greenland	-11.0301
▁Macedon	-11.0302
▁Independent	-11.0303
▁Staff	-11.0304
▁courses	-11.0304
▁garrison	-11.0308
▁Armenia	-11.0308
▁filed	-11.0308
▁squadron	-11.031
▁arrangement	-11.0311
▁client	-11.0311
▁catch	-11.0312
▁locomotive	-11.0312
▁alcohol	-11.0312
▁aspect	-11.0312
▁Serbia	-11.0313
▁sacred	-11.0315
▁Webb	-11.0315
▁observation	-11.0315
▁Phillips	-11.0315
ata	-11.0318
▁cash	-11.032
▁illustrations	-11.0322
▁Commander	-11.0325
▁ordinary	-11.0325
▁Socialist	-11.0329
▁Gothic	-11.033
▁investors	-11.0332
▁difficulty	-11.0332
▁developer	-11.0335
▁blow	-11.0335
▁unity	-11.0339
▁reflected	-11.034
▁Deutsche	-11.0343
▁GT	-11.0354
▁spin	-11.0366
zen	-11.0391
▁broadcasting	-11.0401
enberg	-11.0403
ip	-11.0405
▁bass	-11.0407
▁turns	-11.0412
▁heads	-11.0414
pro	-11.0418
▁Services	-11.0428
▁Championships	-11.0429
bert	-11.043
▁reject	-11.043
▁debuted	-11.0431
vin	-11.0442
▁Wa	-11.0443
▁intervention	-11.0447
▁congress	-11.0449
▁crown	-11.0451
▁Reich	-11.0451
vis	-11.0453
▁supplement	-11.0453
▁academy	-11.0453
▁peninsula	-11.0453
▁pregnant	-11.0453
▁Michigan	-11.0453
▁accompany	-11.0453
▁boundaries	-11.0453
▁plague	-11.0453
▁penalty	-11.0453
▁Istanbul	-11.0453
▁decorated	-11.0454
▁mandate	-11.0454
▁Malta	-11.0455
▁mysterious	-11.0456
▁manufacturing	-11.0456
▁Nature	-11.0456
▁urged	-11.0457
▁Ye	-11.0458
▁passes	-11.0458
▁dimensions	-11.046
▁Esperanto	-11.0461
▁Frankfurt	-11.0461
▁Hudson	-11.0461
▁updated	-11.0462
▁unlikely	-11.0462
▁humanity	-11.0463
▁transmission	-11.0465
▁pseudonym	-11.0466
▁recalled	-11.047
▁Russell	-11.0471
▁advocated	-11.0474
▁rings	-11.0475
▁DJ	-11.0478
▁demonstrate	-11.0479
ban	-11.048
tz	-11.0481
▁Next	-11.0482
▁Hugo	-11.0482
▁ranks	-11.0483
▁Ram	-11.0485
▁mark	-11.0487
bank	-11.0487
▁centers	-11.0493
▁rain	-11.0498
▁feared	-11.05
▁venture	-11.0502
▁vector	-11.0504
▁Mind	-11.0511
▁disputed	-11.0511
▁interviews	-11.0512
▁symbolic	-11.0512
▁roll	-11.0512
cher	-11.0514
▁limits	-11.0523
▁Kent	-11.0523
▁exceptional	-11.0542
án	-11.0545
▁freely	-11.0546
▁signing	-11.0549
▁archives	-11.0552
▁topic	-11.0553
▁Cat	-11.0561
▁clock	-11.057
▁Nu	-11.0571
▁Azerbaijan	-11.0577
▁Theory	-11.0579
▁variations	-11.0589
▁pioneer	-11.0592
Do	-11.0599
▁Ya	-11.0601
All	-11.0605
profit	-11.0606
▁Ger	-11.061
▁Lloyd	-11.0612
▁survival	-11.0612
▁invitation	-11.0612
▁Oscar	-11.0612
▁citizenship	-11.0612
▁clothes	-11.0613
▁topological	-11.0614
lived	-11.0614
▁reunited	-11.0614
rin	-11.0617
▁welcomed	-11.0618
▁Adams	-11.0618
▁Tsar	-11.062
▁Cologne	-11.062
▁Ancient	-11.0621
▁Morris	-11.0622
▁Again	-11.0623
▁Girls	-11.0624
▁Building	-11.0625
▁Ludwig	-11.0625
▁Regiment	-11.0625
▁dis	-11.0627
▁produces	-11.0628
ens	-11.0628
▁occupy	-11.0631
▁Chairman	-11.0631
▁Challenge	-11.0632
▁civilization	-11.0632
▁improvement	-11.0633
▁superior	-11.0635
▁Earl	-11.0635
▁efficiency	-11.0636
▁equality	-11.0639
▁deals	-11.0639
tes	-11.0639
▁telling	-11.064
▁Houston	-11.0641
▁window	-11.0651
▁Berg	-11.0654
mark	-11.0655
▁proclaimed	-11.066
▁reporter	-11.0661
▁hop	-11.0679
▁Mass	-11.0694
▁proportion	-11.0696
▁Kings	-11.0705
bra	-11.0708
▁Tan	-11.0708
▁wins	-11.0714
cus	-11.0714
▁cult	-11.0721
rie	-11.0723
llegedly	-11.0729
▁essays	-11.0737
▁detail	-11.0739
▁add	-11.074
▁dry	-11.0744
▁auction	-11.0747
▁abandon	-11.0751
▁Kara	-11.0751
ska	-11.0753
TV	-11.0755
▁Th	-11.0759
ub	-11.076
▁Ter	-11.0762
▁undertook	-11.0767
▁crowd	-11.0768
▁Darwin	-11.0772
▁Hendrik	-11.0773
▁Ernst	-11.0773
▁Toronto	-11.0773
▁Hawaii	-11.0773
▁diversity	-11.0773
▁Stanley	-11.0773
▁correspondent	-11.0773
▁confused	-11.0774
▁Trust	-11.0774
▁revised	-11.0775
▁canal	-11.0777
▁Gaul	-11.0777
▁Johann	-11.0777
▁tourism	-11.0781
▁resumed	-11.0781
▁divorced	-11.0783
▁sung	-11.0785
▁scholar	-11.0786
▁fairly	-11.0787
▁Computer	-11.0787
▁grandson	-11.0788
▁artificial	-11.0793
▁peoples	-11.0795
▁variation	-11.0795
▁colleague	-11.0796
▁opponent	-11.0796
▁Aires	-11.0798
▁sand	-11.0798
▁designation	-11.0799
▁innovative	-11.0803
▁Afterwards	-11.0805
▁findings	-11.0806
▁soft	-11.0812
gu	-11.0815
▁impression	-11.0817
▁monthly	-11.0817
▁colours	-11.0821
▁plus	-11.0825
▁sponsored	-11.0828
ff	-11.0829
▁descendants	-11.083
kan	-11.0831
▁controls	-11.0833
▁Wind	-11.0846
▁Note	-11.0848
▁logical	-11.0849
▁Ed	-11.0852
oni	-11.0856
▁parks	-11.0858
eg	-11.0859
▁Nine	-11.086
▁Born	-11.0862
▁Klein	-11.0883
▁Faith	-11.0892
▁improv	-11.0894
ä	-11.0906
▁facilitate	-11.0906
▁Tunisia	-11.0907
▁improvements	-11.0917
▁sciences	-11.0917
▁clients	-11.0921
▁ally	-11.0932
▁Harvard	-11.0937
▁Stirner	-11.0937
▁furniture	-11.0937
▁sequel	-11.0937
▁supplied	-11.0937
▁abbey	-11.0937
On	-11.0937
▁Cohen	-11.0937
▁Stalin	-11.0937
▁forbidden	-11.0937
▁hypothesis	-11.0938
▁Danny	-11.0938
▁Hardy	-11.0944
▁besieged	-11.0945
▁Lawrence	-11.0945
▁beach	-11.0947
▁edge	-11.0949
founded	-11.095
▁competitive	-11.095
▁belong	-11.095
▁moderate	-11.0951
▁complicated	-11.0952
▁autobiography	-11.0953
▁compile	-11.0954
making	-11.0954
▁petition	-11.0955
▁punishment	-11.0956
▁Matthew	-11.0956
▁systematic	-11.0957
▁Left	-11.0958
▁neighborhood	-11.0959
▁deeply	-11.096
▁PC	-11.0961
▁celebration	-11.0961
▁transformation	-11.0963
▁pairs	-11.0969
▁lie	-11.097
▁guests	-11.0972
▁exported	-11.0973
▁unlike	-11.0974
▁Chechen	-11.0975
▁indicates	-11.0976
▁sequence	-11.0978
ette	-11.0979
▁Hermann	-11.098
▁brigade	-11.0986
mp	-11.0988
▁Ab	-11.0989
▁Gro	-11.099
▁stones	-11.0994
▁adding	-11.0997
pen	-11.1001
ert	-11.1004
▁Season	-11.1009
eau	-11.1015
ative	-11.1018
dom	-11.1021
book	-11.1021
lan	-11.1023
▁coin	-11.1024
▁Nord	-11.1025
▁Gar	-11.1029
▁Mill	-11.1031
▁construct	-11.1039
▁programmes	-11.1045
▁interesting	-11.1049
▁Stan	-11.105
▁temples	-11.1053
tta	-11.1055
▁movies	-11.1064
▁Yo	-11.1073
▁Pu	-11.1074
▁desert	-11.1077
▁touring	-11.1083
▁scandal	-11.1087
▁remember	-11.1087
▁phrase	-11.1088
For	-11.1088
▁photos	-11.1088
Don	-11.109
▁accurate	-11.1094
▁AG	-11.1099
▁Hugh	-11.1101
▁Commonwealth	-11.1103
▁Twitter	-11.1103
▁abilities	-11.1103
▁emerging	-11.1103
▁Administration	-11.1104
▁afternoon	-11.1104
▁separation	-11.1104
▁Abbey	-11.1104
▁Carolina	-11.1104
▁Murray	-11.1104
▁Prague	-11.1104
▁myself	-11.1104
▁Patrick	-11.1104
▁Harold	-11.1105
shi	-11.1105
▁Christopher	-11.1105
▁Alexandria	-11.1105
▁Agreement	-11.1107
▁perceived	-11.1107
▁mentor	-11.1107
▁criticised	-11.1108
everal	-11.1108
▁Boeing	-11.1112
▁Douglas	-11.1112
▁Euler	-11.1112
▁Bueno	-11.1113
▁Bos	-11.1117
▁mainland	-11.112
▁quoted	-11.1122
▁Ash	-11.1122
▁André	-11.1124
▁Kane	-11.1125
▁delegation	-11.1127
▁Soul	-11.1128
▁Capital	-11.1128
▁destination	-11.113
▁counted	-11.1131
▁helicopter	-11.1131
▁Books	-11.1131
▁farms	-11.1134
▁wished	-11.1136
▁Peru	-11.1136
▁Villa	-11.1139
▁touch	-11.1145
▁revenue	-11.1145
▁Moroccan	-11.115
page	-11.1163
▁ballet	-11.1164
▁hence	-11.1167
▁combine	-11.1182
▁Nova	-11.1185
▁judges	-11.1185
▁Bal	-11.119
▁Yu	-11.1191
▁linguistic	-11.1192
lying	-11.1199
▁seeing	-11.1203
▁estimates	-11.1209
▁submarine	-11.1219
az	-11.1219
▁objectives	-11.1222
▁fighter	-11.1223
▁Let	-11.1232
bach	-11.1243
▁Prussia	-11.1264
▁violin	-11.127
ons	-11.1273
▁Roosevelt	-11.1273
▁faculty	-11.1273
▁warfare	-11.1273
▁bronze	-11.1273
▁maritime	-11.1273
▁Exchange	-11.1273
▁imprisonment	-11.1273
▁Laboratory	-11.1273
▁significance	-11.1273
▁intense	-11.1273
▁Manchester	-11.1273
▁Barbara	-11.1273
▁Sierra	-11.1273
▁autonomy	-11.1273
▁hardware	-11.1273
▁Interior	-11.1273
▁propose	-11.1274
▁Bobby	-11.1275
▁dying	-11.1275
▁Sarah	-11.1275
▁outstanding	-11.1276
▁Against	-11.1276
▁Luke	-11.1276
▁disbanded	-11.1277
▁dancers	-11.1278
▁respective	-11.128
▁explicitly	-11.1281
▁Vladimir	-11.1282
▁Beijing	-11.1282
▁sheep	-11.1287
▁Scandinavian	-11.1288
sis	-11.1288
▁withdrawn	-11.1289
▁exiled	-11.1291
ag	-11.1294
uf	-11.1295
▁shooting	-11.1297
▁harbour	-11.1298
▁closure	-11.1299
▁feminist	-11.1299
▁dialect	-11.1299
▁strengthened	-11.1299
▁renovation	-11.1301
▁assume	-11.1302
▁enterprise	-11.1303
▁ritual	-11.1303
▁specimen	-11.1304
▁Barry	-11.1304
▁Kar	-11.1306
▁voting	-11.1308
▁sword	-11.1309
▁instruction	-11.131
more	-11.1311
▁Examples	-11.1311
▁Cal	-11.1314
▁ruins	-11.1314
▁pattern	-11.1318
▁wild	-11.132
▁wearing	-11.132
master	-11.1324
▁Augustus	-11.1334
▁operas	-11.1336
▁Para	-11.1339
▁conducting	-11.134
▁Right	-11.1342
▁Others	-11.1344
▁Blues	-11.1346
▁Nederlands	-11.1351
▁Min	-11.1351
▁Ham	-11.1353
zo	-11.1354
▁legions	-11.1354
▁warning	-11.1355
bu	-11.1356
▁communications	-11.1356
our	-11.1356
ane	-11.1358
form	-11.1361
▁consul	-11.1362
▁proposals	-11.1364
▁Ga	-11.1367
▁fragments	-11.137
▁Virgin	-11.1371
nik	-11.1379
▁Dar	-11.138
▁releases	-11.1381
▁Os	-11.1384
▁Bart	-11.1386
▁CO	-11.1387
ique	-11.1388
▁Im	-11.1394
tion	-11.1395
▁bird	-11.1395
▁Storm	-11.1396
▁pointed	-11.1399
▁specimens	-11.1414
Le	-11.1416
▁Allen	-11.1417
▁architects	-11.142
▁confirm	-11.1423
sy	-11.1426
▁Fe	-11.1426
▁guarantee	-11.1435
Re	-11.1441
▁Babylon	-11.1442
type	-11.1442
ó	-11.1442
▁Chechnya	-11.1445
▁Stewart	-11.1445
▁archaeological	-11.1445
▁choir	-11.1445
▁Pinkerton	-11.1445
▁Arrow	-11.1446
▁Orania	-11.1446
▁boundary	-11.1446
▁tennis	-11.1446
▁distinctive	-11.1447
▁overcome	-11.1447
▁lasting	-11.1447
▁Any	-11.1448
▁Competition	-11.1449
▁sounds	-11.1449
real	-11.1451
▁leg	-11.1451
▁advised	-11.1451
▁withdrawal	-11.1451
▁arriving	-11.1452
▁Saturday	-11.1454
▁Pokémon	-11.1454
▁Caroline	-11.1455
▁noticed	-11.1457
▁resolved	-11.1458
▁Estonian	-11.1458
▁Glasgow	-11.146
▁Circle	-11.146
▁pursued	-11.1461
made	-11.1462
▁relate	-11.1463
▁freight	-11.1465
▁trouble	-11.1467
▁guilders	-11.1467
▁symptoms	-11.1467
▁mistake	-11.1471
▁twentieth	-11.1472
▁abuse	-11.1473
back	-11.1473
ew	-11.1474
▁Olympics	-11.1475
▁Dis	-11.1476
▁Celtic	-11.1477
▁sample	-11.1479
▁rocket	-11.1481
▁Cuban	-11.1482
▁cards	-11.1482
▁Fa	-11.1487
▁Vegas	-11.1489
▁publishe	-11.1491
El	-11.1492
▁chamber	-11.1492
▁Gate	-11.1495
ef	-11.1495
▁Mario	-11.1496
▁populations	-11.1499
▁passing	-11.1504
▁patient	-11.1507
▁circles	-11.1509
▁shorter	-11.1518
▁gap	-11.1519
gan	-11.1521
▁Nam	-11.1522
▁Friends	-11.1526
▁drivers	-11.1534
specially	-11.1543
then	-11.1557
ide	-11.1561
Al	-11.1566
ona	-11.1573
▁Ti	-11.1576
▁Carlos	-11.1578
▁complet	-11.158
iv	-11.158
▁escort	-11.1585
▁Amber	-11.1589
▁paint	-11.1593
▁Sal	-11.1597
iel	-11.1598
▁mix	-11.16
▁degrees	-11.1603
work	-11.1606
coined	-11.1607
▁Hard	-11.1608
▁mutual	-11.1611
▁Marshal	-11.162
▁Fellow	-11.1621
▁Deputy	-11.1621
▁Lisbon	-11.1621
▁Muhammad	-11.1621
▁Naples	-11.1621
▁Philosophy	-11.1621
▁für	-11.1621
▁ministry	-11.1621
▁monetary	-11.1621
▁injuries	-11.1621
▁continuation	-11.1621
▁liberation	-11.1621
▁Liberty	-11.1621
▁supervision	-11.1621
▁Expedition	-11.1621
▁sugar	-11.1621
▁resignation	-11.1622
▁meantime	-11.1623
▁impressed	-11.1623
▁emigrated	-11.1624
▁Village	-11.1624
quantum	-11.1626
▁renewed	-11.1626
▁Puert	-11.1626
was	-11.1627
▁recovery	-11.1628
▁Edinburgh	-11.163
▁uncertain	-11.1631
▁Sultan	-11.1635
▁Thompson	-11.1636
▁Linux	-11.1636
▁Chapter	-11.1636
▁compact	-11.1636
▁technological	-11.1636
▁proven	-11.1638
▁Evans	-11.1639
atomic	-11.1639
▁reactions	-11.1641
▁grandmother	-11.1642
▁Industrial	-11.1642
▁Riemann	-11.1647
▁Apart	-11.1647
▁exposed	-11.1648
oc	-11.1649
▁persecution	-11.165
▁Serbian	-11.165
▁resort	-11.1651
▁moon	-11.1653
▁deem	-11.1653
▁interface	-11.1654
▁Atheist	-11.1654
released	-11.1655
Be	-11.1655
▁Honor	-11.1655
party	-11.1657
var	-11.1658
▁notice	-11.1661
▁Language	-11.167
▁Ryan	-11.1671
ula	-11.1671
org	-11.1675
▁Claude	-11.1677
▁migration	-11.1677
▁staged	-11.168
▁Ru	-11.1682
▁tenth	-11.1686
▁readers	-11.1688
▁quit	-11.1691
▁gardens	-11.1693
▁refuses	-11.1694
▁possess	-11.1696
▁labels	-11.1697
▁sculpture	-11.1699
can	-11.1709
tied	-11.1719
▁Lithuanian	-11.1727
nic	-11.1729
▁serial	-11.1732
▁tape	-11.1736
▁Leon	-11.1737
▁gene	-11.1737
ero	-11.1739
▁wait	-11.1744
▁banking	-11.1748
ions	-11.1751
▁Colombia	-11.1752
▁sends	-11.1761
▁travels	-11.1768
▁opinions	-11.1769
▁posted	-11.1771
Men	-11.1785
▁remote	-11.1789
▁fierce	-11.1796
▁Archbishop	-11.1797
▁Protocol	-11.1799
▁Thirty	-11.1799
▁compensation	-11.1799
▁inaugurated	-11.18
▁Cairo	-11.18
▁hostile	-11.18
▁managing	-11.18
▁Study	-11.18
▁Jerry	-11.18
▁Blake	-11.1801
▁adoption	-11.1801
▁nobility	-11.1802
▁honorary	-11.1802
▁Chess	-11.1802
▁Nicholas	-11.1803
▁Felix	-11.1809
▁ignored	-11.1809
▁patrol	-11.1811
▁graphic	-11.1811
▁Former	-11.1811
▁Snow	-11.1811
▁ahead	-11.1811
▁resemble	-11.1813
▁invaded	-11.1814
▁modular	-11.1815
▁Solomon	-11.1815
▁remarkable	-11.1815
▁comparable	-11.1815
▁IBM	-11.1818
▁challenged	-11.1819
▁Bruce	-11.1821
▁keeping	-11.1824
▁cat	-11.1824
▁Newton	-11.1826
▁discrimination	-11.1827
▁religions	-11.1827
▁rescued	-11.1827
▁giant	-11.1834
▁heaven	-11.1838
▁holiday	-11.1838
▁essay	-11.1839
▁uprising	-11.1839
▁se	-11.1839
▁necessarily	-11.1839
▁Unit	-11.1839
▁resident	-11.184
lly	-11.1841
▁doctrine	-11.1841
written	-11.1841
▁Fall	-11.1842
Co	-11.1852
▁Ke	-11.1855
went	-11.186
▁creates	-11.1864
▁reserves	-11.1865
▁bones	-11.1866
iz	-11.1868
rock	-11.1872
▁pope	-11.1873
▁Helen	-11.1874
▁Side	-11.188
▁Mann	-11.1885
▁DC	-11.1889
▁museums	-11.189
▁questioned	-11.1898
▁VII	-11.1901
port	-11.1905
▁communicate	-11.1907
hof	-11.1909
▁zones	-11.1917
▁engineers	-11.1919
ator	-11.1926
▁Angola	-11.1929
..."	-11.1931
▁withdraw	-11.1931
▁Par	-11.1936
▁blog	-11.1937
▁Catholics	-11.1938
▁clean	-11.1957
▁smoke	-11.1957
▁draft	-11.1961
▁Via	-11.1961
▁Gi	-11.1962
▁cooperate	-11.1964
tje	-11.1965
ux	-11.1966
▁Technical	-11.1971
▁Wi	-11.1971
▁Bosnia	-11.1972
▁divorce	-11.1972
tis	-11.1976
chief	-11.1978
▁quick	-11.198
▁Liverpool	-11.1981
▁Strasbourg	-11.1981
▁preparing	-11.1981
▁synthesis	-11.1981
▁Reserve	-11.1981
▁Stadium	-11.1981
▁breakthrough	-11.1981
▁meningitis	-11.1981
▁closing	-11.1981
▁motto	-11.1981
▁Joint	-11.1982
▁USSR	-11.1982
▁Gregory	-11.1983
▁Mobile	-11.1983
▁permitted	-11.1984
▁Upper	-11.1985
▁Massachusetts	-11.1985
▁Ptolemy	-11.1985
▁freed	-11.1987
▁Engineering	-11.199
▁Dresden	-11.1991
▁libraries	-11.1991
▁Software	-11.1991
▁Arnold	-11.1991
▁teachings	-11.1992
▁Steel	-11.1995
▁Collins	-11.1996
▁Junior	-11.1997
▁governed	-11.2
▁encounter	-11.2001
▁suspect	-11.2002
▁Potter	-11.2004
▁Route	-11.2005
▁Erik	-11.2005
▁Hebrew	-11.2011
▁package	-11.2013
▁nephew	-11.2018
▁fortifications	-11.2019
▁secretly	-11.202
▁fruit	-11.2021
▁outcome	-11.2023
▁acid	-11.2024
An	-11.2024
▁dress	-11.2025
▁mi	-11.2026
▁Dog	-11.2027
▁Nero	-11.2032
▁Kal	-11.2033
mans	-11.2035
▁valid	-11.2036
▁examined	-11.2036
▁Place	-11.2038
▁terrorist	-11.2039
▁punk	-11.2039
▁grid	-11.204
▁separately	-11.2042
▁Zo	-11.205
▁Region	-11.205
▁fort	-11.205
▁restricted	-11.2052
▁Mol	-11.206
▁Thai	-11.2062
▁organisms	-11.2063
▁sight	-11.2064
▁net	-11.2065
▁naturally	-11.2065
▁regiment	-11.2066
▁settle	-11.207
▁variants	-11.2074
▁travelling	-11.2075
▁string	-11.2076
▁blocks	-11.2077
▁feeling	-11.2081
▁tru	-11.209
▁Va	-11.2095
▁Au	-11.2096
▁adapt	-11.2097
some	-11.2098
▁een	-11.2099
TA	-11.2106
▁maintains	-11.2109
ries	-11.2126
Or	-11.2137
ische	-11.2148
▁Neu	-11.2155
king	-11.2156
▁Persia	-11.216
▁Auto	-11.216
▁push	-11.2161
bre	-11.2162
▁Campbell	-11.2166
▁Wrestling	-11.2166
▁excellent	-11.2166
▁welfare	-11.2166
▁quantities	-11.2166
▁varieties	-11.2166
▁fraud	-11.2166
▁paranormal	-11.2166
▁conversion	-11.2167
▁Obama	-11.2167
▁bulk	-11.2167
▁Beatles	-11.2167
▁dramatic	-11.2167
ü	-11.2167
▁Diego	-11.2168
▁Terry	-11.2168
▁Glen	-11.2169
▁Marshall	-11.2171
▁lowest	-11.2172
▁Environment	-11.2176
▁Curaçao	-11.2176
▁horror	-11.2176
▁delivery	-11.2176
▁reaches	-11.2179
▁regardless	-11.218
▁campus	-11.2181
▁collapsed	-11.2182
▁Jason	-11.2183
▁princes	-11.2191
▁Nordic	-11.2192
▁skill	-11.2194
▁utility	-11.2196
▁kills	-11.2197
▁decree	-11.2198
▁shock	-11.2199
▁equally	-11.2199
▁expectations	-11.2203
▁Voice	-11.2209
▁creator	-11.2209
▁Tiger	-11.2209
▁Organisation	-11.221
▁uniform	-11.2211
▁Heaven	-11.2214
▁hotels	-11.222
illa	-11.2223
Love	-11.2224
▁tea	-11.2224
▁feed	-11.2224
▁seeks	-11.2226
▁flags	-11.2228
enburg	-11.2229
▁Sometimes	-11.2232
▁poly	-11.2233
▁jointly	-11.2233
▁animation	-11.2237
▁presenter	-11.2238
onic	-11.2241
ala	-11.2245
One	-11.2245
▁competitions	-11.2246
ack	-11.2247
ile	-11.2247
FM	-11.2248
ging	-11.225
af	-11.2255
▁Representatives	-11.2257
▁enabl	-11.226
tte	-11.2265
una	-11.2267
▁Zoo	-11.227
orum	-11.2271
Me	-11.2271
▁Za	-11.2274
▁ride	-11.2277
▁Phil	-11.2278
saw	-11.228
din	-11.2281
ema	-11.2281
▁bond	-11.2282
▁Gas	-11.2286
isch	-11.2288
ians	-11.2297
▁Carlo	-11.23
til	-11.2301
▁jump	-11.2302
▁Angel	-11.2306
nis	-11.2315
acent	-11.2316
▁na	-11.2329
▁Julia	-11.2336
sson	-11.2337
▁targets	-11.2341
St	-11.2344
▁Batavia	-11.2345
▁geographical	-11.2349
▁Take	-11.2349
▁goddess	-11.2351
▁virus	-11.2351
▁numbered	-11.2352
▁Ian	-11.2352
zer	-11.2354
▁UNESCO	-11.2355
presumably	-11.2355
▁Beethoven	-11.2355
▁Rudolf	-11.2355
▁ambitious	-11.2355
▁consecutive	-11.2355
▁Ajax	-11.2355
▁victories	-11.2355
▁industries	-11.2355
▁conquer	-11.2356
▁fever	-11.2356
▁Devil	-11.2357
▁commemorate	-11.2357
▁Nazis	-11.2358
▁priority	-11.2358
▁ties	-11.2359
▁Subsequently	-11.236
▁inhabited	-11.2361
▁hiding	-11.2365
▁negotiated	-11.2365
▁Pieter	-11.2369
▁surprised	-11.2372
▁strictly	-11.2373
▁businessman	-11.2374
▁Manuel	-11.2375
▁Eight	-11.2377
▁conferences	-11.2377
▁animated	-11.238
▁symmetry	-11.2382
▁Video	-11.2384
▁Oslo	-11.2384
▁invested	-11.2385
▁manufacture	-11.2385
▁Dean	-11.239
▁adj	-11.2393
▁Productions	-11.2394
▁option	-11.2399
▁infection	-11.2402
ida	-11.2403
▁Ever	-11.2403
▁autonomous	-11.2405
▁equation	-11.2406
▁achievement	-11.2407
▁risks	-11.2413
▁rear	-11.2415
▁Dragon	-11.2417
▁Bond	-11.2419
heim	-11.242
▁farming	-11.2426
▁Yet	-11.2428
▁Germanic	-11.2431
▁Main	-11.2432
ale	-11.2433
▁mouth	-11.2435
▁financed	-11.2436
▁Baron	-11.2438
ella	-11.2438
new	-11.2441
ato	-11.2445
ification	-11.2445
▁translations	-11.2451
▁usual	-11.2452
▁organs	-11.2455
▁plates	-11.2455
▁examine	-11.2459
▁Susan	-11.2469
ich	-11.2471
▁tensions	-11.2471
▁duet	-11.2477
▁possessions	-11.249
▁Zone	-11.2499
▁feelings	-11.2502
▁graphics	-11.2505
▁Hi	-11.2507
▁monuments	-11.2512
▁Rhine	-11.2515
▁custom	-11.2515
▁literally	-11.2516
vol	-11.2519
low	-11.2521
▁Sp	-11.2521
▁expect	-11.2525
▁jail	-11.2526
▁hosts	-11.2531
▁Magic	-11.2535
▁pain	-11.2536
tive	-11.2538
▁reverse	-11.2538
▁compromise	-11.2541
▁Cooper	-11.2546
▁Taiwan	-11.2547
▁Universe	-11.2547
▁Sydney	-11.2547
▁guidelines	-11.2547
▁Agriculture	-11.2547
▁telephone	-11.2547
▁asylum	-11.2547
▁mercenaries	-11.2547
▁Suzuki	-11.2547
▁investigating	-11.2548
▁pollution	-11.2548
▁presidency	-11.2548
▁easier	-11.2548
▁anthem	-11.2548
▁Creek	-11.2548
▁reception	-11.2548
▁Tennessee	-11.2548
▁optical	-11.2548
▁Watson	-11.2548
▁ecological	-11.2548
▁Stock	-11.2549
▁implies	-11.2549
▁chess	-11.255
▁enlarged	-11.255
▁LP	-11.2551
▁inscriptions	-11.2551
▁dealing	-11.2552
▁culminat	-11.2553
hy	-11.2554
▁wishes	-11.2554
▁Stein	-11.2554
▁ver	-11.2555
▁evacuated	-11.2556
▁Lebanon	-11.2557
▁Aristotle	-11.2557
▁extraordinary	-11.2557
▁Vincent	-11.2557
▁Why	-11.2558
ins	-11.2558
▁Gustav	-11.2559
▁Masters	-11.256
▁snow	-11.2561
▁Roy	-11.2565
▁reserved	-11.2569
▁Singapore	-11.257
▁CBS	-11.2572
▁magnetic	-11.2575
▁dissertation	-11.2577
▁Abu	-11.2579
▁Ur	-11.2579
ranging	-11.258
▁comprises	-11.2581
▁divine	-11.2583
▁retreated	-11.2584
lon	-11.2587
▁Latvian	-11.2587
▁frame	-11.2588
▁feels	-11.2594
▁courts	-11.2595
▁masters	-11.2595
▁Hav	-11.2595
▁zoo	-11.2598
▁plastic	-11.2598
▁decoration	-11.2599
▁installation	-11.2601
kar	-11.2605
▁Venetian	-11.2607
▁sharing	-11.2609
▁Down	-11.2613
▁commercially	-11.2615
length	-11.2618
about	-11.2619
▁Europa	-11.263
▁belonging	-11.2639
▁elder	-11.2642
▁dollars	-11.2643
▁Spartan	-11.2644
▁witch	-11.2645
▁gathering	-11.2646
▁Wat	-11.2651
▁payment	-11.2653
▁Justin	-11.2654
▁Fun	-11.2662
▁workshops	-11.2663
▁centres	-11.2665
▁Ann	-11.2666
▁measurements	-11.2666
▁sky	-11.2668
bol	-11.2674
▁missiles	-11.2674
▁wings	-11.2674
▁disc	-11.2679
▁Carthaginians	-11.268
▁economists	-11.268
▁happen	-11.2685
▁theology	-11.2691
ell	-11.2691
gy	-11.2695
▁patterns	-11.2708
arch	-11.2712
▁initiatives	-11.2716
▁shelter	-11.2722
und	-11.2727
▁negotiate	-11.2733
▁explicit	-11.2734
▁Bus	-11.2735
pproximately	-11.2736
▁mail	-11.2738
▁praise	-11.2739
ita	-11.274
▁repair	-11.2743
▁Mercedes	-11.2743
▁Peninsula	-11.2743
▁conspiracy	-11.2743
▁embassy	-11.2743
▁spectrum	-11.2743
▁Heinrich	-11.2743
▁legislative	-11.2744
▁Cartman	-11.2744
▁Ridge	-11.2744
▁quantity	-11.2744
▁Raymond	-11.2744
▁Airways	-11.2744
▁irrigation	-11.2744
▁FBI	-11.2744
▁Volvo	-11.2744
▁Outside	-11.2745
▁generals	-11.2745
▁Argentine	-11.2745
▁Franklin	-11.2745
▁fastest	-11.2746
▁forests	-11.2746
▁Constantine	-11.2746
tus	-11.2746
▁Minor	-11.2747
▁renovated	-11.2747
▁holy	-11.2747
▁passion	-11.2747
▁automatically	-11.2748
▁Lisa	-11.2749
▁Baker	-11.2749
owed	-11.275
▁Walker	-11.2751
▁metric	-11.2753
▁spelling	-11.2753
▁Neo	-11.2756
▁Kon	-11.2756
tone	-11.2758
▁Baghdad	-11.276
▁Truth	-11.2763
pan	-11.2764
▁predicted	-11.2764
▁Turks	-11.2767
▁Ghost	-11.2768
▁guards	-11.2771
▁possessed	-11.2772
▁explored	-11.2772
▁monarch	-11.2773
▁Fine	-11.2774
▁Bou	-11.2778
▁exhibit	-11.2779
▁fortified	-11.2787
▁sacrifice	-11.2787
▁organize	-11.2788
▁Crusade	-11.2794
▁integral	-11.2794
▁physically	-11.2795
iya	-11.2796
▁René	-11.2796
▁sings	-11.2797
▁textile	-11.2799
▁signature	-11.2799
▁Champion	-11.2801
▁innovation	-11.2801
▁Classic	-11.2801
▁spot	-11.2803
▁Planet	-11.2803
▁requirement	-11.2805
▁prayer	-11.2805
ence	-11.2809
zy	-11.2813
▁legally	-11.2815
▁doors	-11.2822
▁privileges	-11.2823
▁crops	-11.2824
▁admit	-11.2826
five	-11.2829
▁Knight	-11.2829
Best	-11.2834
▁landscapes	-11.2841
▁Expo	-11.2841
pri	-11.2842
▁disputes	-11.2859
▁Luc	-11.2865
▁sat	-11.2873
west	-11.2875
world	-11.2879
▁studios	-11.2879
rit	-11.288
▁provision	-11.2882
▁select	-11.2885
▁Mal	-11.2885
▁customs	-11.2888
▁regiments	-11.2896
▁lover	-11.2903
▁Char	-11.2906
▁pilots	-11.2921
▁refuge	-11.2925
pel	-11.2925
▁torture	-11.2933
▁sixteen	-11.2935
▁recover	-11.2935
▁strange	-11.294
▁rape	-11.2941
▁heir	-11.2942
▁commit	-11.2942
▁Know	-11.2943
▁Cemetery	-11.2943
▁Jupiter	-11.2943
▁depression	-11.2943
▁podcast	-11.2943
▁Melbourne	-11.2944
▁obesity	-11.2944
▁consensus	-11.2944
ward	-11.2944
▁Limburg	-11.2944
▁Trophy	-11.2944
▁exploration	-11.2945
▁Delft	-11.2945
▁factories	-11.2945
▁Kr	-11.2945
▁Carter	-11.2946
▁discontinued	-11.2946
▁Quartet	-11.2946
▁sick	-11.2947
▁resolve	-11.2948
▁reopened	-11.2949
▁undertaken	-11.2949
▁Warren	-11.295
▁upgraded	-11.2951
organizing	-11.2951
under	-11.2955
▁noise	-11.2955
▁broader	-11.2956
▁interrupted	-11.2956
▁operators	-11.2959
▁eliminated	-11.2959
ua	-11.296
▁dancing	-11.2961
▁burning	-11.2962
▁pour	-11.2962
▁\	-11.2962
▁Lang	-11.2964
▁nineteenth	-11.2965
▁Marcus	-11.2965
▁yield	-11.2967
▁Digital	-11.2967
▁corporate	-11.2968
▁commanders	-11.2968
▁voters	-11.2969
▁Deep	-11.2972
▁detected	-11.2973
▁Fourth	-11.2974
▁Elvis	-11.2975
▁canon	-11.2981
▁marketed	-11.2983
▁oxygen	-11.2988
▁Flag	-11.2988
▁Baden	-11.2989
ele	-11.299
▁Miles	-11.2991
▁procedures	-11.2991
ado	-11.2993
US	-11.2997
▁railroad	-11.3003
▁physician	-11.3003
▁vampire	-11.3004
▁commitment	-11.3004
▁fossil	-11.3005
▁mathematician	-11.3006
▁rotation	-11.3006
▁assets	-11.3009
▁worker	-11.301
ste	-11.3018
itz	-11.302
▁Collection	-11.3025
*	-11.3026
elo	-11.3027
▁surfaces	-11.3032
▁tale	-11.3041
▁voiced	-11.3042
▁Cook	-11.3051
▁predict	-11.3052
▁protein	-11.3057
dis	-11.3063
des	-11.3064
are	-11.3064
board	-11.3087
▁publishers	-11.3087
human	-11.3091
▁Ser	-11.31
▁millions	-11.3101
sized	-11.3105
▁blues	-11.311
▁instructions	-11.3111
▁steal	-11.3113
▁arise	-11.3116
hr	-11.3116
stad	-11.3121
▁fighters	-11.3121
▁kinds	-11.3122
▁Arabs	-11.3124
▁cinema	-11.3127
▁faces	-11.3128
ating	-11.3131
lle	-11.3132
▁sovereign	-11.3147
lláh	-11.3148
▁Caucasus	-11.3148
▁Madagascar	-11.3148
▁Memphis	-11.3148
▁Missouri	-11.3148
▁Nepal	-11.3148
▁Thousand	-11.3148
▁syndrome	-11.3148
▁varied	-11.3148
▁BMW	-11.3148
▁deputy	-11.3148
▁Ahmad	-11.3148
▁entities	-11.3148
▁salary	-11.3148
▁harsh	-11.3148
▁Benjamin	-11.3148
▁consortium	-11.3148
▁teeth	-11.3148
▁Finance	-11.3148
▁Hilbert	-11.3148
▁Larry	-11.3148
▁Graham	-11.3148
▁Sha	-11.3148
▁northeast	-11.3148
▁doctors	-11.3149
▁Limited	-11.3151
▁Factory	-11.3151
▁Shakespeare	-11.3151
▁Ernest	-11.3155
▁neo	-11.3157
▁recurr	-11.3158
▁declaration	-11.3158
▁Colorado	-11.3158
▁Lex	-11.316
▁Train	-11.316
▁asthma	-11.316
▁hide	-11.3163
▁exclusive	-11.3163
▁Mel	-11.3163
▁Pascal	-11.3163
▁Bor	-11.3165
▁Kevin	-11.3165
▁legendary	-11.3166
▁lifestyle	-11.3167
sz	-11.3168
▁Icelandic	-11.3171
▁pushed	-11.3171
▁preservation	-11.3173
▁Bon	-11.3178
▁Ring	-11.3179
▁True	-11.318
▁Rail	-11.318
▁sailing	-11.3181
mes	-11.3182
▁golden	-11.3186
▁reporting	-11.3187
su	-11.3187
▁twin	-11.3189
band	-11.3194
▁connect	-11.3195
len	-11.3195
▁organic	-11.3196
▁oversee	-11.3203
▁facto	-11.3203
person	-11.3204
▁astronomical	-11.3204
▁bread	-11.3205
weg	-11.3206
▁licence	-11.3207
▁CE	-11.3207
▁neighbourhood	-11.3209
▁engagement	-11.3211
▁altar	-11.3211
▁ca	-11.3213
▁segment	-11.3214
▁Carthaginian	-11.3214
▁economist	-11.3214
els	-11.3215
▁Gra	-11.3216
▁trend	-11.3221
ros	-11.3225
gar	-11.3227
ima	-11.3238
minute	-11.3238
owned	-11.3239
▁respected	-11.324
▁Wang	-11.3241
▁tournaments	-11.3246
▁dogs	-11.3252
▁shore	-11.3252
▁Off	-11.3255
▁Bulgarian	-11.3257
his	-11.3257
▁Players	-11.3259
▁Students	-11.3265
▁Wim	-11.3265
▁Dor	-11.3268
▁*	-11.327
▁championships	-11.327
hal	-11.3272
eu	-11.3273
ram	-11.3277
▁Kan	-11.3277
▁Sen	-11.3283
▁servants	-11.3285
sha	-11.329
▁mathematicians	-11.3291
affiliated	-11.3302
▁Ste	-11.3311
down	-11.3313
▁steam	-11.3328
▁definitions	-11.333
she	-11.3332
▁par	-11.3334
▁Steven	-11.3335
AM	-11.3338
▁anonymous	-11.3346
▁Kenya	-11.3346
▁eventual	-11.3347
▁Libya	-11.3347
▁variables	-11.3351
▁owns	-11.3354
▁Marvel	-11.3355
▁afraid	-11.3356
▁matrices	-11.3356
▁striking	-11.3356
▁Mitchell	-11.3356
▁facing	-11.3356
▁unveiled	-11.3356
▁Holocaust	-11.3356
▁worship	-11.3356
▁Friendship	-11.3356
▁Maurice	-11.3356
▁biology	-11.3356
▁reducing	-11.3356
▁dinner	-11.3356
▁occurring	-11.3356
▁Maritime	-11.3357
▁WWF	-11.3357
▁Norse	-11.3357
▁shipped	-11.3357
▁Malaysia	-11.3357
▁worst	-11.3357
▁percentage	-11.3359
▁Salvador	-11.336
▁Currently	-11.336
▁Farm	-11.3363
▁aggressive	-11.3363
▁revived	-11.3364
▁Cinelerra	-11.3367
▁Leipzig	-11.3367
▁excluded	-11.3368
▁Catherine	-11.3374
▁Diamond	-11.3374
▁Mathematical	-11.3375
▁approaches	-11.3375
non	-11.3376
▁voices	-11.3378
▁desired	-11.3378
governing	-11.3381
▁kilometres	-11.3381
▁brown	-11.3388
▁fitted	-11.3398
▁Catalan	-11.3398
▁tropical	-11.3398
tron	-11.34
▁dubbed	-11.3402
ova	-11.3403
▁reward	-11.3404
▁Ol	-11.3406
ice	-11.3411
▁ideals	-11.3414
▁François	-11.3414
▁targeted	-11.3418
▁Legend	-11.3422
▁Senator	-11.3426
▁Sahara	-11.3426
▁eruption	-11.3426
▁scheme	-11.3426
▁servant	-11.3427
▁demonstration	-11.3427
▁Horn	-11.3427
▁parent	-11.3428
▁Francesco	-11.3428
▁Reg	-11.343
▁situations	-11.3431
top	-11.3432
▁platforms	-11.3432
▁humanist	-11.3434
▁Che	-11.3436
izing	-11.3436
▁Still	-11.3443
▁refugee	-11.3444
▁sensitive	-11.3445
▁challenges	-11.3445
▁starr	-11.3446
▁Lou	-11.3446
▁traveling	-11.3447
after	-11.3449
▁privately	-11.3451
▁Humanist	-11.3454
▁hostages	-11.3457
brother	-11.3459
▁periodic	-11.346
English	-11.346
▁fusion	-11.3461
▁Georg	-11.3472
▁confrontation	-11.3472
▁Fighter	-11.3477
▁geometric	-11.3482
gue	-11.3482
▁binding	-11.3483
▁nationalist	-11.3484
▁Hal	-11.3485
▁connects	-11.35
▁Pol	-11.3507
▁Sto	-11.3516
▁verse	-11.352
▁Indians	-11.3523
▁tables	-11.3524
▁Ad	-11.3527
rich	-11.3537
▁Support	-11.3539
▁facts	-11.3546
▁Mil	-11.3549
AT	-11.355
▁Lin	-11.355
▁villa	-11.3556
▁announce	-11.3558
▁Historical	-11.3563
lar	-11.3564
▁profile	-11.3565
▁Pedro	-11.3568
▁bankrupt	-11.3568
▁Cantillon	-11.3569
▁census	-11.3569
▁referendum	-11.3569
▁repertoire	-11.3569
▁testimony	-11.3569
▁globe	-11.3569
▁impressive	-11.3569
▁angry	-11.3569
▁raising	-11.3569
▁engage	-11.3569
▁Consequently	-11.3569
▁Countries	-11.3569
▁scholarship	-11.3569
▁Liberation	-11.3569
▁ADE	-11.357
▁Justinian	-11.357
▁Monday	-11.357
▁constitute	-11.357
▁Medicine	-11.3572
▁Mauritania	-11.3573
▁Resolution	-11.3573
▁protesters	-11.3573
elli	-11.3573
▁Metro	-11.3574
had	-11.3576
▁philosophers	-11.3576
▁Jamaica	-11.3578
▁sail	-11.3578
▁enhanced	-11.3578
▁Democracy	-11.358
▁Financial	-11.358
▁tri	-11.358
▁Armstrong	-11.358
▁navigation	-11.358
▁Cardinal	-11.358
▁MP	-11.358
▁Venus	-11.3581
botanical	-11.3583
▁Warner	-11.3584
inger	-11.3585
▁Smart	-11.3587
▁Hunter	-11.3587
▁interpreted	-11.3588
▁imported	-11.3589
▁Gary	-11.359
▁Fisher	-11.359
▁Mat	-11.359
▁encountered	-11.3594
ned	-11.3594
▁judicial	-11.3594
▁milk	-11.3594
▁warships	-11.3598
min	-11.3607
▁wives	-11.3608
▁Rats	-11.3615
▁sectors	-11.3616
▁Shaw	-11.3618
▁Allah	-11.3619
▁Ci	-11.3621
▁loan	-11.3623
▁diesel	-11.3625
▁modest	-11.3627
▁recommendations	-11.3632
▁expanding	-11.3632
▁ma	-11.3635
mb	-11.3635
▁patron	-11.3635
Bo	-11.3636
▁bombs	-11.3638
▁Machine	-11.3639
▁substance	-11.3644
▁riots	-11.3644
▁missile	-11.3644
▁root	-11.3645
▁regulation	-11.3645
▁Rogers	-11.365
▁pet	-11.3653
ink	-11.3655
▁specialist	-11.3656
▁Maarten	-11.3659
▁Sex	-11.3662
▁Concert	-11.3665
▁restaurants	-11.3665
▁undergo	-11.3668
▁carrier	-11.3669
▁Electronic	-11.3671
▁openly	-11.3683
▁opens	-11.3685
▁cruise	-11.3693
▁Key	-11.3708
mm	-11.3714
▁Economics	-11.3719
▁proteins	-11.3719
▁gather	-11.3729
▁backed	-11.3729
▁bacteria	-11.373
▁genes	-11.3735
ensis	-11.374
▁Lenin	-11.3745
ware	-11.3747
▁Premier	-11.3753
horn	-11.3755
▁stress	-11.376
▁Jay	-11.3769
lands	-11.3774
▁Alaska	-11.3774
▁Similar	-11.3776
ić	-11.3777
▁algorithm	-11.3781
▁Capitol	-11.3785
▁Báb	-11.3786
sta	-11.3786
▁Canterbury	-11.3786
▁Fifth	-11.3786
▁Rockefeller	-11.3786
▁inquiry	-11.3786
▁Aragon	-11.3786
▁Rico	-11.3786
▁Section	-11.3786
▁documentaries	-11.3786
▁surgery	-11.3786
▁attractive	-11.3786
▁Clara	-11.3787
▁Kyle	-11.3787
▁footage	-11.3787
▁revival	-11.3787
▁mainstream	-11.3787
▁carries	-11.3787
▁chocolate	-11.3787
▁API	-11.3788
▁Cornelis	-11.3789
▁Rita	-11.3789
▁inventor	-11.379
▁Often	-11.379
▁Given	-11.379
uz	-11.3792
▁Amazon	-11.3793
▁hills	-11.3794
▁depiction	-11.3796
▁emphasized	-11.3797
▁Zürich	-11.3797
▁wore	-11.3799
▁counts	-11.38
▁missed	-11.38
▁doctorate	-11.3802
▁eighth	-11.3802
ug	-11.3803
▁Hence	-11.3804
▁Victorian	-11.3805
▁Mercury	-11.3806
▁mechanics	-11.3807
▁measured	-11.3807
▁attacking	-11.3808
ea	-11.3811
▁Found	-11.3813
▁realistic	-11.3815
▁populated	-11.3825
▁bi	-11.3825
aux	-11.3826
idae	-11.3828
hand	-11.3831
▁remind	-11.3835
▁files	-11.3837
▁Arabian	-11.3838
▁Pont	-11.3843
▁cave	-11.3845
▁Bach	-11.3846
die	-11.3846
▁concentrate	-11.3851
▁Georges	-11.3854
SA	-11.3854
▁minimal	-11.3854
▁profession	-11.3854
▁promise	-11.3855
▁filming	-11.3857
▁kg	-11.3858
▁signals	-11.3858
▁junction	-11.3859
ath	-11.386
▁honored	-11.3861
▁announcement	-11.3861
▁motorcycle	-11.3862
▁shipyard	-11.3865
▁Toward	-11.3865
▁dual	-11.3865
▁check	-11.3866
▁conversation	-11.3866
▁telescope	-11.3866
▁truck	-11.3867
▁agrees	-11.3867
▁bishops	-11.3879
▁Marcel	-11.388
ett	-11.3883
▁notation	-11.3888
▁Test	-11.389
▁Tra	-11.3895
▁lab	-11.3903
president	-11.3909
governmental	-11.3909
▁competitors	-11.3911
▁fun	-11.3913
sel	-11.3914
Day	-11.3917
▁atheists	-11.3925
▁trends	-11.3929
MA	-11.3929
park	-11.3937
▁referr	-11.3944
▁mis	-11.3948
▁achievements	-11.3949
▁electro	-11.3952
▁mounted	-11.3952
▁planets	-11.3957
▁Chan	-11.396
pop	-11.3963
▁Bull	-11.3967
▁falling	-11.397
▁committees	-11.3971
▁Kill	-11.3983
▁Sara	-11.3984
bringing	-11.3985
▁Breton	-11.3987
ū	-11.3989
disciplinary	-11.3991
pp	-11.3997
▁statistical	-11.3999
▁Mur	-11.3999
▁Week	-11.4
▁accommodate	-11.4
▁sketch	-11.4005
ade	-11.4007
▁vital	-11.4008
▁triumph	-11.4008
▁squad	-11.4008
▁Already	-11.4008
▁Erasmus	-11.4008
▁GmbH	-11.4008
▁Ontario	-11.4008
▁Vancouver	-11.4008
▁junior	-11.4008
▁revenge	-11.4008
▁possibilities	-11.4008
▁radar	-11.4008
▁exposure	-11.4008
▁charity	-11.4008
▁inheritance	-11.4008
▁ninth	-11.4008
▁entertainment	-11.4009
▁Dynasty	-11.4009
▁sustainability	-11.4009
▁Tribe	-11.4009
▁feast	-11.4009
▁WWE	-11.401
▁topology	-11.401
▁acceptance	-11.401
log	-11.401
▁Delta	-11.4011
▁Surinamese	-11.4011
▁console	-11.4012
▁ammunition	-11.4013
▁Arena	-11.4014
▁beaten	-11.4015
Comedy	-11.4015
▁Ethiopia	-11.4015
▁reinforced	-11.4017
▁Broadcasting	-11.4019
▁LGBT	-11.402
▁volcanic	-11.402
▁shadow	-11.402
▁Sophie	-11.402
paia	-11.4021
▁emotional	-11.4026
▁Cantor	-11.4028
▁regent	-11.4031
▁HIV	-11.4034
▁atheist	-11.4034
▁comment	-11.4035
▁pool	-11.4037
▁Sar	-11.4038
▁crowned	-11.4039
ë	-11.4045
▁thereby	-11.4051
rew	-11.4052
▁Mis	-11.4052
▁translate	-11.4053
▁breed	-11.4054
▁hip	-11.4055
▁complement	-11.4055
ain	-11.4056
▁racial	-11.4057
▁consumers	-11.4058
ee	-11.4059
West	-11.406
▁Tell	-11.4065
ML	-11.4066
▁answered	-11.407
▁Wil	-11.4073
▁archive	-11.4074
▁highlight	-11.4075
▁Paulo	-11.4076
▁reformed	-11.4079
▁oppose	-11.4081
▁departments	-11.4084
▁estimate	-11.4085
▁medals	-11.4087
▁detective	-11.4089
▁ticket	-11.4092
▁combin	-11.4093
tur	-11.4093
dan	-11.4093
▁agreements	-11.4099
▁Philippine	-11.4099
▁dispatch	-11.4101
▁Tel	-11.4102
▁ancestors	-11.4107
del	-11.4108
▁emissions	-11.411
▁Sur	-11.411
point	-11.4116
▁revision	-11.4118
▁performer	-11.412
▁Kor	-11.412
▁republican	-11.4123
When	-11.4143
▁Metal	-11.4143
pt	-11.4143
▁cloud	-11.4147
wan	-11.4147
selling	-11.4153
oi	-11.4157
▁lord	-11.4157
▁Kate	-11.416
▁pen	-11.4168
▁Tree	-11.4168
▁Inside	-11.4169
ón	-11.4173
▁broadcasts	-11.4174
▁forts	-11.4175
▁Wonder	-11.4177
▁compatible	-11.4179
▁Sk	-11.4183
▁worse	-11.4188
▁forever	-11.419
▁Southeast	-11.4192
▁im	-11.4194
▁PS	-11.4194
ani	-11.4197
▁bare	-11.4202
▁bases	-11.4206
▁councils	-11.4207
▁Well	-11.4209
▁handle	-11.4214
▁firms	-11.4214
▁threaten	-11.4218
ama	-11.4219
▁organise	-11.4222
▁alphabet	-11.4224
▁Scandinavia	-11.4228
▁Gun	-11.4229
Muslims	-11.423
▁Venezuela	-11.4232
borne	-11.4232
▁Bangkok	-11.4236
▁Illinois	-11.4236
▁Monument	-11.4236
▁consent	-11.4236
▁memories	-11.4236
▁specified	-11.4236
▁Strong	-11.4236
▁prosperity	-11.4236
▁Intelligence	-11.4236
▁Version	-11.4236
▁shortened	-11.4236
▁circulation	-11.4236
▁legitimate	-11.4236
▁Nathan	-11.4236
▁contrary	-11.4236
▁naming	-11.4236
▁comparative	-11.4236
▁Gilbert	-11.4236
▁Billboard	-11.4236
▁loyalty	-11.4236
▁counties	-11.4237
fe	-11.4237
▁Private	-11.4237
▁kidnapped	-11.4237
mu	-11.4237
▁machinery	-11.4238
▁bassist	-11.4239
▁traced	-11.4244
▁whatever	-11.4244
▁complained	-11.4244
▁plead	-11.4244
▁rent	-11.4244
▁prompted	-11.4245
▁Lucy	-11.4245
▁Turin	-11.4246
▁Gabriel	-11.4247
▁Survey	-11.4247
▁nobles	-11.425
▁Reformed	-11.4254
▁Kurdish	-11.4255
▁Wagner	-11.4255
▁Morning	-11.4255
ris	-11.4256
▁Fame	-11.4257
▁solved	-11.4257
▁Armed	-11.4259
▁bid	-11.4259
▁monitoring	-11.426
▁allegations	-11.4262
▁Philippe	-11.4264
▁import	-11.4266
▁Jade	-11.4267
▁Direct	-11.4267
▁Plus	-11.4268
▁Damascus	-11.427
▁commerce	-11.427
▁Mason	-11.4271
▁loves	-11.4271
▁delay	-11.4272
▁harm	-11.4278
mel	-11.4278
▁marginal	-11.428
▁scope	-11.4282
▁armor	-11.4283
▁Mari	-11.4284
▁forgotten	-11.4285
bus	-11.4285
▁ethical	-11.4287
rk	-11.429
▁poorly	-11.429
▁bio	-11.429
▁Euclidean	-11.4301
▁Report	-11.4305
▁intentions	-11.4307
▁divide	-11.4308
▁oblig	-11.4314
▁warm	-11.4317
▁historically	-11.4318
▁incomplete	-11.4321
▁lung	-11.4323
▁fortune	-11.4323
▁treatise	-11.4325
val	-11.4325
▁Common	-11.4325
▁invention	-11.4325
▁Hand	-11.4325
▁tension	-11.4327
▁measurement	-11.4328
▁ratio	-11.4329
▁para	-11.433
▁Officer	-11.4335
▁Kid	-11.4339
▁Bu	-11.4349
▁strip	-11.435
ib	-11.4357
▁tag	-11.4361
▁Aruba	-11.4363
▁performs	-11.4366
▁violations	-11.4366
▁Casa	-11.4367
▁authored	-11.437
▁bridges	-11.4371
▁pupils	-11.4373
modern	-11.4378
play	-11.4379
Pro	-11.4386
▁demonstrations	-11.439
▁journals	-11.4392
▁spreading	-11.4395
thirds	-11.4395
▁provisions	-11.4398
▁Basel	-11.44
▁Palm	-11.4403
▁Spartans	-11.4404
▁investments	-11.4416
She	-11.4416
ional	-11.4417
▁Run	-11.4425
▁indicat	-11.4427
▁Bert	-11.4427
ington	-11.4428
▁Living	-11.443
gate	-11.4432
fo	-11.4441
▁Sel	-11.4443
▁powered	-11.445
▁schedule	-11.4458
▁unexpected	-11.4458
▁dynamic	-11.4464
▁Indo	-11.4464
▁Macintosh	-11.4468
▁Orleans	-11.4468
▁capabilities	-11.4468
▁fantasy	-11.4468
▁vulnerable	-11.4468
▁Picasso	-11.4468
▁ideology	-11.4468
▁basketball	-11.4468
▁Baldwin	-11.4468
▁applies	-11.4468
▁dissolution	-11.4468
▁sank	-11.4468
▁famine	-11.4468
▁pursuit	-11.4468
▁Eddie	-11.4468
▁Alps	-11.4468
▁Ferrari	-11.4468
▁atheism	-11.4469
▁Moses	-11.4469
▁Kiev	-11.4469
▁Je	-11.4471
▁Diana	-11.4471
▁bay	-11.4472
▁Turner	-11.4472
▁diary	-11.4472
▁aftermath	-11.4472
▁documentation	-11.4472
▁Kerry	-11.4472
▁Bruno	-11.4473
▁boost	-11.4473
▁Butler	-11.4473
▁enrolled	-11.4474
▁commenced	-11.4474
▁Mongolia	-11.4475
▁sixty	-11.4476
▁countryside	-11.4478
▁geological	-11.4478
▁addresses	-11.4478
▁regained	-11.4479
▁Charlotte	-11.4481
▁analytic	-11.4481
▁wrestling	-11.4485
▁sharp	-11.4486
▁Less	-11.4486
▁adequate	-11.4486
▁prohibited	-11.4486
lus	-11.4487
▁artifacts	-11.4487
▁tactical	-11.4487
▁Haarlem	-11.4488
▁Vrij	-11.4489
▁Skeptical	-11.4491
▁Banks	-11.4494
▁drafted	-11.4496
▁primitive	-11.4496
▁governance	-11.4496
▁h	-11.4497
huis	-11.4498
}}	-11.45
▁appealed	-11.4503
▁Urban	-11.4505
▁Movie	-11.4507
▁Training	-11.4508
▁Glass	-11.451
▁potentially	-11.4513
▁intact	-11.4515
▁fires	-11.4516
▁determin	-11.452
▁index	-11.4521
▁Record	-11.453
▁insects	-11.453
tha	-11.4532
▁viewers	-11.4538
▁practiced	-11.4539
▁breeding	-11.454
cut	-11.4547
tter	-11.4551
▁painters	-11.4553
uri	-11.4554
▁trips	-11.4556
Mo	-11.4556
▁cantons	-11.4557
▁spectra	-11.4557
▁coordinate	-11.4559
▁pyramid	-11.4561
there	-11.4563
▁artwork	-11.4564
▁Horse	-11.4565
nan	-11.4566
▁pupil	-11.4566
▁workshop	-11.4566
▁OS	-11.4569
▁mixture	-11.4569
hen	-11.457
▁Habsburg	-11.4573
▁sh	-11.4574
produced	-11.4576
▁proceeds	-11.4578
tin	-11.4579
▁observers	-11.4586
▁compounds	-11.4598
SL	-11.4601
▁posts	-11.4601
dia	-11.4608
▁examination	-11.4614
▁Charter	-11.4616
▁comments	-11.4616
national	-11.462
▁performers	-11.4622
That	-11.4624
▁verses	-11.4631
▁winds	-11.4632
▁rating	-11.4637
▁prayers	-11.4637
ase	-11.4639
▁Mas	-11.464
gra	-11.4641
eri	-11.4642
▁winners	-11.466
act	-11.4662
▁Sim	-11.467
▁poets	-11.4671
▁rebuild	-11.4671
tan	-11.4675
▁interpret	-11.4676
▁Shin	-11.4677
▁portray	-11.468
▁raids	-11.4685
lmost	-11.4686
▁seventeen	-11.4698
▁invite	-11.47
▁Macedonia	-11.4701
▁Serbs	-11.4701
▁Harris	-11.4703
show	-11.4705
▁Magnus	-11.4705
▁Ambassador	-11.4706
▁Birmingham	-11.4706
▁swimming	-11.4706
▁economies	-11.4706
▁Industry	-11.4706
▁vacation	-11.4706
▁Diodorus	-11.4706
▁contributing	-11.4706
▁predominant	-11.4706
▁Stuart	-11.4706
▁Pyrrhus	-11.4706
▁Chester	-11.4706
▁mythology	-11.4706
▁bankruptcy	-11.4706
▁Dexter	-11.4707
▁missionaries	-11.4707
▁Camillus	-11.4707
▁Gogh	-11.4707
▁deported	-11.4707
▁descent	-11.4707
▁copyright	-11.4707
▁Want	-11.4707
▁shopping	-11.4707
▁skepticism	-11.4707
▁RTL	-11.4707
▁hectares	-11.4707
▁rivalry	-11.4708
▁admired	-11.4708
▁Edgar	-11.4708
▁favourite	-11.4709
▁terminated	-11.4709
▁Native	-11.4709
▁rapper	-11.4709
▁Herbert	-11.4709
▁intelligent	-11.4711
▁registration	-11.4711
CO	-11.4712
▁Environmental	-11.4714
▁reconstructed	-11.4716
▁decreased	-11.4716
sse	-11.4717
▁realised	-11.4718
▁Danube	-11.4719
▁Detective	-11.4719
▁Lower	-11.4719
Art	-11.472
▁Harrison	-11.4721
▁injury	-11.4724
production	-11.4725
▁Shanghai	-11.4727
▁failing	-11.4729
▁Sy	-11.4732
▁Half	-11.4732
▁download	-11.4737
▁unions	-11.4742
▁NBC	-11.4743
▁conceived	-11.4744
▁orientation	-11.4744
▁tactics	-11.4746
▁vocals	-11.4748
▁Gang	-11.4749
▁descriptions	-11.4749
▁Gay	-11.4751
▁Siberia	-11.4751
▁Classical	-11.4757
▁Got	-11.4761
▁fee	-11.4766
ges	-11.4768
▁photograph	-11.4769
▁incorporate	-11.477
▁Neil	-11.477
▁mosques	-11.477
▁Dal	-11.4771
▁continental	-11.4787
av	-11.4787
lis	-11.4789
å	-11.479
▁conjecture	-11.4793
▁attending	-11.4798
▁convoy	-11.48
eb	-11.48
▁epidemic	-11.4802
▁protagonist	-11.4805
▁financially	-11.4806
▁expense	-11.4807
▁molecular	-11.4808
▁trademark	-11.4809
▁Bali	-11.4811
▁traces	-11.4815
vid	-11.4817
▁statues	-11.4819
rmal	-11.4819
ets	-11.4821
▁Net	-11.4823
▁Teatr	-11.4825
▁pan	-11.4833
ido	-11.4833
▁Lane	-11.4836
▁po	-11.4841
ava	-11.4842
▁shoot	-11.4842
▁messages	-11.4843
▁demanding	-11.4844
pre	-11.4849
AF	-11.485
gg	-11.4852
▁substances	-11.4864
▁Cho	-11.4865
▁saving	-11.4866
uro	-11.4874
ped	-11.4882
mond	-11.4884
▁Yak	-11.4894
▁app	-11.4896
▁Hunt	-11.4897
month	-11.4899
put	-11.4899
ú	-11.49
▁Sant	-11.4901
▁evident	-11.4903
▁Roll	-11.4906
▁Rica	-11.4906
▁Philips	-11.4907
▁rely	-11.491
May	-11.4913
▁hopes	-11.4918
▁incidents	-11.4925
▁stops	-11.4927
OS	-11.493
late	-11.4933
▁quiet	-11.4934
▁transit	-11.4934
▁interactions	-11.4938
▁Algeria	-11.4939
▁fulfill	-11.4939
▁alternate	-11.494
meter	-11.4942
▁Bat	-11.4946
▁Uruguay	-11.4946
▁intend	-11.4946
▁courage	-11.4949
▁electora	-11.495
▁Kennedy	-11.495
▁ceremonies	-11.495
▁diameter	-11.495
▁nevertheless	-11.495
▁preceding	-11.495
▁removal	-11.495
▁Cicero	-11.495
▁Welsh	-11.495
▁intent	-11.495
▁terrain	-11.495
▁Tiberius	-11.495
▁reconciliation	-11.495
▁Conservatory	-11.495
▁oath	-11.495
▁Continent	-11.495
▁Constantius	-11.495
▁devastated	-11.495
▁Industries	-11.4951
▁Jules	-11.4951
▁minorities	-11.4951
▁preceded	-11.4951
▁mechanisms	-11.4952
▁preparations	-11.4952
▁Tommy	-11.4952
▁Gibraltar	-11.4953
▁Highway	-11.4954
▁editorial	-11.4954
▁confiscated	-11.4954
▁Buddhism	-11.4955
▁formulated	-11.4955
▁spark	-11.4955
▁Sin	-11.4958
▁Catholicism	-11.4959
▁ultimate	-11.4959
▁lacking	-11.496
▁Personal	-11.496
gon	-11.4962
▁persuaded	-11.4963
▁insisted	-11.4963
▁Kunst	-11.4963
▁Helsinki	-11.4963
▁Fantasy	-11.4963
▁Literature	-11.4965
▁Block	-11.4966
▁breaking	-11.4969
▁Ballet	-11.4969
▁drop	-11.4973
▁elementary	-11.4974
dar	-11.4974
▁coincide	-11.4974
▁brands	-11.4977
tech	-11.4977
▁Zu	-11.4977
▁DB	-11.4978
▁Religion	-11.498
▁remix	-11.4983
▁tenor	-11.4983
▁Name	-11.4987
▁confidence	-11.4988
▁Einstein	-11.4988
▁qualified	-11.4988
▁radioactive	-11.4988
▁intermediate	-11.4991
▁Card	-11.4991
▁indication	-11.4991
▁harvest	-11.4996
list	-11.4998
▁flood	-11.4999
▁doubled	-11.4999
▁suit	-11.5006
▁walking	-11.501
▁healthy	-11.5012
hin	-11.5014
▁Coll	-11.5015
oli	-11.5016
▁Var	-11.5023
▁Tin	-11.5023
▁Vario	-11.5023
Li	-11.5024
▁Nash	-11.5025
▁Julie	-11.5026
even	-11.5026
▁repeat	-11.5028
▁Comics	-11.503
▁Zero	-11.5031
los	-11.5031
▁resign	-11.5032
▁phases	-11.5034
qu	-11.5034
▁sponsor	-11.5035
yo	-11.504
▁Rich	-11.504
▁prizes	-11.5044
▁Brand	-11.5045
Brien	-11.5047
▁Adventures	-11.5048
▁judgment	-11.505
▁concludes	-11.5051
▁Edition	-11.5052
▁Chronicle	-11.5053
▁Student	-11.5054
▁ghost	-11.5055
▁Mozart	-11.5055
▁pension	-11.5056
▁competitor	-11.5058
▁violation	-11.5058
▁elephants	-11.5062
▁Shell	-11.5067
▁Working	-11.5069
ntil	-11.5071
▁fragment	-11.5072
gel	-11.5073
ye	-11.5075
▁acoustic	-11.5082
nen	-11.5085
▁Emma	-11.5086
▁particle	-11.5088
▁Wu	-11.5089
ars	-11.5089
rt	-11.5091
▁Institution	-11.5093
▁Shu	-11.5093
▁Marco	-11.5096
▁domains	-11.5098
▁Plant	-11.5101
lock	-11.5104
ue	-11.5107
ob	-11.5109
kai	-11.511
Bas	-11.5118
▁informal	-11.5118
pl	-11.5118
cross	-11.5123
▁seeming	-11.5124
ela	-11.5125
▁tram	-11.5126
▁organizes	-11.5127
published	-11.5128
fall	-11.5129
▁Care	-11.5133
vert	-11.5134
tier	-11.5142
▁Zee	-11.5142
▁comet	-11.5149
▁Being	-11.5154
▁nurse	-11.5155
▁revenues	-11.5159
dra	-11.5162
▁Chechens	-11.5162
▁websites	-11.5165
▁windows	-11.517
how	-11.5171
▁disk	-11.5173
og	-11.5175
▁Mid	-11.5177
▁arrangements	-11.5177
hl	-11.5179
DE	-11.5181
aga	-11.5184
▁Have	-11.5186
ear	-11.5188
▁Box	-11.5188
▁smooth	-11.519
▁sudden	-11.519
▁forc	-11.5191
▁proud	-11.5191
dic	-11.5193
▁resume	-11.5194
della	-11.5194
east	-11.5196
▁fatal	-11.5196
▁tail	-11.5197
▁minute	-11.5197
room	-11.5198
▁afford	-11.5198
▁replica	-11.5199
responsibilities	-11.52
▁Eindhoven	-11.52
▁Reagan	-11.52
▁Rutherford	-11.52
▁frequencies	-11.52
▁graduation	-11.52
▁integrity	-11.52
▁Cabinet	-11.52
▁geography	-11.52
▁prosperous	-11.52
▁surname	-11.52
▁Grammy	-11.52
▁emigration	-11.52
▁diagnosis	-11.52
▁vertical	-11.52
▁chef	-11.52
▁calm	-11.52
▁Arctic	-11.52
▁varies	-11.52
▁sitting	-11.5201
▁enforcement	-11.5201
▁romance	-11.5201
▁Grace	-11.5201
▁rally	-11.5201
▁Rather	-11.5201
▁bigger	-11.5202
▁tonnes	-11.5202
▁Piano	-11.5202
▁unified	-11.5202
▁Foot	-11.5205
▁singers	-11.5205
▁Legion	-11.5205
▁missionary	-11.5206
▁clinical	-11.5207
▁Dag	-11.5212
▁Herzegovina	-11.5213
▁Versailles	-11.5213
▁Crisis	-11.5213
▁errors	-11.5213
▁routine	-11.5213
CD	-11.5214
▁Gray	-11.5214
▁Experience	-11.5216
▁handled	-11.5216
pon	-11.522
▁Flying	-11.522
▁Augustine	-11.522
▁properly	-11.522
▁deceased	-11.5222
▁inaugura	-11.5222
▁Exhibition	-11.5222
▁supposedly	-11.5222
▁conventions	-11.5222
pu	-11.5223
etti	-11.5223
▁Fat	-11.5224
▁Crime	-11.5224
▁sphere	-11.5226
▁Grey	-11.5229
NA	-11.5231
▁badly	-11.5233
▁alien	-11.5233
NS	-11.5234
▁prophet	-11.5236
▁Yellow	-11.5238
▁colleges	-11.5239
ré	-11.5239
order	-11.524
▁oriented	-11.5242
ites	-11.5243
▁respond	-11.5251
▁Workers	-11.5251
uni	-11.5253
▁Nothing	-11.5256
evolutionary	-11.5259
▁Tre	-11.5261
mus	-11.5261
▁excavations	-11.5264
▁Wo	-11.5265
WA	-11.527
▁pirates	-11.5271
▁Ras	-11.5271
▁Ministers	-11.5273
▁Ward	-11.5274
▁reconcile	-11.5281
▁Stra	-11.5284
▁predecessors	-11.529
▁decrease	-11.5302
ther	-11.5307
▁flute	-11.5309
▁plain	-11.531
▁Confederate	-11.5312
▁IX	-11.5312
AN	-11.5313
▁Gospel	-11.5313
▁climb	-11.5314
▁compound	-11.5315
lla	-11.5316
▁adventure	-11.5319
▁Liberal	-11.5321
pin	-11.5328
▁Railways	-11.533
▁disorder	-11.5335
▁Guards	-11.5338
▁les	-11.534
▁explosive	-11.5344
▁memoir	-11.535
▁drums	-11.5351
udi	-11.5356
▁Kids	-11.5358
ean	-11.5365
▁Hour	-11.5369
ingen	-11.5371
ants	-11.5375
▁Had	-11.5378
▁aunt	-11.5383
▁Word	-11.5385
Saxon	-11.5387
wide	-11.5387
▁AP	-11.5388
▁planes	-11.5388
nna	-11.5391
volume	-11.5393
lets	-11.5396
II	-11.5398
▁Ros	-11.54
▁Kai	-11.5401
ø	-11.5408
▁dialects	-11.5411
▁brigades	-11.5418
kov	-11.5424
▁paying	-11.5425
▁Has	-11.5427
werk	-11.5431
▁Micro	-11.5434
mos	-11.5434
▁requests	-11.5438
ère	-11.5442
▁Notes	-11.5443
▁Rain	-11.5448
dal	-11.5449
▁Ronald	-11.545
ising	-11.5453
▁Large	-11.5455
ious	-11.5455
▁Beat	-11.5455
▁Advisor	-11.5457
▁Barbauld	-11.5457
▁Lhasa	-11.5457
▁Perdiccas	-11.5457
▁Reynolds	-11.5457
▁Senior	-11.5457
▁certification	-11.5457
▁hybrid	-11.5457
▁innocent	-11.5457
▁nervous	-11.5457
▁Eduard	-11.5457
▁Genoa	-11.5457
▁Wallace	-11.5457
▁Railroad	-11.5457
▁Beginning	-11.5457
▁Priestley	-11.5457
▁unrest	-11.5457
▁foster	-11.5457
▁exposition	-11.5457
▁Bruges	-11.5458
▁Alfonso	-11.5458
▁Nixon	-11.5458
▁Dominican	-11.5458
▁ge	-11.5458
▁Coors	-11.5458
▁Vision	-11.5458
▁bundle	-11.5459
▁tenure	-11.5459
▁Blair	-11.5459
▁Mohamed	-11.5459
▁Yale	-11.5459
▁discoveries	-11.5459
▁Sherman	-11.5459
▁Slim	-11.5461
▁Kelly	-11.5461
▁VIII	-11.5461
▁Keith	-11.5461
▁Annie	-11.5463
▁subjective	-11.5464
▁Bergen	-11.5467
▁weakened	-11.5467
ding	-11.5467
▁Jonathan	-11.547
▁Mathematics	-11.547
ito	-11.5471
▁Hat	-11.5472
▁acquire	-11.5478
▁atlas	-11.5479
▁rented	-11.5481
▁Salt	-11.5486
▁Kansas	-11.5487
▁dressed	-11.5487
▁abbot	-11.5487
▁Swedes	-11.5488
▁lady	-11.5492
▁Case	-11.5493
▁vocalist	-11.5497
▁Clarke	-11.5499
▁bicycle	-11.5501
▁survives	-11.5508
tas	-11.5508
▁bottom	-11.5513
▁Hood	-11.5518
kel	-11.5519
Ha	-11.5526
▁productive	-11.5527
è	-11.5531
▁mirror	-11.5531
▁Indiana	-11.5532
PR	-11.5533
▁cameras	-11.5542
▁summon	-11.5542
▁Mak	-11.5545
Ra	-11.5552
▁Sisters	-11.5552
▁Core	-11.5555
▁rice	-11.5556
▁cab	-11.5557
▁authorized	-11.5558
▁Amy	-11.556
▁massacre	-11.5563
cio	-11.5563
▁Northwest	-11.5565
▁mini	-11.5567
▁bombardment	-11.557
▁raw	-11.5571
▁update	-11.5572
▁jurisdiction	-11.5572
▁warriors	-11.5574
▁choreographer	-11.5574
▁axiom	-11.5576
series	-11.558
▁conceptual	-11.5582
▁Protestants	-11.5584
ante	-11.5585
hor	-11.5586
▁consideration	-11.5586
▁gang	-11.5589
▁Harbor	-11.5592
uck	-11.5593
ende	-11.5595
▁hospitals	-11.5597
▁weekend	-11.5598
▁Jong	-11.5598
▁Songs	-11.561
▁Bird	-11.561
▁coordinates	-11.5613
▁Make	-11.5614
far	-11.5616
▁carriers	-11.5627
gal	-11.563
▁Grande	-11.5632
IM	-11.5633
uch	-11.5636
▁kingdoms	-11.5639
ations	-11.5641
▁layer	-11.5646
▁tune	-11.5647
ible	-11.5652
▁container	-11.5655
▁poll	-11.5655
eh	-11.5661
except	-11.5663
President	-11.5664
▁Rhodes	-11.5667
▁span	-11.5672
▁tours	-11.5673
tch	-11.5675
elected	-11.5679
bro	-11.5684
Marie	-11.5687
▁diseases	-11.5688
Arabic	-11.569
ick	-11.5695
ern	-11.5698
burn	-11.5702
lay	-11.5703
ello	-11.5707
▁Ana	-11.5708
▁Pier	-11.5708
▁retail	-11.5712
▁absent	-11.5712
▁abolition	-11.5713
▁Eye	-11.5713
▁waves	-11.5715
▁backing	-11.5717
▁graves	-11.5718
▁Marx	-11.5718
ée	-11.5719
▁Corinth	-11.5719
▁Commerce	-11.572
▁Edison	-11.572
▁Jessica	-11.572
▁Kosovo	-11.572
▁Leuven	-11.572
▁Nacional	-11.572
▁Nonetheless	-11.572
▁Pearl	-11.572
▁Stirling	-11.572
▁conjunction	-11.572
▁irregular	-11.572
▁tobacco	-11.572
▁Spencer	-11.572
▁Wikipedia	-11.572
▁Belgrade	-11.572
▁Veronica	-11.572
▁overseas	-11.572
▁Popular	-11.572
▁therapy	-11.572
▁Desert	-11.572
▁Westminster	-11.572
▁Panama	-11.572
▁legacy	-11.572
▁Faculty	-11.5721
▁Domitian	-11.5721
▁battery	-11.5722
▁detection	-11.5722
▁Herald	-11.5722
▁happens	-11.5723
▁Fear	-11.5724
▁Tai	-11.5724
▁unofficial	-11.5724
▁Guerrero	-11.5725
▁assassinated	-11.5725
▁frontier	-11.5727
▁annexed	-11.5729
▁acclaimed	-11.573
▁sacked	-11.573
▁faithful	-11.5732
▁eliminate	-11.5733
▁elderly	-11.5733
▁Hundred	-11.5733
▁Belfast	-11.5733
▁Stage	-11.5735
▁speeches	-11.5736
▁Leonard	-11.5737
Ho	-11.5739
▁accusations	-11.5741
▁Com	-11.5742
▁differential	-11.5742
▁sailors	-11.5745
▁witnesses	-11.5745
▁continuously	-11.5746
▁Bremen	-11.5752
▁debts	-11.5753
▁credits	-11.5755
▁Meeting	-11.5756
▁Exposition	-11.576
▁Revolutionary	-11.5767
▁Gor	-11.5768
▁patents	-11.5769
▁struggles	-11.5772
PA	-11.5773
▁Ly	-11.5779
ky	-11.5785
eastern	-11.5786
And	-11.5789
▁couldn	-11.579
maker	-11.579
winning	-11.5792
▁neoclassic	-11.5801
olo	-11.5801
high	-11.5801
ena	-11.5807
▁Von	-11.5808
▁Stefan	-11.5809
▁Come	-11.5816
▁recruit	-11.5819
ified	-11.5819
TO	-11.582
nal	-11.5822
▁Finn	-11.5826
▁explaining	-11.5827
▁costumes	-11.5829
ico	-11.583
▁Louise	-11.5831
bl	-11.5834
▁archbishop	-11.5835
▁veterans	-11.5837
ston	-11.5838
ali	-11.584
▁socio	-11.5841
▁Shadow	-11.5844
▁inspection	-11.5845
▁Guardian	-11.5846
▁Bro	-11.5846
▁senator	-11.5847
▁astronomer	-11.5847
▁preference	-11.5848
▁adviser	-11.5848
▁enters	-11.5855
lie	-11.5862
▁magical	-11.5862
▁vol	-11.5862
▁taste	-11.5863
▁employee	-11.5863
▁memoirs	-11.5867
They	-11.5871
sport	-11.5872
▁Ze	-11.5872
▁provisional	-11.5882
▁searching	-11.5883
▁Em	-11.589
▁sit	-11.5891
▁trucks	-11.5891
▁Qu	-11.5899
nu	-11.59
▁staying	-11.5905
▁Total	-11.5906
CP	-11.5906
▁Hills	-11.591
▁chains	-11.5911
▁exhibits	-11.5911
▁plate	-11.5911
▁Player	-11.5916
▁Walk	-11.5923
▁Lab	-11.5925
Te	-11.5933
▁Kh	-11.5934
ox	-11.5937
▁Sz	-11.5938
World	-11.5942
three	-11.5942
How	-11.5942
Paris	-11.5942
March	-11.5944
although	-11.5946
▁insight	-11.5947
▁codes	-11.5957
▁contents	-11.5962
▁releas	-11.5964
▁tone	-11.5964
▁prohibit	-11.5967
only	-11.5971
▁intervene	-11.5979
▁factions	-11.5981
▁gates	-11.5981
▁Mé	-11.5985
▁Novgorod	-11.5986
▁Greg	-11.5989
▁grade	-11.599
▁Hil	-11.599
▁arguing	-11.599
▁ceremonial	-11.599
▁detained	-11.599
▁monasteries	-11.599
▁semantic	-11.599
▁silence	-11.599
▁surveillance	-11.599
▁Coalition	-11.599
▁devised	-11.599
▁franchise	-11.599
▁observatory	-11.599
▁ceasefire	-11.599
▁Volume	-11.599
▁cotton	-11.599
▁transmitted	-11.599
▁mortality	-11.599
▁isolation	-11.599
▁naked	-11.599
▁Paolo	-11.599
▁Talpa	-11.599
▁Normandy	-11.599
▁dances	-11.599
▁proceedings	-11.599
▁midnight	-11.5991
▁crack	-11.5991
▁Wilhelmina	-11.5991
▁Witnesses	-11.5991
▁IWL	-11.5991
▁assignment	-11.5991
▁Holmes	-11.5991
▁treaties	-11.5991
▁Churchill	-11.5992
▁Wayne	-11.5993
▁Perry	-11.5993
▁coverage	-11.5994
▁Advanced	-11.5994
▁sketches	-11.5994
citing	-11.5995
▁Professional	-11.5995
garde	-11.5995
▁thrown	-11.5995
▁manifesto	-11.5996
▁Ultimately	-11.5997
▁Reform	-11.5997
▁battlefield	-11.5997
▁Christie	-11.5998
▁canceled	-11.5998
▁Bangladesh	-11.6004
▁Budapest	-11.6004
▁Paradise	-11.6004
▁Thursday	-11.6004
▁Wisconsin	-11.6004
▁Elisabeth	-11.6004
▁Trial	-11.6005
▁Hyman	-11.6006
▁constituted	-11.6006
▁temperatures	-11.6008
▁editors	-11.6009
▁dust	-11.601
▁coordinated	-11.6011
▁pilgrims	-11.6012
▁monumental	-11.6012
▁guaranteed	-11.6012
rag	-11.6013
▁Perhaps	-11.6013
▁binary	-11.6014
iro	-11.6014
mit	-11.6017
app	-11.602
▁practically	-11.6023
▁automatic	-11.6023
▁simplified	-11.6023
▁Store	-11.6024
▁neighbours	-11.6028
▁Noord	-11.6028
▁knowing	-11.6029
▁Cop	-11.603
▁Rex	-11.6032
▁squares	-11.6032
▁lakes	-11.6032
avi	-11.6033
EC	-11.6035
▁Lola	-11.6038
▁Mun	-11.6043
DS	-11.6043
▁Using	-11.6045
▁None	-11.6052
▁Inuit	-11.6056
▁BB	-11.6057
▁HD	-11.6058
anti	-11.6058
titled	-11.6059
▁mar	-11.6059
often	-11.6065
met	-11.6065
▁neck	-11.6071
▁skilled	-11.6072
▁flora	-11.6073
▁functioning	-11.6074
▁determination	-11.608
▁guided	-11.608
▁Self	-11.6083
third	-11.6087
▁valued	-11.6088
orn	-11.6091
rus	-11.6092
▁Cut	-11.6094
▁lesser	-11.6095
connecting	-11.6095
▁debates	-11.6096
▁Smit	-11.6098
win	-11.6105
▁talking	-11.6105
ere	-11.6106
aka	-11.611
mnesty	-11.6116
▁disappearance	-11.6118
lli	-11.6119
▁nomination	-11.6123
unt	-11.6124
▁corporations	-11.6127
▁Bonn	-11.6127
dale	-11.6131
▁successors	-11.6134
▁Ny	-11.6135
gricultural	-11.6138
▁Eyes	-11.6138
▁counterpart	-11.6144
▁yearly	-11.6146
▁Pet	-11.6148
rom	-11.6153
▁eating	-11.6154
hroughout	-11.6155
▁Nieuwe	-11.6155
ult	-11.6157
▁reflection	-11.6161
SO	-11.6166
hill	-11.6167
ping	-11.6174
▁cuts	-11.6177
oriented	-11.6179
▁Cow	-11.6182
▁sometime	-11.6182
place	-11.6182
ald	-11.6185
ami	-11.6186
▁shoes	-11.6187
▁aboard	-11.6187
oy	-11.6189
As	-11.6194
▁Wal	-11.6196
▁Pla	-11.6198
cat	-11.6202
▁managers	-11.6203
EU	-11.6206
▁Pete	-11.6206
▁southeast	-11.6207
▁Wing	-11.6214
bridge	-11.6221
nus	-11.6223
where	-11.6223
▁approaching	-11.6226
since	-11.6228
▁Return	-11.6233
▁invest	-11.6242
▁Chapel	-11.6242
qua	-11.6244
▁maker	-11.625
▁arrange	-11.6252
especially	-11.6252
lia	-11.6254
▁horizontal	-11.6257
▁collaborate	-11.6257
week	-11.6259
▁Ellen	-11.626
▁careful	-11.626
▁Serge	-11.626
▁overthrow	-11.6261
tar	-11.6261
▁nave	-11.6265
▁Own	-11.6266
▁Institut	-11.6266
▁Slovak	-11.6267
▁Bologna	-11.6268
▁Brooklyn	-11.6268
▁Confederation	-11.6268
▁Montenegro	-11.6268
▁Peloponnesian	-11.6268
▁Toulouse	-11.6268
▁Vampire	-11.6268
▁eternal	-11.6268
▁graduating	-11.6268
▁promising	-11.6268
▁Inquiry	-11.6268
▁Brittany	-11.6268
▁Criminal	-11.6268
▁Summit	-11.6268
▁probability	-11.6268
▁multiplication	-11.6268
▁Dawn	-11.6268
▁Creative	-11.6268
▁Porsche	-11.6268
▁ferry	-11.6268
▁marble	-11.6268
▁Cleveland	-11.6268
▁Chemical	-11.6268
▁Curtis	-11.6268
▁peacekeeping	-11.6268
▁Stories	-11.6268
▁exploitation	-11.6269
▁NBA	-11.6269
▁Atlanta	-11.6269
▁Indeed	-11.6269
▁Owen	-11.6269
▁proponent	-11.627
▁satisfied	-11.627
▁gameplay	-11.627
▁interim	-11.627
▁entries	-11.6271
▁Boris	-11.6271
▁journalism	-11.6271
▁liberated	-11.6272
▁hometown	-11.6272
▁Planning	-11.6272
▁subordinate	-11.6272
▁Gran	-11.6272
▁advocates	-11.6273
▁Mix	-11.6275
▁somewhere	-11.6275
▁consumed	-11.6275
▁Siam	-11.6276
▁Friedman	-11.6277
▁Color	-11.6278
▁accomplished	-11.6278
▁strongest	-11.6279
▁Similarly	-11.628
▁welcome	-11.6281
▁reasonable	-11.6281
▁boyfriend	-11.6282
▁optimal	-11.6282
▁Luigi	-11.6282
▁halted	-11.6283
▁profits	-11.6283
▁Duchy	-11.6283
▁Him	-11.6283
▁excavated	-11.6283
▁servers	-11.6284
▁projective	-11.6285
▁matern	-11.6285
▁flown	-11.6286
▁homeland	-11.629
four	-11.6292
▁masses	-11.6292
▁Rau	-11.6293
▁resist	-11.6293
▁publicity	-11.6293
▁algebras	-11.6295
▁Shah	-11.6296
▁Thor	-11.6297
▁identification	-11.6298
▁accession	-11.6299
adi	-11.63
uka	-11.6302
▁terrorism	-11.6302
▁supervisor	-11.6304
▁Atlas	-11.6305
▁Fi	-11.6306
jar	-11.6311
▁Easy	-11.6311
▁Jake	-11.6311
igo	-11.6315
▁Stern	-11.6316
sar	-11.6316
ben	-11.632
▁songwriter	-11.6323
▁attributes	-11.6327
gs	-11.633
▁nationalism	-11.6331
▁input	-11.6335
▁regulated	-11.6343
▁Fr	-11.6345
▁Andy	-11.6346
▁Ark	-11.6347
▁delegates	-11.6347
▁seed	-11.6352
▁killer	-11.6352
▁talents	-11.6352
▁Lange	-11.6354
▁sufficiently	-11.6358
▁outer	-11.6361
▁Haag	-11.6363
tag	-11.6366
▁hate	-11.6369
boat	-11.6372
▁theological	-11.6373
fu	-11.638
▁Buck	-11.6385
▁Dun	-11.6386
mil	-11.6392
ín	-11.6394
SC	-11.6395
▁j	-11.6404
▁slogan	-11.6405
▁suspicion	-11.6406
▁Jew	-11.6407
▁answers	-11.6407
▁Artists	-11.6407
▁precursor	-11.6407
▁certificate	-11.6409
▁battalion	-11.6411
▁Talk	-11.6411
▁Ak	-11.6412
▁Rod	-11.6414
eff	-11.6415
▁observer	-11.642
▁customer	-11.6421
▁adventures	-11.6425
owing	-11.6428
▁shield	-11.643
ery	-11.643
IC	-11.6432
▁Pole	-11.6434
▁Communication	-11.6435
atic	-11.6437
pass	-11.6444
▁estates	-11.6446
▁duke	-11.6455
▁hyper	-11.6455
ugh	-11.6459
▁segments	-11.6461
▁AC	-11.6466
een	-11.6469
ige	-11.6469
▁Linda	-11.647
▁admiral	-11.647
▁payments	-11.6474
▁options	-11.6478
par	-11.6481
▁Offa	-11.6481
▁Hero	-11.6482
▁Dou	-11.6483
▁dollar	-11.6494
▁oppos	-11.6495
▁Prison	-11.6497
▁contracted	-11.6499
▁Ve	-11.65
▁Bio	-11.65
oe	-11.65
religious	-11.6503
view	-11.6503
▁submarines	-11.6507
▁helicopters	-11.6507
▁transformations	-11.6511
▁rounds	-11.6514
▁Gal	-11.6515
▁professionals	-11.6517
▁adjust	-11.6517
nia	-11.6517
source	-11.6518
Jo	-11.6519
dijk	-11.6519
▁Twin	-11.652
▁Ch	-11.6522
▁Pass	-11.6524
box	-11.6527
▁mu	-11.6528
moto	-11.6531
▁Prophet	-11.6533
▁cheap	-11.6537
▁corporation	-11.654
▁weigh	-11.6543
▁blockade	-11.6543
▁gifts	-11.6544
▁Kurt	-11.6545
▁mild	-11.6547
mis	-11.6548
▁Operations	-11.6549
▁grammar	-11.6549
▁Pink	-11.6551
▁blame	-11.6552
▁liquid	-11.6552
▁Belarus	-11.6552
▁Ammianus	-11.6553
▁Carnegie	-11.6553
▁Giuseppe	-11.6553
▁inclusion	-11.6553
▁mystery	-11.6553
▁proximity	-11.6553
▁stem	-11.6553
▁triangle	-11.6553
▁anthology	-11.6553
▁composing	-11.6553
▁Teresa	-11.6553
▁density	-11.6553
▁meanwhile	-11.6554
▁dawn	-11.6554
▁Mafia	-11.6554
▁prostitution	-11.6554
▁summary	-11.6554
▁Friesland	-11.6554
▁Montreal	-11.6554
▁entrust	-11.6554
▁Neumann	-11.6554
▁Sharpless	-11.6554
▁Nashville	-11.6554
▁Dennis	-11.6554
▁passionate	-11.6554
▁chaos	-11.6554
▁Mambo	-11.6555
▁southwest	-11.6555
▁el	-11.6555
▁functionality	-11.6555
▁dedication	-11.6556
▁Sebastian	-11.6556
▁authenticity	-11.6556
▁Burton	-11.6556
▁Eve	-11.6556
▁Vries	-11.6556
▁Geological	-11.6556
▁Leeds	-11.6558
plein	-11.6559
▁villagers	-11.6559
▁Meyer	-11.6559
▁Ecuador	-11.6559
▁pilgrimage	-11.6559
▁Original	-11.6561
▁posed	-11.6561
▁vers	-11.6563
▁Venezuelan	-11.6564
▁Harper	-11.6564
▁organist	-11.6564
▁Beer	-11.6564
▁Bag	-11.6565
▁coaches	-11.6567
▁Helena	-11.6569
▁economically	-11.6569
▁Index	-11.657
lum	-11.657
▁capitalism	-11.6571
▁homeless	-11.6571
▁sp	-11.6572
▁Critics	-11.6572
▁Relations	-11.6572
▁precisely	-11.6574
▁paradox	-11.6574
▁"...	-11.6577
▁northwest	-11.6577
▁École	-11.6578
▁Choice	-11.6578
will	-11.6579
▁random	-11.6579
▁Folk	-11.6579
▁Ven	-11.6581
▁certified	-11.6588
▁eligible	-11.6588
▁bitter	-11.6589
▁distribute	-11.6595
▁Principles	-11.6595
▁Ag	-11.6597
mun	-11.6597
Roman	-11.6597
▁financing	-11.6597
gr	-11.6598
▁bars	-11.6604
▁Travel	-11.6606
▁silent	-11.6607
uff	-11.6608
▁bright	-11.6609
▁Verdi	-11.6611
▁diet	-11.662
IP	-11.6622
▁Cole	-11.6625
aki	-11.6629
▁pronounced	-11.663
lit	-11.6633
▁craft	-11.6634
zzi	-11.6635
▁Generation	-11.6637
▁Mini	-11.6638
group	-11.664
ute	-11.6641
▁AM	-11.6641
▁audition	-11.6643
▁angels	-11.6644
▁protested	-11.6644
aire	-11.6644
▁Bri	-11.6645
▁Augusta	-11.6646
▁individually	-11.6648
▁airports	-11.6649
▁watching	-11.665
▁ensur	-11.6651
▁creatures	-11.6652
▁pole	-11.6652
▁poetic	-11.6653
osaurus	-11.6653
▁talented	-11.6655
▁Mus	-11.6659
▁develops	-11.6668
▁Lei	-11.6669
▁Ce	-11.667
▁Tak	-11.667
▁complaints	-11.6673
▁apartments	-11.6674
▁exploit	-11.6677
▁Ji	-11.6678
▁disappear	-11.668
▁joke	-11.6681
▁mono	-11.6683
nge	-11.6686
▁fo	-11.6689
▁ST	-11.669
▁substitute	-11.6691
▁Chang	-11.6694
nny	-11.6697
▁Gott	-11.6697
▁notions	-11.6699
▁passport	-11.6699
▁motorway	-11.6701
▁Aztec	-11.6701
▁orbit	-11.6702
▁perception	-11.6702
▁diplomat	-11.6703
▁thinks	-11.6704
▁odd	-11.6704
▁wake	-11.6707
▁hostage	-11.6708
▁dome	-11.6711
▁rebel	-11.6711
has	-11.672
▁Artist	-11.6722
▁wise	-11.6727
▁Belle	-11.6733
▁beings	-11.6736
▁defin	-11.6737
pur	-11.6738
▁promises	-11.674
▁trainer	-11.6741
py	-11.6751
▁Isle	-11.6756
▁CEN	-11.6777
▁sculptures	-11.6787
▁legion	-11.6791
Rocky	-11.6793
RA	-11.6797
▁Mali	-11.6799
▁Chad	-11.68
▁Heine	-11.6805
▁electronics	-11.6809
row	-11.6814
▁Did	-11.6815
zel	-11.6827
dam	-11.6828
Our	-11.6829
ters	-11.6832
▁Rosa	-11.6834
▁drunk	-11.6835
▁cease	-11.6837
▁Rwanda	-11.6838
▁Albania	-11.6839
▁geographic	-11.6841
▁recreation	-11.6841
vat	-11.6842
▁Bass	-11.6846
▁Keynes	-11.6846
▁boss	-11.6848
▁Senegal	-11.6848
▁Attorney	-11.6848
▁Belisarius	-11.6848
▁Initiative	-11.6848
▁accuracy	-11.6848
▁advocacy	-11.6848
▁attorney	-11.6848
▁biographer	-11.6848
▁citadel	-11.6848
▁custody	-11.6848
▁deportation	-11.6848
▁illustrator	-11.6848
▁immense	-11.6848
▁millennium	-11.6848
▁privacy	-11.6848
▁solidarity	-11.6848
believing	-11.6848
▁colonel	-11.6848
▁lunar	-11.6848
▁Analysis	-11.6848
▁copied	-11.6848
▁applicable	-11.6848
▁pregnancy	-11.6848
▁macroeconomic	-11.6848
▁distant	-11.6848
▁Dylan	-11.6848
▁karate	-11.6848
▁Rachel	-11.6848
▁cocaine	-11.6848
▁reconnaissance	-11.6848
▁Nevada	-11.6848
▁Bronze	-11.6848
▁foremost	-11.6848
▁UEFA	-11.6848
▁Castro	-11.6848
▁comedian	-11.6848
▁Jamie	-11.6848
▁hierarchy	-11.6848
nin	-11.6848
▁Admiralty	-11.6849
▁coordinator	-11.6849
rot	-11.6849
▁likewise	-11.6849
▁brewery	-11.6849
▁Craig	-11.6849
▁deposed	-11.6849
▁surgeon	-11.685
▁Mohammed	-11.685
▁rejection	-11.685
▁Carmen	-11.685
▁crush	-11.6851
▁Aaron	-11.6851
▁morality	-11.6851
▁drowned	-11.6852
▁runway	-11.6853
▁institutional	-11.6853
▁Body	-11.6854
▁Maryland	-11.6855
▁depot	-11.6855
▁heroes	-11.6856
▁Cap	-11.686
▁spy	-11.686
▁unexpectedly	-11.686
▁Bray	-11.6861
▁Speed	-11.6862
▁Commercial	-11.6863
▁Behind	-11.6863
▁tortured	-11.6863
▁asserted	-11.6863
▁descended	-11.6865
▁Buddha	-11.6866
xx	-11.6868
▁react	-11.6869
▁unsuccessfully	-11.6871
▁prefer	-11.6871
▁empirical	-11.6873
▁Tar	-11.6873
▁embrace	-11.6874
kh	-11.6879
▁pastor	-11.688
▁hail	-11.6882
▁Bohemia	-11.6883
▁Nar	-11.6883
▁Labor	-11.6884
▁Tor	-11.6886
▁wears	-11.6888
phon	-11.6889
▁walked	-11.6892
▁Madison	-11.6893
▁curator	-11.6893
▁tongue	-11.6898
▁stressed	-11.6902
▁Jin	-11.6903
▁Ty	-11.6908
▁Reichs	-11.6914
▁Wii	-11.6914
verse	-11.6918
▁yards	-11.6919
▁favored	-11.692
▁metals	-11.6921
▁Bath	-11.6923
▁Santo	-11.6924
▁Ant	-11.6931
▁auto	-11.6932
▁Sand	-11.6941
▁destroying	-11.6943
▁knights	-11.6945
▁Das	-11.6947
Br	-11.6953
▁Door	-11.6956
▁sur	-11.6959
wick	-11.6968
▁Roberts	-11.6969
▁filter	-11.697
code	-11.6972
▁Xi	-11.6978
▁settings	-11.698
▁exports	-11.6983
▁myth	-11.6986
▁proceed	-11.6986
▁wage	-11.6987
zon	-11.6993
worth	-11.6994
aine	-11.6996
▁Communications	-11.6996
▁Soviets	-11.6999
ivity	-11.6999
▁Tur	-11.7001
lam	-11.7001
▁Zen	-11.7002
kt	-11.7002
▁burial	-11.7003
▁Crow	-11.7003
▁Eagle	-11.7003
▁Kad	-11.7004
▁inspector	-11.7004
▁prosecutor	-11.7005
▁physicist	-11.7007
▁barrier	-11.7007
▁Representative	-11.7009
▁suite	-11.7009
▁proofs	-11.701
▁Josh	-11.701
▁layers	-11.7014
▁Male	-11.7016
kom	-11.7016
▁submit	-11.7017
▁Hol	-11.7018
cle	-11.7022
▁Nassau	-11.7025
▁administrator	-11.7027
och	-11.7028
▁treasure	-11.7031
ographic	-11.7034
▁electron	-11.7034
▁farmer	-11.7034
rop	-11.7037
▁Eu	-11.7043
▁Stones	-11.7043
▁Tang	-11.7046
▁ID	-11.7059
▁Gr	-11.7067
▁Mul	-11.707
▁Use	-11.707
vir	-11.7073
▁flower	-11.7075
▁Gre	-11.7082
▁Ei	-11.7086
▁exceed	-11.7093
▁legs	-11.7094
▁cup	-11.7097
▁plac	-11.7098
ien	-11.71
BL	-11.7102
osi	-11.7103
▁ages	-11.7108
IS	-11.7116
▁advances	-11.7116
▁Qua	-11.7123
▁marriages	-11.7124
matic	-11.7127
▁wheel	-11.7134
jin	-11.7134
built	-11.7135
Why	-11.7135
Pierre	-11.7136
Spanish	-11.7137
▁discharge	-11.7143
▁Burke	-11.7145
mat	-11.7146
▁bonus	-11.7148
bis	-11.7148
▁persuade	-11.7149
▁knock	-11.715
▁catalog	-11.715
▁Knox	-11.715
▁befriend	-11.7151
▁Ahmed	-11.7151
▁Baltimore	-11.7151
▁Conservative	-11.7151
▁Demetrius	-11.7151
▁Innocent	-11.7151
▁Lebanese	-11.7151
▁detention	-11.7151
▁discrete	-11.7151
▁essence	-11.7151
▁ourselves	-11.7151
▁strategies	-11.7151
▁supreme	-11.7151
▁unchanged	-11.7151
▁wisdom	-11.7151
▁Phoenix	-11.7151
▁Santiago	-11.7151
▁Badawi	-11.7151
▁Discovery	-11.7151
▁preliminary	-11.7151
▁Safety	-11.7151
▁Kaiser	-11.7151
▁Yamaha	-11.7151
▁batteries	-11.7151
▁Rouge	-11.7151
▁Gerrit	-11.7151
▁Havana	-11.7151
▁Flora	-11.7151
▁Tunnel	-11.7151
▁expertise	-11.7151
▁firing	-11.7151
▁clay	-11.7152
▁Takeda	-11.7152
▁Vietnamese	-11.7152
▁Denver	-11.7152
▁folklore	-11.7152
▁Hannah	-11.7152
pot	-11.7152
une	-11.7152
▁deployment	-11.7152
yne	-11.7153
▁darkness	-11.7153
▁Wolff	-11.7153
▁reply	-11.7155
▁sexuality	-11.7155
▁motivated	-11.7155
▁similarities	-11.7155
▁airfield	-11.7156
▁Auschwitz	-11.7156
▁Chávez	-11.7156
▁uncovered	-11.7157
▁item	-11.7158
▁takeover	-11.7158
▁Lutheran	-11.7159
▁heavier	-11.716
▁shaped	-11.7161
▁controlling	-11.7161
Ar	-11.7161
ought	-11.7161
▁Cox	-11.7162
▁remarked	-11.7162
Let	-11.7163
game	-11.7164
brand	-11.7165
▁blamed	-11.7165
▁Napoleonic	-11.7166
▁Catalonia	-11.7166
▁communism	-11.7166
▁Nuclear	-11.7166
▁Interactive	-11.7167
▁continents	-11.7167
▁confession	-11.7169
▁Savoy	-11.7169
▁loaded	-11.717
▁photographic	-11.717
▁Set	-11.717
▁poisoned	-11.7171
▁lecturer	-11.7171
▁consistently	-11.7171
▁Oriental	-11.7175
▁DFDS	-11.7177
▁scarce	-11.7177
▁domination	-11.7177
▁Search	-11.7177
▁Panzer	-11.7177
▁Porter	-11.7181
▁Younger	-11.7183
▁Falcon	-11.7185
▁exercises	-11.7185
▁Slavic	-11.7188
▁GP	-11.7188
▁crusaders	-11.7188
shin	-11.7189
▁implications	-11.7193
▁SP	-11.7193
▁martial	-11.7197
▁realm	-11.7198
ira	-11.7199
▁desktop	-11.7202
ric	-11.7211
▁IRA	-11.7212
ania	-11.7214
▁Contra	-11.722
▁Spa	-11.7222
▁meter	-11.7222
▁Bla	-11.7225
▁Piet	-11.7226
▁Provincial	-11.7229
▁sleeping	-11.723
▁pub	-11.723
▁choices	-11.7235
▁obligations	-11.7237
▁molecules	-11.7242
▁Us	-11.7242
▁scattered	-11.7242
▁sheet	-11.7246
cia	-11.7246
▁Nicolas	-11.7247
▁bore	-11.725
▁prototypes	-11.7252
▁compare	-11.7255
▁alter	-11.7257
▁nose	-11.7257
bin	-11.726
upcoming	-11.7262
▁defenders	-11.7263
▁Vera	-11.7264
Go	-11.7269
▁Happy	-11.7271
▁orchestras	-11.7271
▁modifications	-11.7273
▁venues	-11.7273
▁tall	-11.7274
▁ambitions	-11.7277
▁athletes	-11.7277
▁renounce	-11.7281
▁intensive	-11.7281
mber	-11.7283
▁Vin	-11.7288
anda	-11.7288
▁Hus	-11.7294
▁contacted	-11.7299
▁governmental	-11.7301
Big	-11.7303
▁entrepreneur	-11.7308
▁satrap	-11.731
▁interviewed	-11.731
▁Neith	-11.731
▁trace	-11.7311
▁preferences	-11.7313
▁magnitude	-11.7314
▁explor	-11.7315
MC	-11.7316
▁automobile	-11.7317
▁conviction	-11.7319
▁companion	-11.7319
▁Simpson	-11.7319
▁Kra	-11.732
▁transaction	-11.732
▁elephant	-11.7321
▁emission	-11.7322
Star	-11.7322
▁explosives	-11.7322
▁headquarter	-11.7323
Con	-11.7324
gre	-11.7325
MP	-11.7325
oku	-11.7326
▁accessed	-11.7326
koda	-11.7326
▁shortage	-11.733
▁wines	-11.7331
▁Nationale	-11.7333
▁Murder	-11.7337
▁interpretations	-11.7337
cker	-11.7337
▁Breda	-11.7337
▁Gos	-11.7338
▁anarchist	-11.7342
▁similarly	-11.7344
▁designers	-11.7345
rick	-11.7347
▁Tele	-11.7351
▁Lama	-11.7352
▁Motors	-11.7352
NI	-11.7354
▁loans	-11.7355
▁warrior	-11.7358
erman	-11.7361
▁railways	-11.7364
▁monster	-11.7367
▁sizes	-11.7367
key	-11.7371
▁innovations	-11.7372
San	-11.7372
▁Row	-11.7377
nese	-11.7382
ple	-11.7386
ders	-11.7386
▁hole	-11.7389
▁printer	-11.7391
city	-11.7396
▁captur	-11.7406
▁rituals	-11.7408
▁Hay	-11.7411
loosely	-11.7414
▁Ottomans	-11.7414
▁Table	-11.7417
▁Bru	-11.7421
▁bull	-11.7423
▁Orient	-11.7429
int	-11.7431
▁RT	-11.7436
▁swor	-11.7437
▁moments	-11.7441
zu	-11.7442
▁bath	-11.7443
get	-11.7444
▁partition	-11.7446
vit	-11.7446
piece	-11.7447
▁Mira	-11.7451
▁ter	-11.7452
▁profound	-11.7453
government	-11.7453
▁definitive	-11.7453
▁reinforce	-11.7454
Free	-11.7459
▁Haiti	-11.7459
▁hell	-11.7459
International	-11.7459
alt	-11.746
▁reads	-11.746
Article	-11.7461
established	-11.7462
▁Agricola	-11.7463
▁Innovation	-11.7463
▁Medieval	-11.7463
▁Nowadays	-11.7463
▁Rembrandt	-11.7463
▁Sacred	-11.7463
▁Tuesday	-11.7463
▁barracks	-11.7463
▁colonists	-11.7463
▁critique	-11.7463
▁cuisine	-11.7463
▁displaced	-11.7463
▁dominance	-11.7463
▁fiscal	-11.7463
▁skull	-11.7463
▁Maximilian	-11.7463
▁café	-11.7463
▁timber	-11.7463
▁Sumatra	-11.7463
▁psychiatric	-11.7463
▁Burundi	-11.7463
▁Unfortunately	-11.7463
▁pleasure	-11.7463
▁spokesman	-11.7463
▁psychologist	-11.7463
▁Cornell	-11.7463
▁hub	-11.7463
▁Gauss	-11.7464
▁Round	-11.7464
▁annexation	-11.7464
▁enrich	-11.7465
▁Ibn	-11.7465
▁Antiochus	-11.7466
▁orange	-11.7466
▁consequently	-11.7466
▁stripped	-11.7466
▁PhD	-11.7468
▁laser	-11.7469
▁dictatorship	-11.7469
▁Babylonian	-11.747
▁prose	-11.7471
▁reprinted	-11.7471
▁overview	-11.7471
▁acceptable	-11.7472
naar	-11.7473
▁Salon	-11.7473
▁anime	-11.7474
▁carefully	-11.7475
▁mistaken	-11.7476
▁Combat	-11.7476
▁gains	-11.7476
▁Cu	-11.7476
▁Rally	-11.7478
▁nest	-11.7479
ichi	-11.7479
▁Burgundian	-11.7479
▁Mechelen	-11.7479
▁Zagreb	-11.7479
▁Severus	-11.748
▁Ethiopian	-11.7481
▁comprised	-11.7484
▁busy	-11.7486
▁consulting	-11.7489
▁socialism	-11.7489
▁Chair	-11.749
▁Ensemble	-11.749
▁nationality	-11.749
▁Quran	-11.7493
loved	-11.7494
▁rewarded	-11.7495
ques	-11.7497
▁poisoning	-11.7497
diagnosed	-11.7497
▁statistics	-11.7497
▁Kirk	-11.7498
▁stream	-11.75
▁fauna	-11.7501
▁cooperative	-11.7502
▁deck	-11.7505
▁Suite	-11.7505
▁AB	-11.7505
▁Laura	-11.7507
chin	-11.751
▁Palatinate	-11.7511
▁denote	-11.7512
▁Andre	-11.7513
▁constraints	-11.7516
▁install	-11.7516
▁Rode	-11.7516
▁surroundings	-11.7518
fl	-11.7519
▁glaciers	-11.7525
▁elect	-11.7525
eke	-11.7528
▁dam	-11.7529
▁donations	-11.753
▁Kam	-11.7531
▁globally	-11.7532
▁conscious	-11.7533
▁Everyone	-11.7536
bri	-11.7536
▁novelist	-11.7536
▁exchanged	-11.7536
▁emergenc	-11.7537
▁identifying	-11.7538
▁listening	-11.7538
▁USS	-11.7538
▁Hy	-11.754
▁tablets	-11.7541
King	-11.7544
▁envoys	-11.7548
▁revolve	-11.7548
▁abbreviated	-11.7555
▁cube	-11.756
▁tombs	-11.7563
▁fat	-11.7566
▁ranges	-11.7569
▁Change	-11.7579
▁Bran	-11.7579
▁Depend	-11.7581
▁fur	-11.7582
▁monitor	-11.7583
▁poster	-11.7585
▁legends	-11.7586
arum	-11.7587
▁Sancho	-11.7592
▁q	-11.7593
bul	-11.7595
▁Sta	-11.7597
▁shapes	-11.76
▁Liu	-11.7604
▁Ted	-11.7605
▁Rad	-11.7606
\	-11.7612
▁CIA	-11.7616
▁geo	-11.7619
▁insufficient	-11.7621
▁}	-11.7627
▁Dom	-11.763
▁immun	-11.7631
▁cartoon	-11.7636
▁emphasize	-11.7636
▁cardinal	-11.7637
▁puzzle	-11.7638
▁keyboard	-11.7639
▁observe	-11.764
▁cluster	-11.764
▁breaks	-11.7641
▁scenario	-11.7643
▁veteran	-11.7643
▁ancestor	-11.7644
▁suggestion	-11.7644
▁collector	-11.7649
▁lighter	-11.765
▁specification	-11.7652
▁Rue	-11.7654
▁spirits	-11.7655
IN	-11.7656
▁formats	-11.7658
▁heated	-11.7661
▁afterward	-11.7662
▁Ned	-11.7666
sberg	-11.7667
▁Claus	-11.7669
hara	-11.7669
ör	-11.7672
Ta	-11.7673
▁Lucia	-11.7677
▁schemes	-11.7677
▁pe	-11.7679
▁Monster	-11.7679
EA	-11.7682
Vi	-11.7682
take	-11.7683
nda	-11.7683
press	-11.7683
▁Ober	-11.7689
▁Singer	-11.7692
▁storms	-11.7703
rr	-11.7706
▁Chart	-11.771
▁Papa	-11.7712
▁floors	-11.7716
rian	-11.7717
ER	-11.7724
▁poison	-11.7729
Am	-11.773
CA	-11.773
▁princess	-11.7735
▁observ	-11.7739
▁Publish	-11.7743
▁Gauls	-11.7743
▁thoughts	-11.7744
▁Brain	-11.7751
▁altitude	-11.7755
▁Met	-11.776
▁Mikhail	-11.7761
▁Face	-11.7761
▁identifie	-11.7763
▁punish	-11.7764
▁enthusiastic	-11.7764
▁Pen	-11.7766
▁Dala	-11.7766
▁Lead	-11.7769
▁invade	-11.7775
▁norm	-11.7776
▁Cambodia	-11.7776
Benz	-11.7778
▁thick	-11.7779
▁Room	-11.778
▁volcano	-11.7782
▁undertake	-11.7785
▁convey	-11.7785
▁Artyom	-11.7786
▁Bristol	-11.7786
▁Columbus	-11.7786
▁Mesopotamia	-11.7786
▁Sejanus	-11.7786
▁celebrating	-11.7786
▁encouraging	-11.7786
▁genocide	-11.7786
▁mercury	-11.7786
▁siblings	-11.7786
▁vicinity	-11.7786
▁Nuremberg	-11.7786
▁Period	-11.7786
▁mankind	-11.7786
▁tragic	-11.7786
▁Kraków	-11.7786
▁Territory	-11.7786
▁contemporaries	-11.7786
▁tuberculosis	-11.7786
▁victorious	-11.7786
▁Beatrice	-11.7786
▁spatial	-11.7786
▁commentaries	-11.7786
▁instability	-11.7786
▁Miranda	-11.7786
▁Vichy	-11.7786
▁Liège	-11.7786
▁Provision	-11.7786
▁Socrates	-11.7786
▁Duncan	-11.7786
▁Emmy	-11.7786
état	-11.7786
▁Contest	-11.7786
▁improvisation	-11.7786
▁screenplay	-11.7786
▁Salzburg	-11.7786
▁Isabella	-11.7786
▁Noether	-11.7786
▁Claire	-11.7786
▁productivity	-11.7786
▁Stanford	-11.7786
▁trumpet	-11.7787
▁spacecraft	-11.7787
▁Drake	-11.7787
▁sculptor	-11.7787
▁monopoly	-11.7787
▁deteriorated	-11.7787
▁customary	-11.7787
▁Lorenzo	-11.7787
▁coordination	-11.7787
▁Airbus	-11.7787
▁everywhere	-11.7788
▁Jeff	-11.7788
▁consultation	-11.7788
kon	-11.7789
▁Cooperation	-11.7789
▁mountainous	-11.7789
▁Sue	-11.779
lm	-11.7792
Little	-11.7792
▁columnist	-11.7792
episode	-11.7792
Black	-11.7793
▁cheaper	-11.7793
▁Riga	-11.7793
▁Princeton	-11.7793
famous	-11.7793
▁beaches	-11.7793
Latin	-11.7793
▁handling	-11.7793
Christian	-11.7793
▁Chilean	-11.7794
▁eaten	-11.7794
▁overlap	-11.7795
▁finest	-11.7796
▁spelled	-11.7797
▁Notable	-11.7798
▁compiler	-11.7798
▁Qui	-11.7798
▁Clare	-11.7799
tri	-11.7801
▁circulated	-11.7802
▁ITV	-11.7803
▁realism	-11.7803
▁Singh	-11.7804
▁disabled	-11.7805
▁Scots	-11.7805
▁commands	-11.7806
ora	-11.7808
Time	-11.7811
CC	-11.7811
▁crosses	-11.7811
▁indirect	-11.7812
▁Cyber	-11.7812
specific	-11.7813
▁Wave	-11.7813
▁designing	-11.7813
▁trapped	-11.7813
bound	-11.7813
▁Antilles	-11.7816
hai	-11.7817
▁nobody	-11.7818
▁conception	-11.7819
▁correctly	-11.7819
▁Publishing	-11.7821
gin	-11.7822
ía	-11.7822
▁Monetar	-11.7824
▁Jakarta	-11.7825
ESF	-11.7825
OR	-11.7826
▁Oak	-11.7827
▁conclusions	-11.7827
▁differs	-11.7828
▁Robertson	-11.7829
▁complexes	-11.7831
face	-11.7832
▁listing	-11.7835
▁holder	-11.7836
▁Reformation	-11.7837
▁Sally	-11.7839
▁sexually	-11.7842
▁absorbed	-11.7843
▁avant	-11.7844
▁Pur	-11.7844
▁Veld	-11.7846
▁respects	-11.7846
▁evaluation	-11.7848
aba	-11.7853
▁extract	-11.7853
▁Daleks	-11.7854
▁atoms	-11.7855
gh	-11.7859
ches	-11.7859
▁Sunda	-11.7866
▁Canon	-11.7866
▁pretend	-11.7872
▁wounds	-11.7873
”,	-11.7875
▁investigators	-11.7875
▁Quest	-11.7878
▁Pictures	-11.7878
▁imply	-11.7878
▁flows	-11.7881
quin	-11.7884
uur	-11.7888
ción	-11.7888
▁Constant	-11.789
stop	-11.789
▁concessions	-11.7892
▁Online	-11.7892
▁modes	-11.7894
▁suited	-11.7898
▁Vic	-11.7901
▁representations	-11.7904
▁Geo	-11.7905
So	-11.7905
▁XI	-11.7906
dag	-11.7913
▁Pact	-11.7913
uc	-11.7925
▁Wei	-11.7926
▁cruisers	-11.7926
▁allocat	-11.7929
▁Maj	-11.7931
anta	-11.7937
ois	-11.7937
▁encode	-11.7938
bor	-11.7941
▁wages	-11.7942
▁rejoin	-11.7946
▁Bol	-11.7948
PS	-11.7951
lix	-11.7956
sey	-11.7959
â	-11.7961
▁Fl	-11.7966
nl	-11.7967
▁speculation	-11.797
▁Wine	-11.7972
woman	-11.7973
▁lawsuit	-11.7973
▁diagram	-11.7974
aided	-11.7974
▁skeleton	-11.7975
▁utter	-11.7975
▁diamond	-11.7976
▁fights	-11.7977
▁Animal	-11.7977
ole	-11.7977
▁storyline	-11.7978
▁resource	-11.7981
▁wonder	-11.7986
▁Sign	-11.7987
member	-11.7988
▁Investigation	-11.799
▁nights	-11.7994
▁basin	-11.7997
▁visitor	-11.7999
tia	-11.7999
▁je	-11.7999
▁Bra	-11.8
▁commissioner	-11.8002
ose	-11.8003
▁Scha	-11.8005
ologist	-11.8007
tius	-11.801
▁asteroid	-11.8011
▁Groot	-11.8013
▁Jung	-11.8014
name	-11.8014
▁tales	-11.8016
pol	-11.8018
▁cruiser	-11.8019
▁Champions	-11.8022
▁sin	-11.8023
ô	-11.8027
▁exceptions	-11.8032
▁miss	-11.8036
oka	-11.8045
rant	-11.8045
iana	-11.8057
▁enterprises	-11.806
▁Ellis	-11.8065
absolutely	-11.8065
▁Emil	-11.8066
▁celebrations	-11.807
▁lift	-11.8072
structed	-11.8072
▁forum	-11.808
sol	-11.8081
▁Burn	-11.8082
War	-11.8082
▁escapes	-11.8088
▁Barr	-11.8095
▁households	-11.8099
oid	-11.8103
▁execute	-11.8109
▁protocols	-11.8109
▁Brig	-11.8111
▁DS	-11.8112
▁impose	-11.8112
▁feud	-11.8113
▁evacuate	-11.8113
neath	-11.8113
▁graduate	-11.8114
▁Sem	-11.8118
cultural	-11.8118
▁Czechoslovakia	-11.8119
▁Galaxy	-11.8119
▁Miguel	-11.8119
▁Quebec	-11.8119
▁fascinated	-11.8119
▁qualities	-11.8119
▁reunion	-11.8119
▁Economy	-11.8119
▁exotic	-11.8119
▁quantitative	-11.8119
▁width	-11.8119
▁gamma	-11.8119
▁Cancer	-11.8119
▁Jarrah	-11.8119
▁Lindsay	-11.8119
▁embedded	-11.8119
▁Dionysius	-11.8119
▁Epirus	-11.8119
▁Framework	-11.8119
▁ideological	-11.8119
▁kitchen	-11.8119
▁Andorra	-11.8119
▁brachytherapy	-11.8119
▁hostilities	-11.8119
▁Gibson	-11.8119
▁pornography	-11.8119
▁Edmund	-11.8119
▁crypt	-11.8119
▁subsidies	-11.8119
▁pseudoscience	-11.8119
▁accommodation	-11.8119
▁Claudius	-11.8119
▁hurt	-11.8119
▁calculus	-11.8119
▁Norris	-11.8119
▁showcase	-11.8119
▁Olaf	-11.8119
▁Plaza	-11.8119
▁multinational	-11.812
fil	-11.812
▁Crete	-11.812
▁Alpha	-11.812
▁livestock	-11.812
▁textual	-11.812
▁Tyson	-11.812
▁Riley	-11.812
▁pact	-11.812
▁XIV	-11.812
▁transcendental	-11.812
▁Previously	-11.8121
▁mature	-11.8121
▁hunger	-11.8122
▁Transportation	-11.8122
▁Fernando	-11.8122
▁Globe	-11.8123
▁corrupt	-11.8124
rising	-11.8124
▁violinist	-11.8125
▁cultivated	-11.8125
▁Plutarch	-11.8125
▁abbreviation	-11.8125
▁pharmaceutical	-11.8125
▁stepped	-11.8125
▁Cody	-11.8126
▁borrowed	-11.8126
▁recreational	-11.8126
▁Golf	-11.8127
▁Rise	-11.8128
▁Nile	-11.8131
▁introducing	-11.8132
▁Superman	-11.8133
▁Algerian	-11.8135
▁Ralph	-11.8135
screen	-11.8136
Where	-11.8136
fiction	-11.8136
▁Elements	-11.8136
▁Lazarsfeld	-11.8136
▁Twente	-11.8136
▁achieving	-11.8136
▁prestige	-11.8136
▁Insurance	-11.8136
▁Bolivia	-11.8136
▁Oregon	-11.8137
▁Göttingen	-11.8137
distance	-11.8137
Bahá	-11.8137
museum	-11.8137
natural	-11.8137
block	-11.8138
▁affirm	-11.8138
▁Fantastic	-11.8138
▁calculated	-11.8139
▁BV	-11.8139
market	-11.8139
▁refusal	-11.8141
lim	-11.8144
▁auditioned	-11.8144
▁resisted	-11.8145
powered	-11.8145
spoken	-11.8146
NO	-11.8147
▁Miracle	-11.8148
▁tribal	-11.8148
▁photographed	-11.8149
▁inequality	-11.815
▁deeper	-11.815
▁freelance	-11.8151
▁modeling	-11.8151
its	-11.8152
▁Gross	-11.8152
▁tight	-11.8152
▁combinations	-11.8154
▁probabl	-11.8157
▁parking	-11.8159
▁Panorama	-11.8159
▁grandparents	-11.8159
▁Assistant	-11.8159
▁interference	-11.8159
▁gross	-11.816
mail	-11.816
▁Raw	-11.8161
too	-11.8163
▁Rocket	-11.8163
▁Chin	-11.8167
▁newer	-11.8167
▁Jet	-11.8168
▁toxic	-11.817
▁panels	-11.8173
▁Liber	-11.8175
Ca	-11.8176
▁pap	-11.8176
▁patented	-11.818
mmer	-11.8183
aj	-11.8184
▁Marina	-11.8187
▁aerial	-11.8188
▁obscure	-11.819
▁technically	-11.8192
▁SE	-11.8192
▁Close	-11.8195
▁Virtual	-11.8196
▁permit	-11.8204
▁peasants	-11.8205
▁postal	-11.8205
ged	-11.8206
▁Manu	-11.8206
▁Maps	-11.8206
▁draws	-11.8213
chan	-11.8213
cri	-11.822
▁danced	-11.8222
▁Look	-11.8226
bat	-11.8227
CF	-11.8227
▁reissue	-11.823
▁Des	-11.8231
▁Andrews	-11.8231
▁rough	-11.8231
vent	-11.8235
▁Arms	-11.8235
shan	-11.8237
▁beating	-11.8239
▁Tales	-11.8241
▁luck	-11.8242
▁lying	-11.8242
Mi	-11.8243
ios	-11.825
▁inmates	-11.8251
▁dreams	-11.8252
▁bombers	-11.8254
▁cyber	-11.8255
▁destroyers	-11.8258
ees	-11.8261
▁Que	-11.8263
▁cent	-11.8263
▁Fry	-11.8269
▁scenarios	-11.8269
▁Fra	-11.8273
fish	-11.8275
owski	-11.8277
▁throw	-11.8278
▁Ren	-11.8281
fire	-11.8284
yi	-11.8284
zar	-11.8285
▁Rama	-11.8288
ments	-11.8288
▁Sanders	-11.8288
▁battalions	-11.8288
▁Sri	-11.829
▁planted	-11.8292
▁sad	-11.8294
makers	-11.8294
EP	-11.8297
▁Rey	-11.8303
▁sits	-11.8303
bbe	-11.8309
ID	-11.831
▁conclude	-11.8311
bil	-11.8313
▁sponsors	-11.8314
▁launching	-11.8317
▁rifle	-11.8319
▁miniature	-11.832
▁ecclesiastic	-11.8321
▁ambition	-11.8321
▁athlete	-11.8321
▁Andrea	-11.8323
▁refuse	-11.8324
▁drum	-11.8325
▁costume	-11.8325
▁complaint	-11.8326
▁immigrant	-11.8329
▁imports	-11.833
▁hunter	-11.8332
▁crop	-11.8334
▁Source	-11.8337
▁Number	-11.8337
▁pitch	-11.8344
▁arc	-11.8345
▁distances	-11.8351
nce	-11.8355
inch	-11.8357
FI	-11.8359
▁ch	-11.8362
▁Knights	-11.8363
green	-11.8364
VA	-11.8367
▁installations	-11.8368
▁appoint	-11.837
ides	-11.8384
ture	-11.8386
finitely	-11.8387
▁stimulate	-11.8389
▁seasonal	-11.8389
▁stroke	-11.839
bot	-11.8393
▁earning	-11.8396
ès	-11.84
▁pray	-11.8401
▁Dai	-11.8403
▁AT	-11.8409
▁Kur	-11.8411
▁onward	-11.8413
ax	-11.8416
gle	-11.8419
▁adds	-11.842
duc	-11.8421
poli	-11.8427
▁Mou	-11.8428
▁USB	-11.8429
▁Jos	-11.843
▁cc	-11.8433
▁load	-11.8436
▁golf	-11.8437
▁attractions	-11.8439
uv	-11.844
standing	-11.8445
▁Ton	-11.8448
▁thorough	-11.8454
jan	-11.8457
▁Nicaragua	-11.8457
▁clergy	-11.8461
gun	-11.8461
▁Crimea	-11.8462
Mu	-11.8462
▁Claris	-11.8463
▁Springs	-11.8464
▁Frederik	-11.8464
Guinness	-11.8464
▁Aegean	-11.8464
▁Connecticut	-11.8464
▁Conservation	-11.8464
▁García	-11.8464
▁Henderson	-11.8464
▁Joachim	-11.8464
▁Poincaré	-11.8464
▁SmackDown	-11.8464
▁Tacitus	-11.8464
▁Tournament	-11.8464
▁dignity	-11.8464
▁expulsion	-11.8464
▁luxury	-11.8464
▁Arsenal	-11.8464
▁Restoration	-11.8464
▁Toledo	-11.8464
▁niece	-11.8464
▁Eumenes	-11.8464
▁Putnam	-11.8464
▁Statistics	-11.8464
▁Telescope	-11.8464
▁Arnhem	-11.8464
▁parody	-11.8464
▁availability	-11.8464
▁omitted	-11.8464
▁Commodore	-11.8464
▁Empress	-11.8464
▁Register	-11.8464
▁inauguration	-11.8464
▁Foster	-11.8464
▁altogether	-11.8464
▁obey	-11.8464
▁demographic	-11.8464
▁homosexuality	-11.8464
▁Monaco	-11.8464
▁Shelley	-11.8464
▁Davies	-11.8465
▁Gaius	-11.8465
▁thou	-11.8465
▁birthplace	-11.8465
▁Montana	-11.8465
▁Sergeant	-11.8465
▁Nissan	-11.8465
▁Aircraft	-11.8465
▁Kenny	-11.8465
▁chorus	-11.8465
▁interactive	-11.8465
▁optional	-11.8465
▁Strange	-11.8465
▁arbitrary	-11.8465
▁everybody	-11.8465
▁Schmidt	-11.8465
▁XII	-11.8465
▁prolong	-11.8466
▁Putin	-11.8466
▁agenda	-11.8466
▁clashes	-11.8466
▁Lotus	-11.8467
▁flagship	-11.8467
▁devotion	-11.8467
▁quest	-11.8467
▁Beast	-11.8468
▁comply	-11.8469
▁sentences	-11.8469
▁panic	-11.8469
▁assess	-11.8469
author	-11.8469
▁Burgundy	-11.847
▁Montgomery	-11.847
▁Physics	-11.847
▁deliberately	-11.8471
▁triggered	-11.8471
▁burnt	-11.8471
oon	-11.8472
▁Battlegroup	-11.8472
▁Tal	-11.8472
▁leased	-11.8474
hould	-11.8475
▁complexity	-11.8475
▁calculate	-11.8477
▁grace	-11.8477
ect	-11.8479
▁Cash	-11.848
▁privilege	-11.848
▁Mainz	-11.8481
▁Mississippi	-11.8482
▁Sullivan	-11.8482
▁terrible	-11.8482
▁Essex	-11.8482
▁Michiel	-11.8482
bia	-11.8482
▁Terminal	-11.8483
▁lobbying	-11.8484
NE	-11.8489
▁reacted	-11.8489
▁Yang	-11.8489
father	-11.849
▁Ul	-11.8491
▁visa	-11.8492
▁Constitutional	-11.8493
shaped	-11.8493
force	-11.8493
▁circular	-11.8494
▁racism	-11.8494
▁smoking	-11.8494
▁Ladies	-11.8494
political	-11.8494
December	-11.8495
great	-11.8495
season	-11.8495
hua	-11.8496
▁Site	-11.8496
▁Bang	-11.8497
first	-11.8497
▁broadly	-11.8497
▁editing	-11.8498
▁substantially	-11.8498
rel	-11.8498
▁Historic	-11.8499
▁Oost	-11.8499
▁indirectly	-11.8499
▁cabin	-11.85
iff	-11.85
▁Rick	-11.8501
▁Lilly	-11.8503
Who	-11.8503
▁intellectuals	-11.8504
step	-11.8508
▁traders	-11.8508
God	-11.8509
normal	-11.851
Rock	-11.851
▁Manager	-11.8511
▁Franc	-11.8511
▁Spaniards	-11.8512
▁raided	-11.8513
▁Muse	-11.8513
▁differently	-11.8515
▁alarm	-11.8516
▁punished	-11.8517
▁proto	-11.8517
▁cognitive	-11.8517
▁Negro	-11.8518
▁Ultra	-11.8518
▁Flash	-11.8518
▁Form	-11.8519
▁presid	-11.8519
▁doubts	-11.8519
▁loose	-11.852
▁Money	-11.852
▁Sons	-11.852
raced	-11.8527
▁Resident	-11.8533
▁Hit	-11.8535
ière	-11.8537
▁Drive	-11.854
Can	-11.8543
Ro	-11.8544
▁Martina	-11.8544
▁É	-11.8545
▁remarks	-11.8548
▁Batavian	-11.8548
▁patch	-11.8549
▁networking	-11.855
open	-11.8552
▁archaeologists	-11.8553
rous	-11.8553
▁Ry	-11.8557
▁Sei	-11.8561
eth	-11.8564
▁voluntary	-11.8565
tank	-11.8565
▁Mare	-11.8569
Bu	-11.8576
▁Société	-11.8577
hether	-11.8578
▁log	-11.858
▁avoided	-11.8582
▁Things	-11.8583
▁EC	-11.8585
uit	-11.8589
aro	-11.8592
▁CSI	-11.8594
▁Mead	-11.8598
▁fails	-11.8599
zin	-11.8603
▁lighting	-11.8603
uma	-11.8605
▁Italians	-11.8607
▁pack	-11.8609
▁Hits	-11.8609
▁Tam	-11.861
ander	-11.8623
▁jet	-11.8623
▁transactions	-11.8624
gram	-11.8625
▁Gardens	-11.8628
range	-11.863
bon	-11.8633
▁Rosas	-11.8635
▁airlines	-11.8637
▁seeds	-11.8644
lot	-11.8645
▁mineral	-11.8645
eren	-11.8646
ual	-11.8647
usa	-11.8649
▁Mai	-11.8649
BA	-11.8649
▁astronomers	-11.865
▁Dale	-11.8652
dorf	-11.8652
▁axioms	-11.8655
aw	-11.8657
▁User	-11.8659
▁Too	-11.8659
▁Mongol	-11.8667
▁graph	-11.8671
▁Penn	-11.8671
▁ceiling	-11.8672
▁congregation	-11.8672
hop	-11.8674
▁stronghold	-11.8674
▁federation	-11.8674
▁militia	-11.8674
▁Alba	-11.8676
▁contributor	-11.8677
held	-11.8677
▁shareholder	-11.8678
▁venue	-11.8678
▁modification	-11.8679
BC	-11.868
ock	-11.8681
▁Milo	-11.8683
▁Vo	-11.8684
▁plantation	-11.8685
▁Ai	-11.8687
uda	-11.8691
▁caves	-11.8691
▁anger	-11.8693
▁Assyrian	-11.8693
▁Present	-11.8693
▁assumption	-11.8694
lf	-11.8696
▁Adventure	-11.8698
▁Nan	-11.8699
▁destroyer	-11.8699
GC	-11.8699
▁Hindu	-11.8701
▁eruptions	-11.8701
▁edit	-11.8709
niface	-11.871
Com	-11.8712
▁comfort	-11.8715
PC	-11.8716
▁repairs	-11.8718
▁controller	-11.8719
Muslim	-11.8723
▁Full	-11.8724
las	-11.873
▁portal	-11.8731
▁bonds	-11.8733
▁CA	-11.8736
▁Lam	-11.8737
▁samples	-11.8753
▁Gates	-11.8756
ines	-11.8756
▁chronicle	-11.8756
▁Fan	-11.8761
▁Leone	-11.8765
cen	-11.8766
▁Think	-11.8768
▁cook	-11.8774
▁castles	-11.8774
▁ear	-11.8777
▁Cer	-11.8778
▁plunder	-11.8784
▁uit	-11.8784
ulf	-11.8786
▁Guitar	-11.8789
▁Link	-11.8793
▁torpedo	-11.8794
▁curves	-11.8795
▁flourish	-11.8796
▁Era	-11.8796
▁Psycho	-11.8799
▁drain	-11.8799
▁Pub	-11.8801
▁Eli	-11.8804
Oh	-11.8804
▁triple	-11.8806
▁bombings	-11.881
▁numerical	-11.8811
▁gradual	-11.8811
▁Antarctic	-11.8811
▁breach	-11.8811
Van	-11.8813
▁Carr	-11.8813
▁Valencia	-11.8813
llo	-11.8814
▁directing	-11.8814
cell	-11.8815
▁Quarter	-11.8815
▁rector	-11.8816
Vereniging	-11.8821
▁Archimedes	-11.8821
▁Arizona	-11.8821
▁Battalion	-11.8821
▁Cunningham	-11.8821
▁Kenneth	-11.8821
▁Portrait	-11.8821
▁Timoleon	-11.8821
▁brilliant	-11.8821
▁curvature	-11.8821
▁declaring	-11.8821
▁dictionary	-11.8821
▁expenditure	-11.8821
▁genuine	-11.8821
▁happiness	-11.8821
▁necessity	-11.8821
▁outskirts	-11.8821
▁unprecedented	-11.8821
▁Circuit	-11.8821
▁Smolensk	-11.8821
▁quartet	-11.8821
▁ratified	-11.8821
▁VOC	-11.8821
▁Vilnius	-11.8821
▁holomorphic	-11.8821
▁Clement	-11.8821
▁mercy	-11.8821
▁Religious	-11.8821
▁Contemporary	-11.8821
▁Hopkins	-11.8821
▁Fermat	-11.8821
▁capability	-11.8821
▁Berkeley	-11.8821
▁Squadron	-11.8821
▁Zurich	-11.8821
▁cultivation	-11.8821
▁supernatural	-11.8821
▁Granada	-11.8821
▁extant	-11.8821
▁Thunder	-11.8821
▁Weimar	-11.8821
▁organising	-11.8821
▁humorous	-11.8821
▁Léon	-11.8822
▁Fer	-11.8822
▁testified	-11.8822
▁strive	-11.8822
▁Directive	-11.8822
▁mapping	-11.8822
▁Gwen	-11.8822
▁extinction	-11.8822
ronym	-11.8822
▁attendance	-11.8822
▁Formation	-11.8823
▁priorities	-11.8823
▁Silva	-11.8823
▁Logan	-11.8823
ses	-11.8823
▁analyses	-11.8823
▁methodology	-11.8823
▁Below	-11.8823
▁Tyler	-11.8823
▁CNN	-11.8823
▁keen	-11.8823
▁neutrality	-11.8823
▁Brun	-11.8823
▁layout	-11.8824
▁Wasp	-11.8824
bur	-11.8824
▁Thanks	-11.8824
▁posthumously	-11.8824
▁Stella	-11.8825
▁Sword	-11.8825
▁effectiveness	-11.8825
▁Siena	-11.8825
▁volcanoes	-11.8825
▁Hayes	-11.8825
▁IPF	-11.8825
▁choreography	-11.8826
▁assign	-11.8826
▁Jackie	-11.8827
▁Stuttgart	-11.8828
▁Opel	-11.8828
▁anymore	-11.8828
▁Noah	-11.8828
▁taxation	-11.8828
▁betrayed	-11.8828
▁saga	-11.8828
▁Byron	-11.8829
▁realization	-11.8829
▁justify	-11.8829
▁Bauer	-11.8829
▁parade	-11.883
▁Iberian	-11.883
▁bias	-11.883
FOB	-11.8831
▁computational	-11.8833
▁Reid	-11.8833
▁seventeenth	-11.8834
▁ethics	-11.8834
▁logistics	-11.8834
▁ruined	-11.8834
▁flash	-11.8834
▁bin	-11.8835
▁Concerto	-11.8836
▁suppressed	-11.8837
▁discusses	-11.884
▁sociology	-11.884
▁tolerance	-11.884
western	-11.884
▁mile	-11.8841
▁resided	-11.8844
▁lifted	-11.8844
▁Perth	-11.8847
▁Hawk	-11.8848
▁Leader	-11.8852
▁Introduction	-11.8853
ground	-11.8853
▁Marxist	-11.8856
▁Chance	-11.8856
▁Ride	-11.8856
Mr	-11.8857
▁Parisian	-11.8858
▁Jump	-11.8858
cation	-11.8859
▁careers	-11.8862
▁Double	-11.8864
second	-11.8864
Greek	-11.8865
National	-11.8865
October	-11.8865
white	-11.8865
▁Mack	-11.8867
▁pit	-11.8871
Italian	-11.8872
Di	-11.8872
▁extinct	-11.8875
▁Powell	-11.8877
▁Bir	-11.8878
▁rendered	-11.8878
▁Ace	-11.8878
▁Victory	-11.8883
pos	-11.8885
▁happening	-11.8885
▁kids	-11.8887
▁cool	-11.8888
▁Lego	-11.8888
▁z	-11.8891
tt	-11.8892
supporting	-11.8892
▁dinosaurs	-11.8897
▁Renz	-11.8897
▁Lau	-11.8899
▁Budd	-11.8901
yu	-11.8903
▁parameters	-11.8907
▁paramilitar	-11.8907
▁Cry	-11.8909
tory	-11.8909
▁guitars	-11.8912
▁Sak	-11.8916
door	-11.8917
gli	-11.8922
▁authentic	-11.8922
enstein	-11.8926
action	-11.8928
▁Bolsheviks	-11.8929
▁modules	-11.8929
▁Yemen	-11.8933
▁prostitutes	-11.8937
▁Brooks	-11.8939
▁Musical	-11.894
cast	-11.894
ule	-11.8941
eus	-11.895
▁Stop	-11.8955
▁Spin	-11.8956
ssen	-11.8957
left	-11.8957
▁Oh	-11.8959
▁waited	-11.8965
▁Sho	-11.8966
mission	-11.8966
gem	-11.897
▁Locke	-11.8976
▁marrying	-11.8976
hir	-11.8985
CV	-11.8986
▁Bul	-11.8986
▁Joy	-11.8987
▁Een	-11.8988
▁Roma	-11.8989
Car	-11.899
▁Tr	-11.8993
▁Blo	-11.8999
uous	-11.9001
eng	-11.9002
▁rivals	-11.9005
▁audiences	-11.9007
▁Pisa	-11.9007
▁Animals	-11.9008
sea	-11.901
▁emerge	-11.9011
FA	-11.9012
▁fail	-11.9026
▁AIDS	-11.9027
▁qua	-11.903
▁Pul	-11.903
isse	-11.9033
▁containers	-11.9034
▁recognise	-11.9036
▁clinic	-11.9036
▁manual	-11.9038
▁interact	-11.9039
ustainable	-11.9041
▁narrative	-11.9042
▁fault	-11.9044
▁configuration	-11.9044
▁structured	-11.9045
▁icon	-11.9047
▁Trio	-11.905
▁participant	-11.905
▁Ble	-11.9051
▁Hung	-11.9053
▁Alt	-11.9053
▁crystal	-11.9054
hard	-11.9057
▁generalization	-11.9057
▁telescopes	-11.9057
▁Medici	-11.9058
▁translator	-11.9063
Da	-11.9063
▁qualification	-11.9064
▁Av	-11.9065
▁merit	-11.907
wed	-11.9076
▁fossils	-11.9078
▁bearing	-11.9082
▁processor	-11.9089
▁Ron	-11.9089
En	-11.909
▁Marsh	-11.9091
▁MB	-11.9091
▁fr	-11.9091
▁enhance	-11.9091
▁Brother	-11.9096
▁advantages	-11.9096
very	-11.9104
fra	-11.9105
▁Vel	-11.9107
feld	-11.9113
▁ski	-11.9113
▁bomber	-11.9116
▁rocks	-11.9117
▁functioned	-11.912
chen	-11.9121
ffer	-11.9121
▁Cher	-11.9124
▁Americas	-11.9124
rro	-11.9127
▁Goud	-11.913
▁mate	-11.9133
▁Jose	-11.9135
▁loop	-11.9135
oria	-11.9136
RE	-11.9143
▁Wide	-11.9143
▁manifold	-11.9143
▁analog	-11.9143
Pa	-11.9144
▁Lords	-11.9147
▁civilizations	-11.9148
▁lawyers	-11.915
▁advocat	-11.9151
cent	-11.9152
fold	-11.9155
▁requir	-11.9155
▁Than	-11.9156
▁Eva	-11.9157
Rolling	-11.9163
▁inland	-11.9164
▁cycles	-11.9168
▁absorb	-11.917
oro	-11.9172
▁canton	-11.9175
▁AS	-11.9177
away	-11.9178
▁merge	-11.9179
via	-11.918
▁lease	-11.9181
▁Historia	-11.9184
▁Poles	-11.9185
▁Logic	-11.9186
▁finances	-11.9186
bed	-11.9187
▁Vatican	-11.9188
▁Antioch	-11.9189
read	-11.9189
▁elaborate	-11.919
rate	-11.919
▁tutor	-11.9191
mmediately	-11.9191
▁Bartók	-11.9191
▁Depression	-11.9191
▁Ebony	-11.9191
▁Hemingway	-11.9191
▁Jeremy	-11.9191
▁Leibniz	-11.9191
▁Mystery	-11.9191
▁Twenty	-11.9191
▁acquainted	-11.9191
▁chassis	-11.9191
▁nutrition	-11.9191
▁tendencies	-11.9191
▁invading	-11.9191
▁Jehovah	-11.9191
▁Echols	-11.9191
▁Reason	-11.9191
▁surplus	-11.9191
▁Seattle	-11.9191
▁exterior	-11.9191
▁unstable	-11.9191
▁Gödel	-11.9191
▁scoring	-11.9191
▁subspecies	-11.9191
▁Praag	-11.9191
▁Baroque	-11.9191
▁Harvey	-11.9191
▁Botanic	-11.9191
▁Galois	-11.9191
▁tendency	-11.9191
▁Robbie	-11.9191
▁iPhone	-11.9191
▁continuum	-11.9191
▁scout	-11.9191
▁Cavalry	-11.9191
▁liberty	-11.9191
▁reliability	-11.9191
▁Countess	-11.9192
▁Zeeland	-11.9192
▁Xavier	-11.9192
▁Hurrian	-11.9192
▁evacuation	-11.9192
▁Physical	-11.9192
▁geology	-11.9192
▁sums	-11.9192
▁satire	-11.9192
▁secrecy	-11.9192
▁pride	-11.9192
▁María	-11.9192
▁Kyoto	-11.9192
▁shotgun	-11.9192
▁Tyrol	-11.9192
▁Ibrahim	-11.9192
▁rehabilitation	-11.9192
▁presumed	-11.9192
▁Critical	-11.9192
▁lo	-11.9193
▁viral	-11.9193
▁Course	-11.9193
▁Dirk	-11.9193
▁systematically	-11.9193
▁elevated	-11.9193
▁motivation	-11.9193
▁consecrated	-11.9193
▁View	-11.9194
▁Novella	-11.9194
▁chest	-11.9194
▁Bright	-11.9194
▁rediscovered	-11.9194
▁justified	-11.9195
▁environments	-11.9195
▁appreciated	-11.9195
▁ease	-11.9195
▁PSP	-11.9195
▁anywhere	-11.9196
▁Aerospace	-11.9196
▁Boat	-11.9197
▁Gong	-11.9198
▁Evil	-11.9198
▁accidentally	-11.9198
▁richest	-11.9198
▁Cherokee	-11.9198
▁certainty	-11.9199
kamp	-11.9199
▁Dante	-11.9199
▁erupted	-11.92
▁codex	-11.9202
▁Emily	-11.9202
▁Alfa	-11.9203
▁restructuring	-11.9203
▁magician	-11.9204
▁standardized	-11.9204
▁buses	-11.9204
▁Bacon	-11.9204
▁relieved	-11.9204
▁expresses	-11.9205
▁attained	-11.9208
▁sustained	-11.9209
▁Historically	-11.9209
▁Chancellor	-11.9211
▁Murphy	-11.9211
▁HTML	-11.9211
▁sacrificed	-11.9214
▁cure	-11.9214
▁scholarly	-11.9214
▁kiss	-11.9215
nos	-11.9216
▁Mono	-11.9217
▁Goes	-11.922
▁Troy	-11.9221
Divine	-11.9221
▁activism	-11.9223
tie	-11.9223
▁Angkor	-11.9223
▁compliance	-11.9223
▁intensity	-11.9223
▁ladies	-11.9224
▁Esther	-11.9224
▁bedroom	-11.9224
▁Henk	-11.9224
▁Camille	-11.9225
▁Luis	-11.9225
▁protector	-11.9227
▁insane	-11.923
▁remnants	-11.9232
▁Tomorrow	-11.9236
▁Jennifer	-11.9236
though	-11.9238
▁comfortable	-11.9239
denounced	-11.9241
▁anticipated	-11.9242
▁Politics	-11.9242
utical	-11.9246
generation	-11.9247
▁Luna	-11.9248
▁Jam	-11.9248
base	-11.9249
▁Arch	-11.9249
▁BASIC	-11.9249
Turkish	-11.9249
wrote	-11.925
cum	-11.9252
▁convent	-11.9255
numbered	-11.9256
▁comics	-11.9256
▁Sr	-11.9257
▁emperors	-11.9259
▁premises	-11.926
▁Beautiful	-11.9262
▁Lan	-11.9263
▁lit	-11.9264
▁Nga	-11.9266
▁synthetic	-11.9268
▁Floris	-11.9268
authored	-11.9269
beat	-11.9274
▁bureau	-11.9275
▁Legal	-11.9275
▁theatrical	-11.9276
GE	-11.9277
▁Gallic	-11.9278
borg	-11.9278
hoff	-11.9279
▁blocked	-11.9279
▁Sc	-11.9281
▁passages	-11.9284
confined	-11.9285
▁Intel	-11.9286
▁favoured	-11.9289
NP	-11.929
▁Res	-11.9293
▁satellites	-11.9295
▁CH	-11.93
▁pigs	-11.9303
▁revolts	-11.9307
▁Johnston	-11.9308
?)	-11.931
▁genera	-11.9313
▁Archives	-11.9315
▁suffer	-11.9315
mor	-11.9318
▁Stichting	-11.9318
▁arena	-11.9319
aut	-11.9319
▁scores	-11.9321
Land	-11.9322
▁Med	-11.9322
▁PV	-11.9326
▁Bear	-11.9326
▁Kiss	-11.9329
▁Ran	-11.9329
▁su	-11.9331
▁Cave	-11.9332
▁Access	-11.9333
▁Reis	-11.9336
▁NV	-11.9336
▁Homer	-11.9336
▁shareholders	-11.9342
▁accepts	-11.9343
▁Nij	-11.9349
▁terror	-11.9355
▁norms	-11.9359
▁Ming	-11.9359
nell	-11.9369
gas	-11.9372
fort	-11.9374
pper	-11.9377
▁Por	-11.9379
ika	-11.938
▁Weil	-11.9382
Bavarian	-11.9383
▁makers	-11.9384
▁Qing	-11.9385
ld	-11.9386
▁reviewed	-11.9387
▁Text	-11.9387
▁hat	-11.9388
▁Rom	-11.9388
ore	-11.939
shu	-11.9392
Ka	-11.9393
▁Welt	-11.9396
eva	-11.9398
▁Poly	-11.9398
▁Hours	-11.9403
▁tough	-11.9407
ably	-11.9408
eld	-11.941
▁vs	-11.9412
ids	-11.9413
cca	-11.9414
▁proportional	-11.9415
▁Strike	-11.9417
hausen	-11.9421
▁generate	-11.9422
▁criminals	-11.9423
▁guerrilla	-11.9426
lecommunications	-11.9428
▁hurricane	-11.9429
▁compar	-11.9429
▁lesbian	-11.9429
▁Birds	-11.943
▁oral	-11.9431
▁inverse	-11.9432
▁saint	-11.9433
▁Sister	-11.9435
logical	-11.9435
▁Estate	-11.9437
▁paths	-11.9439
▁Hurricane	-11.9446
▁ordering	-11.9446
▁cannon	-11.9446
sburg	-11.9447
▁Senators	-11.9447
▁thank	-11.9452
cc	-11.9458
gat	-11.9458
▁Vis	-11.9458
loo	-11.9459
▁Sven	-11.9461
aert	-11.9462
▁heirs	-11.9464
plane	-11.9465
▁Walt	-11.9465
leen	-11.9473
▁Normal	-11.9473
oo	-11.9476
▁Edwards	-11.9478
▁uniforms	-11.9481
▁chronic	-11.9481
tini	-11.9482
▁Laurent	-11.9484
▁Nat	-11.9484
▁CR	-11.9484
tell	-11.9484
phy	-11.9487
▁Album	-11.9487
▁skeptic	-11.9487
▁invariant	-11.949
▁Kil	-11.949
music	-11.9493
atory	-11.9493
rm	-11.9494
▁Led	-11.9495
▁Alpin	-11.9497
▁Shot	-11.9497
▁Kris	-11.9503
▁mistakes	-11.9503
▁crews	-11.9508
▁Directors	-11.9508
▁projected	-11.9513
▁EX	-11.9514
▁destinations	-11.9514
det	-11.9517
lov	-11.9518
ces	-11.9519
▁Kre	-11.9522
▁extensions	-11.9523
▁provider	-11.9525
rang	-11.9531
burgh	-11.9531
▁Deng	-11.9532
▁burden	-11.9535
being	-11.9536
▁atmospher	-11.954
▁Chen	-11.954
▁exchanges	-11.9543
▁lion	-11.9547
WF	-11.9547
▁neighbors	-11.9548
hood	-11.955
▁Solar	-11.9552
unk	-11.9554
▁Cy	-11.9555
▁toll	-11.9556
rim	-11.9557
Arab	-11.9557
▁provoke	-11.956
▁consume	-11.9562
▁joy	-11.9563
cur	-11.9563
aria	-11.9564
▁diagonal	-11.9565
▁Ultimate	-11.9566
▁Recent	-11.9567
▁Basic	-11.9567
▁nineteen	-11.9568
▁finale	-11.9569
▁Diet	-11.9569
▁shallow	-11.957
▁excess	-11.9571
▁auspic	-11.9573
▁Sig	-11.9573
▁Covenant	-11.9574
▁clarinet	-11.9575
▁Norfolk	-11.9575
▁Detroit	-11.9576
▁Embassy	-11.9576
▁Judaism	-11.9576
▁Malcolm	-11.9576
▁McCormick	-11.9576
▁Regulation	-11.9576
▁Rüdiger	-11.9576
▁Stilicho	-11.9576
▁biographies	-11.9576
▁captivity	-11.9576
▁desirable	-11.9576
▁elegant	-11.9576
▁iTunes	-11.9576
▁melody	-11.9576
▁monastic	-11.9576
▁pursuing	-11.9576
▁synagogue	-11.9576
▁unnecessary	-11.9576
▁wizard	-11.9576
▁crises	-11.9576
▁unaware	-11.9576
▁Katumbi	-11.9576
▁Twain	-11.9576
▁cemeteries	-11.9576
▁pornographic	-11.9576
▁steadily	-11.9576
▁cheese	-11.9576
▁genome	-11.9576
▁Brotherhood	-11.9576
▁Castile	-11.9576
▁forensic	-11.9576
▁mobility	-11.9576
▁suspension	-11.9576
▁Merchant	-11.9576
▁Reconstruction	-11.9576
▁demolition	-11.9576
▁disappointment	-11.9576
▁duration	-11.9576
▁Edwin	-11.9576
▁portfolio	-11.9576
▁Everett	-11.9576
▁Trinity	-11.9576
▁Phantom	-11.9576
▁Huntington	-11.9576
▁Philharmonic	-11.9576
▁harbor	-11.9576
▁orphanage	-11.9576
▁unfinished	-11.9576
▁Lambert	-11.9576
▁Compagnie	-11.9576
▁Motorsport	-11.9576
▁Converse	-11.9576
▁Leslie	-11.9576
▁Annual	-11.9577
▁carved	-11.9577
▁spectacular	-11.9577
▁stance	-11.9577
▁Khmer	-11.9577
▁recognizable	-11.9577
▁sitcom	-11.9577
▁Martha	-11.9577
▁uncertainty	-11.9577
▁Verona	-11.9577
▁Creation	-11.9577
▁worried	-11.9577
▁MSX	-11.9577
▁frozen	-11.9577
▁geologist	-11.9577
▁disappointed	-11.9577
▁beside	-11.9577
▁Lucius	-11.9578
▁Hoover	-11.9578
▁Siege	-11.9578
▁paved	-11.9578
▁competent	-11.9578
▁ordained	-11.9578
▁Strait	-11.9578
▁Overall	-11.9579
▁XIII	-11.9579
▁maiden	-11.958
▁gear	-11.958
▁personalities	-11.958
▁Drug	-11.958
sma	-11.9581
▁Christine	-11.9581
▁reasoning	-11.9581
▁Cesare	-11.9581
▁telegraph	-11.9583
big	-11.9583
▁Burzynski	-11.9583
▁Nickelodeon	-11.9583
▁Oklahoma	-11.9583
▁cruel	-11.9583
autobiographical	-11.9584
▁directive	-11.9584
▁Cab	-11.9585
▁Sharon	-11.9585
▁realise	-11.9585
▁Agnes	-11.9585
tle	-11.9585
▁Racer	-11.9586
▁Thebes	-11.9586
▁Antarctica	-11.9587
core	-11.9589
▁attested	-11.9589
▁Bernhard	-11.9589
dor	-11.9589
▁Multi	-11.9589
▁Avengers	-11.959
▁stretch	-11.9592
▁Bosnian	-11.9593
▁soap	-11.9593
▁exhausted	-11.9593
▁supervised	-11.9594
▁occasional	-11.9595
▁Secular	-11.9595
▁pretty	-11.9596
▁Different	-11.9596
▁wolves	-11.9596
▁detachment	-11.9597
Un	-11.9598
bal	-11.9598
▁Vikings	-11.9599
present	-11.96
▁Dame	-11.96
▁abused	-11.96
speed	-11.9603
▁altered	-11.9603
▁proceeded	-11.9604
▁tunnels	-11.9605
▁maybe	-11.9606
▁chat	-11.9607
▁spectators	-11.9607
▁CC	-11.9608
▁landowners	-11.9609
▁Knowledge	-11.9609
▁psychic	-11.961
mut	-11.961
▁fulfilled	-11.961
▁intimate	-11.9612
▁Heavy	-11.9613
nalogous	-11.9619
▁Proto	-11.962
▁Opéra	-11.9623
▁nowadays	-11.9623
wen	-11.9623
ST	-11.9623
▁Parks	-11.9623
▁Sugar	-11.9624
▁exceeded	-11.9624
▁horn	-11.9624
▁accidents	-11.9625
▁Engineers	-11.9625
nk	-11.9625
word	-11.9625
ht	-11.9626
▁Cam	-11.963
▁preserv	-11.963
▁Dana	-11.9636
▁soprano	-11.9636
▁Comité	-11.9636
▁bone	-11.9638
▁Hor	-11.964
▁Mala	-11.9644
▁Fé	-11.9646
▁debated	-11.9647
literally	-11.9647
▁Uni	-11.9647
six	-11.9649
Holland	-11.9649
song	-11.9649
version	-11.9649
Great	-11.965
Royal	-11.965
British	-11.965
director	-11.965
▁honoured	-11.9651
gro	-11.9652
▁carriages	-11.9653
▁Ker	-11.9661
text	-11.9662
mine	-11.9662
▁Yard	-11.9663
TE	-11.9663
both	-11.9664
▁Theodore	-11.9664
NG	-11.9665
camp	-11.9665
▁Unity	-11.9666
boats	-11.9667
▁wor	-11.9669
ort	-11.9671
▁Chu	-11.9672
▁Antoine	-11.9675
▁SCI	-11.9677
mina	-11.9677
▁shoe	-11.9678
▁talked	-11.9678
▁Wan	-11.968
▁Parade	-11.968
▁Mine	-11.9681
eta	-11.9682
▁professors	-11.9683
▁Jesuits	-11.9687
Abdu	-11.969
▁smuggle	-11.969
▁Sean	-11.9694
yon	-11.9697
▁bottles	-11.9706
▁bow	-11.9706
▁Cove	-11.9708
▁threatening	-11.9709
test	-11.971
▁Letters	-11.971
Ex	-11.971
▁Blind	-11.9711
position	-11.9714
▁Nieuw	-11.9715
▁commentators	-11.9715
▁Sweet	-11.9716
▁eggs	-11.9717
DP	-11.9719
▁generators	-11.9719
▁Fro	-11.972
mbo	-11.9723
▁Rot	-11.9723
ati	-11.9725
AC	-11.9726
▁trivial	-11.973
MT	-11.9731
ender	-11.9732
▁promoter	-11.9735
power	-11.9735
▁egg	-11.9736
▁demons	-11.9743
enne	-11.9744
bou	-11.9747
▁α	-11.9747
▁ambassadors	-11.9747
pra	-11.9748
▁ro	-11.9751
ori	-11.9752
▁behave	-11.9756
ash	-11.9756
▁App	-11.9757
▁hosting	-11.9764
tern	-11.9764
▁Mint	-11.9765
▁Rus	-11.9766
chu	-11.9767
▁Est	-11.9771
▁Bavaria	-11.9773
saurus	-11.9774
▁cry	-11.9774
▁chant	-11.9775
▁halls	-11.9776
lat	-11.9778
▁Yan	-11.9778
▁aiming	-11.978
SD	-11.9781
▁Vita	-11.9786
bb	-11.9792
▁Standards	-11.9798
▁Vos	-11.9801
▁Loch	-11.9808
eight	-11.9809
▁recall	-11.9812
▁Commons	-11.9819
▁inventions	-11.9819
▁formations	-11.9823
tai	-11.9823
▁pagan	-11.9825
▁upgrade	-11.9827
▁revelation	-11.9827
▁pipeline	-11.9827
▁Judge	-11.9829
▁sunk	-11.9829
▁conversations	-11.983
▁polynomial	-11.983
▁aristocrat	-11.9832
▁commentator	-11.9833
▁Giant	-11.9835
▁descendant	-11.9835
▁filmmaker	-11.9837
▁Egyptians	-11.9838
▁Bab	-11.9843
▁burn	-11.9851
▁hears	-11.9857
meer	-11.9859
▁static	-11.986
▁assert	-11.9861
▁Path	-11.9861
EL	-11.9863
mal	-11.9863
▁boards	-11.9863
onian	-11.9865
▁symbolize	-11.9877
▁Fran	-11.9879
▁ensu	-11.9887
DC	-11.9887
▁socially	-11.9891
▁directions	-11.9891
▁arch	-11.9892
▁metro	-11.9896
▁Shop	-11.9897
IT	-11.9899
oke	-11.99
▁troubles	-11.9901
▁dealer	-11.9902
▁Moto	-11.9903
▁Made	-11.9903
▁chip	-11.9907
zur	-11.9908
▁riot	-11.9915
▁pressing	-11.9922
▁Need	-11.9925
▁Powers	-11.9925
▁token	-11.9927
▁Mecca	-11.9932
▁counsel	-11.9932
drop	-11.9934
▁Mail	-11.9939
▁satisfy	-11.9941
▁manifest	-11.9943
▁commissions	-11.9944
▁compris	-11.9944
▁reader	-11.995
▁disrupt	-11.995
▁Sil	-11.9953
▁halt	-11.9956
▁Jar	-11.9957
▁bas	-11.9957
▁qualify	-11.9963
ude	-11.9965
▁Subsequent	-11.9966
▁drinks	-11.9967
▁spare	-11.9968
▁instant	-11.9968
▁disciplines	-11.9971
ition	-11.9971
lich	-11.9972
▁impli	-11.9973
▁teenage	-11.9973
▁fabric	-11.9974
▁Benedict	-11.9975
▁Cannon	-11.9975
▁Euclid	-11.9976
▁Alabama	-11.9976
▁Bonaparte	-11.9976
▁Chaucer	-11.9976
▁Enschede	-11.9976
▁Lyceum	-11.9976
▁Shirley	-11.9976
▁Tribunal	-11.9976
▁Wehrmacht	-11.9976
▁beneficial	-11.9976
▁circus	-11.9976
▁collaborative	-11.9976
▁curriculum	-11.9976
▁harmony	-11.9976
▁nonetheless	-11.9976
▁terminology	-11.9976
▁unhappy	-11.9976
▁Above	-11.9976
▁blank	-11.9976
▁nucleus	-11.9976
▁Bourbon	-11.9976
▁demise	-11.9976
▁honest	-11.9976
▁shogunate	-11.9976
▁Telegraph	-11.9976
▁Café	-11.9976
▁jungle	-11.9976
▁discourse	-11.9976
▁vague	-11.9976
▁treason	-11.9976
▁Harbour	-11.9976
▁Pablo	-11.9976
▁Trudy	-11.9976
▁diagnostic	-11.9976
▁miniseries	-11.9976
▁Ladislaus	-11.9976
▁SEAT	-11.9976
▁circumcision	-11.9976
▁generic	-11.9976
▁vegetation	-11.9976
▁forgiveness	-11.9976
▁Jenny	-11.9976
▁Wife	-11.9976
▁urgent	-11.9976
▁Sofia	-11.9976
▁Bailey	-11.9976
▁array	-11.9976
▁devote	-11.9976
▁Principality	-11.9977
▁Zhang	-11.9977
▁urging	-11.9977
▁Enix	-11.9977
▁nationwide	-11.9977
▁Saturn	-11.9977
▁Marianne	-11.9977
▁Remember	-11.9977
▁Nancy	-11.9977
▁remake	-11.9977
▁dramatically	-11.9977
▁Virus	-11.9978
▁endangered	-11.9979
▁RCA	-11.9979
beek	-11.998
▁Cro	-11.998
care	-11.998
▁enforce	-11.998
▁vain	-11.998
▁devil	-11.9981
▁Extra	-11.9981
▁Fritz	-11.9982
▁confessed	-11.9982
▁Irene	-11.9982
▁ministerial	-11.9983
▁Thereafter	-11.9983
▁nationally	-11.9983
▁Guatemala	-11.9984
▁Scheveningen	-11.9984
▁Zimbabwe	-11.9984
▁Klöckner	-11.9984
▁appreciation	-11.9984
▁outlined	-11.9984
▁successive	-11.9984
▁belt	-11.9985
▁Karen	-11.9986
▁spared	-11.9987
▁thoroughly	-11.9987
▁CoR	-11.9988
▁embarked	-11.9988
▁mad	-11.9988
▁Sexual	-11.9988
▁Winston	-11.9989
▁Goodman	-11.9989
▁floating	-11.9991
▁Colonies	-11.9991
▁discharged	-11.9991
▁blend	-11.9992
removing	-11.9993
▁helium	-11.9993
due	-11.9995
▁uncommon	-11.9996
▁Romantic	-11.9997
▁Accademi	-11.9997
FC	-11.9997
▁Patricia	-11.9998
▁Cecilia	-11.9998
▁deploy	-11.9999
▁formulation	-12.0002
▁sealed	-12.0002
▁Sab	-12.0002
Académie	-12.0002
▁Johanna	-12.0003
▁Kerk	-12.0003
▁feudal	-12.0005
▁thin	-12.0005
▁Lanka	-12.0006
▁Wit	-12.0006
▁weaker	-12.0008
▁peacefully	-12.0008
▁recounts	-12.0009
▁deities	-12.0009
sided	-12.001
▁Swan	-12.001
▁Rijks	-12.0012
dit	-12.0013
▁deeds	-12.0015
▁relics	-12.0015
▁ranking	-12.0019
▁erotic	-12.0024
▁assured	-12.0024
▁Gerald	-12.0024
▁Journey	-12.0025
▁Perfect	-12.0025
▁Quality	-12.0025
▁Hulk	-12.0025
▁miners	-12.0025
▁correlation	-12.0025
▁guides	-12.0026
▁Writers	-12.0026
▁referee	-12.0029
▁Pieces	-12.003
▁Mae	-12.003
▁rebuilding	-12.0038
▁Syracusans	-12.0038
▁Germania	-12.0038
▁gauge	-12.0039
▁Mick	-12.0039
▁rue	-12.004
num	-12.004
lé	-12.0045
half	-12.0046
▁Cinema	-12.0047
▁com	-12.0049
▁Mons	-12.0052
▁seal	-12.0052
▁fascist	-12.0053
stro	-12.0053
▁deny	-12.0054
▁Armenians	-12.0054
▁forget	-12.0055
▁Sing	-12.0056
▁Gods	-12.0057
▁mixing	-12.0057
craft	-12.0057
▁thinkers	-12.0058
▁Kant	-12.0059
▁Nice	-12.0062
▁Comp	-12.0063
controlled	-12.0064
building	-12.0065
▁originates	-12.0065
▁Tata	-12.0066
Hungary	-12.0066
divided	-12.0066
White	-12.0066
Swedish	-12.0066
▁Everything	-12.0066
▁Kay	-12.0067
▁Rule	-12.0068
ianus	-12.0069
originally	-12.0071
Paul	-12.0073
▁ascend	-12.0075
▁souls	-12.0077
▁Sh	-12.0077
▁forth	-12.008
▁vow	-12.008
▁Bald	-12.0081
isi	-12.0084
rise	-12.0086
link	-12.0089
▁Meet	-12.0091
tended	-12.0093
▁Tale	-12.0095
East	-12.0096
▁Beth	-12.0097
▁Singles	-12.0098
▁teenagers	-12.0098
minded	-12.0099
dengue	-12.0102
▁Tok	-12.0118
▁depended	-12.012
▁fed	-12.0123
▁Stand	-12.0125
▁Apo	-12.0125
▁besides	-12.0128
▁Branch	-12.0129
▁Pot	-12.013
gil	-12.0131
osa	-12.0136
▁chronicles	-12.0138
▁Loo	-12.014
phi	-12.0142
▁mal	-12.0143
▁sporting	-12.0158
▁specifications	-12.0158
ctor	-12.0158
▁opus	-12.0159
weight	-12.0162
▁Ars	-12.0167
RR	-12.0168
▁bits	-12.0169
GM	-12.017
ashi	-12.0171
kk	-12.0171
▁Schools	-12.0172
▁myths	-12.0173
att	-12.0177
▁positioned	-12.018
▁Arm	-12.0182
functions	-12.0182
▁Sas	-12.0184
anne	-12.0185
én	-12.0193
▁natives	-12.0193
enko	-12.0194
▁Dé	-12.0194
OT	-12.0199
amba	-12.0208
iano	-12.0209
ech	-12.0211
▁Ou	-12.0214
▁Fin	-12.0217
▁upset	-12.0217
▁expenses	-12.0217
EN	-12.022
▁relie	-12.0222
▁Lem	-12.0222
▁prevail	-12.0223
rack	-12.0224
▁Prof	-12.0226
▁hunters	-12.0235
▁illustrate	-12.0235
▁declare	-12.0237
rage	-12.0238
privileged	-12.0239
▁generator	-12.024
▁trail	-12.024
öl	-12.0241
AR	-12.0243
▁Athletic	-12.0244
▁email	-12.0245
▁ecosystem	-12.0246
▁instructor	-12.0246
▁Manga	-12.0249
▁textbook	-12.0249
▁distributor	-12.0249
▁owe	-12.025
▁creature	-12.025
Ge	-12.0251
,”	-12.0252
▁Pri	-12.0252
host	-12.0253
▁monograph	-12.0254
ngel	-12.0254
optic	-12.0255
▁encompass	-12.0255
ega	-12.0256
mph	-12.026
AL	-12.026
▁Audi	-12.026
RO	-12.0266
▁Lil	-12.027
lick	-12.0282
iers	-12.0288
▁Yoshi	-12.0289
▁Associate	-12.0291
▁integer	-12.0291
▁demonstrat	-12.0294
▁Mach	-12.0294
▁strings	-12.0296
▁suspects	-12.0297
▁Mag	-12.0297
▁defender	-12.0298
▁holidays	-12.0302
RV	-12.0302
▁demon	-12.0307
▁Alma	-12.0307
▁govern	-12.0308
lau	-12.0311
Jan	-12.0321
▁Az	-12.0323
▁insist	-12.0325
body	-12.0327
ucci	-12.0332
nine	-12.0333
▁Thing	-12.0342
rell	-12.0345
▁pot	-12.0353
stage	-12.0353
▁Kok	-12.0355
▁Saxon	-12.0356
pec	-12.0358
▁females	-12.0359
▁Letter	-12.0359
▁seller	-12.0365
▁adverse	-12.0366
sia	-12.0367
▁prints	-12.0367
Net	-12.0369
wer	-12.037
▁boycott	-12.0371
▁Yugoslav	-12.0371
▁shell	-12.0371
▁neglect	-12.0371
▁counterattack	-12.0372
escu	-12.0374
▁issu	-12.0375
▁alert	-12.0376
▁SF	-12.0377
▁retire	-12.0382
▁evolve	-12.0382
▁furious	-12.0382
▁Iberia	-12.0383
▁Samoa	-12.0383
▁excessive	-12.0383
▁purchas	-12.0384
▁jealous	-12.0384
▁Anatolia	-12.0386
▁fresco	-12.0389
▁steep	-12.0391
▁televis	-12.0392
▁immortal	-12.0392
▁Beauregard	-12.0393
▁Bernoulli	-12.0393
▁Cossack	-12.0393
▁Dmitry	-12.0393
▁Kentucky	-12.0393
▁Literary	-12.0393
▁MHz	-12.0393
▁Pittsburgh	-12.0393
▁Quevedo	-12.0393
▁Shepherd	-12.0393
▁Sheridan	-12.0393
▁Thracian	-12.0393
▁Vergennes	-12.0393
▁abundant	-12.0393
▁apparatus	-12.0393
▁baroque	-12.0393
▁bilateral	-12.0393
▁declining	-12.0393
▁disabilities	-12.0393
▁disastrous	-12.0393
▁enthusiasm	-12.0393
▁gravity	-12.0393
▁inevitable	-12.0393
▁petroleum	-12.0393
▁unemployed	-12.0393
▁unwilling	-12.0393
▁Eusebius	-12.0393
▁dairy	-12.0393
▁Carnival	-12.0393
▁rumour	-12.0393
▁Michelangelo	-12.0393
▁Ricardo	-12.0393
▁Samsung	-12.0393
▁Psychology	-12.0393
▁Hellenistic	-12.0393
▁pocket	-12.0393
▁wolf	-12.0393
▁Rainbow	-12.0393
▁Beatrix	-12.0393
▁Kells	-12.0393
▁satisfaction	-12.0393
▁Karel	-12.0393
▁conscience	-12.0393
Alejandro	-12.0393
▁McMahon	-12.0393
▁Opposition	-12.0393
▁confinement	-12.0393
▁Sophia	-12.0393
▁Waterloo	-12.0393
▁proclamation	-12.0393
▁Hayles	-12.0393
▁Todd	-12.0393
▁prevalent	-12.0393
▁Casino	-12.0393
▁safeguard	-12.0393
▁offshore	-12.0393
▁Medina	-12.0393
▁Aspasia	-12.0393
▁Anglican	-12.0393
▁specify	-12.0393
▁imagination	-12.0393
▁Honorius	-12.0393
▁healthcare	-12.0393
▁Panther	-12.0394
▁earthquakes	-12.0394
▁Eliza	-12.0394
▁Jesse	-12.0394
▁preface	-12.0394
▁truce	-12.0394
▁Jensen	-12.0394
▁Elena	-12.0394
▁Tonight	-12.0394
▁Ellie	-12.0394
▁Fischer	-12.0395
▁modify	-12.0395
▁bridgehead	-12.0395
▁affordable	-12.0395
▁slight	-12.0396
▁educate	-12.0396
▁renewal	-12.0396
▁computing	-12.0396
▁Prefecture	-12.0396
▁evaluate	-12.0397
▁disposal	-12.0397
operative	-12.0397
▁Cargo	-12.0397
▁Veteran	-12.0398
Connor	-12.0398
▁consolidated	-12.0398
▁nonprofit	-12.0398
▁postponed	-12.0399
▁judgement	-12.0399
brook	-12.0399
▁enacted	-12.0399
▁Compar	-12.04
▁Ivy	-12.04
▁NL	-12.0401
▁Minnesota	-12.0401
▁Saxony	-12.0401
▁Weekend	-12.0401
▁pastoral	-12.0402
▁prevention	-12.0403
▁testify	-12.0404
▁favourable	-12.0404
▁penal	-12.0404
▁businessmen	-12.0405
▁neur	-12.0407
▁versa	-12.0408
wireless	-12.0408
flux	-12.0408
▁Austrians	-12.0409
▁Palmer	-12.0412
▁dangers	-12.0412
▁electromagnet	-12.0413
tting	-12.0413
▁Peak	-12.0414
▁pleased	-12.0414
▁mistress	-12.0415
▁Beyond	-12.0415
▁Biblical	-12.0415
▁Mussolini	-12.0415
▁knife	-12.0415
▁Visser	-12.0415
▁Maltese	-12.0415
▁armament	-12.0416
▁regulate	-12.0417
▁riding	-12.0417
▁Rider	-12.042
▁MD	-12.0422
▁generalized	-12.0422
aya	-12.0423
Neill	-12.0423
▁Patriarch	-12.0429
▁transparent	-12.0429
▁Manfred	-12.0429
▁trafficking	-12.043
▁explosions	-12.0431
▁underway	-12.0431
▁Ground	-12.0431
try	-12.0431
Na	-12.0432
▁activated	-12.0432
MO	-12.0434
▁cooking	-12.0434
▁Gru	-12.0434
fried	-12.0435
▁safely	-12.0437
▁objections	-12.044
▁NS	-12.0443
▁circa	-12.0443
EM	-12.0444
▁Bee	-12.0446
▁armoured	-12.045
▁Caz	-12.0451
▁alcoholic	-12.0452
track	-12.0456
▁emblem	-12.0463
bad	-12.0465
▁crashed	-12.0466
▁infrared	-12.0466
Armoured	-12.0466
▁Zuid	-12.0467
▁los	-12.0469
CE	-12.0469
▁Rem	-12.0469
▁Sum	-12.0471
▁Save	-12.0473
urs	-12.0474
▁unusually	-12.0476
▁Geert	-12.0478
raz	-12.0478
quality	-12.0479
▁hunt	-12.048
▁ICA	-12.0482
▁critically	-12.0484
AP	-12.0492
▁Mask	-12.0494
what	-12.0495
compatible	-12.0498
Point	-12.0499
▁bells	-12.0499
flow	-12.05
▁stick	-12.05
▁Woods	-12.05
figure	-12.0501
Soviet	-12.0501
Jewish	-12.0501
sometimes	-12.0501
people	-12.0501
South	-12.0501
▁strand	-12.0502
Islamic	-12.0502
”)	-12.0506
▁divert	-12.0506
▁Balkans	-12.0507
▁Spe	-12.0507
▁calculations	-12.0507
Louis	-12.0508
current	-12.0508
▁screening	-12.0509
Super	-12.0511
▁journeys	-12.0514
▁Ale	-12.0517
▁cameo	-12.0517
▁polar	-12.0518
▁puts	-12.0523
▁inscribed	-12.0526
▁Mago	-12.0526
cs	-12.0526
best	-12.0527
▁Adrian	-12.0529
▁succeeding	-12.053
▁Recordings	-12.0532
▁Cool	-12.0533
▁pin	-12.0533
▁Tropic	-12.0534
▁routed	-12.0535
▁Vor	-12.054
played	-12.0541
▁Marker	-12.0544
{\	-12.0544
▁asserts	-12.0545
▁feat	-12.0547
▁Sav	-12.0548
▁consult	-12.0549
▁Hop	-12.0551
▁searched	-12.0555
rio	-12.0555
linear	-12.0556
pat	-12.056
▁Boer	-12.056
▁minerals	-12.0563
kos	-12.0565
bury	-12.0567
▁icons	-12.057
▁Ple	-12.057
▁addressing	-12.0572
▁Lands	-12.0576
VP	-12.0582
lag	-12.0588
spired	-12.0589
▁rises	-12.059
fest	-12.059
card	-12.0592
Ba	-12.0594
▁barriers	-12.0594
▁electrons	-12.0595
NC	-12.0596
▁targeting	-12.0598
▁Theodor	-12.06
▁urge	-12.06
vé	-12.0601
▁Dock	-12.0604
laying	-12.0606
▁counterparts	-12.0613
▁reflections	-12.0614
MB	-12.0616
hun	-12.0619
▁associates	-12.0621
aving	-12.0621
ates	-12.0622
▁Democrats	-12.0624
▁Myth	-12.0624
▁murderer	-12.0625
ake	-12.0626
▁updates	-12.0627
▁Andreas	-12.0633
▁Ost	-12.0646
▁Pin	-12.0649
▁bottle	-12.0652
▁Brook	-12.0654
died	-12.0655
▁robot	-12.0659
▁bind	-12.0659
▁Liberia	-12.066
▁knight	-12.0663
▁Lip	-12.0664
ular	-12.0664
Her	-12.0665
▁Nie	-12.0669
▁aside	-12.0671
▁Laws	-12.0671
▁Settlement	-12.0676
▁lodge	-12.0678
▁analyst	-12.0678
SP	-12.0679
▁quarrel	-12.0679
▁psychiatrist	-12.068
▁illusion	-12.068
▁browser	-12.068
▁Figure	-12.0681
▁enzyme	-12.0681
▁astronaut	-12.0681
▁airplane	-12.0682
▁pamphlet	-12.0682
▁bullet	-12.0683
▁Patriot	-12.0683
▁interval	-12.0683
▁mutant	-12.0683
▁turbine	-12.0683
▁disagreement	-12.0683
▁Paper	-12.0684
▁concession	-12.0685
▁indicator	-12.0686
▁prohibition	-12.0686
▁reactor	-12.0687
▁reside	-12.0687
▁Fast	-12.0689
▁Archive	-12.0691
▁Comic	-12.0692
▁arises	-12.0694
▁Hof	-12.0695
▁peer	-12.0696
▁receiver	-12.0699
▁Moss	-12.07
tani	-12.0702
▁chicken	-12.0703
▁recipient	-12.0705
nh	-12.0708
▁Angels	-12.072
DO	-12.0722
▁Track	-12.0726
▁Lamb	-12.0729
▁Combin	-12.073
urban	-12.073
▁broadcaster	-12.0736
night	-12.0739
gged	-12.0742
▁Zon	-12.0747
▁Recording	-12.0749
▁tube	-12.0749
▁heading	-12.075
▁Tro	-12.0751
▁Abe	-12.0751
▁Pers	-12.0752
▁campaigning	-12.0754
▁Bros	-12.0757
▁rhetoric	-12.0761
▁backgrounds	-12.0762
▁codename	-12.0766
Sha	-12.0768
▁descend	-12.0768
laan	-12.0769
▁surround	-12.0772
▁revert	-12.0776
das	-12.0781
▁Din	-12.0781
▁squadrons	-12.079
▁Frey	-12.0792
elen	-12.0794
▁clans	-12.0797
rated	-12.0801
ties	-12.0802
▁distress	-12.0805
▁proclaim	-12.0806
▁abolish	-12.0806
▁armour	-12.0807
seat	-12.081
Su	-12.0814
▁Hyper	-12.0814
▁interfere	-12.0816
▁brutal	-12.0816
▁nominal	-12.0817
GS	-12.0817
▁Gregorian	-12.0818
▁Bomb	-12.0819
▁dynast	-12.082
▁Burma	-12.0822
▁Cell	-12.0825
▁exam	-12.0825
▁Inspector	-12.0826
▁investigati	-12.0826
▁Münster	-12.0827
▁Bethlehem	-12.0827
▁Bulgakov	-12.0827
▁FSMA	-12.0827
▁Galileo	-12.0827
▁Huxley	-12.0827
▁Jagger	-12.0827
▁Kamakura	-12.0827
▁Nanninga	-12.0827
▁Relief	-12.0827
▁allegiance	-12.0827
▁deficit	-12.0827
▁faculties	-12.0827
▁measuring	-12.0827
▁negotiating	-12.0827
▁practicing	-12.0827
▁proprietary	-12.0827
▁schizophrenia	-12.0827
▁solving	-12.0827
▁Castilian	-12.0827
▁GNU	-12.0827
▁Twelve	-12.0827
▁clerk	-12.0827
[...]
